#ifndef WEIGHTS_H
#define WEIGHTS_H
#include <stdint.h>

const uint32_t weights_l1[16000] = {
    0x97AB4817, 0xC94FF177, 0xB23583B7, 0x173D97F7, 0x7C6F890C, 0x81C8F942, 0x928F693B, 0x39C757DA, 0x9E6253EE, 0xE09D9E2F, 0x061917F4, 0x86849D20, 0x7625D63F, 0x83FC30B5, 0x2BBB7D5F, 0x0DA18DF5, 0x77170A35, 0xF2DDF0B1, 0x3C015DB4, 0x6A51BCF2, 0x1B76674E, 0xC4F8023A, 0x96E803B0, 0xED214C92, 0x2C590000,
    0x710042BE, 0x8D11BE7F, 0x5E601F16, 0x577D837F, 0xCFF32167, 0xFB8843FC, 0xEA0CBC46, 0x609202E2, 0x0FC1165B, 0x80D04805, 0xBE6FE8DF, 0x701105A6, 0xA1CF6620, 0x71A1782F, 0x5DC481D5, 0xFADFD7BF, 0xEE929A9C, 0x6F7E90D8, 0xCBFAC099, 0xBD3BB4BF, 0x9B48808D, 0xCFFF67E3, 0x107F9BFF, 0xBDBD7570, 0x0AB80000,
    0x5D0910A8, 0x4BDCAAEF, 0xFBAD6E1C, 0xC8C668E0, 0x04982F68, 0x796094BE, 0xFA94B7A1, 0x5B81FF76, 0x9BBFDCDF, 0x42086FAF, 0x4012D1A0, 0x007BF421, 0x077019D0, 0x3E02E297, 0x803F80F7, 0x0FD6AEF1, 0x34AE747B, 0xED44A76E, 0xA7ED0EF9, 0x9C95B35E, 0xCCF6DF8F, 0x0A7832CB, 0x17FD68C0, 0xFC7173B3, 0x75C30000,
    0x9DA98309, 0x139077EB, 0xAA773667, 0xBF334CA7, 0xD04B307E, 0x459303C0, 0x03FBBC21, 0x5FE7C31D, 0xDC38004A, 0x07820583, 0xE03920F8, 0x0F100F22, 0xD302D0DE, 0x023C8761, 0x27DBD787, 0x129B2856, 0xAC07A556, 0xA2199BB7, 0x236C828D, 0x3973CAC7, 0x172F97F0, 0x8FE71F64, 0xADE14440, 0x04238E66, 0xD85D0000,
    0x36100E89, 0xB5FED27F, 0xEFEA6A67, 0x90394776, 0x23F03728, 0xE08FC005, 0x7A3C1BC7, 0x11C87FE4, 0x9C35DEE3, 0xC22EF24C, 0x381F79E1, 0x3A4A6C81, 0x83E6FC80, 0x1F870004, 0x047A103D, 0x8FA07CFC, 0xCF467EDB, 0x9A37E7A4, 0xC442316B, 0x9F9BDFDE, 0xCFEE3BFF, 0xA16C7D2A, 0x29D36A88, 0x01579AC0, 0x691F0000,
    0xD2918BFA, 0x9E761523, 0x5D002750, 0x08B8CE00, 0x02314D5D, 0x21DEDF36, 0x738EBD3C, 0x397BFDDE, 0xE7DD2FEE, 0x2CFC5A59, 0xCCC6C1FD, 0xD2B310D8, 0xCEEB42F2, 0x49732CCA, 0xA3FDAB60, 0xFF5C60C6, 0xE9011C00, 0x4C054304, 0xC02E6CCC, 0x12DF1182, 0x3E462C30, 0x51A28313, 0xF7DE8A29, 0xDFEF3AFA, 0x0F180000,
    0x2FACDBE1, 0x7F6EF5C0, 0x1B2222FF, 0x3C8507F7, 0xFBE8FC5F, 0x30FC5CD1, 0xBFFFBFC0, 0xE4A86E34, 0x8007E362, 0x087A5340, 0x03E0C248, 0xA8429007, 0xA24E2F34, 0x67880719, 0x3E287F01, 0xA015AC96, 0xA1706FB8, 0xE047C6FF, 0x817337E9, 0x5F41DDBD, 0xE12DD73C, 0x9ED1E386, 0x9EC26FCB, 0xDDE7A1D0, 0xF1F80000,
    0xEEAD68ED, 0xECF2F741, 0xADF5E631, 0xCEDBBF95, 0xC38B7EBB, 0x014581AD, 0x00563226, 0xF5E31136, 0x956D87E9, 0xCF6B7E18, 0xE8F3703F, 0xEF867516, 0x4CD4F9AD, 0x1CDF9EFC, 0xF6D78FC3, 0xAE1D10E5, 0x536D4100, 0xFFF8E013, 0xF0B1087B, 0x83FEFBC2, 0x993330C0, 0xEE335B55, 0x98B1DF34, 0xF8810225, 0xCEAC0000,
    0xAEA61514, 0x36C1BEF3, 0x5B8DC03F, 0x607FBF34, 0xA56CEF83, 0x14931C84, 0x0FD81107, 0xFC02A637, 0x40342250, 0x07000159, 0x61C040EC, 0xC0D86F43, 0xBB47DB8D, 0x6B98F7FF, 0x37BB77F1, 0x363F52A9, 0xE0B675F8, 0x3C263381, 0xD8AE423B, 0x94B6C016, 0x214820E0, 0xC53E0E4C, 0xFF043857, 0xB00057E0, 0x74090000,
    0x44025A7D, 0x4A3A11C6, 0x4C0502B7, 0x6AC1FCFB, 0xCB07907F, 0xD7EB60EF, 0xA43C70ED, 0x5A1577DB, 0x8092A4F0, 0x3A58270E, 0x80819F20, 0x9C18E263, 0xC2C778A8, 0xD1FE391B, 0x4FFFD87B, 0xF7E103D9, 0xFE07754F, 0xEC17DE4B, 0xF9D32527, 0x42B01AEE, 0x0B0827B1, 0x3221FF46, 0x02F3F99F, 0x1F8495FF, 0x9B060000,
    0x2E18410E, 0xFF8AA7E4, 0x97856975, 0xF90685FF, 0xA0D5C8FE, 0xA23D07F3, 0x4D800FED, 0x4340FF29, 0x007BB340, 0x9DBB3B25, 0x21FE5C71, 0x1FF39BD3, 0x6797143E, 0xADC5A1E8, 0x2DE06215, 0xB8581BEA, 0xD20696DC, 0xF635CD99, 0x1C451011, 0x4ECAE8B2, 0xEBBE26A1, 0x872F60E6, 0x1B48C303, 0xE6EFD78B, 0xBE650000,
    0x9D2B9AE3, 0x02061FE0, 0x02BEC3C2, 0x28CDD458, 0xFD910F0D, 0xF985C0D8, 0xA8CE8FCB, 0x61F1CE53, 0x8B8944DA, 0x7080C6E4, 0x18055F22, 0xAD7BEA15, 0xF13BE24E, 0xBDB249F1, 0xAEF9EE5E, 0xDA07A0F5, 0x1275D187, 0x126DC443, 0xB9580538, 0xBD2587E5, 0xA931FC4C, 0x220FFF7A, 0x306EF155, 0xED5A752F, 0xAE310000,
    0x001EE988, 0x453F1E75, 0x4FD45A51, 0xBF272867, 0xEE4E00BE, 0x6113A1FD, 0x05800F58, 0x0004FA4F, 0x000FE178, 0x00F817FB, 0x1FE60FE1, 0xA827DE8B, 0x0CD7DB40, 0x44C01D27, 0xAC40F767, 0xE1D9C278, 0x0FFCE702, 0x7DBD68FF, 0xAD56822D, 0xF7021DC5, 0xE97AC986, 0x1E0913BC, 0x78E718E3, 0x89DA61F5, 0x7C3B0000,
    0x7EF00053, 0x50080813, 0x2AC0E0C1, 0x2D064805, 0xB89D940D, 0x4E07D084, 0x3DBE0228, 0x77601FEC, 0x9FA6C191, 0x9FEDE605, 0x5BA3201F, 0x1A6E0B49, 0xADC9FFCB, 0xA1FBDBBE, 0x97AFFEF3, 0x6ABFFAFB, 0xF7B5BF54, 0xAEEE30A4, 0x61FBB400, 0x4BBF00C1, 0xD1090045, 0x53020C78, 0x62FA9731, 0xA949A982, 0xD9110000,
    0xDD36C1E4, 0x0617F2E8, 0x027B36C2, 0x13F47848, 0xA3A779C3, 0x232B43E1, 0x2E72CFDD, 0x47F84CFC, 0xD43CEE3D, 0x1088FFBE, 0x8A6D15D0, 0x87C59FC3, 0xD63FFBF5, 0x2AA362B0, 0xC89C1112, 0x30FCC230, 0x368C7A06, 0x691BB1E7, 0x6A047AE6, 0x67E5C732, 0x36F02858, 0xC30E944E, 0x6D79CE55, 0x7F793A62, 0x7A480000,
    0x4477CD50, 0x620E1734, 0x24048C0C, 0x12B2D201, 0x8A38B90D, 0x0D748048, 0xC9FA36E5, 0x6A20A7FA, 0xE04582A7, 0x8C781E00, 0x83A2539C, 0x3B865907, 0x69F5585B, 0x391E8FEC, 0x47A86E7E, 0x941FFF00, 0xE3FD28FB, 0x1E975C43, 0xA8AE8AEC, 0x72190DC3, 0x8E1A2B85, 0xDDEC98E8, 0x882DC2CC, 0xEA14C8A0, 0xDCA50000,
    0x85E73CDB, 0x1BFFF3C9, 0xFFEFE3CF, 0xDE9A4298, 0x58B33E85, 0x463C50FE, 0x32850F00, 0x3802FC06, 0x9879E646, 0xCD3D094D, 0x28F0D095, 0x8F198B6B, 0x713BDFCF, 0x748AC4E1, 0x60F1D82D, 0x6E8DEB65, 0xE47AF20E, 0x377F5E66, 0x8BE3D601, 0xF352D84A, 0x0F4F5136, 0x76D252C4, 0x0784449D, 0xEBDC5CDF, 0xFFD90000,
    0x9FEB5405, 0xAE0B9194, 0xEE49F453, 0x3E62D069, 0x697BA03F, 0x57218BF0, 0x681223B4, 0xCE181D65, 0x8145DEF0, 0x79248D4E, 0x0359EAE1, 0xBD97991F, 0x585B4BF9, 0x57F8EA73, 0x9FDD4027, 0xCB58E65E, 0x7DCDB425, 0x207B1FC7, 0x5EC77AC5, 0x6AB8B0DE, 0x2F8AAC70, 0x10D3FFA4, 0x0F6AEA2F, 0xC5B7DF11, 0xBD700000,
    0xF8879B0C, 0xCFEF3612, 0x99F9F0E8, 0x8207614E, 0x68B89FF1, 0x6A5BBC6B, 0xFD1F1FE2, 0x73C3A6EC, 0x7EEABC8F, 0xD607CBF3, 0xE22D6F18, 0x6D259FB4, 0xFFB02F86, 0x642FB7B1, 0xE12A97E5, 0x02A362CD, 0x1117BFAA, 0xC3D881D2, 0x3D902CAE, 0xC431137A, 0x03DD5C19, 0x0FFE152A, 0x3FCD112A, 0xDCFD4ED9, 0x7A570000,
    0xF90C1AE3, 0xDED72A9A, 0x67DD303F, 0x22730604, 0x266DFCC5, 0x2F6C1406, 0xBEB7AA53, 0xAFF0C03B, 0xF41EC9FB, 0x838812C0, 0x38915C9F, 0x579720D3, 0xD9E42EFF, 0x8627F075, 0xAFB37F56, 0x4BE2BC70, 0x4FBEFC05, 0xBFA1BBA7, 0xAC3F4AFA, 0x0558D1A0, 0x3E0F9406, 0x53760148, 0x9B6C013C, 0xD98186F6, 0x67370000,
    0x98695B1B, 0xFFEF05D5, 0x7EF38D7F, 0x5E59D1CF, 0xEB4B991F, 0xCA13EB12, 0x9DFA9ACB, 0x7E26A1BD, 0xB561BC7C, 0x6A0AB739, 0x7B5BC1DA, 0xE0CB087E, 0x07C4678A, 0x6F1E4180, 0x43E43145, 0x5D8B86E5, 0xC00F9EDC, 0x08B42F43, 0x070F3D93, 0xB7866910, 0xC74FC57C, 0x8BFD803A, 0x2FF01F10, 0x6DB18A7D, 0x7E0F0000,
    0x6794F086, 0x1128259F, 0x7E3BC03B, 0xA028B3F8, 0x00636C45, 0x62CB6AAE, 0x424260E5, 0xB90B371A, 0x2261C165, 0x4C72582D, 0x85C52242, 0x1B5C8CC0, 0xFB89CD7B, 0x61B9F5EF, 0xBDFFFEFF, 0x9BCFDEFB, 0xFBFF7DF8, 0x2FFD9D83, 0xE097E00B, 0x20790C01, 0x1901A102, 0x341A05CC, 0xB33212D7, 0xEC97EE51, 0x66160000,
    0x67CF52F7, 0x2FACF2B3, 0x75E773C1, 0xFFA0DF3F, 0x5A3113F6, 0xD59BFCBE, 0x037C0770, 0x5F03FD96, 0x8035D356, 0x0A075507, 0x0170F040, 0x97664209, 0x56C7DFBC, 0x8DBA20E2, 0x5C5499B4, 0xE05527B2, 0xD042F774, 0x82861CFF, 0x8027A4BE, 0x8EBCF7F3, 0xC8117F77, 0x6CED9B75, 0xD725F3E9, 0x77941DAF, 0xFE130000,
    0xC4A80B48, 0x5FFFBB9F, 0xDB1F6D86, 0x00BAD668, 0x8D818827, 0xE60B8FBC, 0x7A7190F4, 0xA62CA936, 0xB9546468, 0x34059FA1, 0xE4CC5F03, 0xC7A5BD94, 0x750B4B80, 0x22467001, 0x43AF80F8, 0x1FA1E886, 0xD9BDDA67, 0x2D86AA9D, 0xC3AE238D, 0x5F68FD8B, 0x94457027, 0x03CD8100, 0x9C7E660F, 0xE7FF87D6, 0xBCA80000,
    0x5E5BDA49, 0x5F3251AA, 0x00282938, 0x0665E810, 0x19EF079D, 0x49640839, 0xCE204DBB, 0xDA101BCB, 0x1F562F78, 0x28BB6D85, 0x266FB8E7, 0x3D4FF62C, 0x0499EFFA, 0x5FC66E04, 0xE2244A1B, 0x38A82400, 0x12582FA0, 0x490C68C0, 0x617670C0, 0x33D7D186, 0x6C5A8936, 0x97991E34, 0xCD38A0EF, 0x07AB871A, 0x16700000,
    0xD08FDD3E, 0xDFDFD074, 0x932D90BA, 0x5F7D368E, 0x7DFD817F, 0x3D489FED, 0x8F0D3825, 0xA3782ADD, 0x6D473E8E, 0x60F7DF83, 0x7B9BCD7B, 0x542C7846, 0x012BC115, 0x0E1E3018, 0x902E1B80, 0x07EAE15C, 0x081DB734, 0x9C9F8AC2, 0xE3548E30, 0x6D9C9D97, 0x7343D7F1, 0x28FEBF59, 0x3BB7BE6F, 0x76B3049D, 0x08C20000,
    0x76DB77C9, 0x7FB96806, 0x995C90B4, 0x333EBE90, 0x069BE5F8, 0x20FDA790, 0x8DF711C6, 0x291A7621, 0xF0DC2BB8, 0x2E3F8BDE, 0xACEFCEAF, 0xEF349BF3, 0xF914BF86, 0x0B0BFAF3, 0x700C8216, 0x00396328, 0x01963F60, 0x086A6953, 0xAC337483, 0x623EF1A7, 0x6FEC5601, 0x4FE48256, 0xD929EACF, 0xE7FADF3D, 0x7AD10000,
    0x667E7841, 0xF6F134F6, 0x311EF8E8, 0x007DE681, 0x49547482, 0xC197E501, 0x1A1DE054, 0x9EF4411F, 0xB3D763D4, 0x07EF63F7, 0x26FE78C6, 0x1D719DF4, 0x6CDD76F7, 0x1E8BEAD0, 0x0EFF3116, 0x00600904, 0x00260000, 0x00456210, 0x344BC212, 0x554FF227, 0x44EF2C54, 0x9F800F10, 0xFB4BE8A6, 0xDFE3D654, 0xA7730000,
    0xB96EACE9, 0x00AF3CA7, 0x6A7D0577, 0x707F96FC, 0x09E63FF0, 0x1B9FFB0C, 0x777FFE86, 0xA47FC3BF, 0x82FC12B8, 0x226249B9, 0x0E041008, 0xD05F823E, 0x7D683B75, 0x2741E469, 0x7A6E26C4, 0xCBFD369D, 0x38F2AF03, 0x3A05D43E, 0x16868BF4, 0x5A3E9FC4, 0x22FD7814, 0x968545A4, 0x1D9A2269, 0x1760D6FE, 0x661F0000,
    0x453817E9, 0x8082D24C, 0x1E73D630, 0x391F5E5F, 0x345BE13A, 0x332A0190, 0x87C8187F, 0x78C10FC7, 0x0A3BBB9F, 0x695E6055, 0x51066BAC, 0x00AF7EF2, 0x0974B8E3, 0xCDAE873C, 0x7F0FE9FB, 0xD89EC37B, 0xCBE4337A, 0xFE023EFE, 0x242C9DBC, 0xA430D816, 0x7F0D081C, 0x28402D92, 0xE15E3A54, 0x0945C380, 0x59C20000,
    0xBD2F0850, 0x9405BD0A, 0x87BE523E, 0x055811E0, 0x759DBD15, 0xBD3BC393, 0xD27E1225, 0x91ED82EA, 0xBC568C69, 0xC60BC89C, 0x4D9E42DD, 0x7A9C7B84, 0xF246CC4E, 0x8F30B230, 0x6FEB0340, 0x5C02DD2A, 0xEF8226A8, 0x3CD163E0, 0xCD2117C8, 0x16A0BC12, 0x4F3CA641, 0xE5716B89, 0x9B8A4770, 0x2908FC2C, 0xFD160000,
    0xFD1EDED5, 0x214D169D, 0xEEA5A8BE, 0x5CBA33FE, 0xCDBAD426, 0xFFC70A7A, 0x3438242A, 0x65700128, 0x18820CE1, 0xC81DA369, 0x6E889876, 0x0E7F6DE8, 0x0B7B1E80, 0xBD2BF84F, 0xDFFED077, 0xAD82FECE, 0xF8E65E9E, 0x0CBE17F4, 0xEF177C2F, 0x541CF750, 0xD500E372, 0x2034000E, 0x16801D69, 0xF804944C, 0x1CB90000,
    0x71A29A4C, 0x77EEF185, 0x408FB233, 0x075CA480, 0x5B0FF006, 0xEBD7C1E7, 0xD9DC3FA6, 0xB855F4AE, 0xD859859E, 0xDEB02E58, 0xD7C2E61D, 0x82141BBF, 0xB1ED7A2A, 0x12069BC0, 0x80F6FD00, 0xCFDB98C4, 0x37382A40, 0xF344340F, 0x086414E0, 0x8130FE1C, 0x9F03E115, 0x80970D32, 0x3DE0C62D, 0xBFDCA63F, 0x5FCA0000,
    0xB6BDC844, 0x6FCFC33D, 0x18AEC52F, 0xC64B4876, 0x54479143, 0x9646A0AC, 0x7FF82065, 0x0AF3C7D4, 0x6E57DDC3, 0xB77BE608, 0x23EFD204, 0xD2E20C80, 0x3F87384D, 0xA937865C, 0x524BCFF2, 0x4E72FBED, 0xE3C7509E, 0x30E0B52F, 0xB0335790, 0x16436EC4, 0xABD70A5E, 0x4902001E, 0x00141BD8, 0xA913D3CE, 0x4F5A0000,
    0x872A9D58, 0x08750434, 0x342A14C2, 0x01132811, 0x0A71E161, 0x9E023BD0, 0x6D992BD0, 0x34CBA657, 0xF85864C8, 0xC1BA0DE2, 0x37E13663, 0xFF3EFF9F, 0xF787D3F8, 0xFC89FEB5, 0x811CC0CA, 0x01A472A0, 0x1D047603, 0xD547E799, 0x80088190, 0xEADCBDA5, 0xD399D022, 0xE0BF8327, 0x88B82EDE, 0x43C08C80, 0x1B9C0000,
    0x2EB72469, 0xE8025356, 0x3A30B57B, 0x15D7A75E, 0xA0D3DFFB, 0xF4CAD0D4, 0xE62BCAFE, 0x61A743E5, 0x20C2A336, 0x0AFA7C2B, 0x1505C2FF, 0x782D017B, 0x138B91AC, 0x45A001F3, 0xEA0021B7, 0x6C0693BF, 0xFF7BD77F, 0xF90D136F, 0x9C3A122D, 0x58924A77, 0xDD8A6FFD, 0xE62FFFFE, 0xCB671EBD, 0xCA594F7F, 0x58A10000,
    0x9B358D7F, 0x1BEBB944, 0xFD369B55, 0x72D7D871, 0xD79CD1E6, 0x163857D7, 0xE80B3F86, 0x8D6A3776, 0x564A0C53, 0x8C025217, 0x8A00A034, 0x7A7195FC, 0x732C275F, 0xD490E0BD, 0x25285FEF, 0x9007C93B, 0x80CE93DC, 0x57F37CD6, 0xD658DDF0, 0x00167FB2, 0x7A7FE841, 0x2FDFA7C5, 0xD60438A0, 0xC8F13854, 0x78050000,
    0xB4EB1432, 0x81CA1351, 0x56A035D6, 0xFDCF113B, 0x89787C9B, 0x89B703CD, 0xE381146D, 0xF123F9FB, 0x009CFEF7, 0x402AE304, 0x8078A2C8, 0x034609E3, 0x3DF5FE0A, 0x716FE96F, 0x35FFE867, 0xBF7F538F, 0x8A9692B0, 0x3FBE0659, 0xDA9FBE8C, 0xD7F9390A, 0x16022033, 0xE82000C7, 0x01D26BF5, 0xBAC06EC4, 0x79420000,
    0x0EDCE598, 0x1EE2BF82, 0xC07D9140, 0x00A9AA18, 0xFFB3D9ED, 0x07DFA6B1, 0xD91CE325, 0xFF67B6BC, 0xB2CFB8F0, 0xF63F09C7, 0x2ABE7B57, 0x5F515BFD, 0xC3D3EBD2, 0x070FF8F7, 0x5C3F8B8B, 0x25E943B1, 0x07843C00, 0x240DDA03, 0xC835FBB8, 0x0547D7C0, 0x15BB4842, 0x79EE00F9, 0xEC0EE07F, 0x72FE9F01, 0xBD800000,
    0x56F36ED6, 0x7622BF34, 0x2C5A1B00, 0xEF4EFD1D, 0xFDFF4DBF, 0x4DF1E4F8, 0xE0D60D4F, 0x0BFBCC27, 0xAF800529, 0x50DD5E67, 0xBD01A5F3, 0xB323E297, 0x22FA0187, 0x432403E9, 0xFBA1FB70, 0xFD1F091D, 0x41CA7A68, 0x3289A403, 0xD2AC0839, 0xCE9647D1, 0x93805582, 0x5303F208, 0x80B78B63, 0xC7FAC04A, 0xCEE20000,
    0xAB8DF580, 0xD9D52D03, 0xD2312FF2, 0x5C28F0B9, 0x8C3FA31A, 0x0A702149, 0xF103281D, 0xF97B4695, 0x16002861, 0x3E54BCE0, 0x37AB0B27, 0x0F5EBAA9, 0x66C4D224, 0x810F600F, 0x1177B0E5, 0x7CD87639, 0x9ACC73F0, 0xBB7BEDCF, 0xE83DADF5, 0x696BFDF9, 0xD64D87BF, 0x014004E1, 0x84000B70, 0x800057E9, 0xD5880000,
    0x72BAF050, 0x37F724EB, 0xBF33785F, 0xE99F5E7E, 0xC423E77D, 0x975F07F0, 0xCE444F49, 0x0A2F8470, 0x6FE9F43C, 0xE59BD7DE, 0x7622299D, 0x557CFB46, 0xF3517355, 0x9E00C438, 0x38005B83, 0x0010EF30, 0x035663C1, 0x7E9813FF, 0xE1A1D9FE, 0xAF15FF10, 0x977F9497, 0xEF1DE104, 0xF60435C8, 0x34F645BA, 0x41D90000,
    0xC4286D06, 0xEF7B0F37, 0xBDFE7F00, 0xFFA61A15, 0x7FEE6C49, 0x79F4FFE7, 0x2420FBF5, 0x6DC3FAF6, 0xFD43ECA3, 0xE8E408BB, 0x8FFDCDC1, 0xA497040F, 0x007029E6, 0xE60076DB, 0xB06DD310, 0xC39213D0, 0xEA000215, 0x19AD39B1, 0xE815F6F2, 0x894E2027, 0x208F5613, 0x05C40726, 0xFE3A3DDA, 0x5DFD81A7, 0xCB180000,
    0xDBE40CD8, 0x23FB512D, 0x9FFFBE3D, 0xF8B897E2, 0x3E2AD025, 0x61C21D47, 0x34021065, 0x1815AC39, 0xD3D88C8C, 0xC41819D0, 0x4AD61DB3, 0x9B083C21, 0x7BBEE540, 0x23A8E8C7, 0x6503E9F0, 0x01E544E4, 0x0D705004, 0xFFE1C99A, 0xFB5911FF, 0xFF2FAE6B, 0xEEAC97F1, 0x825BF4C0, 0x100017D6, 0xA001BEEC, 0x4C730000,
    0x062A078A, 0x167F0BDB, 0x37EFC82E, 0x5FFFEF71, 0x3700F3F6, 0xF4443CB2, 0x5A0F3919, 0xDB9C4009, 0xBFE00F55, 0xFE00228C, 0xD4016C34, 0x282335C5, 0x6091F13B, 0x780C5F7A, 0x6827F7EF, 0x043CD860, 0x05374780, 0x5D79BCED, 0xFFBDEF9E, 0xFFCF6AEB, 0x966CB8BE, 0xC3FF21E0, 0x9FE13ED9, 0xED5F6729, 0x997E0000,
    0xD0C1F021, 0x664119EC, 0x0B0DA310, 0x002E9000, 0x03EB1801, 0x517AC13F, 0x73ADF805, 0x323FD035, 0x15F6171E, 0x782E5B6E, 0x1DB0AC42, 0x5D24607C, 0x03D12418, 0x74BB316B, 0x4BFA6A5F, 0x3BE10251, 0xFCAB327D, 0x1BC45C07, 0x5629602B, 0xAC7A108C, 0x0382C27E, 0xB80D3FED, 0xE5D8CADF, 0x9BE5C41E, 0xAC010000,
    0x7094FFD1, 0x15F790C7, 0xBFFFDFE5, 0xFFCDAA77, 0xD5666FEB, 0xFFDC8FFE, 0xFC766FCA, 0x455FBC76, 0x95900AFA, 0x4400AEED, 0x86032BE0, 0x2016750D, 0x077D0102, 0x820A01D0, 0xD0A3AA81, 0x12026E34, 0x005BFB93, 0x27F8B031, 0xDFA9ECF7, 0xAA667B97, 0x542D37C7, 0x1B2DAAA5, 0xBDC5F043, 0xF7BA05DD, 0xE3C40000,
    0x36DF2811, 0x76FB75D8, 0xDC3AE170, 0x2AA46216, 0x0C388C60, 0x44EE243F, 0x8BC1A7D2, 0xBB1FBEB2, 0xD4A54E68, 0x630D4C87, 0x6E7FD185, 0x89F70230, 0xA425C392, 0x21396A02, 0x0019A40A, 0x9F481000, 0x3381000A, 0x990FC03D, 0x22AE19C4, 0x5BC0C445, 0x208CE05F, 0xFAFE00A7, 0xDDB7E3BD, 0x5FFE2233, 0xE7DD0000,
    0x4659AD6C, 0x7BAE458D, 0xE023B2B7, 0x7E7C1137, 0x4854B67C, 0x0F70D022, 0x77566023, 0xF1C4501A, 0x5881A2DA, 0xC03DAD9E, 0x1BE2F3E0, 0x019E5F01, 0xE0EBF564, 0x511DB3AD, 0x319B89D2, 0x01CCADB5, 0x9A8AD319, 0xF4CDFA1F, 0x3E6F84FE, 0x40BDEDF8, 0x27F84D93, 0x285378E9, 0x0F7B3A71, 0xFE4AC3F4, 0x5D070000,
    0x1BD98745, 0x82119785, 0x0308ECAD, 0x0ED36BF8, 0x76FF48A3, 0xBAFB3F1F, 0x4D2F61F5, 0xEC3E1F74, 0x4523DFB6, 0x1E7EDDB0, 0x673DC4AC, 0x70D60D46, 0x9E29321F, 0x224EDF31, 0x3BC40420, 0xF1497BBA, 0x8CC7DD65, 0xF675F6B5, 0xBF1385D0, 0x1237E517, 0xBE076F93, 0x88BD0B5B, 0xA0F80D22, 0x0281006F, 0x2F220000,
    0xFF4E93DD, 0x57E764EF, 0x87F48238, 0xE5D9996C, 0xEC41B42D, 0xDD700AB9, 0xF86D0F3D, 0x33C2FF65, 0x40647E12, 0x75027942, 0x01838B19, 0x0F7461FC, 0x09078FE0, 0x66FF5B03, 0x572FE2FF, 0x5E4F52F1, 0x80FAC2C4, 0x079F2079, 0x5D7151ED, 0xB011079D, 0xE26E9658, 0xB97F16DF, 0xFDF28B8E, 0x901D5E6D, 0xFD650000,
    0x8378CC30, 0x6E5E7018, 0x52B1A421, 0x0E8F8817, 0xD00E87B6, 0x46184938, 0x1C0B276B, 0x24796D77, 0x07418CE4, 0x7160681F, 0x07CF7178, 0xD81E4BA0, 0xF0807D74, 0xC53BA461, 0x019B38D8, 0xF1DD004E, 0x782C6B13, 0x84C284BE, 0xB023E17B, 0x5C781FDB, 0xAFC83915, 0x594AA0DD, 0x5342917D, 0xF8280C85, 0xFE310000,
    0x03F7A263, 0x2C7F5AD0, 0xF1AED47F, 0x68FBEBF7, 0xD6F5B890, 0xC9F8A455, 0xF40CB86A, 0x8E8384A5, 0x58854449, 0x903C0D63, 0x7F6387E6, 0x7008207C, 0x1347AFA1, 0x1F09E083, 0x61BB09E2, 0x1C0194A9, 0x83347C53, 0x6FA36EB1, 0x996A81E5, 0x8AB4B979, 0x541FE09A, 0x4966BBE3, 0x5FC3D6CF, 0xE6BAF50B, 0x7E0F0000,
    0x98445349, 0x8AA1204E, 0x702C01E8, 0x91289BDA, 0x330CC5DB, 0xE9884E9A, 0x62820E8A, 0xA069D0FB, 0x0462C972, 0xE9704E2C, 0xE0804B48, 0x2A589E82, 0x1713C133, 0xED4FFDEF, 0x07DF67FB, 0x5FFFFFDF, 0x89FFFCCA, 0xFC568B41, 0xF0DFF500, 0x99543813, 0xE203503D, 0x2FC00BC3, 0xE0469867, 0xAF9A27AD, 0x7BD60000,
    0x4CA743C0, 0x0FF6997C, 0x6C9E991B, 0xF0D7BE85, 0xD2F8103F, 0xB68907AB, 0xEEC07EDD, 0xE43C37AA, 0x67055B64, 0xFE676C0C, 0xDDAE00A7, 0xD34A58FD, 0xB2887E61, 0xDCE0CABC, 0xC702279C, 0xB42A976F, 0xB5E4671A, 0x9A67C62D, 0xE160A8D8, 0x14FAB403, 0x13FFA011, 0xD746F922, 0x834F6EDD, 0x27AF6468, 0x19060000,
    0xAA709807, 0x59FF2645, 0x5FE9884C, 0xFC128B3F, 0xE83C8A7F, 0xA33083F0, 0x136C4FE0, 0x5F177E27, 0x8307F230, 0x60FE161E, 0x03E147E1, 0x3D05E64B, 0xF38C4E68, 0x2915CA75, 0xF768420A, 0xCBB80F9C, 0xE123B5D6, 0x42B3DDCF, 0xECEBD076, 0x043C67D1, 0x6737C86A, 0x2900E68E, 0x3A51E1B3, 0xDE2EB50B, 0xA7B20000,
    0xE2E35F7C, 0x32CC4D3B, 0xFCD008B1, 0xBEA5ED67, 0xF84EB13E, 0x877241FB, 0x1F581F43, 0xBE60E272, 0xFC1F07F3, 0x41E07206, 0x7A05F07F, 0xD069142C, 0x9AEACF4F, 0x06F41EBE, 0x3B0C73EB, 0xFF44EC73, 0xCDFC75FA, 0x26E79719, 0xFD7F0968, 0x0A79195E, 0x93EF6172, 0x7B9E7CFE, 0x0FB61720, 0x28018A95, 0xD8850000,
    0x041BF9A9, 0x93CF2320, 0x33A4EC97, 0xE80F0A7C, 0x6054351A, 0xD7DF27E0, 0x1700F25E, 0x703EF357, 0x05731C90, 0xE1B27971, 0x3BCCA9A6, 0x586135AF, 0x37579D65, 0x08DD508A, 0x6BC9C370, 0x76C025EA, 0x5176F0A2, 0x7FF6ADB0, 0x3F4F5217, 0xB6E213E3, 0x9717DC31, 0x051A0580, 0x3AEF023D, 0x7FFF025F, 0x99D30000,
    0xFB77B34E, 0xBF234495, 0x10686849, 0xB004AA28, 0x88E8F0FB, 0x01A9F260, 0x67D76F05, 0x7EA8F021, 0xEABE82BA, 0x8DE07BB0, 0x7C447025, 0x93929B44, 0x3FB6CAE4, 0x672BB7F8, 0xF8255F25, 0x08276488, 0x4BD0110C, 0x4741C342, 0x98952064, 0x235F04F0, 0xCBB0BD01, 0xBE16483C, 0xEF4B5BEF, 0x9FAB9AF6, 0xDEB20000,
    0x01BE66CB, 0xD65FB3CF, 0xFAFF8327, 0xFD7B1CD8, 0xE5B7BF7F, 0xA74EDF64, 0xE2BB8910, 0x45FB00F0, 0xAFB35FAB, 0xF9607BF7, 0xFD0BED4B, 0x39A37C8C, 0xEB72D79B, 0xCA1EE5F8, 0xD884FF85, 0x4903F899, 0x647D1A4D, 0x87F80848, 0x7F32921A, 0xA4D8A3F5, 0x0B21FF3F, 0x1DE1D779, 0x5D7FDDCF, 0xF7FF4517, 0x67DE0000,
    0xB92166E2, 0x987F6C97, 0xBFDF61F3, 0x7FE0DA05, 0x601BE410, 0x0298D0A0, 0x3FE4C000, 0xCC7CC80C, 0xBBE089DF, 0xDF42EED7, 0xBF9563DB, 0xD973F93F, 0xB09091CF, 0x440151FD, 0xE2775D76, 0x014B9EAC, 0x9F3EE292, 0xE60F8C4A, 0x46EE7A00, 0x287B2000, 0xA9B2000B, 0x9EE05FAF, 0x4EFA2D49, 0x9D96598B, 0x37F30000,
    0xF3BD2034, 0x6B76DEE7, 0xCCF06BA8, 0xB0B41825, 0x24F2410C, 0x84040FD4, 0xB941CEAD, 0x904CBDF9, 0x6387DE20, 0x9C003D91, 0xF8CB0A07, 0x954200FF, 0x729B878B, 0xD2301C17, 0x9391E2ED, 0x3A4E49EF, 0xE7623EF8, 0xCEA54414, 0xF68479CB, 0xBF995482, 0xD67FE92E, 0xA3E1A98E, 0xD07AD8FD, 0x9B577F5D, 0x9F5D0000,
    0xFF1E979C, 0x80481F60, 0x5945F8A9, 0x3D8372F8, 0x8139BF8E, 0xFDAE8833, 0xEF600D6F, 0xCC0B1C69, 0x8226C210, 0x1C14EC03, 0x090000B6, 0x8CCE0FD1, 0x3D2BFD9A, 0xA955FB36, 0xFB6DFCFB, 0x6CFFE76F, 0x4BFE06FE, 0x2633BDC5, 0x4A5F8383, 0xBD7C5497, 0xCB8000E6, 0x0E500444, 0x60109E8E, 0x18201BA4, 0x68880000,
    0x01A5BCD1, 0x20E01CA8, 0x433F6622, 0x14631FE1, 0x2C41F801, 0xE1852D3F, 0x5AF1A0E4, 0x37F81F13, 0x0A47B6F8, 0xF0361914, 0x83CD0354, 0x38DE74D6, 0xBB87FD3A, 0x9F01E3C2, 0x64896252, 0x5F0F21E9, 0xF2BC3479, 0x5D38DBE0, 0xE08ADF83, 0xD3A6D15E, 0x36BFA3E4, 0xC5F90BD2, 0x2710C474, 0xEE0FA920, 0x91340000,
    0xAA0E4CF1, 0x4ACF7E34, 0xFAFEE8A6, 0xFEEA0227, 0x5078FD53, 0x863EF70C, 0x03F5DF78, 0x4B2FFE99, 0xF2FD66E2, 0x07F62D07, 0x5CB701C1, 0x37730423, 0xC1CBF2D2, 0x3B8C248E, 0x1DC36854, 0x74590B4A, 0xE8A024B6, 0x863AABE9, 0xB0309C38, 0x00666CB1, 0xBCFD440D, 0x9C7FD03F, 0x8BFE29F8, 0xDFCF5E09, 0x4B7F0000,
    0xE2FD3BB4, 0x91BEAA3F, 0x193F94BB, 0xCCC70972, 0x516CF237, 0x64FFE8A2, 0xB57FF91E, 0x63FFF677, 0xFFF7F5D4, 0x5F013790, 0x0344C00C, 0x35780321, 0xCF40AD26, 0xFC3EA07F, 0xC84CC7F9, 0x8256FF34, 0x203EF5CC, 0xFD661C01, 0xFFB5B5F3, 0xBCF4F8F3, 0xF4F1342D, 0x4BE9D266, 0x6FD536F1, 0x95DEC1D0, 0xB1880000,
    0x013957BB, 0xAC2896E3, 0x65CC4DE1, 0x4600C41C, 0x83E8E310, 0x14B9E144, 0x0AFCA005, 0xBEEFC0FB, 0xC1F00225, 0x86C24D4F, 0xFD80F5FD, 0xF81A15FF, 0x19BD6BF7, 0xF2479FBB, 0x07FBE39E, 0x42BCB669, 0x0A2E39A0, 0x2802F00F, 0x80130104, 0x151072E4, 0x0F124116, 0x5B68AEB4, 0x8B00AAC9, 0x8A147BCE, 0x1DF50000,
    0x60FCA38F, 0xF34097A6, 0x5B69B0AC, 0x9C71B52B, 0x246CF17B, 0x1A3A0550, 0xE3808C48, 0x681948E7, 0x11E85CFE, 0x050D8976, 0x209DC9A0, 0x5F956C0E, 0xF79BE54F, 0xE9D79E37, 0xDF791AEB, 0xF3FD6373, 0xD58D4ABA, 0x1A7A3799, 0xBB1FFDA5, 0x7BFEF95B, 0x2A4C4978, 0xA89686E4, 0x731985BE, 0x0FE75E87, 0xB3A80000,
    0x0E9730EF, 0x7F9CD8DB, 0xFCE3F99C, 0x5C791579, 0x8185F780, 0xCD8EC845, 0xFFF5008F, 0xE590415F, 0xD0079064, 0x80C7EEC0, 0x31FDF046, 0x20F603E7, 0xBEF7FF9A, 0x63F3B97D, 0xE1F4614B, 0xBBC2A57E, 0x9A7026FB, 0x174EBD95, 0xD56BD87D, 0xF3304F28, 0xD4070015, 0xC09C823A, 0x27691740, 0xC000C042, 0x7F340000,
    0x6384434F, 0x4181B6E4, 0x00D96441, 0x30266308, 0x0CF6D016, 0x4C3FCD6D, 0xEA2CB1B3, 0xAF08367E, 0xC927887D, 0xE35A1A7E, 0x69E003D0, 0xCD1E1F0C, 0xEE4174FF, 0x28EAECA2, 0xD6987020, 0xC858BA1E, 0x51003BC0, 0x52506855, 0xA20B4915, 0x51213B86, 0x8E01EC32, 0x80192D21, 0x933AC564, 0x67211AC0, 0x9FA60000,
    0xA6FA4334, 0xE080BA20, 0x063CD1C0, 0x3D11B887, 0xEBCBD44F, 0x9CF50E9F, 0x3BE2FDF4, 0x3AA27F23, 0xB606F33E, 0x887F053C, 0x03A50602, 0x1B0EF0C3, 0xF745C13F, 0x8DABE3E2, 0x2234762E, 0xF8CF065D, 0xD8F80DE7, 0x1C1ED31B, 0xB0A3607B, 0x1E573D17, 0xC10BF7EB, 0x0C0D0FCD, 0x8220DCDC, 0x2C1C5538, 0x026D0000,
    0xC3571A8D, 0x9DFA19DD, 0xF8EDC6E6, 0xC52B9DBB, 0xD635ACFF, 0xE7517F95, 0xE23FC00F, 0xA7F0001B, 0xF31407BB, 0x00C73DD2, 0x1F5FFD63, 0xFBFD8002, 0xBC5121AE, 0x39359AFF, 0x2D0439CD, 0x851E8439, 0xDC466E9F, 0xA9BFCAF7, 0xE0D4DA9C, 0xBC157121, 0xE13EFB78, 0x046F6FC3, 0x943BF8EB, 0xF1358859, 0x40E80000,
    0x43405431, 0x0D7E81F7, 0xCDFD9722, 0x232E98BA, 0xD863156F, 0x6B80332A, 0x581ED2F5, 0x91F6552A, 0x47722C46, 0x852B075C, 0x61E277C2, 0x039DACCA, 0x2F467C12, 0xF907C7E4, 0x78FB05FC, 0x8F02FEF9, 0xF22DEA1F, 0x2CC229F2, 0x32241EE0, 0x82C7CE45, 0x32B45360, 0x4460807C, 0x3B421770, 0xFF95A48F, 0xFD8E0000,
    0xC1A7A8BE, 0x7575781F, 0xA6FDF440, 0x37021061, 0xF23FD62E, 0x91B412EA, 0x19F41DE3, 0x0B58FC1A, 0x9C0F8220, 0xF0F33E3A, 0x12D0B202, 0x36346033, 0xB23C11A2, 0x6381C3BA, 0x788C57C7, 0x1C86CFA0, 0x2825EFB5, 0x5D2744BC, 0x76EBF3CF, 0x3ADDFEE7, 0xE517CFA4, 0xC446EAF8, 0x8CAF2E5E, 0x01374E7A, 0x59260000,
    0x41CABA02, 0x35B93E2B, 0xD8FF8DD7, 0xE51089FF, 0x00051F38, 0x044BC065, 0x43318158, 0xDBED6078, 0x7EFB45BA, 0x1ECD33CF, 0x31AEFD89, 0x7827C56A, 0x3072207B, 0x0C133DDF, 0x89CDFC07, 0x9381B02F, 0x34588447, 0x98F0E121, 0x9719A33E, 0x466B2B02, 0x4962E091, 0xBE38982E, 0x73A74EE0, 0xFEF4B73B, 0x6BF20000,
    0x6EF42009, 0xFBFE415E, 0xFFDDA17B, 0xE00502BF, 0x087591D9, 0x6AA24EE0, 0x532E7483, 0xCE2FD02D, 0xC8BE81C8, 0xB7E25B3F, 0x4E1A5293, 0xE0A7093E, 0x39B034C0, 0x1C0C3C0C, 0xE47802EA, 0x30B0CEAE, 0x0856F00C, 0xDFFAC17E, 0x29EF8BEB, 0xFE37970D, 0x751CF82F, 0xA427B0CD, 0x701C433C, 0x7EFD16BF, 0xB5F90000,
    0xCF3D5DEF, 0x6A3FD656, 0xE7EE0AF7, 0x8D202F3D, 0x112BFFF0, 0x51E1D7C1, 0xC6A09606, 0xA80F6603, 0x80E64138, 0x79C62B96, 0x35A22771, 0xF025BE3F, 0x3A7C8DA3, 0x3300FC62, 0x3ED605F3, 0x89C001CA, 0x808D6DD0, 0x20F2B286, 0x839E4F38, 0x0BB56141, 0xBF053CF9, 0x8D90F7CA, 0x4CBE17CF, 0x7FF117EE, 0xB7DF0000,
    0xDF7DEDF1, 0x07773331, 0xC07E6440, 0xAAC6AA23, 0x31C5611F, 0x3D053C6A, 0xA50A7DE3, 0x5E039AB7, 0x008434F8, 0x620FFE4F, 0x2AFF290F, 0xCEF2DDB8, 0x2BF0DDE2, 0x4851E830, 0x703D6907, 0x107E1749, 0x0BE1F280, 0x3E1537E9, 0x61694578, 0x0BE22F01, 0xF0E1B04A, 0x7ECD0FAF, 0xFB49FBBB, 0xFB7F2DCD, 0xFDF20000,
    0x255BC268, 0x6442673E, 0x7FA0A00F, 0xF07E1364, 0x7FA67F80, 0x6FA7D7F8, 0x33FEFF1E, 0x761C187C, 0x72CA4F23, 0xC0202655, 0x595E19C0, 0x32EC0F8F, 0x88422440, 0xF7181221, 0xD386E168, 0x31DC7EA0, 0x38AFFA0F, 0xFE3180FC, 0xC1E607D5, 0x1E870F03, 0xB2C8E935, 0x12DFF083, 0x91DE9FA9, 0xDFF76791, 0xB7370000,
    0x5A5F5BB7, 0x119DE6A6, 0x987DFD7E, 0x3F57AB7E, 0x0488B285, 0x661ACFBF, 0x2B99380F, 0x4ACB25C6, 0x6E19FC41, 0x64AE3C47, 0x210738D9, 0xF00343DC, 0x278E0EA0, 0x54F06D8C, 0x3BD47AD7, 0xBA47C070, 0xC67EB6B6, 0x30D1BE87, 0x938795AF, 0x503BB09F, 0xA7EF13FA, 0xA75934D8, 0x35FFB948, 0x02C9C355, 0xB83B0000,
    0xBB956C8A, 0xF4F7DADA, 0xF17B21DE, 0x075A26C0, 0xFD0BFC3F, 0x492D81C9, 0xB1BA3CFE, 0x7797D5F3, 0xFD514C32, 0x65A07A75, 0xC8841D9C, 0xA0377C50, 0x857FE3A1, 0x87FCD29D, 0x3D0DA8A6, 0xE9B93324, 0x4CFA338B, 0x8B06D118, 0x7A8387E6, 0x3D242D5E, 0x691DF1CE, 0xFC939957, 0xB4378F17, 0xE440BCED, 0xF1920000,
    0x8EC7090E, 0x4DAF4847, 0xF7FB8039, 0xC68E703F, 0xECF7FEF8, 0x8147ADAA, 0x65FFFDF7, 0x6CFFEFEE, 0xD411A729, 0x00667400, 0x10AC0001, 0x447E007B, 0x51E01D04, 0x7747E612, 0x97FFB057, 0xFFB10B1D, 0xF9ABDBFF, 0x21B81C48, 0x268C13B8, 0xA54E5A44, 0x4AF7D0F8, 0x4F2194D8, 0xD850EA99, 0x67A3C1AF, 0xFFE90000,
    0x35B86B46, 0x809B8935, 0x0BE91CC0, 0x5501C862, 0x1E700DF9, 0xF87AD07E, 0xF3EEDCB0, 0x0BFEABB4, 0xDFFEBF4F, 0x4F6778BE, 0xBA7F7999, 0x7BAFD60E, 0xE659DCCF, 0xFF292388, 0x82BBBF24, 0xB6E6E2EC, 0x064497C0, 0x83E8778E, 0x3FB2D081, 0x3501A0F7, 0x8FA63934, 0x37009A12, 0x07DE1B25, 0x74051328, 0xFA670000,
    0x5D97A98C, 0xBE2D15E2, 0x91408959, 0x00058800, 0x247A4080, 0x80143002, 0x6A04FDA6, 0x507FF7CE, 0x28FDBFB0, 0x6FFCEE6B, 0xDC3CA3DD, 0x826975F8, 0xB769FAE3, 0x9F96FCFA, 0x4F835F72, 0xDFF9FFAF, 0xA20B31D8, 0x00163006, 0x28E00160, 0x5E98A435, 0xD907C07A, 0x24E70F39, 0x0033FAA9, 0xA3CFB416, 0x7BE40000,
    0xB6A80DFB, 0xA0849C42, 0xA0D42DDA, 0x2CD476A2, 0xE7CFAA3B, 0x599FEBFE, 0x8C797F23, 0x271734B6, 0x7C430EA5, 0xAC409E79, 0x9E044F88, 0xF846FE02, 0xF48F243B, 0x95DD03D9, 0x1FEBAFC6, 0x7FB3E09F, 0x645F1B7B, 0x8BCED279, 0xEC41817A, 0xD0CE0F8E, 0xFEEA76C6, 0xA2BF7E0A, 0xA5E7A0BF, 0x7C92FE73, 0xA8180000,
    0x5E272B6D, 0x1FF4A27F, 0xFFA055F2, 0xBDCCA82C, 0xA9B3A35F, 0xF4404FEB, 0xE6047FF7, 0xE24609E0, 0x67800725, 0x4500310B, 0x7A02B86E, 0x7015997F, 0xEA6282FB, 0xF8E00DCD, 0x2CC17FF9, 0x903B6ED9, 0x77E17DAB, 0xC6F54CFF, 0xD623BFE3, 0xF599C1BF, 0x95FD1AE1, 0x51DCE3BB, 0x97D4FAE9, 0xEB14E749, 0x778C0000,
    0xD8480D91, 0x36B0BF17, 0x0C5CB2CA, 0x40F28052, 0xF1FB8104, 0x83A07502, 0x090F08D7, 0xB051EDFF, 0x8F1CFEA8, 0x703EFC1B, 0x025FC0FC, 0x94802B80, 0x70C83FBE, 0x0483C084, 0xBA0C9420, 0xF68643F7, 0xDD7E074C, 0xC7000185, 0xF80A008F, 0x83714080, 0x377EBB15, 0xF277B9B0, 0x6055B9C6, 0x14E188E1, 0x982A0000,
    0x5C069F26, 0x483815F6, 0xD88965CF, 0xFC052168, 0x6670A7C0, 0x8334F7FF, 0xA806FFD4, 0x6388BC70, 0x29D3118F, 0x18877A70, 0xC2D7AF86, 0xBF2AC4D1, 0x678D95B5, 0x22FC53C1, 0x56E4E005, 0x04959699, 0x3645F00F, 0xC33BDAED, 0x1FB74C7E, 0xDF92CCB3, 0xD0FB9F3D, 0xECAD7BAF, 0x80F1F307, 0x0A7DD349, 0x83590000,
    0x8B60C127, 0xBEF5FADA, 0xBFFFEBE9, 0xEFFC1B3D, 0xFDB5F74C, 0x96743605, 0xF291FCFF, 0x847444FB, 0x07050E43, 0xEBB9AF1D, 0xFFE384E3, 0x83B81BE4, 0x79E09C0B, 0x9AC0E531, 0x2809FBAE, 0x50174096, 0x01E815FF, 0x231C0BE0, 0xC3D54ED4, 0x28B88F4B, 0xFB8A55CC, 0x14782D36, 0xF6CFD94A, 0x1348F8F8, 0xF3FC0000,
    0x448A39C0, 0xB2DD86DD, 0xFDF4255C, 0x4C76E817, 0xD03162AB, 0x3D4530F3, 0x988A1CBE, 0xF9B1C17F, 0x970938E6, 0xD2269B4F, 0x38D7385C, 0xA7B90BF0, 0x3EB76AA7, 0xF303F765, 0xB37C07FD, 0x9FD61FDD, 0xF8ABE6BB, 0x8F678B71, 0x0B7CFF05, 0x037719E0, 0x05C3E202, 0x101D80E6, 0x23D62E00, 0x6607BA5F, 0xFFBE0000,
    0x45E79B5A, 0xDFCDEF2C, 0xEEFBFA3B, 0xF00A19FE, 0x7217B76A, 0x81B097FA, 0xF7283F56, 0xDD5DDC5F, 0x03A75ED2, 0x202BC478, 0x0F5D6125, 0x7C3457F1, 0x9610830C, 0xA879F016, 0x1A730785, 0x81C85FAD, 0x89A0487C, 0x4F065F70, 0xE176313D, 0x5FF385DB, 0xD823F9B1, 0xB3FFFEC2, 0x97FDFCA0, 0xDFCB7AC4, 0x6BAD0000,
    0x791A0AB5, 0x107161E5, 0xE41105E2, 0x0126A7D4, 0x00046240, 0x0092464A, 0x63804BF0, 0x1D2FFFF2, 0xA3FBCF00, 0xAFF96E51, 0xC2DE6BAD, 0x99A11DF8, 0x02EAE58A, 0xC99F6AF2, 0xDBFE929C, 0x03E001A4, 0x84297E30, 0x412F0B06, 0x18E20402, 0x2E982C24, 0xDA1A839F, 0xE58C71BF, 0x8923B65D, 0x07F1C133, 0x37C80000,
    0x3A0F8A25, 0x39BF5063, 0xBFDD51A7, 0xF017C0BF, 0xC43260BE, 0x31D207F0, 0x4C8E3F22, 0x837BFA38, 0xFF0F8245, 0x10DC0410, 0x09B108A1, 0x1E1E080B, 0x67702BA4, 0x568D9040, 0x705AA439, 0x65910EEC, 0x7673D5D6, 0x09FF855B, 0x3BE38F9C, 0x7C3F223E, 0x4A5FA2AA, 0x596A0059, 0x0CB030F1, 0xEAFB13B3, 0x5E940000,
    0xF34F8025, 0xAE0FB98B, 0xCF9C0172, 0x7FF7B5F1, 0xF6613513, 0xFDFB8FDC, 0x9CC3F85F, 0x617B84FC, 0x0E47F71C, 0x90637180, 0x3FEEB81F, 0x093500B6, 0x81368289, 0x497FC003, 0xFFB1165D, 0xC8702E76, 0xC69278AA, 0x6C9A2F88, 0x2958F84D, 0xAAF5F16E, 0x078A32F9, 0x318DBCF7, 0x12FCD4AB, 0x54AFCDEB, 0xA1AE0000,
    0xD16486DA, 0xD7F5BA4A, 0xBABF583D, 0xE05B0C75, 0x11A511BE, 0xB4A843E2, 0xAAC3D103, 0x3E7CE863, 0x0A475C91, 0xE1EAF3AB, 0x43C8951E, 0x05BA46CC, 0x8101806B, 0x1892FCFD, 0x089E8B8D, 0x43C3D232, 0x207EBD61, 0x0FF5BD41, 0xEF730B35, 0x8D5EAF88, 0x3DF5F83D, 0xEFFE4DC5, 0x2EC63BB1, 0x65FFE13C, 0x03CB0000,
    0x482DF58D, 0x09CEAA49, 0xFFFF56BF, 0x7254731D, 0x2C5AFFED, 0x035F7400, 0x0BF5940C, 0x8BF209CA, 0xD18549B8, 0xCAF22EEF, 0x5FE990B1, 0x768B8027, 0xDBF1F16F, 0xC73734FC, 0x9EA2D4C2, 0x867CAF26, 0x864B7616, 0x70376C8C, 0x42A00984, 0x01615480, 0x0C1FC001, 0xAA60702D, 0x97BE4D18, 0x572FA29A, 0xFDB90000,
    0x6E5FBD57, 0x4D61FD20, 0x0075F801, 0x042A8825, 0xC5B48616, 0x006C8FE1, 0x5E0B8B0D, 0x9BF825AE, 0x53CDBE86, 0xBD65E819, 0x5CA25ED0, 0x7AE40FC2, 0x2F366533, 0xD9DA658F, 0x3C0F4F67, 0xF4B3767A, 0x7EA2D7A3, 0xF6A6BEB9, 0xE131C11E, 0x9C4F34E3, 0x8980C861, 0xE00240A4, 0x000256F5, 0xA8000459, 0x90F90000,
    0x60DF4875, 0xB0D62BF6, 0xC5F460A3, 0xCE3877F5, 0xA30A5EA7, 0xD9437532, 0x0EC3C753, 0x9510FEC4, 0x181DA73D, 0x08F004F6, 0x353E5DA5, 0xA49D8038, 0x0C391FDD, 0x7621F792, 0x281E7013, 0x97FBEA75, 0x3F982B17, 0x80123F75, 0xAF2C7A40, 0xD1EE19E0, 0x10EDE026, 0x063F58C8, 0x56D019B4, 0x016B526F, 0xFF750000,
    0x64274948, 0x5B9679A0, 0xB0CCB3AF, 0x42356769, 0x3FF0C14D, 0x3D902E0F, 0x038FF24E, 0x39EE002C, 0x2F34BE1A, 0x3EF67FFA, 0xF85DFE87, 0xD21BD00A, 0x2DE8855E, 0x280C74C8, 0xF2141328, 0x47E503FD, 0x3274B982, 0x1C971BE8, 0xEDF6EBDF, 0xFFE5C939, 0xD3CE96BC, 0x40013DB5, 0x003E7F70, 0x07F5A78E, 0x9A790000,
    0xD823A130, 0xDFFC13A1, 0x9ABDB23F, 0xB7555FFE, 0xAB2AFDF0, 0xE07F1FFF, 0xFF613F7B, 0x468055C1, 0xD8409258, 0x416BF4D8, 0xFFE6BF3E, 0x907BFF42, 0x3C798D4D, 0xEFA08B78, 0x78217B95, 0x4008B319, 0x81D7A770, 0xE00021FE, 0x00983FE4, 0x0532F4B8, 0x7EBF3B80, 0xFEA5C3CD, 0xED1BD3FD, 0x5FFE8DAE, 0xFF5D0000,
    0x569BA8E0, 0x7FF7F9B8, 0xFD3E51D0, 0xC16E3D0B, 0x0B01C1E4, 0x7B7A1C09, 0x439B5396, 0xB81F3ED4, 0x807FFF78, 0x16DFF6E0, 0x2255E49C, 0x651E56F8, 0x01F9BFD0, 0x0FD3CFA4, 0x2C0CD819, 0x00E633C0, 0x1F303A70, 0x72076B8E, 0xA271684C, 0x044DAD02, 0x36D7C806, 0x9FA6096F, 0xDB41FCA6, 0x0FFF8010, 0xEC140000,
    0x8C82344B, 0xBDDBAE9B, 0xDCA42385, 0xEFE678F7, 0x6D45149E, 0x8C30CDF9, 0xFE4E6979, 0xC54FD271, 0x1AFA03A3, 0xCF6A3EEA, 0x7F532D47, 0xFCE3E48F, 0xE64A945F, 0xC6B120BE, 0x7ECD6D8B, 0xD07E30D5, 0x57B28870, 0xF000608F, 0xE0A95F1A, 0x4640FFC0, 0x28327C07, 0x795F0052, 0xFF00F3F7, 0x98DE41FD, 0x4C580000,
    0x72DB3C6E, 0x95812195, 0x2718D912, 0x80F297C2, 0x19BE7DE8, 0x78FE2B07, 0x4FD6E0F2, 0x3FC6063B, 0xEBF1E3D9, 0xE51C6761, 0xF123F089, 0x34528039, 0x3FF00F6D, 0xCB617FF2, 0xF01F3E6E, 0x0BE836EC, 0x7101BB57, 0x4F4949F0, 0xC9A3EC47, 0x00DF30B9, 0x1EBDAD02, 0xEEBE0B02, 0xB1200512, 0x83002772, 0xAD9A0000,
    0x2083C72E, 0xD02A6FB6, 0x5F8C976B, 0x01353BFA, 0x83E590F5, 0x0C3477A1, 0x7980DE00, 0xEC79E031, 0x1E1F0217, 0x07D00131, 0x7E023257, 0x51DA89F4, 0x9FC45816, 0x640E78B3, 0x49406AE6, 0x0D57C37C, 0x8CCAD308, 0x1EE413C0, 0xB4F731B8, 0xC7D7A346, 0x1B73B670, 0x7C00E662, 0xEB4DA5BB, 0xFCE1F6EC, 0x25EF0000,
    0x37D45DAF, 0x648105E5, 0xD18C3489, 0x8940F7BC, 0x232C2670, 0x9784E74A, 0xC2291AC3, 0xF5D1413A, 0xA55A3AF0, 0xFD008CB2, 0xFC5960EB, 0xF508DD7E, 0x53C427FA, 0xE325FC33, 0xBAF383EB, 0xC2701420, 0x570277C0, 0xC103C80B, 0x4EEC5E85, 0x5208332D, 0xCD0A26FC, 0xE7C12FD5, 0xE60801BF, 0x3BB36C63, 0x37340000,
    0x9B9C0873, 0x3BD97F1F, 0xDFFF9DFF, 0x47F0E3F4, 0xF20403F3, 0x431ECC96, 0x87C61B8D, 0xE780F61D, 0x700F91A0, 0x01DE0F01, 0x51E460FE, 0x0B03BFE0, 0xF037ED74, 0x287AA553, 0xD9CB983F, 0xDC4E6364, 0xA7E24F4E, 0xA9200EF6, 0xC91B9B01, 0x07FAFAF4, 0xFB0F9032, 0x2DC9A6E2, 0x9F05863E, 0x7FDB899F, 0xFFE00000,
    0x0F7DAE5B, 0x6676302A, 0xF7DFD78E, 0xEFFC5053, 0x7B965EBF, 0xFEE062E9, 0x90030026, 0x70E800FE, 0x87BC60D8, 0x3E115E8D, 0xBF4A3D96, 0xDF47FC37, 0x046EA67D, 0x77D861D1, 0x5F878917, 0x50788242, 0x46340690, 0x5D0A9DAB, 0xB19A53FE, 0x09E31DE4, 0x44009907, 0x828B8AF1, 0x50474989, 0xF7505156, 0xF5D30000,
    0xB097506C, 0xCEEE8054, 0xC2EB61F8, 0x7D1B2E2D, 0xC811C14E, 0x2F8C27A4, 0xD298FB95, 0xB1047C35, 0xD741DB88, 0x3CF9C4B6, 0x0A9C8AF3, 0x0783BA45, 0xDCDF08DE, 0xC7BA527C, 0x2532C3DC, 0xB25EFDE1, 0x3B0DCC83, 0x94DD6D3B, 0x017429EE, 0x10228785, 0xF8C35029, 0x908702FE, 0xDAB5E561, 0xDF9F535B, 0xEEEC0000,
    0x7FEB7F0C, 0x3F5CEB53, 0xFFF7EEEF, 0x6A3A3C18, 0x198BF388, 0x4B197011, 0x45EF0625, 0xDE05D01E, 0x987C02D6, 0x05EB3EC5, 0xE1A381FE, 0xA1FCF3AB, 0xDF775C8B, 0xA8C6C4FB, 0x35BDB6E3, 0x105EBA72, 0x0FB66D04, 0xFB22395F, 0x63E15F0E, 0x6F3BBA02, 0x47710013, 0x8F76879B, 0xDFDB71FD, 0xBFDF855E, 0xF5110000,
    0x4CABAC5F, 0x3F8328CB, 0x6267DC86, 0xFB8E4DFF, 0xC0525F40, 0x23BDD03C, 0xEDB80BBC, 0xC097FFF5, 0x84FBFEE8, 0x7EABD7CF, 0xDE2E373B, 0x033F0CA3, 0x7837233A, 0x146C10C6, 0x3010E229, 0xF8848A23, 0xB27D863D, 0xFDBCE7E7, 0x4992C10B, 0x10A15BA0, 0x9280E17A, 0x39B8AB6B, 0xFFEFEAD1, 0xFFFF8F0B, 0xC73C0000,
    0xCA848994, 0xDE46717F, 0xDFAB87FE, 0xBDED427B, 0x25C76B18, 0x071D6120, 0x32A80009, 0x8EC0001B, 0xF0842BBD, 0xC8F4CFF4, 0x2571999F, 0xCFD6C1E4, 0xFBECFFFF, 0x691F77FF, 0xA3B3BFFB, 0x112E9DC6, 0x83487C90, 0x4E1B8123, 0xA19D29C8, 0x0AB1C020, 0xF82701C1, 0xA56CCF65, 0x0AD48D70, 0x3F0B1466, 0x6E7E0000,
    0x191F2568, 0xCD9C1554, 0xBFFF162F, 0xFF9D7F7F, 0x402F5F41, 0x99DBC3FF, 0xF7683FE6, 0x5A13FCC4, 0xC5E87E71, 0xB809C38D, 0xE16E8222, 0xF0B0003F, 0x2C90147A, 0x725F6290, 0x10CA1045, 0x1FD0D0E9, 0xF944EAD0, 0x1F8526A3, 0xF9D532DE, 0xD3D9193B, 0xD527EA72, 0x2BBFF4AA, 0x0FF16769, 0xFFEEB26F, 0xB0400000,
    0xDC6BE507, 0xF89C1087, 0xC7D298BD, 0xAC595EF6, 0xE224509F, 0xC0129172, 0x8F1607D0, 0x3BF0F510, 0x3F0DB8F7, 0x90E64300, 0x1BA220FE, 0xCDCB0396, 0x0555FA04, 0x4CAC48A7, 0x71F91EBB, 0xFF0D78D1, 0xE1F3CF76, 0x9CAF8BE1, 0x7DFCAE87, 0x033E9C7F, 0x177DC382, 0xA4790647, 0x2ECC0BE8, 0x97A0EC1C, 0xFEFE0000,
    0xD2FF4695, 0x7EFEC723, 0xDFFEA99D, 0xEFEF48FB, 0xCF52F373, 0xF39752B7, 0x653FB16F, 0xF16D8D72, 0xFD84B714, 0x28428588, 0x038FE074, 0x707839E5, 0x0CC3B108, 0x3CFAF866, 0xB49F07F6, 0x16F04B65, 0x891ECC86, 0x07648B00, 0xFAF988DB, 0xFF5A8EFF, 0xDEFF7FF2, 0xCBDFFBCA, 0x36F4B5A0, 0x948B78F8, 0x608B0000,
    0x3F465BAB, 0xC2EED272, 0x10FDE858, 0x770416B7, 0xF7D6770C, 0x923BA089, 0x75FE057D, 0xE9FCBFAC, 0xE7FEDF5D, 0xFE6C3EE7, 0xC3033FF0, 0x08604806, 0x06A12288, 0x56005275, 0x3000142A, 0x42EC6764, 0xFB1FD2BC, 0x8EEB7AAB, 0x34EDED1A, 0x53CF727D, 0xB8D5BF1A, 0xBF9CFC59, 0xFBDEE048, 0x371EA622, 0x461C0000,
    0x163A29A0, 0xAEF1B947, 0xB5690630, 0x54B31004, 0x578B44BE, 0xF9918F41, 0x6440F49D, 0xF71F34CA, 0xA1DE4062, 0x9E7488C1, 0xC161C89D, 0x4F573930, 0xB6533BA7, 0x9FAE28D0, 0xA79DD70F, 0xF1E7C990, 0x9C9C1333, 0xDF50F238, 0x700C6783, 0xC0E579CD, 0xC18B879E, 0x2B559ACD, 0xAD801306, 0x0C485200, 0x58C20000,
    0x6F526252, 0x1E16A93F, 0xFFBFEEFF, 0xFFCD5F8B, 0xB286FE24, 0xCB46F780, 0x33974023, 0x7C900242, 0xFB82F7CC, 0xF5FD4E93, 0xFFFF4BF3, 0xFFF5FF5F, 0xF829C09A, 0x16A72652, 0xB294900C, 0x0028008A, 0x08085300, 0x090D7008, 0x40DEC783, 0x0D5DB955, 0x68FD0021, 0xB7F01354, 0xA75BFACF, 0x7FDFF71E, 0x77E90000,
    0x0E9340C0, 0x0FF2C9DD, 0xAC1E57DF, 0x52FC8819, 0x3F47E0A9, 0x965C011F, 0xDC14AA7A, 0x7D0BEBBC, 0xCCEF3DC8, 0x8FF477C4, 0x623FB89E, 0x40EACCD1, 0x8578AF10, 0x4620DE80, 0x6A03B10C, 0x72FC1147, 0xC94028A0, 0xF60CE030, 0xC0C06CC4, 0x0FC3DE83, 0xE6C9E060, 0xB7CF010A, 0xDEE16D1A, 0x1E97249C, 0x43EF0000,
    0x9B9C7821, 0x64A2180A, 0x40B88F82, 0x096C8800, 0x20FC23A8, 0x172CA93F, 0xE4F56FCE, 0x248BB2E3, 0x4BD7E70D, 0x6C794374, 0x447F2580, 0x8520F015, 0xF8BBF47F, 0x1FFDE983, 0xAAFFE432, 0x9FE00334, 0x03A93260, 0x2627E102, 0xAAC52167, 0x7EE04E17, 0xBE4D85FE, 0xCFBE7FF3, 0x7267B4DF, 0xC049F1C9, 0xA1A40000,
    0xAEA2225F, 0x002DFA36, 0x813F0434, 0xC041626E, 0x077E2074, 0x069FC466, 0x7BCDD7BE, 0x5F99BD91, 0xE1FEFB97, 0xE6E93EFF, 0x4BDF87F0, 0x32332E00, 0x27E21028, 0xFA00901F, 0x700BDE70, 0x42AE5F20, 0x7D07EE19, 0xDE2F8BBD, 0x504EF197, 0x14271340, 0xC6FC7F78, 0x12DFFAF5, 0x19275710, 0x52E2D347, 0x46CA0000,
    0xEDA24037, 0x46F956D6, 0x082B6562, 0x09031AF3, 0x80635DE3, 0xE58DFBCE, 0x1FA4EA58, 0x59E0B91D, 0xE61EE0DE, 0xE3F97BBF, 0xD327BF18, 0x8839C140, 0x431D2861, 0x4628FFFB, 0x7905D8A1, 0x004EA5E4, 0x77F09DC4, 0xB248B868, 0x5093A14F, 0x7931E4C5, 0xCF982BF8, 0x97633F16, 0xE03F3AB9, 0xA6BE1B58, 0x7FE00000,
    0x36D1AE3A, 0xEAEF6727, 0x792D46CB, 0x901970F8, 0x284425E8, 0x16DEEF64, 0xEFFBFC77, 0xF4FFA128, 0x65F6A1D2, 0x0473A3DC, 0x0F6A3540, 0xE891AE3C, 0x32708534, 0x4B0A104A, 0x236D1535, 0xA2860685, 0x387BE65D, 0x84BE82B9, 0x54674670, 0x52410DF1, 0x66756C2A, 0xCD0FC1B9, 0x77DF0303, 0xCFF7DC57, 0xE2CB0000,
    0xACD74FAB, 0xA66282C0, 0xAA3DEE5B, 0x0FFA2C06, 0xA9EFD1F7, 0x3F04FD9A, 0xADEE9C5D, 0xDCE2E7FD, 0x02C7C37B, 0x446E5837, 0xCFCF6127, 0x11870CEA, 0x96E2278D, 0x98C517EB, 0xBACAF375, 0x39C0E28C, 0x970F78EB, 0x253138A9, 0xF31AA80C, 0xC23D1736, 0x424FE4C9, 0x6AEEB0BD, 0xA24EA556, 0x564A5E9D, 0x1A050000,
    0xA090BD56, 0x7A2186F5, 0x142C8640, 0xB43D3B24, 0x5BC74D04, 0x4964C7BB, 0x4B5F5F76, 0x7BB5EFFF, 0x7E830FAA, 0xF835FAE7, 0x85565F7E, 0x4EABE9D2, 0xF7B68B93, 0x2328ACD6, 0x302DF0F8, 0x20AACE80, 0x1309B40B, 0x399E92D3, 0x96CC0D11, 0x78236347, 0x8C138848, 0x04460119, 0xB63B4B1C, 0x669F2EDF, 0xBBAA0000,
    0x10FF100B, 0x7B0EA045, 0xA2AA1506, 0x9423C7E4, 0xD2DD7991, 0xF795F31B, 0xF81D5DCB, 0xF5F36B26, 0x7A6C062F, 0xF07B92FF, 0x83737B6D, 0x1DCAF668, 0x7C5A74F7, 0x91B7E58C, 0x4C0C0918, 0x6F919D1C, 0xBBD4C98E, 0xC899106E, 0xC35F7F61, 0x9DC0AD8A, 0xF01608FC, 0xF0982BBA, 0x0CCA4A28, 0x3CBDDE85, 0x93990000,
    0xFA27ECD3, 0xDBBC46F6, 0x2EC71903, 0x771703A7, 0xF876317D, 0xEB3057FB, 0x0E230FE8, 0x76C0FFD7, 0x780F653F, 0x007F1420, 0x07E4EA68, 0x1F23C3E5, 0xE473E27A, 0x31EE43B3, 0x3C016833, 0x2A4626EF, 0x33BAE96F, 0xD4963EA7, 0x6073805F, 0xF6B1DCC7, 0x4F629E5D, 0xB4BECCD9, 0x59B6B15B, 0xF27DE592, 0x433B0000,
    0x2F75201D, 0x66CA8F98, 0x46EAB27B, 0x7F7D8977, 0xCEE09F9A, 0x241F40E5, 0x1DA0CF74, 0x1B5C3BAD, 0xF007BD91, 0x246E0C5F, 0x85A019EE, 0x1A0B8E43, 0x4AE8047B, 0x87C320B6, 0x96CF06F5, 0x71B172D6, 0x1D87B7CA, 0x8E1D7FF1, 0xC9CE4235, 0x1F344EA1, 0xC4CBF6A0, 0x6C1F9BD1, 0x3F7F8243, 0x677FD51F, 0xFF190000,
    0x52BF34E3, 0xC6BEA482, 0xD1B1BFBD, 0x76183114, 0x078881E5, 0xF9A81317, 0xFB053EEE, 0x2A3CFFE8, 0x239FDC78, 0x3C007AC0, 0x0002E234, 0x0025F0D9, 0x854D78FB, 0x86A2B7D5, 0x867A4E4E, 0x7EF7652F, 0x431528AC, 0xA5B1618A, 0x2B6E0BCB, 0x3204CB81, 0xFA032BD9, 0x280B8CEB, 0x01FFFBAC, 0x0CFBE57F, 0xF9260000,
    0xF6925DBD, 0xBFD4E08E, 0xDC7EAE93, 0x8938DCD8, 0x5AC3E20A, 0xEDE820DB, 0xD6682DBE, 0xF4A3EDD7, 0xF216F05F, 0xC3BFE5D8, 0x7AAA19C7, 0x46FF68E0, 0x4D46CEC0, 0xCAF4E05C, 0x2FC64A91, 0xB41843BA, 0xE2E63958, 0x9E05AE7F, 0xC8997EED, 0x0A327E00, 0xEDC9D907, 0x6B400C3E, 0x44001A0C, 0x0034E804, 0xFDE20000,
    0xACE8CE73, 0x32DE9C61, 0xB82ABA7C, 0x01F4A22A, 0xFD67D5B1, 0xDC54FE57, 0xC3C2C344, 0xCC6C3BD7, 0xFFF71FFF, 0x3E6F22FC, 0xA5E64900, 0x60CA002E, 0x23E03010, 0x640078D3, 0x100FF555, 0x05F952D1, 0x9E73DFFD, 0x758EF9B6, 0xB4E3E7FC, 0xE76D7AE7, 0xE83ED5FC, 0x92B70A27, 0x31589DC4, 0xED2E1ED2, 0x1CD00000,
    0x8ECB2EBC, 0x44A81DD2, 0x1A31101D, 0xB6ADAE37, 0x6967457E, 0x02C916F7, 0x6FA10036, 0x26218FC5, 0xA147FC96, 0x4DFFF8C7, 0xF3FD89FA, 0xA2635ECF, 0x05FBB003, 0x95F00353, 0x2001EC27, 0x401668BF, 0x83EE837F, 0xE2AA42F6, 0x403B1284, 0x14A853CB, 0x200B5AB3, 0xD8AD1FBE, 0xF177FD4E, 0xDCBFFB9F, 0x44AD0000,
    0x62E2BC21, 0x873E191D, 0xE83C15B6, 0xB6765EDA, 0x7BE1FCAD, 0x75FF82BA, 0x9B5CCDC3, 0xFE9DE47E, 0x8E0D83F8, 0xB8333627, 0x27F0A0AE, 0xAEA7BF70, 0xCC00E42D, 0x1A15B880, 0x58FD1980, 0x03DF4780, 0xDB84D904, 0xCC04F88F, 0x80D53030, 0x9E0C2700, 0x639B4029, 0x9FAE0030, 0x7F131F8B, 0xDEF80A1D, 0x2BAF0000,
    0x308391E9, 0xCF3282AE, 0x241ED083, 0x0DC08829, 0x7E8E2CD5, 0x0D7AFF7B, 0xA897E6B1, 0xB6E8C2AA, 0xD89D5768, 0xE9005ECE, 0x91C26AF1, 0x01887A72, 0xE007C45D, 0x113E9EA0, 0x657AE30A, 0x11FD1411, 0x32E41A8E, 0x0C00A003, 0xD047B53C, 0x27776701, 0xA1BEF00C, 0x348F47E2, 0xC6D904FF, 0x67999EEE, 0x8C960000,
    0xD8861D12, 0x37F676F9, 0x78F5E7EF, 0xE1251DFD, 0x2074FFF7, 0xFD7AFFE9, 0xE4BDFFD5, 0xF8A3F977, 0xA016EBED, 0x0000F600, 0x000A1014, 0x00D20301, 0x14A3EA01, 0xE73F02FC, 0x35892E3C, 0x0805F610, 0x02E266C0, 0x692F877B, 0xBFF39F30, 0xD7372F8F, 0x33A2A6B3, 0x8F55478D, 0xDFCC8952, 0x7FDE03F7, 0xEEDB0000,
    0xE101AA57, 0xE851F39D, 0x086103C0, 0x8145B4DF, 0x844529C4, 0x12A997E0, 0x98055836, 0x079307F2, 0xA8578E08, 0xE9A7D03E, 0xF7DF605B, 0x641015F8, 0x0000785E, 0x14C1C212, 0x8C004817, 0x601D611A, 0x1F9835FC, 0x4E0103E0, 0x7076EE12, 0x0CBCB082, 0xBBED674B, 0xBD903074, 0xD56F9BFF, 0x4D8990E1, 0x13210000,
    0x65687EA3, 0x5F3F53AB, 0xB9F9D2A6, 0x7A0BC967, 0xFE1A277D, 0x27D15FE0, 0x762D400A, 0xC37800A2, 0x3F000A64, 0xD03CFDE6, 0x03FF8B60, 0xCDE66A10, 0xBEE6512A, 0xF9A762BC, 0xE41E1D4C, 0xA92CB189, 0x565FE76F, 0xAED7684B, 0xB7FBCFDC, 0x5F3E6036, 0x01E0801D, 0x284833E6, 0x20CA35CB, 0xFF2A7CF2, 0x6F820000,
    0xB0CB43F7, 0x38DF85A2, 0x25EFBB51, 0x0806F75C, 0x2A69F241, 0x6E9CAC01, 0x358DCA63, 0xC9EF8173, 0xFEFE1DD4, 0x8EC09DD7, 0x1F852C17, 0xE4CC4C7E, 0xEF040FA0, 0x8303EC4F, 0xB81B00F9, 0x01F29F21, 0x0800FD0D, 0x4B4BC978, 0x0EA7FB8F, 0xDDBDE649, 0x981DC6CF, 0x9D383AF6, 0xD404089E, 0xF82FA0E5, 0xBB650000,
    0xFCFE6964, 0xED3D445E, 0x3FDDAFC0, 0x841626C6, 0x80D465E1, 0x4833387C, 0x2E024FF5, 0xF9132ABF, 0xAA59AF3E, 0xD7ED91B7, 0x87EC50D1, 0x8BAF901F, 0xCAE206F1, 0x3BA0FD13, 0xD04E8C4A, 0x03C07F10, 0x38BE96B3, 0xA0F8D0B0, 0x78AF0FC2, 0x3C881C04, 0xF3B3E17C, 0x0EFC1B33, 0x8BC6CE49, 0xFCFFC3D3, 0xFBB00000,
    0x8D973C98, 0xD597F01A, 0xBFF8116E, 0xF6543FBF, 0x91532078, 0x678055E7, 0xFC7D51A1, 0x263F966B, 0x75210D1D, 0x135E6098, 0xC717ADFC, 0x1E6D4E94, 0x33091B3C, 0x6801FCAA, 0xE0020FEB, 0x0013E73C, 0x03D6D4D0, 0x3CF39EFF, 0xA7117FF7, 0xF1BFFF6E, 0xED3FFFA7, 0x3202E56F, 0xE80B7DF9, 0x0DABE243, 0x62B90000,
    0x5A2D09D0, 0x8B289EF3, 0x5400570D, 0x00007EEC, 0xD0A8DBC2, 0x237182A0, 0x23C4E405, 0xA80F5002, 0x87601574, 0xEB50295F, 0xBF80600D, 0x6019A4BE, 0x0A51DEA3, 0xEF065F3F, 0xF8B147FA, 0x12F866A4, 0xBE7ED808, 0xC0F3090F, 0xA7D0CE01, 0x52B5C03B, 0xAF180623, 0x7D843EC2, 0xC09143CE, 0xDCEF6BEB, 0xA86A0000,
    0xBEF0FD03, 0x99F8D089, 0x5E3ED225, 0x4983FC64, 0xDE6CE13C, 0xC19BF91D, 0x6EBE0FDA, 0xCBCA935C, 0x70FAF5BB, 0x1FCF9CF9, 0x7F2F5F9F, 0x368390F8, 0x84EB1EA0, 0x0BBF1AFF, 0x67E13C14, 0xDDA34837, 0x81BE8100, 0x15C85688, 0x7C103DD6, 0x82B382F5, 0x0504D721, 0x218597A7, 0x6EFFE5A7, 0xFE1F04BE, 0x32A50000,
    0xA93008E9, 0x58C6C033, 0xDC2F5457, 0x42FD3C4A, 0x1DA4C9A3, 0x71B40839, 0x5D870783, 0x1A7A785C, 0x3E1C1FA0, 0xC1E32A82, 0x64EAA79E, 0x6F921AFF, 0xEB919BD8, 0x1C05F884, 0xE29EE826, 0xD08D20A0, 0x6F4C3708, 0x94414703, 0xC02D5318, 0x092FC943, 0xC03B981B, 0x3D45D7B5, 0xCF256188, 0x8EF57AE4, 0x7B040000,
    0x91373AE0, 0x789AD42F, 0x2E7D4CB3, 0x601FEDF3, 0xC0ADBE18, 0x02ABD32D, 0x2D0061F5, 0x7D0509B3, 0xC3E06558, 0xBC1F4507, 0x826DA760, 0xFE4CD53F, 0xE7178BA1, 0xA708BDA6, 0x4FDBA840, 0xBFE1F4E0, 0xF7BDE9D0, 0xC8602F4B, 0x5F7C887A, 0xC22ECFCF, 0x4F7ED778, 0x1A16F578, 0x98F8AF5D, 0x8FC6778F, 0x9EB00000,
    0xC8C6D550, 0xDFB7FED1, 0xCE5E649C, 0xE91C8870, 0xE4DD371A, 0x84C2E025, 0xB80BEB9B, 0x30E21F75, 0x17CA5C70, 0x7540414B, 0x98064BA5, 0x2217269F, 0xA0112BFC, 0x8F18B730, 0x6ECC3D03, 0xBA83A8FE, 0xE81E1BA6, 0xD3982D52, 0xAA5063BB, 0x0C9907C0, 0xC51B321C, 0xFA1EE099, 0xFFE0ECEF, 0xF982D044, 0x123E0000,
    0x593609E1, 0xC73CE657, 0xD05D3E08, 0x55D35BB3, 0xF6E79783, 0x5EAE70F1, 0xCCFFA7B0, 0x06EACC60, 0x8B0474F1, 0xF0747A2F, 0x018253E8, 0x1F31837F, 0xC9803B4E, 0x34F8B273, 0x403AA67F, 0x224280DC, 0x0805D700, 0x07C1D4E3, 0xA5FBF2FE, 0x9CABBEAF, 0xDD6BECDA, 0x197FE645, 0x3CF3F6D8, 0x5859F6B1, 0x09BD0000,
    0x8B8E0037, 0xD6DF1440, 0x189DE616, 0x02F7EF60, 0xA3C8904D, 0x871B67F1, 0xDCA1F18D, 0xD03E4475, 0x3F1E5AE1, 0xE0BCB9E8, 0xA5859CDE, 0x2E632FC8, 0x3A106A57, 0x4DFC72C0, 0xBE1E7005, 0x8EF8A7F0, 0x3C73F89C, 0x61FF8F47, 0xABF03D0E, 0x5EBD3006, 0xF2443DF0, 0x90517B3B, 0x04F7FFE1, 0x3BEDBEFD, 0x51650000,
    0x10516FFE, 0x9BAE3CEE, 0x235C8501, 0x2A454616, 0xDD4A9A5E, 0xC88A3546, 0x139054B9, 0x8D90D39F, 0xE96F92AB, 0xFF5D16F6, 0x77925F87, 0x5A57AA1A, 0xFE3778F0, 0x1B0784F1, 0x67E41F8C, 0xFE29B8CF, 0xC2A992E8, 0x009B4E01, 0x4F30DA3D, 0x86C165F4, 0x007A0B12, 0xFCE09005, 0x1E1F4120, 0xADE9ED3E, 0x66EE0000,
    0x0F2863E0, 0xB7F691A8, 0xDBFF26EC, 0x295ADCE1, 0x03D4AF7C, 0xDF0F8B10, 0x70C8099E, 0x37850FFF, 0xD522F6BE, 0xA67D1AE7, 0xF0FBB70F, 0xBBDFB8FF, 0x09DC4B64, 0x0B0A7100, 0xE756BB74, 0x391AE1A5, 0x941E3342, 0x958ADEF2, 0xDE1ECC29, 0xB06AA9FC, 0x26416D07, 0x10E3C809, 0x22AE8510, 0xB088C6FB, 0x44840000,
    0xD8084A99, 0xC624923E, 0x800CE104, 0x01036E19, 0xB71B453F, 0xD9FC6033, 0x000036B4, 0x3D417A01, 0xC40F51AA, 0xA57488A8, 0x96A5E339, 0x321C277F, 0xA3AFD6FC, 0x268F3FF0, 0x2356E8C1, 0x1FEB0731, 0x12C02B20, 0x2800BD03, 0xE017D0A9, 0x58F6DD43, 0xEF2BC7D6, 0x27837900, 0xED261107, 0x88247A47, 0x9C330000,
    0xC9379C57, 0x60118F24, 0x082CCB9C, 0x866C52E3, 0xCEC2D5D5, 0x90457C02, 0x485385B5, 0x767C7FEF, 0xF9F6EE20, 0x3A7DCA3D, 0xBA325A16, 0x384104A0, 0xC7E0A493, 0x2300D476, 0xC03C6738, 0xE34C1DE4, 0x7C6BF4AD, 0x491F40F0, 0x10E70F90, 0xBE61F805, 0xCE95C11F, 0xC3FFC2DB, 0x07F87FE8, 0x0486A436, 0xDD9E0000,
    0x922618F6, 0x776FCC0A, 0x797F8F3E, 0x83785BA0, 0x7D82EE07, 0xCB8BE0EC, 0x9BEC57A2, 0x570FF587, 0x6430D6D4, 0x7601A645, 0x237B6FB6, 0x4BAAC731, 0xF464BE23, 0x14DB7251, 0xC052AA0C, 0x761907A4, 0xE7B07627, 0x60695563, 0xF4172F73, 0x0AD1FEC7, 0x415F1618, 0x65D99733, 0x8F6D74B8, 0x9FFBADFF, 0xFEB40000,
    0x069BE91E, 0x89CBDCF4, 0xA7FF9B74, 0xFBF98F67, 0xD7B37D03, 0x800C51ED, 0x1A77FAEB, 0x82DFFF96, 0xDC44C3B3, 0xE400A042, 0x001964E8, 0x00A80A30, 0x00543BD2, 0x4A575FF3, 0x169FC800, 0x04920B03, 0x69998217, 0xAAE943B8, 0x46864BB0, 0x24818E8A, 0x1016F882, 0x8CAC04BF, 0xBF366099, 0x77F7CE9F, 0xFED50000,
    0x3A6940A2, 0x5AFAEE4E, 0x0CDFA739, 0x23E9390D, 0x3DAE9175, 0xE831B01B, 0xC2C506AE, 0x66F5FFF7, 0x34610E2A, 0x3E03B971, 0xB01D8773, 0x4AE980FF, 0x3F465E5C, 0xDC9C8794, 0x08B0F80D, 0x7E0F82D0, 0xA758AE74, 0x27D6CDA2, 0x97123790, 0x3361E7C1, 0xD9B5C271, 0x67382BF1, 0x41BF46DD, 0xCAFC9995, 0xF9260000,
    0x474F21CF, 0x09EA7387, 0x6BF794D7, 0xF1D6BF28, 0x6966A276, 0x0208C540, 0xF2442D65, 0xBC9A0872, 0x29A10871, 0xD622520E, 0x0041A4D8, 0xE790733F, 0x797477B7, 0xD91BDE66, 0x77F5E7F6, 0x3B9466BC, 0xA102FDCF, 0x8073185B, 0x13F3C1E4, 0x0A08E1F0, 0x33190312, 0xE157EC49, 0xE52E846F, 0xAAAE937D, 0xA3A60000,
    0xF6FFFC94, 0xFCEBC892, 0xBCF2D2EE, 0x499E9DFD, 0xA4D98777, 0xC697D305, 0xF2C23DFC, 0x6EF4BFD4, 0x38402E4B, 0x75001B0F, 0xFE45E167, 0xF02007FC, 0x04F21FAC, 0xDE204FF7, 0x600173FB, 0xB00DC11B, 0x005C1ADB, 0x82C817E1, 0x331CD7F8, 0x61D02C60, 0x31F2A401, 0xDFA5C15C, 0xFFD04939, 0xF2EA536C, 0x380D0000,
    0xA9AB1356, 0xA4239C50, 0x1799D93C, 0x3405230A, 0x43EFFF1C, 0x1958F1CB, 0xF0155DFE, 0xE2837DFF, 0x2E77BF62, 0xEB907844, 0x387BF121, 0x046D3680, 0x818107B0, 0x21847082, 0xF03F0F3F, 0x3FEAFD7B, 0xDC338F53, 0xC85D03FE, 0x03E2C6E5, 0x1F33AA10, 0xCAA6E87F, 0xC35601D7, 0xD900784C, 0x04A27608, 0xCBAF0000,
    0xE0D055E6, 0x13E7EBAD, 0xADFBDF37, 0x03F76D90, 0x1DF6F405, 0x1BEE4102, 0xE95E0D7E, 0x6141FF1F, 0xD67FDDB9, 0x43FF6D86, 0x067F3147, 0x8036F6E7, 0x86E1C740, 0x4A2C6B80, 0x0EC65806, 0xED2923B9, 0xD5006293, 0xE28D42CA, 0x92F80CC8, 0x82B53F5B, 0x98F6801A, 0xA8F8C9B9, 0xDC881260, 0x554F9C61, 0x1C070000,
    0x787A2726, 0xFE75DA22, 0x60829361, 0x2D2CB42F, 0xC0E781FE, 0x05684BF1, 0xDDCB1B0C, 0x6AE1E1E7, 0x757F0F15, 0x8CE6588D, 0xDE46613D, 0xD9D0E4FD, 0x46D5237F, 0x9306BC42, 0x3A5E43B2, 0x0C24B5AD, 0x222A381C, 0x5B9B6BC1, 0x494F1C1C, 0x03F980C8, 0xDB1A1FD3, 0xDDA0AE1E, 0xFA2CEFCC, 0x58603200, 0x11FC0000,
    0xF9C5A411, 0xC7FFBB09, 0x3FBF93B0, 0x4E84D9B2, 0x485AC9E4, 0x3C2048EE, 0xEE465DFE, 0xED15FB2F, 0x96620514, 0xA80F4E2F, 0x805BABB3, 0xC624C3EE, 0x63917A31, 0x2FCBFF7B, 0xE13E2F45, 0x8006C7D8, 0x00CC7F80, 0x3ED7BD13, 0x90FDA6F3, 0x14027E42, 0x75BFC691, 0x1FFE43E5, 0x98127ECF, 0x5DF263BD, 0xFE360000,
    0x1941E17D, 0x8B541D98, 0x523AEBC0, 0x0F05CB89, 0x043AFEC0, 0x140FE57E, 0xEB6FCEFE, 0x6E1BB894, 0x69EE67E3, 0xF4DFEEED, 0x808676E1, 0x0A9FBF08, 0x8E79BF5B, 0x2AF7F781, 0xB43E3208, 0x6E904861, 0x030B1A40, 0x80196303, 0x31820DF0, 0x4F413801, 0xE011A1FC, 0xF9050B19, 0x837EFCC9, 0x6F9F2A3F, 0xFB790000,
    0xF47D4EF0, 0xDB1EDA2B, 0xA6FF24FF, 0xF37C300C, 0xAF3B1787, 0xD8E81CDE, 0xFC8F1B92, 0x60E3C02C, 0x19E004E8, 0x78009269, 0x000B65D6, 0x7ABE3793, 0xE1C2F13A, 0x989DEE1E, 0xC4272AD5, 0x4FF3A11E, 0x4CAB55F4, 0xD1AFEE77, 0x1D46E5B4, 0xB8A1F2FB, 0x6F83FE96, 0xF802A599, 0xE1B7F905, 0xDCE9485D, 0xBD2A0000,
    0x9F287E8A, 0xABCFF24B, 0xE37B79BD, 0xDE770AF3, 0xFA0D6453, 0x4BE03FFE, 0x83DE5F91, 0xBE8B9E89, 0x984BE9AF, 0x0C7FCD14, 0x036DBCA8, 0x1B99FA11, 0xFD57D53E, 0xCD1E7ACA, 0xBD442EA9, 0xECF10919, 0x6873F987, 0xC7574C70, 0x62238B8C, 0x2BAA70E0, 0x2747922F, 0xDCF0CF51, 0x5F00F28E, 0x13FF41FF, 0xFDE00000,
    0x1D743DB7, 0xB1D76F6B, 0x9F3FFEF9, 0x5B972E93, 0x2023C481, 0x02503600, 0x3534B000, 0x813C2817, 0x9CF9A3DD, 0xF8230FDC, 0x81A08E80, 0xBFF3803E, 0x5CD287BE, 0xDF38EFFC, 0xB9DE0CAB, 0x91F0E4FD, 0x8A678BED, 0x38C9CF84, 0xE450B020, 0x20F380B8, 0x156B2218, 0x5CB04D19, 0xFCF7C43B, 0xF3FFAC7B, 0xF3E90000,
    0x4D925CF2, 0xB7C5E8C0, 0x521F7060, 0x2A1A9CB9, 0xAAB518FE, 0x1FB2F5CF, 0xFE050D67, 0x9C670497, 0xB53E823B, 0x83DA5BF8, 0x3EA0772F, 0x0A9BC3E6, 0xC0FF6D6E, 0x86871EA3, 0xAD7FE29E, 0x05EE2190, 0xD6E42320, 0x3C83B803, 0xE0434836, 0x02B78AD2, 0xF5397CF0, 0x5F1E2285, 0xE1F72210, 0x980A0543, 0x0A6E0000,
    0xC466A30D, 0xBAFE6857, 0xBBE3DF27, 0xF26B17EC, 0x7CACBEC2, 0xCA83F2D1, 0x6A9C3D6A, 0x7E071791, 0x61E1848E, 0x183B9DEA, 0x1FD0EA93, 0x14E8593C, 0x9F4FD380, 0x3E1DE824, 0xC23C4274, 0x4E01E561, 0x317D45D5, 0x24B5D409, 0xE2F224F8, 0x09BADC19, 0x570045C1, 0x7047A069, 0x5578CFD6, 0xF34A9447, 0xF7110000,
    0xE01CEF55, 0xFBDF21CA, 0xDEC6DC3F, 0x5C946628, 0x185BC384, 0x061A1686, 0x0F3E7005, 0xF99FC643, 0xBEFC235F, 0xEB8243E6, 0xA1A5AC0E, 0xFA12C01F, 0xB8D1107F, 0x7603FEA0, 0xC1789E75, 0x97D306E8, 0x39E6D500, 0x9A42DC97, 0x5CED28B0, 0x017A0502, 0x63692006, 0x1C8118CB, 0xFBF9C1BD, 0xEE3F619B, 0xD28B0000,
    0x3D371442, 0xCCFE2E51, 0x7FF7EE61, 0xF768D571, 0x3A5B6396, 0x46FF6E11, 0xFDD5ABEF, 0x3C372577, 0xE0024390, 0x0100B600, 0x7C08C03C, 0x417C1FC1, 0x2FC7FD13, 0xEDFF909F, 0x995BC7E7, 0x290766D1, 0x485F5D04, 0xCEB6002F, 0x271B6173, 0xC0FD4B34, 0x14EC5016, 0xB7D800C3, 0xFEAD7930, 0x4041BA4C, 0x9F0D0000,
    0x6365C7CB, 0xB8C8DA06, 0x3BBB567D, 0x19994E3E, 0x982693AB, 0x2E02C603, 0x9CDE543B, 0xBDFB122A, 0xE8F5B465, 0x02763E2E, 0x2D1D41C0, 0x6DDB3239, 0x7B801807, 0xFF01C3AE, 0x983D9C7D, 0x1F800CF5, 0xF98104B3, 0xE402B16F, 0x404731F7, 0xA2D2DECE, 0x112DDF75, 0xE05BB2CC, 0xB4219B31, 0x800023C7, 0x5F9B0000,
    0x917D449D, 0x1B6E730E, 0xFFFF729C, 0x37AC399C, 0xD3C2666A, 0xBD08AED4, 0xEC5E7FF6, 0x78BFDB63, 0xC1F2B466, 0xC7C287E3, 0x0802F5E0, 0x204F2401, 0x77E980CE, 0x7E000006, 0x045826F8, 0x09C01775, 0x4E00EBC0, 0xCEC5755F, 0xF61BBFFF, 0xFA7C6FF7, 0xC1FFFFED, 0x2BDFFCD1, 0x3DE7796D, 0xBFB4E0EF, 0xFF8B0000,
    0x074CE9DF, 0x1E86E17B, 0xBFFA7BBE, 0xECDEDEBC, 0x5524FCC1, 0x1E1C1C82, 0x7C61001F, 0x1B107FCA, 0x79ABFBE0, 0x816E9F79, 0xC47873CC, 0x67B6F6FA, 0xAB1B1DC5, 0x3721F401, 0x5A1C6F0A, 0x91EB0850, 0x3C28F623, 0xCA8F61BC, 0xF1340397, 0xB21EAC00, 0xC2ABA5DD, 0xAB7C06B5, 0xBB0070A4, 0x4407A660, 0xD2820000,
    0x547548B4, 0x1723DDAC, 0x855AFCC0, 0x726E406F, 0x0C0D67C3, 0x251D0E1A, 0x5325C2CA, 0x9F9876E3, 0x4FC5DE26, 0xF824522D, 0x037B65F0, 0x19DAEF81, 0x5FCD062B, 0xDD9F2190, 0xAC787CC6, 0xC687AC3C, 0xB0F767B4, 0x3FC85E05, 0x8BA3E877, 0xBFE1552D, 0xC9A3F55E, 0x6DFF4FA3, 0x81F360FB, 0xCFC8DAE1, 0xD33C0000,
    0x51153A80, 0xFB66C4EF, 0x796DC477, 0xE6F696BC, 0x6B3D46C8, 0x6CFED211, 0x3ADF0984, 0x8FDC559F, 0xD02AC4EE, 0x5ADA4F2D, 0x0FE77150, 0xDFC2DFAD, 0xF887F2FA, 0xF73E0FF1, 0x55C3FC7E, 0xFA1EE78F, 0x03D05AB0, 0x2807D983, 0xE2E64088, 0x01E00401, 0x5C1B9451, 0x1567DA99, 0x0BB66154, 0xAFD3866A, 0xEEDD0000,
    0xEA7B04F0, 0xFC77EBA7, 0xD47E7548, 0x90070A05, 0x41CE41A1, 0x65D4060B, 0xC0019DB3, 0xBC1E3E92, 0x4061FC00, 0x3F9DB702, 0xAE5F231E, 0x100C10B8, 0x00D07E88, 0x1E05D840, 0x8C1D005A, 0x50F610A8, 0xD160245A, 0x4A030F65, 0xE16A3640, 0x12968D40, 0xEAEF7124, 0x008F7101, 0x44D3853F, 0xF2FF383B, 0xFBCD0000,
    0x35D1706E, 0x72843426, 0x57780AB6, 0x27FCECCC, 0x3F882E44, 0x66AE760F, 0x3BA6C692, 0xDEFA6552, 0x876081B2, 0x59F05EAF, 0x2D8072F1, 0xF03FBC0F, 0x80A9C3EB, 0xA53CBFE0, 0x4EA3C437, 0xE006053A, 0x01082090, 0x20065014, 0x00DD9940, 0x44CAF463, 0x80BC8206, 0x1FC81F26, 0xFCC1F65C, 0x2376CF42, 0xF75E0000,
    0xB4A57959, 0x3F8D5350, 0xFDDD5FED, 0xEFB998BA, 0x300D64DF, 0xD758FF02, 0x7607F490, 0x40FFC55F, 0x2A7E34CF, 0xC8B61D3E, 0x75715C17, 0xE27BF40F, 0x30532771, 0x0DFCE58D, 0x4C8E7A94, 0x7E83A2FF, 0xC8DC275B, 0x9344E673, 0xEA84984E, 0xA7F417C3, 0xC389483C, 0xF172DFB2, 0xEF53F536, 0xFFEFC579, 0x83EC0000,
    0xB3A06568, 0xA1B90848, 0x66BBA907, 0x35FB23D0, 0xC4E677E3, 0x3CDA8EAA, 0x0A4752D5, 0xF047132E, 0x005BAB60, 0x303E9744, 0x8C8DF598, 0x78AF1E4D, 0x8C7C4BF0, 0x2BA87C31, 0x4C0D8D3D, 0x83E47E84, 0x743F9507, 0xA7AFCAF8, 0xFA8E0A88, 0x7AEF7817, 0x0A47CA38, 0xEDFC0431, 0xAFC37690, 0x32BF824B, 0xFB870000,
    0xC240D8DF, 0xC727352C, 0x18000815, 0xA4E50888, 0xA0B88000, 0x1E9E0846, 0xE17C2025, 0x8CFF9BDA, 0x03FFF183, 0xBFFFE688, 0xF19EE0F8, 0x2072FF56, 0x0D6CBE63, 0x839EF66F, 0x7D52FF74, 0xE5FEE287, 0x01DACE80, 0x3877F282, 0x13A69600, 0x23F8B800, 0x803D501F, 0x5B8017F3, 0x509A6E51, 0x813FFEE2, 0xAADE0000,
    0xB813300E, 0xA487DDBA, 0x1E1E40FD, 0x8DD659B2, 0x7DDA1EBF, 0x3FF3E0B2, 0xF07A043E, 0xFD6000FA, 0x0D08DEE1, 0x68CBEE0D, 0xDB6D615D, 0xFB5322C3, 0xD366C7BF, 0xD3BAF0F0, 0xBF97761A, 0xB06204A0, 0x0905EB6F, 0xC128319D, 0xEAAD94ED, 0xF2BD3DB4, 0xBFE4EC05, 0x301A045E, 0x001747F0, 0x085A94AE, 0xC4720000,
    0xE9F8AC71, 0xDAFAE719, 0xA90093A0, 0x02977A09, 0x5567421D, 0x6340062B, 0xE060D7D3, 0x7C2AB7DB, 0xC0F90E79, 0x1FFD9E00, 0x5EFB6147, 0x4A5B7817, 0x92C3A705, 0xCF3E62BC, 0x620729C2, 0xDC045BCF, 0xE382AA61, 0x5E6FB595, 0xE1682449, 0x8AEF2740, 0x22B77822, 0xC03801EE, 0x0402116C, 0x406011FD, 0xC9480000,
    0x8BD1157C, 0x44062271, 0x88FF8D4F, 0x0721DFB0, 0x19D73183, 0xB10EC296, 0x2502FF41, 0x29947155, 0x8F0FC06B, 0xA9A200E4, 0x2CE3A723, 0xE300F27F, 0xF637CFFE, 0x1F0FFA52, 0xB7FC51AF, 0x90A05448, 0x04125610, 0x50008A0B, 0x048B8460, 0x0B7D7F09, 0xB3FA8626, 0xFEC24BC2, 0xEDA80A5F, 0xFA0D236D, 0xA92B0000,
    0x9EE36584, 0x6637BE59, 0x81A549C1, 0x8617B020, 0x1067C7AF, 0x65FFE45D, 0x23701BFF, 0x2E91CB5A, 0x92C74B16, 0x541C6808, 0x04166A6A, 0xD416DACF, 0xF9AF7F7F, 0x5DFAEFFF, 0x5BFFFF0E, 0xF01F22DC, 0x00F43CC0, 0x1A868803, 0x80E30DE8, 0x1481B789, 0xBBF0F05D, 0x05CDE296, 0x10BF7FC6, 0x614AF131, 0x1C1B0000,
    0xAF698F59, 0xAFCEF3D7, 0x202D20BF, 0x610CF8B8, 0x00EFF680, 0x3450FF28, 0xFDB1FC0B, 0x7C5FC1AD, 0x0EFA2053, 0xFE3B6381, 0x3F933F00, 0xB86E947E, 0x29B10A61, 0x102250C1, 0x9524C5BB, 0x2DC1C22A, 0x8137921A, 0x04760FC0, 0x8DE8B224, 0xEA200D9F, 0xC8B15328, 0xBFB65F13, 0xD2DA98AD, 0xFFEF037A, 0x636C0000,
    0x809006F8, 0x37DF4AF6, 0xAA7FEE4B, 0xFD9DEE72, 0x3314C923, 0x5C3EA0A8, 0xD7E974FE, 0x984DE4B7, 0xF225A37A, 0x1BD7351A, 0x7633EDD3, 0xFFBFECBF, 0x39964433, 0x86C4C1F9, 0xF722AF87, 0x530A6333, 0xA38319BF, 0xDA360AFF, 0x410D1FF8, 0x0F937DC4, 0x6AD90007, 0x7E00033E, 0x20082B88, 0x077CA6D0, 0xFF3D0000,
    0xC8D30548, 0xBD148F42, 0x7FB0F392, 0x71B40705, 0xD8AA69EA, 0xD197FAC0, 0x77CFCC4F, 0x1879D3BC, 0x893C5162, 0x41C74710, 0x10BCF021, 0x25CC2C3A, 0x5EB58F76, 0xF7BADE68, 0x9E57DFF6, 0xE9FFFC3D, 0x8F7FD688, 0xFDFF697E, 0x0D698BC4, 0x68E47A01, 0x0CA7E042, 0xDAFF00F3, 0x34122D26, 0xFB0C3D23, 0x7F7C0000,
    0xF6BB25A3, 0x37B787C3, 0xEDF2FB28, 0xF7431CFF, 0x8FF86DFE, 0xC7C1D4A4, 0xC024B3F6, 0xE1FFE557, 0xEFF0073A, 0xFC1C3E08, 0x80A26240, 0x04280298, 0x10B93BF3, 0xAECA6ECD, 0xE933768C, 0x021E1238, 0x01C7FFE0, 0x38FCF883, 0xFFE5EE5F, 0x9E265E6D, 0xDD96F05C, 0x199F6D6F, 0xB8C3FD4B, 0xEFFB6788, 0x31AC0000,
    0x4898CDE4, 0x55A54B01, 0x489F2AF3, 0x03FA2BE1, 0xBB27EC0F, 0xC28D64B3, 0x2D75AFFA, 0xF4CBF532, 0xFE180333, 0xF3DC8F5E, 0x1A253FE2, 0x18833A73, 0x64EBC407, 0xEEBC90F1, 0x6EC75E97, 0x7D6BFDFB, 0xE635A76D, 0xC2ED539E, 0x1AFFC2C0, 0xB3FA3E46, 0xF30FE272, 0xC0780651, 0x8F8025A5, 0x0F87ABD6, 0xFC8C0000,
    0x2AF756BF, 0x2380C2D4, 0x026B1D1A, 0x31C0F700, 0x9813984E, 0xD5E0334A, 0x3A89B1E3, 0x65443E21, 0x87C3C04D, 0xF8368164, 0x0FE8AF01, 0xF79B6C7E, 0xDB444FFE, 0x65A97323, 0xF24770F9, 0x863604E1, 0x6B4479A0, 0x7FD3357B, 0x20030F86, 0xDFB99171, 0x810D1A5B, 0x58F8F5C8, 0xFCA4CD4F, 0x96510927, 0x80690000,
    0x03FE5846, 0x63D91C0D, 0x2CE4DDF0, 0xEFE54440, 0x64D89689, 0x03584E20, 0x46447F8E, 0x7942BEFE, 0x5CACFEF0, 0x38376966, 0x018BB040, 0x0F651173, 0x8DB37FA6, 0x8AFFF417, 0xABFF00F9, 0xEBFC136F, 0x21E830CC, 0x5F9EA709, 0x7D0D821F, 0xF0B05745, 0xDE9D62BF, 0xF7523FFA, 0x5DF7BAA2, 0x8ABFB65F, 0xAB2E0000,
    0x194D563A, 0x6A636B7F, 0xD27D9396, 0x073E1500, 0x7101E806, 0x0A5A941E, 0x49F11AF4, 0x3527EF9A, 0xC1FF7F2A, 0x2FFFBC94, 0xCFBACB16, 0x00344FBC, 0x58A27884, 0x9674D200, 0x063CB002, 0xA71A2827, 0xF9E058CF, 0x9A8EC3B9, 0xC0E86708, 0x2590FD03, 0x60E3EA1C, 0x14CFC120, 0x009149C8, 0x17F8785E, 0xE3C20000,
    0x0C27B634, 0x11FBD004, 0x37FE3C30, 0x97D5A02E, 0x36E70876, 0xFFC0187D, 0xF360DFE3, 0x539EFCFE, 0x024C0540, 0x1B804B80, 0x88037F09, 0x8433FA3F, 0x9E4712E1, 0xA7FE67EF, 0x55C394F8, 0x58B89D5E, 0x1F5DDEC0, 0xFEB8442D, 0xFB9E89FE, 0x7D0806FE, 0xC085ABD2, 0x083B7AB9, 0x00370E23, 0x40042458, 0xFC590000,
    0xB84856F9, 0xD9B236B3, 0xBF9BB62C, 0xAE4E481F, 0x000EE674, 0x0A567B01, 0x5DFAF085, 0xDEB7027B, 0x18F21FD0, 0x04B1E601, 0x63FB70BC, 0x18EA07C0, 0x4331F880, 0xF2FEC057, 0x3D6FD7BF, 0x827E7724, 0x03DFE100, 0x7E7F0567, 0xB3A7FF8F, 0xF3DBF86F, 0x73DEB8DF, 0x6FF207C1, 0xFF017F5E, 0x04984DA1, 0xDEDC0000,
    0x4076F7AB, 0xE9008ECC, 0x00BBF2B9, 0x022977FA, 0x2026DE8F, 0x05FDE4BB, 0x09AE0C47, 0x2C070F21, 0x6171BE76, 0x0E17B599, 0xA134ADC0, 0xDFD7E40A, 0xDF4749FF, 0x711C5D6C, 0xFDEFFE75, 0x98D0EE14, 0x9A78FCDB, 0x7677038C, 0xE1FBDD67, 0x9C70E070, 0x891D9974, 0x05548FE6, 0xF599075F, 0x1747B31B, 0xB7F10000,
    0xDECF173B, 0x3BD1CEAE, 0x01ECB7C4, 0x00003418, 0x546B40C4, 0xEB0400B5, 0x27E60991, 0x495015F7, 0x3A2A5BC2, 0xBB224EDB, 0xB9E679BF, 0x9E2FDC70, 0xEF578FAD, 0x91F2FAFE, 0x39CF5B1E, 0xA1E4948C, 0x040050F8, 0x0008E63D, 0x811F4A32, 0x574767F4, 0xDD3E3F07, 0xE0923E4D, 0x940BABC1, 0x70097B20, 0x266F0000,
    0x2A2AFAD5, 0x080131B3, 0xC4810E0A, 0x00206C98, 0xC2CB09E3, 0xC1D0FF51, 0xDA0FF48E, 0x84D1A1D4, 0x5E7D8EF4, 0x0FF8173A, 0x3B1EF116, 0xC237DABE, 0x47989070, 0xFDA800BB, 0x22C3FB35, 0x5FCD71E1, 0x75AA0ED8, 0x0A4A7B00, 0x470EA824, 0x9F5BC167, 0x85F85F35, 0x3C0C9C4C, 0xFFC96A0F, 0xBEC5F93C, 0x95F90000,
    0x6D7C41E3, 0x9EFFBCF3, 0xEE53819D, 0xE5FA2C66, 0x7E6FFAE3, 0x40AC4C7C, 0x05D537EB, 0x87B97CCF, 0xF7C083B9, 0xF85B5EA7, 0x0F4977E0, 0xC1DEBE18, 0x949FC0A4, 0xE73810D1, 0xDFC12D93, 0xDB193CA3, 0xD02F4F5F, 0x96B8F34B, 0x7C92A1E1, 0xA31215EC, 0x0C224701, 0x9D72CE13, 0x4EE2EBAC, 0x19F737D1, 0xDE650000,
    0x1521329F, 0xDF64ED78, 0xBFFFDA22, 0xD38A4910, 0x5795A6EB, 0xA09BB7A8, 0xF4BD94C3, 0x1AB42B0B, 0x3C741651, 0x80084B6F, 0xA07A129C, 0x05865F94, 0x3066A0B8, 0x0E3F6B10, 0x46FE820C, 0x83F31465, 0x7CE01F20, 0x5D042002, 0xF9D9E0A9, 0x1C74F9C8, 0x13B73112, 0xBBF891A1, 0xFFE7378B, 0xEFAC92DD, 0xB41A0000,
    0xB5E2A43E, 0x19EFCA38, 0x77EBCBDF, 0xB67C2459, 0xAA2004D3, 0x977037B9, 0xA80FD905, 0xA0515488, 0x3B6A87C7, 0xE3F9546A, 0xFEC14A1F, 0xBF41F0C4, 0x5E88827F, 0x20FC51F9, 0x959070EA, 0x9F8652CF, 0xFA68F65B, 0x9FD642A1, 0x9E267A96, 0xB937BFC9, 0xDB006B68, 0x9134EF9C, 0xF7AB98CF, 0x32759FD8, 0x05E50000,
    0xC4701762, 0x82444979, 0xBF5D1BBD, 0x39B20F6E, 0xD225E4C3, 0xBF91CC45, 0xB676C384, 0x7C14481C, 0x8106C178, 0x02313CC0, 0xE909C0CE, 0xC39A03D8, 0xFC977EFF, 0xD9EF5F72, 0x97BF1DBF, 0xFE682C25, 0x814A5BF9, 0x6F8328E3, 0xF7133A1E, 0xB176AD4B, 0x10BA41D7, 0x89C881FE, 0x034096C0, 0x58030A60, 0xCE680000,
    0x4596C680, 0x738EF878, 0xB8AC128F, 0x79E311E9, 0x6DDAB9B5, 0x0269FB58, 0xEB87CF3C, 0xE2981EFE, 0xBE51E60B, 0xCC90D0FD, 0x8C6DCB5F, 0xF71E73B0, 0x7C8D9D27, 0x12FC0570, 0xA7C7FBEF, 0x0F8209B0, 0x7AB0C50B, 0xB3B1284B, 0x23DEE6B3, 0xA95A3533, 0x753367DC, 0x918FCFB7, 0xBFE59CDD, 0xC84F88B8, 0x93730000,
    0xA139BE84, 0xCE229344, 0x6F7F2928, 0x28215901, 0x34FB00EE, 0xC745BE0A, 0xD9B7D38C, 0x3197FB70, 0x607DDE5A, 0xC087E0ED, 0x113FEDE0, 0x2BA0CF87, 0xEB7AFBEA, 0x2565F911, 0x96BD2449, 0x53D98124, 0x4F4B4C40, 0x4330B901, 0xBA4C148D, 0xFFE4AA1B, 0x7EAE0DF6, 0x892CBF4E, 0xE06FE849, 0x5F89E67F, 0x27E00000,
    0xAD18FB15, 0x1C3132DC, 0x1D823D95, 0xE89566AF, 0x8070F67E, 0x077703D1, 0x6D901F86, 0xCE63C4C6, 0x053C445B, 0x59C131FB, 0xB862E3F2, 0x94088E58, 0x4E2ECB80, 0xEFE134AE, 0xBC203FB6, 0x8E7D97CF, 0x3FA2ED24, 0x5F8473FC, 0x7BCEF64B, 0x6AB07A3C, 0xB13F85C9, 0x2E7C7AE7, 0x7F206617, 0xC0028EC4, 0x3D940000,
    0xADB50F22, 0xE48C9617, 0xF95F36BF, 0x95B95DB8, 0xFB06FF87, 0x2CD4647C, 0x74F40782, 0x1D68F006, 0xC40F83FC, 0x92E01D6A, 0x6C012D38, 0xCE9385A3, 0xB27CFB45, 0x4E1AE993, 0xCFDCDFE6, 0x15B3676F, 0x5848A385, 0x1FCD3BC8, 0xC726DBA4, 0x387F1597, 0x975F9FD4, 0x3119AA23, 0x02200780, 0x10014C3C, 0xED0D0000,
    0x4B3C8909, 0x26FFD88B, 0xDFE81BFF, 0xFFFC9FD7, 0xF975FFE8, 0x165F6038, 0x2DD8074D, 0xD401DD3F, 0x80B92D92, 0x3F8FFBDF, 0xC1FF2DE0, 0x1748D40F, 0x6B6005F6, 0x0EE8A8D3, 0xE4D2C1FE, 0xE3A302B7, 0x96AEF951, 0x857DBDF7, 0x51E540FE, 0x25504B70, 0x671AEEAD, 0x8C48B7A8, 0xFFECE66B, 0xFFFFC81E, 0x71B30000,
    0x329FCB41, 0x35AF44EB, 0x3F6FBCE5, 0x8D38A8DC, 0x1E6F9E22, 0x35F10794, 0x78D4B95E, 0x4D0DC554, 0xD60741CB, 0x71D2C57F, 0xCF3079D0, 0x9743823F, 0x3852A4D5, 0x7660FE7C, 0xD01CC4B3, 0x01D443D0, 0x7A0EFE47, 0xD0FBE9D8, 0xE39E0CB7, 0x3E1CE70D, 0x8A0EF828, 0xC513D36A, 0x833EC759, 0x72317A67, 0xFDD70000,
    0x02F80E64, 0x78F81E53, 0x9FEDE15F, 0xFC06B0FB, 0x784276BB, 0x6B1AF9FB, 0x06F3DB3A, 0x97FEB3F7, 0x3AA073E8, 0x00D27C00, 0x3416E001, 0xA66600C9, 0xD5101F7B, 0x245FF069, 0x2FD7F3B7, 0x78DA4E7E, 0xA37A8375, 0x5699FFD4, 0xDC8D0300, 0xA6BE26C8, 0x99942872, 0x7B4A04B7, 0xEA1817F2, 0xFD0058FF, 0x7EC60000,
    0xD2B75445, 0x75F871B9, 0xDFFFE0F3, 0x77BEAB5F, 0xC01B7FF6, 0x26567BFE, 0x07D8FFED, 0xFE93FE24, 0x281FF0A8, 0x20370E00, 0x05ED8281, 0xFDB3021F, 0x0015B7D2, 0x13C13C12, 0x0FCFE274, 0xB5042B1D, 0x379349AE, 0xADD9F3AF, 0xA1AF07B1, 0x081448C4, 0x3508C880, 0x1F394279, 0xFF81A46B, 0xFFFDCAAB, 0xF9C60000,
    0xAB02BD2C, 0x0D64F2A3, 0xF2D3B871, 0x93625473, 0xC9FB8BC8, 0x0838F747, 0xEB0F7EFB, 0xA8DAFFEE, 0xA557FD15, 0xE000593F, 0x022750DC, 0x01EF1DDC, 0x67E059F4, 0x83463A11, 0x9520F65C, 0x2ABA0540, 0x16783C00, 0x4184A4CC, 0xB08A4229, 0x0F806082, 0x5C2A8945, 0x06F00B0C, 0xBBDDB53C, 0x7FE7CEFA, 0xEF6E0000,
    0x94198E2C, 0x5FA4FE8B, 0xFBFF76B6, 0x3A90C0EE, 0x7C04A866, 0x0DE59543, 0xFF44687E, 0xFD9C0D64, 0xFCE3BCE1, 0x087F0F1E, 0xA268C1ED, 0x13C38E20, 0x5F618882, 0x9360CAE5, 0x0A3D70D3, 0x839E19A8, 0x7994C007, 0x85913078, 0x3A952F6D, 0xC1BA645C, 0x008FE1B4, 0x007FB0BF, 0x8ED639B4, 0xC9124BE7, 0x6EA50000,
    0x23F07A5C, 0xE7F7A01B, 0xF420B458, 0x14448581, 0x0A52F905, 0xD967219F, 0xAC781F50, 0xFB61CAE6, 0x560FBFA7, 0x54156646, 0x040A9FE3, 0x18073E76, 0x30E4A311, 0xDEB43A30, 0xE0C0419D, 0x000E2B90, 0x00FF2FF6, 0x016C4BF8, 0x2F80FB51, 0xE97D442E, 0x1DC687FE, 0x442188A4, 0x527AF6BA, 0x10AC6F61, 0x22640000,
    0x3A1F1A5A, 0x6725C4F4, 0x05B73C80, 0xF8C8A41F, 0x066605E0, 0x6550BEBB, 0xEA8B83EF, 0x923E37F7, 0x07C0BC6C, 0x2E003A12, 0xCC03E2D4, 0x6041F0F4, 0x80ADADFE, 0xC81E6E2D, 0x605DA898, 0x4B3E8CF7, 0x03F37BA9, 0x2D9CE865, 0xF1C1E954, 0x1FC1AAE4, 0xC89A0C4E, 0xFA75633F, 0xE49FAABF, 0xF7CB187F, 0xF1AD0000,
    0xB7B44996, 0xFA6A040B, 0x27CAFD4A, 0xAEC75ABB, 0x60EAA400, 0x42ACE157, 0x147FFC02, 0xA7FF4FEC, 0xBFEAFCF4, 0x035BBF40, 0x18B62013, 0x986201EA, 0x0121FF47, 0xDE5FDC3B, 0xFFCC790D, 0xED03514F, 0xF21E357B, 0x20E1E62B, 0xCC11B313, 0x862F2190, 0xE4FDEC16, 0xB854298F, 0xBF931603, 0x5532C4B2, 0x7BD30000,
    0x9E2C0906, 0x93E3B2C7, 0xF63E7050, 0x5BB36E25, 0xF72EE066, 0x10E346E2, 0x1CCCFD74, 0x778F05E7, 0xF0E3566F, 0x1B2E1CD5, 0xA26DF744, 0xAB853F31, 0x267B7B32, 0x4F1BF2AC, 0xFF2BAA83, 0x5DE0B159, 0x5F380681, 0x4B5B6A38, 0x18371EE1, 0x03F4A71C, 0xEB6BD2C2, 0xD38319F3, 0x78F1E374, 0x43D4820F, 0xBF7A0000,
    0xC3D8CD0A, 0x56E761E4, 0xCE62FB64, 0x9F65D864, 0xCCFC1C4F, 0x2FC0E59A, 0x790CB63A, 0x31AAFFFC, 0x4C477C0C, 0x8C023DEA, 0xF80A358F, 0xA0154177, 0x052802C9, 0x0EE0BF83, 0xBA8C7940, 0x782EA239, 0xEB79A3DC, 0x0E818DB0, 0x704861EE, 0x05B06172, 0x10471808, 0xEE7D2330, 0x7FF8FBBE, 0xFBAFDB59, 0x6CE70000,
    0x3737B790, 0xFCFB7320, 0x30BD3CFB, 0xFE8095EB, 0xCC107BBB, 0xA2978433, 0xBCD2803A, 0x94013AE6, 0x6DFE87BE, 0xFF7F330B, 0xF2F67100, 0x1E628E03, 0x2D03334F, 0x5EF200FC, 0x10E5A105, 0xB00E41A0, 0x9663286A, 0x820C27FC, 0x15347F62, 0x05407780, 0x0FC5285B, 0xF41F00E0, 0x11EDCF00, 0xF21FC38E, 0x65950000,
    0x6867ADD9, 0x3FDBEA07, 0xBEA264F7, 0xE6CBF5FF, 0xDC6AB1FF, 0xDC1DD2CE, 0xE6DFC048, 0x6678407C, 0x7C1BFF4B, 0x06E1E580, 0xE08260FE, 0x88101EC5, 0x1BE2C725, 0x7E12CCDE, 0xB827F765, 0x408FF4F0, 0x007F4C02, 0x47F483B6, 0x4E831AD9, 0xB22F7B28, 0x44DF5A39, 0x07DBC048, 0x68F6081E, 0xCB65CC9B, 0xD2200000,
    0x744F5B8C, 0xBA7E80B3, 0xE03F1471, 0xC6B8481A, 0xD0662074, 0x1F700F8E, 0x4C999734, 0x70E0E1BB, 0x16171662, 0xFEF2046F, 0x8E93355A, 0xF13361F3, 0x1E1D13E2, 0xB4B7281E, 0x5B0EBD40, 0xB7DAF5B8, 0x391BF41B, 0x282EF0E7, 0xA73C8770, 0x799A0885, 0x1795CEC1, 0x7C9DF696, 0x132F062B, 0xD80D7A65, 0xFD160000,
    0x703C3AFA, 0x41B48D16, 0x79717E40, 0x8E7D1797, 0x5BBC212A, 0xBB848DBA, 0xB40B7C9F, 0xD08283CB, 0x3F3442E2, 0xF6A0CE06, 0x2145A0FD, 0x02DC13F4, 0x74190F33, 0x61E1F4C4, 0x9C7C17EF, 0x9BE86FFC, 0xEE79FB35, 0xCFBEAF75, 0xBFF055E5, 0xDDCFF636, 0x4BE83482, 0x4B5E80D7, 0x04590B3F, 0xBF23DCFF, 0xFFF70000,
    0x82261717, 0x340A1305, 0x00C9F7CE, 0xFDAF2E3D, 0xFD9A4C02, 0x036A1020, 0x38000811, 0x51CFFFB6, 0x6FFFFDD8, 0x7FFFEFA5, 0x7F56C033, 0x182AD00C, 0xC248015A, 0x267207D4, 0x3F807D01, 0xEC2501CF, 0xFF932EBF, 0xE60F47E3, 0x554E0003, 0x4D5409E2, 0x964AA218, 0x2D05DEA7, 0xD29FF279, 0xF7F729FF, 0xA7A20000,
    0xE22C6C09, 0xB6C7D361, 0xFFFF84C8, 0xAAA1EE3E, 0x5A045F79, 0x2ECFF160, 0x68AC334C, 0xD78597FF, 0x83C19C3D, 0x7E773DC3, 0x5AEF5D15, 0xDAB2E07F, 0xBA671580, 0xDEACACC7, 0x234447D9, 0x1F0288F1, 0xE2B1A474, 0x02F94D04, 0x43C44749, 0x1974FCA1, 0x0158543B, 0x11E21036, 0xEF89ADFF, 0x8F900FBB, 0xF6560000,
    0x45FF22E1, 0xBEDDFEBB, 0xFFF34BF9, 0xCF3B0E3E, 0x24477C15, 0x210C5C80, 0x2021F45C, 0x8C6E409A, 0xE7F18213, 0xFC022F6E, 0x8E90B6E0, 0x27507629, 0x78DAABE7, 0xDAFA117D, 0x25F0678D, 0x5C0179DB, 0xF8F805EF, 0x9FE065A1, 0xF70F214A, 0xEC200FCA, 0xB03236E2, 0x0FA6CF38, 0xFBBFD31B, 0xFFBFC073, 0xA0230000,
    0xA7153FE5, 0x9BD64498, 0xDC5F1DF6, 0xD97957FF, 0x9038FEE6, 0x718F5835, 0x2899070D, 0x1F10017F, 0xF502FC39, 0x3CE53791, 0xF3CF31DF, 0x2EF3CABF, 0x34B77FFD, 0xBC7AF574, 0x63C78CC6, 0xF07C8F2D, 0x847F7EE8, 0xDE395D8F, 0xAF24F0FE, 0xF34E4AD8, 0x1C7447D4, 0xA0831351, 0x813CA0B8, 0xFD7BF46B, 0xD6BF0000,
    0x2ED58713, 0xC1A58DB8, 0x1CCD1061, 0x6327CA05, 0xD2931FBC, 0x08CA2114, 0x02D521B2, 0x6244309B, 0xEE0ADB3C, 0xD0291F0E, 0x8799B4D0, 0xFA071F8B, 0x0FF1AABA, 0x6BDE2300, 0xE3F0F5CE, 0xBA2C3DAB, 0xCCEC1609, 0xCB0CE30C, 0xC61CA780, 0xC1C77C40, 0x690E1115, 0x23E0C001, 0x5F1BD87E, 0xF9FF9CB3, 0xE9050000,
    0xB9F5A95F, 0xC74F1434, 0x43DCD242, 0x633C6703, 0x7A2C6B4B, 0xF932A878, 0x472647F1, 0x9BD86E2A, 0xBA8FE3BC, 0x80F85F08, 0x0E851083, 0xEA843358, 0x667153B1, 0xCE4C5FFB, 0xF06FDF32, 0x915358F5, 0xA49C0269, 0x3A503B12, 0x1B130969, 0x942B1D05, 0x2279C042, 0x5D1A4F76, 0x55F086BD, 0x83A0788C, 0xFED60000,
    0x1A642FE4, 0x3FF4143B, 0xFBBCBDDE, 0xA7718749, 0xF7CA90CD, 0x8578EC2C, 0x68EE7892, 0xCA048432, 0x9C1F4C3C, 0xFC2BBFCC, 0x81AA2DB0, 0x86882262, 0xB15FC400, 0x0F9FBC50, 0x217FE50A, 0x07F6E03A, 0x3AA20420, 0x1F61C002, 0xB665C054, 0x2FEF55F7, 0x3EB5E406, 0xDBFF9B3E, 0x7FFFFE43, 0x7FE4DBB9, 0x20AB0000,
    0xDDEC7B81, 0xE028B432, 0x51806BB1, 0x11428376, 0x2847ACE6, 0xF6A08F30, 0x3820E427, 0xB0075263, 0xC0F75E3C, 0x0E204209, 0x4524C00C, 0x44DA67C0, 0x0361FE07, 0x8DEFFD1F, 0x5F97EFFE, 0x791FFF66, 0x7FFFE9D8, 0x5F6231C1, 0xFF03CFA3, 0xD53D2C06, 0x3A820390, 0xF9D108F8, 0x4A001116, 0x6800DB44, 0xFDD70000,
    0x8F561782, 0x233C3342, 0x00F03763, 0x95C1C717, 0xF011D59D, 0xD0AE349F, 0x30EA83AE, 0xD7D03D79, 0x543396FD, 0xC2787995, 0xD3023D7C, 0xA00043E8, 0x8B2827E4, 0x44B7F525, 0x868509C7, 0xB82EF27F, 0x4CD65AE3, 0x8E532A54, 0xDE3A603A, 0xE0E10AC6, 0x23C705B1, 0xBC0BBF0A, 0x43D1E301, 0x00A05FE0, 0x19D70000,
    0x28BF3B67, 0x5DBB1683, 0x61EFDE88, 0x0F078800, 0x84388386, 0xA238FE47, 0xDE68FECD, 0x87EBFACA, 0xE7E57F3B, 0xF99F7BFD, 0x3A173FA5, 0x376C4516, 0xBE78E435, 0x3A4DB4FB, 0x75FF7419, 0x13FEFBE4, 0x096B3E40, 0x0590E081, 0x15C3D315, 0x1ED82B4A, 0xD5FE4039, 0xB18E0F59, 0x7F57FE5F, 0xF37FC3A8, 0x27E60000,
    0x8F5EC31A, 0xC421F51C, 0xC6895458, 0x0396B369, 0xEDF9AE5E, 0xDEDFF29B, 0xE4FB5C26, 0xA2A72403, 0xFE880776, 0xC008447A, 0x8DD54EC0, 0x7717FE06, 0xF125E02B, 0x55BE07E3, 0x07BCFE99, 0x5F0D20DF, 0x46A02FDF, 0x1F039F40, 0x60DEE2F9, 0xDC35391B, 0xF990726A, 0x3C614FE3, 0x941BC50E, 0xFFAE54D0, 0x5F160000,
    0xAAC2B7D1, 0xC77C3757, 0x87CA5344, 0x4127E00B, 0x12F78080, 0x01342561, 0x0003E0F1, 0x310EF7F2, 0xA8FB2F60, 0xE754EB76, 0x7AFE239F, 0x8B377EBA, 0xB779EB87, 0xBBBF04DE, 0x98378687, 0x1FA0FF64, 0xDA296478, 0x809E7AA9, 0x01F60881, 0x8F865EDF, 0xD3C7BE1E, 0xA42549A6, 0x8C1FC9E5, 0xA3BCA59B, 0xF7F60000,
    0x4FECF619, 0xE030DECD, 0xAFC05951, 0xBF249375, 0x828B038D, 0xC2B14832, 0x080F3CD2, 0x1B13BF71, 0x781FDC69, 0xF004FDAD, 0x020BABFB, 0x80617BC8, 0x026FCAD8, 0x020FE736, 0x40064B59, 0xD779A3B2, 0x69DB20AD, 0x709B621D, 0x7442EC93, 0x98F847CF, 0x5ED5275E, 0x7C33998A, 0x90081D39, 0x0809EF62, 0x19500000,
    0xB35A86F5, 0x95F5FFB1, 0x29AE2586, 0x595E0813, 0x1768E219, 0x2E20139B, 0xE0C3101A, 0xB50F57B2, 0xBE537E5B, 0x1EDF0DA2, 0xFEDFEACF, 0xF50622FD, 0x13D10F00, 0xFE3CB0B1, 0x25D1E884, 0x0C1F3399, 0x4BA01027, 0x1E074725, 0x40688F5C, 0x06963780, 0x7AD7E003, 0x204A0AA6, 0x0B01EA90, 0x507D20A0, 0x1CA10000,
    0xF17797E3, 0xEF79F3A2, 0x4E729023, 0x4F836764, 0xF067FC62, 0x6FD6161F, 0xD498532B, 0x19602F5D, 0xE844C3DA, 0x7E741BDC, 0x633BBDE7, 0x6E277864, 0x757B0601, 0xA7E1F7AD, 0x781C4413, 0xE3FE7BEC, 0x3E202B93, 0xFEACAC3D, 0x7C3282DA, 0x57EC2F18, 0x68147F40, 0xA017C4BC, 0x81598269, 0x2401E62E, 0xFFFE0000,
    0x5A39B65D, 0x047025C8, 0x4C065F00, 0x61E23987, 0xB7987072, 0x5B5F83A9, 0x589ABAD4, 0xF09E346D, 0x2460BAD2, 0x8B784E3C, 0xB291B7AD, 0x2C0FFF2C, 0x52F1F26D, 0x232F0AD0, 0xC2BF306B, 0xCE3FA0E6, 0xD7F47C3C, 0x791CCE07, 0xA0646078, 0xE2400713, 0xC6085F0B, 0x1085ADED, 0x80D17677, 0x4BBEE6E3, 0xFF670000,
    0xC3CD0A98, 0x9C43E2E9, 0xE37B43FA, 0xB897BAC1, 0xA250258F, 0xC7C698E9, 0x99AC3702, 0xDE8F8079, 0x52E58E4A, 0xBB2F1D0B, 0x3AEEBE3F, 0xB12BE83F, 0xC4DAC716, 0x9CE870B6, 0x554348DD, 0xF12A3DA0, 0x8121FE38, 0x2A2E5F9A, 0xA5F67C01, 0x0E92FD11, 0x3F1BC110, 0xFC1F0962, 0xEC44F22E, 0xE7FD612D, 0x7BE00000,
    0x62AF33F8, 0x04AD0E85, 0x836ED540, 0x5370B088, 0x6BF26400, 0xF07B6200, 0x5E2FFC37, 0x25DFE813, 0x4BFBED28, 0x4FFFEFAF, 0x3F36C626, 0xFBE33402, 0x2BBAC173, 0xA3EBD316, 0xB8A4170D, 0x5BA1FA4E, 0xDD4DA166, 0xDF736D83, 0x5F69190A, 0xE4FF42A5, 0x9DF3C428, 0x7D62AD06, 0x7FDFD8B1, 0xFFF44D7E, 0x86DA0000,
    0x27D09A94, 0xB0D1A99B, 0x803E6B72, 0x83B13D59, 0xBC03392D, 0xA959A1D2, 0x75F61D73, 0x9AE1CC8A, 0xD63C1AE3, 0x23D3C2AE, 0x1CBD7183, 0x04C37E3A, 0x6A6F8706, 0xC27936FF, 0xD78B1F82, 0xF3F13D26, 0x4DF9262C, 0x7CDBFBA7, 0xD4878D54, 0x027FF402, 0x7D8BBA82, 0x88E72247, 0x13A20D21, 0xD243844B, 0x7AE00000,
    0x32202F54, 0x1D2CC5CF, 0x1643D488, 0xFDB667BC, 0xD20DCDA7, 0x769E0C3F, 0x8CD94238, 0xECFE4FDF, 0xDBC375E8, 0x9E5EC7D7, 0x8E7351F8, 0x20B35F03, 0x2286E0CB, 0x927E0570, 0xFD852D8A, 0x6403CBE7, 0xCADFE5C2, 0x4E8270BA, 0x012985AC, 0x2AF0670E, 0x541DDB03, 0x0F0208ED, 0xB4957CF6, 0x988067D4, 0xD8980000,
    0xDC4C6F88, 0x0EBEF191, 0xF51DCF3E, 0x8004FEC0, 0x31E68000, 0x4FBC2FC0, 0xD329FCDB, 0x007F4E12, 0x2FDE121E, 0x63A44C7F, 0xC6127FCD, 0xFE68E416, 0xF19D0172, 0x3D04B79B, 0xA03EFFFE, 0x83C0E598, 0x80F5F6C1, 0x1B6ED481, 0xEBCDFE79, 0x5FBEEF26, 0xC17FA5FF, 0x84436F4D, 0x0397F1FC, 0xB7ED68F9, 0x30F30000,
    0xD3AEE47F, 0x80258218, 0xBA3D7BFA, 0x5246C856, 0xE4AAEF80, 0xDFC86867, 0xFDC787F3, 0xDDBAFF0E, 0xC306F484, 0x78286021, 0x04023774, 0x020EAB0F, 0x00BD30C2, 0x5DA4A4AA, 0x8240FFF0, 0xFF53CFCF, 0xFB7DD9F4, 0x6FD7C106, 0xBBB0E0FB, 0x27902A6C, 0x2F6AB69C, 0x9076C0E7, 0x89E06635, 0x1AD09614, 0xCC5E0000,
    0x98599BFC, 0x0B175100, 0x00057710, 0x02306000, 0x08FC2303, 0x1D99FE84, 0x5304EA27, 0xFE9FE9E5, 0x66FC0DD5, 0x7FE2EC3F, 0xCC7CE74E, 0xF4A9346E, 0x1BB00AE1, 0xE3A43C22, 0x1D3F85BB, 0x9374BF2B, 0x020EFA15, 0x75F2F88F, 0x41478757, 0xBD37E542, 0x1A1CFC7A, 0x48803F5F, 0x9118801E, 0x92E98BD3, 0xBEDA0000,
    0xD2B536BE, 0xEDAFA7CD, 0x7FBBB29C, 0xBE3E6BFE, 0xEE0DDF29, 0xCB2F267E, 0x07A18FBC, 0xB9A03F95, 0x7C15F07E, 0x5C1F96B8, 0x43F42AF0, 0x3F9BBC09, 0xEC1BD137, 0xBDFCBDF4, 0x5FA7F88D, 0xACD3BFAF, 0xC461EBEC, 0xED3CE57A, 0xDC7FF406, 0x0A3CB902, 0x0F3EAD21, 0x6F789535, 0xFFB07F2D, 0xE7EEB49E, 0x7DFD0000,
    0xE0B82F5F, 0x5BA24726, 0x503C5E68, 0xE95527F7, 0xF1CBD7A9, 0xC49BAC82, 0xFDB2E973, 0xCF26BAD4, 0x007C4B18, 0x600EF751, 0x22F5A1E2, 0x086FC623, 0x07FD8035, 0x0B0C217A, 0xF00411F6, 0x804002B8, 0x005323F0, 0x7E31D3EA, 0xF501FDFF, 0xEE58EBAB, 0xE88F9C87, 0x47168118, 0xFFE13579, 0x388E8FAB, 0x85AB0000,
    0x085DD591, 0xAF766E5E, 0x822F8B65, 0xB81C7BEB, 0xE4522F5A, 0x12A0AEA7, 0x5C9F7FBB, 0xA8EFFD7F, 0x6F5FDCEA, 0x3E4706BF, 0x074843F0, 0x680E5800, 0x10619104, 0xFAE0824B, 0xE90E03C4, 0x03800DB0, 0x7007F647, 0x6B0F727D, 0x9C6B07F7, 0x74BB0D50, 0xB3FEBFDC, 0x8C6F7BDB, 0xB8FE4C91, 0xF556FC2F, 0xDD100000,
    0x5C2C5CFD, 0x20AA3780, 0xF3FE5ED8, 0x21F87807, 0xFD890A16, 0x4C3B8F24, 0x4D99007F, 0x4B38378E, 0xF1E35F9B, 0xDCBCEE52, 0xE7FA5FFC, 0x3ACF9F8E, 0xA1F67001, 0x9B7C8439, 0xAFD0E70A, 0xA033118D, 0x806A22A0, 0xAE0046B2, 0x4A21CEEA, 0x0220F165, 0xC46E7109, 0xDEDD54F1, 0xBCAFF2D0, 0x093CA3E6, 0xFFD80000,
    0x1BAA85D8, 0xFDCD724E, 0x6FF5D631, 0xF1B211B1, 0x0190EF5D, 0xC8DFF530, 0x77778E87, 0xDFFF4046, 0x48843F60, 0x03807A00, 0x302D5005, 0x426300F2, 0xFCD27EFF, 0x6617E77E, 0x53CFBEF6, 0xFEC0CE3C, 0x8E5BDDC2, 0xDA2F771D, 0x012324EA, 0x302E8E80, 0x29B758A2, 0x13CD804B, 0x4C0859F8, 0x6B28B5EA, 0xFFC20000,
    0xBF7DC194, 0x27A1143F, 0xC402B7B0, 0xC0266044, 0x07C39006, 0x0A89472F, 0x5A44E33B, 0x1649B59A, 0xE6E7BF74, 0x27FE65E9, 0x437F7269, 0x1263C920, 0x8A7BCE1A, 0x25AD01E2, 0xEF853264, 0xEF6B4086, 0xB60C1910, 0x7104400C, 0x00C40065, 0x85207E4E, 0xAE85E09E, 0x471D07E5, 0x85D2F14D, 0x0FEEEFDA, 0x9BCE0000,
    0x5FD91EFF, 0x6E31FF4A, 0x9541A973, 0x69013CFA, 0xC07760F7, 0x05F7BCE0, 0x4DA5D605, 0x5EE3F037, 0xE85E0433, 0x9FF81740, 0xFE0751A3, 0xE4D71F7C, 0x96EC9B3A, 0x6A005CE6, 0xD1EB0F2F, 0x0C9EB15B, 0x8829F238, 0x06B21340, 0x148E50D4, 0xA3758096, 0xB503AD43, 0xEDE485A4, 0x5C05CBA6, 0x986BB3F5, 0x16A50000,
    0xD3C5D360, 0x509AEB9B, 0xFEF3F6BE, 0x91D26EC4, 0x7C5F2683, 0x94C9703E, 0xB55E03E3, 0x6F38FA61, 0xDD8F2335, 0xB0E93EE8, 0x0A000003, 0xAE7A00ED, 0x182126FB, 0xF24BF9F7, 0xACAF65FF, 0x67C1FD75, 0x0F716FB5, 0xBDE76CC3, 0x8475791C, 0xA1DE8038, 0x62C05807, 0x3F988440, 0x7F811962, 0x1286B077, 0xFEAC0000,
    0xCCADB347, 0x6FEFB2CF, 0x7773CEFF, 0xA4375D65, 0xECE7838D, 0xAE60E75D, 0x9E04916A, 0xE1E29E3E, 0x3427C060, 0xB8FC2474, 0x8FB3BE25, 0xDB01F16A, 0xEF10CF4A, 0xF508F03E, 0x34994DCA, 0x819E9434, 0x39D97289, 0x9F0FB99F, 0xF97BE0B2, 0xB8401F27, 0x53D855FD, 0x004CE6FC, 0x749F0967, 0xFC35955D, 0x936E0000,
    0x7432FB41, 0x8D91B930, 0xB4FAA667, 0x9238C563, 0x36FC92A0, 0x64FCB4C0, 0x3855B382, 0xD8BDFAEF, 0xFE45EDF0, 0x402B7FCF, 0xA4FF81A4, 0x02F33D9B, 0xEFE8BFD5, 0x8F83FE11, 0x300F481E, 0x10144B4A, 0x20414DE8, 0x1E88B731, 0x23953EA9, 0x23372F02, 0x2ED3C060, 0xFFB80FAB, 0xDFFBFFAF, 0xBFEF259B, 0x3F400000,
    0xB9E742D8, 0x0310079C, 0x07FEB991, 0xB3E38BDC, 0x54DA3C82, 0x1006DBEE, 0x44A2BE68, 0xEE821448, 0x6883CEEF, 0xD83C1FB9, 0x9761FB38, 0x80075371, 0xF377151B, 0x1C2AD9E8, 0xC1177E4A, 0x0D52EAC1, 0x57C81C07, 0x31467293, 0x164246A4, 0x8F644F03, 0x0F93604B, 0x0F870225, 0xD3F043DF, 0x6FFF0E5F, 0x63CE0000,
    0xAE404FD2, 0xD1AF06DF, 0xFBAFD7FF, 0xCA0C9BE5, 0x9DEE1FC3, 0x9521B7F2, 0x9E2E7803, 0x619E1271, 0x3A8FBE37, 0x207B41AA, 0x9F3E9A07, 0x09F18FE0, 0x6FD05B04, 0x30372B8D, 0x1C083C8B, 0x3817055B, 0x87D8F0CD, 0xFE015DFB, 0xC8CE47C8, 0xDDE96971, 0xF8F82EE8, 0x4D8CEFD6, 0x4FDFF673, 0xBF7A445D, 0x71430000,
    0x31B2470C, 0x66F7B38C, 0xAFF727EB, 0x57F7FDCF, 0xBC7D7B1E, 0xC607D738, 0x40F88D85, 0x5B8D2073, 0x395B04D1, 0x5FF91432, 0x7C43A467, 0xA05509E0, 0x9AC10A47, 0xF88927BC, 0xE200C5BD, 0xA867DA4F, 0x5CE87D37, 0xE74538E3, 0xC81635EF, 0xA481BEE1, 0x520E5F02, 0x458C835E, 0xEC6C1548, 0x50E13EB4, 0x00160000,
    0xFF508794, 0x7C9BD375, 0x7E63FDFF, 0xE36C7C38, 0x02DE978C, 0xA77E41E1, 0x77C836A0, 0xE0060235, 0x07E78472, 0xB06EC1FE, 0x1DEE0CE3, 0xD1287066, 0x714AFE2C, 0x00BF8D2D, 0x601F63C6, 0x52F0EA3A, 0x189EB561, 0x1A3D5DE7, 0xEE7FAEFE, 0xBFB8751D, 0x768D803F, 0x3B521BF7, 0x7E81910F, 0x9B2DE305, 0x28840000,
    0x95CE5C49, 0x21E006F4, 0xE3F84B8F, 0x86B6756C, 0xD20C1CF7, 0xCABBFE05, 0x35EC90E4, 0x79CF9523, 0x44338E41, 0x15380F01, 0x639DD447, 0x33B90C7C, 0x3E0FB983, 0xFB7269FF, 0x9AD7FFFF, 0xC75DFF3D, 0x5E2B427E, 0x08323989, 0x45835F13, 0xB3F1BDA8, 0x3B84C427, 0xB2BAC12B, 0x086C0C83, 0x42EB676C, 0x554A0000,
    0x6D9A8953, 0xBE05CAE2, 0xC1E43376, 0x84E5069B, 0xE7CF1FAF, 0xB87FD893, 0xD81F0564, 0x437947E0, 0x5B881FC3, 0xFC5ECA17, 0xFBFAEABA, 0x1FD88ACC, 0xAB2ECA14, 0x11A9D801, 0xF0654016, 0x41C002AC, 0x60977017, 0x58CCD0F3, 0xFA046F1A, 0x5816C25E, 0x8A9F897F, 0x2178A2E8, 0x0740BC46, 0x4C4AD241, 0x85040000,
    0x51FF69B2, 0x2DB732E4, 0x525E0884, 0x082691E3, 0xC0D055CA, 0x480096E8, 0x6E373341, 0x41B6AA18, 0x5D310399, 0x9FC77E04, 0xE18778C2, 0xCFBE3A3C, 0x4011F4F4, 0xDE893294, 0x31E3C330, 0x147C116B, 0x87708814, 0x3D28D48F, 0xE31730FE, 0x0BAE0D68, 0xE5111B8B, 0x1800D09D, 0x03F93941, 0x6F3EB4DE, 0xE6040000,
    0xCBF6148F, 0x2AB21ADC, 0x0FDC5BE1, 0x5B806927, 0xD9791E1F, 0xE6F5C96F, 0x23A08D91, 0xD4316B5D, 0xE5ADF51C, 0xB57A5DB0, 0x98463625, 0xE0268048, 0x00EB8BD2, 0x0BFF1722, 0x7FE47BAB, 0xA823C30B, 0x95BEB660, 0xBFCA8221, 0xE0050037, 0xEA740263, 0xD5027916, 0xD29CB702, 0x0BBEE301, 0x2CB80442, 0xDCE00000,
    0xFD3362E2, 0x8E215760, 0xA4184B00, 0x2E83D801, 0x31E98063, 0x152F382C, 0x7408AF2B, 0x69288FB1, 0x64F496E3, 0x000BD426, 0x077E47C5, 0x9F0A7E25, 0xA027F2C1, 0x36A7BE12, 0x64BE219C, 0x1FF41842, 0x1D623008, 0x1BD98604, 0xEADF44AA, 0xBB24126F, 0x88177A7A, 0x93B7BD49, 0xDCA3FDBF, 0xF758E70D, 0xC36B0000,
    0x08D03E14, 0x8C1DEBD0, 0xDDDD5D13, 0xE53C6696, 0xEE59E096, 0xBCBCFFCB, 0xE25AD504, 0xE3B75D97, 0xDF13921F, 0xC03E71B0, 0x09879003, 0xF5E4006F, 0x073235C7, 0x6385F031, 0xBDFD1DA3, 0xDFEB457B, 0x65202360, 0x7A01DD8B, 0x62019701, 0x40CE17D4, 0x80A90CBC, 0x8D502D5E, 0x26A88F00, 0x7366A13F, 0xD8CD0000,
    0x607AD63F, 0x88213A42, 0x228931D0, 0x1946BC80, 0x03CA3401, 0x18FB40BE, 0xBFDCE9AE, 0xFE162BE1, 0xCFF6C312, 0x14B87520, 0x8D50E4A2, 0xEC2D681F, 0x833909F8, 0x45881D47, 0x1BE1703B, 0xDFF8475F, 0xFE3817DF, 0xBD42B080, 0xFFD68003, 0xECB0045F, 0xD45404FF, 0x8F003685, 0xCFAAA7FE, 0xFBA1EA13, 0x53FA0000,
    0x5A9E866C, 0x3F5A15F5, 0x3F69E0F6, 0x953D6E00, 0x6046D8E9, 0x4AD7191D, 0x2BD02759, 0x2D9B0204, 0xE828C9FB, 0xFADF71ED, 0x8898CDF0, 0x659F1415, 0xE837A2B4, 0x24202A63, 0x100A80F6, 0x80FB0660, 0x1FDCED81, 0x6D0F823B, 0x7CE9C2FF, 0xD4AD5725, 0xEAE65AD8, 0x284ABA80, 0x100F2B46, 0x4410A99F, 0xDDB60000,
    0xC6CBA192, 0x74859EAD, 0x8079246C, 0x124C5A00, 0x16DA1383, 0x116616BF, 0x79E3BF14, 0x992830EA, 0xE3CC5C28, 0x8C5FDE64, 0xE6EE666E, 0x8F8056A1, 0xE33F8308, 0x866BF940, 0x8DF60064, 0x61DCC1E2, 0x06812208, 0x5816F077, 0x45D515B9, 0x3D65559B, 0xF95FF0E1, 0x11C12BA5, 0x8071957E, 0x1EDA8CC7, 0x3B130000,
    0x3B1511AB, 0xDF0256E3, 0x1A35BF5B, 0x80ECB25F, 0x49E71D94, 0x60BB8D53, 0x9CACDFE0, 0xE2746C16, 0x9635FC83, 0xF033B88F, 0x3415A7DC, 0x27D21F90, 0xF660FEB9, 0x8C0DCE4D, 0x88BF92AF, 0x24F98364, 0x29354A19, 0xB5C1A5D8, 0x5A064D0D, 0x99C88369, 0xA9C0FC3A, 0x3D59AB45, 0xE74BE987, 0xF8EA89F5, 0x35380000,
    0x7B0CDD8E, 0x47F7F639, 0xAFFF403C, 0x34EAAF62, 0xEF330E39, 0x712E463E, 0xB8980283, 0xEFC850C7, 0xDD8617BD, 0xDC0977E7, 0x8C1D67F8, 0xAEC28F83, 0xD1B979B7, 0x94164010, 0xE1F1479F, 0xFC24F868, 0xE0BF8FF8, 0xA2CC538A, 0x7C05C687, 0x8B7C3DFD, 0x686B4757, 0x7F1EAA11, 0xBA3BFA48, 0xD89A644C, 0xD8A70000,
    0x84DF7E86, 0x1BFFE15F, 0xFDF79932, 0x66F95E28, 0xBCB2EA13, 0xEBFA017B, 0x52945FE6, 0xACDE57B9, 0x01FC5C79, 0xAD005718, 0x434B9B96, 0xC3B638F1, 0x05C1BC20, 0x8068C89D, 0x01E8A304, 0xBF206A41, 0xE1245E4E, 0x1D6706F0, 0x9F0C3CCD, 0x3F2BFD08, 0x794FABAC, 0x327760FC, 0x33FEEA5F, 0x8F6F1CF7, 0xFF540000,
    0x16960579, 0xB3036FCC, 0xE3DB2D3B, 0x4478D28D, 0x1F12680E, 0xCEE71B85, 0xF1202003, 0xDE4099AF, 0xF301367B, 0xE42D135F, 0xEB6F5FFF, 0x3FEB88E3, 0x7FB98E02, 0x0631F000, 0xD01E8001, 0x85EFDFD0, 0xAFF4762F, 0x938CE7AA, 0x5C5F18BC, 0x13BC2E26, 0xE9C9F9E5, 0x034386C0, 0x1047AA00, 0xE4020BE7, 0xEFFA0000,
    0x6FDF0E96, 0x712D5FE8, 0xDB7D87A3, 0xD949318E, 0x4BC31E07, 0x6879C3FD, 0xDBFEFA18, 0x8FBEACB7, 0xC7F30787, 0xF99360D5, 0x212E5C00, 0xFF73C03F, 0xC2D109FD, 0xF840FAC9, 0x64EEB670, 0x7B91373F, 0xA1E1CA55, 0x248E312F, 0x42C1A05A, 0xF87158E1, 0xFD9F0119, 0x30862F44, 0xFEDFE0E3, 0xE7CF8C5A, 0xE34A0000,
    0x77FA47E5, 0xC84C8629, 0x25E13062, 0x9F9BC08B, 0xADEB14D5, 0xB0ECDF14, 0x73DF818A, 0x7C68AD17, 0x35E72770, 0x20D00700, 0x7C39F07D, 0x85EA02E8, 0x0F64FFFF, 0xC77D7FDE, 0x9FFE67F3, 0xF460FE2F, 0xE05FD252, 0x70E0D341, 0x951C9FE0, 0x71E99952, 0x2DE17100, 0x1DCEA29E, 0xC5A01ABD, 0x18091126, 0x7CCA0000,
    0x8E65AFA3, 0x3FF4CEF3, 0xFFFDE7C8, 0x7FA39C5D, 0xD2395079, 0x7904864A, 0x0410A05F, 0x4C4F154E, 0xB162B53E, 0xDC3DDFDF, 0xC1A7777C, 0x42B3FE81, 0x1F7BA003, 0xDA200992, 0x51C13D63, 0x840A0D84, 0x41025AC0, 0x2F8E3B7B, 0xDA673FFF, 0xAA24E9FD, 0xFAAF3786, 0xDFED0A3F, 0xAD2FF8D9, 0x9B52392A, 0x44A30000,
    0x414FC941, 0xC0418711, 0x09FC1440, 0x8C56AF02, 0x0819A7CA, 0x3415ED18, 0x7BDD0A6E, 0xBFDC882A, 0x7F072C93, 0xF0CABFFD, 0x987D9CF1, 0x36875669, 0xC3AA1C35, 0x6FB307CD, 0xA229E0FF, 0x875F1EA3, 0x1B48F06B, 0xF49F229B, 0x20E647FC, 0x01C11D15, 0x0F713E7A, 0x1845B34C, 0x823EBCCC, 0x40B39A3E, 0x6E530000,
    0x15F82F32, 0xE4490868, 0xF41A48BE, 0x835F063C, 0x2813D6FA, 0xD59F0200, 0xFBFE686F, 0xDD60086F, 0x5003A7F8, 0x04B8A701, 0xF303A0FE, 0x0D7B1FF6, 0x7F2FF991, 0x71FA7D5E, 0x7BC3D9FB, 0x806FFE3C, 0x08737B65, 0x96FD7168, 0x9E841295, 0x77187D02, 0x25DFA012, 0xB01B0608, 0x00A093A0, 0x0C00B80C, 0xBDAA0000,
    0xF9593297, 0x9A0E1BB7, 0x5FF24A42, 0xF1ABB29F, 0x7C3EA97D, 0x01197FAD, 0x3E62F2C8, 0x1E474006, 0x2E002984, 0x8005DB00, 0x04740002, 0x15FB00E8, 0x7C177F7B, 0xFB6BC141, 0x17FC01FB, 0xE7C116BB, 0xA430FA26, 0xE1F6FE3E, 0x8F699377, 0xB6F543BD, 0x217AFE86, 0x6A64C491, 0x0F241F63, 0xFF049BFF, 0xFFC50000,
    0x0375E545, 0x93DDFF3B, 0xF7EBD736, 0xFBFB663D, 0xA9C18208, 0xE57F6900, 0x7AAC000F, 0x96D90027, 0xCC149763, 0xE239EEC0, 0x1979C08E, 0x9F7603FB, 0xFD31DFDE, 0x6727F6DE, 0x6E1DFF72, 0xAE3F7EC7, 0x0E55F1B1, 0x19E8E163, 0xE3BA77A0, 0x19C4D100, 0x100B0206, 0x6F53608E, 0xA7788C6A, 0xE3AC6216, 0xEFD30000,
    0xACD78DAB, 0x1AD8F5AB, 0x5B8FD8B1, 0xCEF84303, 0x89252AF9, 0x6AB24621, 0xD002854F, 0x6EFC723F, 0xE9A824CA, 0x88053ECD, 0xF6DEC7A7, 0x6CBB013F, 0xBF547B04, 0x6C3E7C0E, 0x6EE7D779, 0xF95DB655, 0x4EFFDE78, 0xC7FC7584, 0x2501AC74, 0x724B74F6, 0xD3BD892A, 0xE801047E, 0x02003BB0, 0x310253FC, 0xFBF50000,
    0x39F69565, 0x5F8C1DF3, 0x3A8BFC6C, 0xFF705226, 0xE95AE6C7, 0xD5F8417E, 0x0B005E80, 0x70078B83, 0x81EA8420, 0x5C2021DB, 0x0080A942, 0x5D401BF2, 0xF35F1FF6, 0xFD7B5DCF, 0x55BB72F0, 0xBEB97F5F, 0xE3727A97, 0x79F106E0, 0x37CBC183, 0xEDB8B0AA, 0xB1006021, 0x9F920DBF, 0x716EC0BF, 0xFFDD25BF, 0xBFB60000,
    0x24AD867E, 0xE4EFB6DE, 0x7FB91413, 0xD0AF031F, 0x192F20B1, 0xF7188311, 0x7088B036, 0xDE1912FD, 0x8381C458, 0xD2B42917, 0x1FC7A1CF, 0xF05416FA, 0x0721F7C0, 0x63B5E936, 0xC35C10DE, 0x5B043F17, 0x618BA478, 0x08F29F87, 0xEBC52FE5, 0x32E5DA00, 0x76071A44, 0x63789EC0, 0x15EDA136, 0x6FC81B35, 0xB73D0000,
    0x07ABB38C, 0x90F3C50D, 0x9CF7FF9C, 0x175D85C4, 0xB6890F77, 0xF20A87B9, 0xFD50FF18, 0x2C020593, 0x14600EB4, 0x3740B1F8, 0xD842B73E, 0xF958B73F, 0x54060CFD, 0xCCC327FC, 0x6FAD788F, 0x7934F1D6, 0x9DD40E37, 0x02C103FF, 0xDE1808B2, 0x02217C90, 0x3B0D9604, 0x5884E1CA, 0xE7F76AB6, 0xFE0CCC9F, 0xFC7E0000,
    0x74D35CA7, 0x8C5F7319, 0x5FC3EFFA, 0x3E0E2EAE, 0x00BAFFC8, 0x05386060, 0x37793A05, 0xD82722D5, 0x83F0A33A, 0xDE0BD703, 0xE3D91DF8, 0x7B57DC9E, 0xFC7241F7, 0x67587743, 0xEABF6CC4, 0x10FEF635, 0x0F58F051, 0xE6EBA70D, 0xDEC290D4, 0x3ADC8004, 0x6F14C62C, 0x72035A3E, 0xAE2A9B79, 0x7B7DADCB, 0xB2E00000,
    0x71534A37, 0x135FE949, 0x49E7B1D4, 0xCFF9990B, 0x1FA803C7, 0xFF6825FE, 0x2A0B172A, 0x18A99482, 0x07605458, 0x7000EC46, 0x0B415070, 0x31388F27, 0xC230B81B, 0x890FE2C4, 0x983D580C, 0x1F96E3C8, 0xE50E1176, 0x331F70B7, 0xBC4AA3F4, 0x5CAF3ADC, 0xB1DEFEFC, 0xBCECA048, 0x2102B68D, 0xEC231157, 0x98380000,
    0x13F794AA, 0x00472957, 0x5C7FF529, 0x5FCA4EAE, 0x6039930A, 0xC1E9494D, 0x365EF716, 0x5DBCB867, 0x3FB6F71B, 0xD41F0FF6, 0x07E0E223, 0xEFCB003F, 0xC45AB7F2, 0x7F3BF0E1, 0x5758A801, 0x80D11571, 0x9D7872EC, 0x3E40ED97, 0x1C5A3888, 0x00D429AB, 0x07801272, 0xBCDAD7A4, 0xDF125ACF, 0xABE30E5B, 0x8EF40000,
    0x663768DB, 0xA120B4B4, 0x80704C00, 0x0A465D4E, 0x5FE80B3B, 0x3A478318, 0xF1D81B42, 0xBCC6B8C6, 0x7C335AED, 0x8101DDDC, 0x124252F1, 0x10465F17, 0xE3CD6E64, 0x1DBC6473, 0xDE024653, 0xFA8EB3FE, 0x1F10E0E1, 0xEE4A042C, 0xC5B807F8, 0x7942537D, 0xFECC4FF1, 0xC85ADCBB, 0x0010BCF4, 0x000CCE86, 0x85C90000,
    0x9B2F1ADF, 0xA17B7F12, 0x90FFDBE5, 0x085FF7A8, 0x23E679DA, 0xAC7BEDC8, 0xC5FDF046, 0x6C7804ED, 0xA5BC17F4, 0x07ADEBCE, 0xF6DE1DDE, 0x0B63CFA4, 0x867CBA5E, 0x43984105, 0xA636B261, 0x081B3B74, 0x05812400, 0x22526002, 0x06C68E0A, 0x8CF45ADC, 0x47195297, 0x07B00952, 0xF1DEC99F, 0xFFFF1BDF, 0xA3C50000,
    0x5752EB27, 0x6C7C1F39, 0x22CFAA38, 0xE20D20D9, 0x6C1D42BF, 0x45B23071, 0x0BA2D38D, 0xACD95F1F, 0x80F1986F, 0x473F8364, 0xE39823D4, 0x4FA1BF2B, 0xDFB9F37F, 0x535E67A7, 0xD377C170, 0xFCC90707, 0xCCEA3A6A, 0x46317FE0, 0x5313EB17, 0x076ADDB0, 0x19DC0141, 0x5BFC1EA7, 0xDD1D88AD, 0x677DEDAF, 0x6C710000,
    0xBA8DCF30, 0xB6A99B48, 0x027F5180, 0x03783810, 0xFDF65600, 0xE9FEE7D8, 0xA7F77ABF, 0xE66823FF, 0x14158FBA, 0xC0CF7BDB, 0xC8BD7B62, 0x3FA29E06, 0xC0F9DD91, 0x17EFB6BB, 0xB2DECE1A, 0x03FE68E0, 0x07481200, 0x16457804, 0xEB5F9CAA, 0x6F3A38C0, 0xE0FF581C, 0x5E99833C, 0xFFDF77D3, 0xDFFF6982, 0x033C0000,
    0xA44EE584, 0x79E36ED1, 0x50A87AEF, 0x904747EB, 0xBBF595C9, 0x95BE7921, 0xEF0841A1, 0xB30AEF55, 0xAFFFB51F, 0xFE46F37E, 0x82860FC0, 0x40328004, 0x03680700, 0x760039CA, 0xC00FBFDA, 0x0A7EC7D3, 0xEBF3E8E8, 0x5D253FDA, 0xEC33D9F7, 0xBDF37B3D, 0x913FB8DE, 0x748BC1E5, 0xFC83DA50, 0xA17F8967, 0x41950000,
    0x351F230C, 0x426496A6, 0xB82944D5, 0x1EC31231, 0xFE14885F, 0xB41482FF, 0x1FC5D7E8, 0xBF7C7F9F, 0x5BC3F375, 0xD47F843C, 0x03EEE383, 0x59AB04C2, 0xC1854E11, 0xF94BC6BE, 0x7C30D7FC, 0xF707A31C, 0x46EDD77E, 0xFDB3D436, 0x49F3EBF4, 0x11AB6722, 0x261B4E90, 0x8E6AA064, 0xE2F5845B, 0x3E29347B, 0x7EC60000,
    0x169C7F45, 0x65FF26FA, 0x7FFE3511, 0x58737BAF, 0xF2213839, 0x07901709, 0x187DBE85, 0x5E6FE439, 0xA7A76333, 0xB6F8102E, 0x75C2C14F, 0x3E1E7CC9, 0xD898FDF8, 0x449B8E29, 0x34F9242D, 0x87958608, 0x7B30038F, 0x824BE02C, 0x69AB1772, 0xA3F40FA5, 0xA1D7FF23, 0x602CAE56, 0xBC5EA843, 0x6FC1CBCD, 0xDB5C0000,
    0x11601DDA, 0x5DF76215, 0x3FF46B7F, 0xF8548EE7, 0xCA11A26F, 0x317883E0, 0xDEC0DF53, 0x9432362F, 0x97C3D251, 0xC5FF1B80, 0x03E09AF1, 0xFF35ED3F, 0x179AD7A3, 0x6C467A26, 0xAF6CE20E, 0x8BCC7F64, 0x2F026C97, 0x61A51A0F, 0x6DB5B13D, 0x6DFCDFDE, 0x69DC0E75, 0x995AED44, 0x9F7E5259, 0xFFFF39B7, 0xE3600000,
    0x1584FCDD, 0x9BDC13C2, 0x010965A4, 0xE86B3596, 0x96D1803F, 0xA1A737C2, 0x0CE2CAA8, 0xF6F2BB77, 0xAA1D3643, 0x06EF4D09, 0xE7A1407F, 0x002D03B4, 0x58FA0E2C, 0x7894C4F2, 0xA2078507, 0x8038F224, 0x224D2A58, 0x0DF773A8, 0x13D5DC57, 0x8956A01D, 0x672A5F42, 0xE7373822, 0x8C9E6FDF, 0xCEACC13D, 0xBA790000,
    0xE94AA00F, 0x7CE7CBC9, 0x57D5EC42, 0xBF25FDB9, 0xC33B12A7, 0xB010C8BD, 0x7E570EF3, 0xBA09F721, 0x5A0AC338, 0x20D09324, 0x01E2F740, 0x162B9000, 0x8990001B, 0x77D80188, 0xBD6E5EB0, 0xB8C406D9, 0x787060FE, 0xD4875EFB, 0xF26BCF3F, 0xF76B7EFF, 0xF32F1FFE, 0xAC1B72A6, 0xE1811624, 0x7E87876D, 0xE8C80000,
    0x55C8E05F, 0x65A0A90A, 0x4C14C40D, 0x00CA9741, 0x4EFE19AE, 0xA42EDC05, 0xE69EC13D, 0x709C3FBB, 0x0DC37BA9, 0x1C7FD3D8, 0xC6836F14, 0x6E71A787, 0x02AF4080, 0xADC785AD, 0x2912833C, 0xC064EDFA, 0x3876BBCE, 0xF2B7637F, 0xD2040722, 0x527C1D1D, 0xCED7FF09, 0x780F01F6, 0xE05516E6, 0x000331B0, 0x49820000,
    0x8054B7C4, 0x280E965F, 0xF000D67E, 0x28156838, 0x307F4FD8, 0x900DBDD4, 0xFEDF3FF7, 0xEF7FFBD6, 0x8ADD8FF8, 0x22053E80, 0x001AF003, 0x82220075, 0x07D81F30, 0x7A42F5C9, 0xD3DFFFC7, 0x3FEFB379, 0xA0D42AFF, 0x6F38A6F9, 0x2904EBF5, 0xE5B84291, 0xE4EF0016, 0xE626C480, 0x9FD7E5F9, 0x77F221EF, 0xFB9A0000,
    0x45DF34A9, 0x2EACA733, 0xBBEDFE10, 0x4ADFB02B, 0xC4EAA006, 0x82B80006, 0xE2A003C2, 0x9D58649D, 0xFFFDE3DE, 0xBFBE70BF, 0xF33C16FE, 0x9EEC0504, 0x7C10294B, 0xF84151EF, 0xFAC9BE36, 0x04667B60, 0xA47B043F, 0x89B69244, 0x66E2EC1E, 0x13C6F729, 0x8D7CF80A, 0x1D2224CF, 0x712BD928, 0xDFFCF06F, 0xD3690000,
    0x5FD55692, 0x6786B34A, 0x98E3EFE6, 0xE38FF123, 0xF7B541FF, 0x907E5FFE, 0xFBFF779A, 0x79762C25, 0xBE6436F7, 0x2895EFBB, 0x87BE6B74, 0x9D29467E, 0xF5365C18, 0xD08734E3, 0x997C37F5, 0xA06854DE, 0x01D357FC, 0x64A7CD85, 0xC48BBC88, 0x0459F443, 0xF47F875E, 0xBBDFBF79, 0xF6FF7B3B, 0xF5F556AE, 0x7DE80000,
    0x25730B9F, 0x5A8E6A1B, 0xE7E2D6DD, 0x4F9DD509, 0xADF0CC68, 0xFE3BD80A, 0xBFDE047F, 0x7E383DEE, 0x4BA44778, 0xD646F7E1, 0xFDB7937E, 0x827187BB, 0x2EA5F3FB, 0xCEEF27FF, 0xA9107FD3, 0xF240F03F, 0xBA0F9BCF, 0xF42BF6BD, 0x450995B8, 0x1290FDB0, 0x3E008385, 0x0806809A, 0x816D3BFC, 0x08215FA1, 0x4ECC0000,
    0xC499AE25, 0xE8C7130D, 0x807C1D00, 0x20F7F701, 0xE4098FC6, 0x0166DB03, 0xC95E53FF, 0x5BD73FF4, 0xFFFFFDBB, 0xEB3C02FC, 0x242213FA, 0x420D3388, 0x3763A8CE, 0x2320284F, 0x23A29596, 0x2D50EC69, 0x6041BD83, 0x5B1F5034, 0x001648A1, 0x3FF1EA43, 0xC8FF5A5F, 0xB4A8B931, 0x9B0FF982, 0x4F9A7642, 0x352E0000,
    0xEEEFE0B8, 0x716FA44F, 0xF7F9FBAD, 0xEDF8CE7A, 0xC1DC4294, 0x8F60A638, 0x4C1170A0, 0xD06C3220, 0x7E671A6E, 0xC9545949, 0x365DC4FA, 0x1F8C4CE5, 0xDEAAA760, 0x70317816, 0xF397A3FF, 0x30ED844E, 0x0F6ED181, 0xEF5B011F, 0xEDE51CF6, 0x7AFCC42F, 0xE26A53E4, 0xCC437C4E, 0x520C0249, 0xBC6EC1E5, 0xBF660000,
    0x491504B8, 0x3F42727F, 0xC45F1F3E, 0x85F9E0E0, 0x39B1CE03, 0xFAE7E075, 0xDE134EF3, 0x6388EC5A, 0xA91B06F1, 0x58C4245C, 0x98029F7A, 0x8080FB1C, 0x524EE3F1, 0x2F9FD647, 0x1D690D86, 0xC24CF994, 0x700AC3AD, 0xBD297BA0, 0x1BE69F0F, 0xFEFCAF3C, 0x26AE029A, 0xC05DDC3B, 0x0841F418, 0xD8002BBD, 0x7DB80000,
    0x3E72D11B, 0x4FC7B4ED, 0xCE3F6646, 0xD7724025, 0xD222A8DA, 0xAFB0B643, 0x50A1F992, 0xDDEFF91F, 0x27C0D27F, 0xAE6A0D3C, 0xCC31B15E, 0x479D7924, 0x3EE77CCF, 0xC132D2FC, 0xAF5B59EF, 0xE792738C, 0x71B7D9CF, 0x00D3B8F1, 0x8617BF04, 0x42B1F812, 0x1E07A001, 0x215E008F, 0x1B4902B9, 0x5EE563DF, 0x7F870000,
    0xDAF8554F, 0xA6763114, 0x2E7F1230, 0x77BB8FE0, 0xDD57F02E, 0x672B82E5, 0x7C620DC7, 0x69E8D858, 0xBC1F811B, 0xA3F426A0, 0x6B60350F, 0x6E8AC0ED, 0xD0DC7EFC, 0x3785C822, 0xF4B5BE0B, 0x05D765E8, 0x68705724, 0x98667E52, 0xC055520D, 0x649C71DF, 0x59589E77, 0x1FA0CD02, 0xFE2D092E, 0xDE0132E2, 0xBE5D0000,
    0xF37DB65A, 0x38FABB4E, 0xDB6F3236, 0x9FD8A5E4, 0xF7BE992F, 0x7B93B14F, 0x9E181BAD, 0x3FE262F6, 0xF81006EA, 0xE08982FF, 0x8585DF88, 0x80FFBE9B, 0xF2CDA504, 0x87216B31, 0x5B47DB79, 0x20FB6E68, 0x9FEEDA83, 0xF5275A77, 0xF0DB496D, 0xF3F9C7E7, 0x11169A70, 0x9020B88F, 0x11940252, 0x8000BA23, 0xEFA30000,
    0x64AEEA68, 0x47A98BA5, 0xD47C340C, 0x8C734271, 0x88BC9777, 0x8FA19F8B, 0x47275433, 0x51BC49A1, 0x26F284A3, 0x7E54BCB3, 0xEDFF31D6, 0xC4EF4CD0, 0x1ECB425F, 0xFE756ABC, 0x9DF847D6, 0xBF03D949, 0xA3A3FB7E, 0x398117E1, 0x06002D1B, 0xA44B7910, 0x1F1FCE50, 0x83700641, 0x25208A40, 0x2AF818A5, 0x53370000,
    0xCA5B972E, 0x9EA3DAC9, 0xBB5647FA, 0x500CBC25, 0xBDC089E9, 0x99098E3A, 0x7C04A23F, 0x98446E43, 0x9C95D87C, 0x981BCF8D, 0x069A99A0, 0x00905FB0, 0x0000FEA1, 0x0D0FF400, 0xC07ED406, 0x0FF20042, 0x3F602201, 0x5D62510B, 0xED4FC80D, 0x9BA3E8CB, 0xA9FD7017, 0x5A73CB45, 0xAFEBBF8D, 0x4DFBDEFD, 0x06270000,
    0x68263994, 0xF9877C98, 0x65A80F49, 0x699C8A9F, 0x11D71303, 0x11DE0423, 0xE3A0A00A, 0x802BD2AA, 0xFFF281BD, 0xFFFBF3DF, 0xF2D2BEDE, 0x98E7F400, 0x8830005B, 0xA2A029E9, 0x40041EF9, 0xCD66B6A6, 0xA427F069, 0xA01C9480, 0xF9D197E8, 0x2C274B6D, 0xD8FDD209, 0x5E3134FE, 0xD8FFC3EB, 0xBFFC7B73, 0x027A0000,
    0x6C5CB2E3, 0xFBF629D7, 0x1B2E3BF5, 0xCAC238C3, 0xDFD3B0BA, 0x3590DC1B, 0x5016D3AE, 0x83AE982B, 0xB5083C78, 0x660DAE48, 0xE3EACE34, 0xF02964A1, 0x0147CC84, 0x443FF812, 0xE23E0D21, 0x01E12550, 0x02F3BFA0, 0x0F363C44, 0x7BC3EC76, 0xE63E7A8F, 0x31FF7DED, 0xB6DFBE23, 0x0756B1A7, 0x156EED6F, 0xE9540000,
    0x018097A5, 0xB7126BFF, 0xF8FF6948, 0x0F7A8B02, 0x738F5283, 0xDAA201FF, 0xE9683FEF, 0xC28ED1BA, 0x65C83C60, 0x5C100652, 0x606FF95E, 0xC4030AF1, 0xE1B37E48, 0x138AB151, 0xC04B4380, 0x5E759896, 0xDF1818AA, 0xB01D2445, 0x2CFC47E0, 0x8C04A7AE, 0xD60D8FD0, 0xC48B8145, 0xF36D198F, 0x7FFB40E5, 0xAF190000,
    0xE11A4E18, 0x477F478F, 0x7120CAB8, 0x605C6152, 0xA057DBB7, 0x6667B6E3, 0xFC6A1B47, 0xBFEA2469, 0x7E309F59, 0xE1094997, 0x074C45F8, 0xBE0CCFA1, 0x21847F71, 0x4923FB92, 0xC40E1685, 0x00199BB4, 0x000C7EF2, 0x33A93C7D, 0xC613FCAA, 0xC0C74A4A, 0x8357A0D3, 0xB3CB8FCE, 0x52AFF6CF, 0x5378E7C5, 0xB6330000,
    0x505D9E81, 0x465FF2BC, 0x931A2ADD, 0xFD0AE4D3, 0x805BD630, 0x42292855, 0x3C9CC013, 0xEDD04C28, 0x1E4744F3, 0xA02F8C1A, 0x8F9D54F8, 0x2F997C81, 0x5C0FBF47, 0x9DB2F83C, 0x65EF03CA, 0x35CD39B0, 0x1E3B5C05, 0xA9E0323C, 0xEF81C97F, 0xB5C1A5F8, 0x9A8C7F88, 0x32176BA6, 0x438FB9F4, 0x984D86F5, 0x47720000,
    0x1394A94D, 0xDBFD140B, 0x37ABF130, 0xC01DAF26, 0x98957920, 0x0C318C00, 0x7635CC82, 0x5AEF002B, 0xCDB8233E, 0xFFCA37D3, 0x7415FC47, 0xE27E145E, 0x6F243DB3, 0x671E797D, 0x58BB4DF3, 0x01EEAE5C, 0x2FD8D581, 0xD7D61038, 0x2FE381A4, 0x50D1C703, 0xB9700C03, 0xC804E0D5, 0x500407B8, 0xDFFE4C7F, 0xF7DE0000,
    0x1C725998, 0x000F4A98, 0x76FF50C2, 0xE247D9FC, 0x65FF7F2B, 0xB7BA8368, 0x6DF8095A, 0x4EFFCF9D, 0x9FCFD4FB, 0xAF9A44BC, 0x800742E0, 0x034C7CDA, 0x85BF6D1A, 0x642AFBFD, 0x2380741D, 0xBFDFF021, 0x93A16F48, 0x0AD7AA03, 0x0D43807C, 0x0C540F0D, 0xE0C7F0CE, 0xA08707E6, 0x0C7FDDE8, 0xF2177350, 0x458C0000,
    0x076AF60D, 0xF9DE7EDB, 0xFF7DCE3F, 0xCDEACFF8, 0x782EFA88, 0xD2B92704, 0xF60FF40B, 0xC7FE7815, 0x2F06CC8E, 0xA5AD3BF0, 0x5279FC49, 0x2BF1F06A, 0xB996D066, 0xE100FCCE, 0xF209DDFA, 0x91EECD93, 0x0E71C8D1, 0x7A579D3A, 0x72213A60, 0xC16F468A, 0xC18911B9, 0xB048D79B, 0x802BD8EC, 0x75FFA59B, 0x8FCA0000,
    0xB5553AAA, 0x7FFFC40D, 0xFFE3CE12, 0xDE095A13, 0x6864228C, 0x442853EE, 0x43A2762E, 0x72CC708F, 0x996EDEF9, 0xB8A58A3D, 0x014DD165, 0x1683EFCA, 0x079A3D4F, 0xEDD3998E, 0xC7F05972, 0x7E2914BB, 0xE6C2983C, 0x55B3C3A8, 0x3612770A, 0xC2477DC3, 0x8E296031, 0xA7D701F1, 0x20DD12CF, 0xEBED8F9F, 0xDF040000,
    0xD9E217EB, 0x64FC1441, 0xD6FDF98B, 0x17971C3F, 0xE96C76EB, 0xD187FFAE, 0xB77EF7A3, 0x5F5CFF1C, 0x30078368, 0x00F05F00, 0x3B1BB006, 0xC5E201F8, 0xFD7A7E73, 0xD1EBF073, 0x3DFE549B, 0xFF6707FD, 0x620217FA, 0x5A497925, 0x1A279800, 0x211EEE40, 0x4F98AC2F, 0x7FD10C68, 0xFDA3AB35, 0x78E154DF, 0x7A680000,
    0xF3EA9312, 0xAFAB7A87, 0x481B8B58, 0x60174100, 0x00D3E005, 0xF34B034F, 0x6870D405, 0xF90EED8A, 0xC1F6BDB0, 0x3E7FE005, 0xDF7E207F, 0x1A648DD1, 0x11E01E8B, 0xC6AB84E8, 0xE69FE61C, 0x6670614F, 0xF1A20CAC, 0x3B8A4644, 0xB430F988, 0x00CB7C02, 0x00DC0A01, 0xC42E4801, 0xC19C95EC, 0x6F13AA57, 0xBD1D0000,
    0x1BA5F13C, 0xF24E2249, 0xDFEDADFD, 0xDA7457D0, 0xEC6CFB1F, 0x069ECB94, 0x17E75A87, 0x3FC644CB, 0xE89349BE, 0xD15605B7, 0xB2FA5821, 0x6F5BC316, 0x7915F6E7, 0x0B4608F4, 0xD6A3EE28, 0x2477C04D, 0x4FF070A1, 0xF15CE4AD, 0x029D14BE, 0x18190F20, 0x215833DD, 0x5103FEA6, 0x00739233, 0xD6FF0362, 0xABE40000,
    0xDC13606E, 0x3D9540DC, 0xE1FFA5F5, 0x62596730, 0x90F983A8, 0x3422A226, 0xE89C4EEC, 0xD7D18351, 0x14A14067, 0xC35F5536, 0x47BEA3F8, 0x6E0817FF, 0x9AE07F80, 0xD401EE4D, 0x681E81CC, 0xD00A31BF, 0x80A06FD4, 0x0591FF3B, 0x3C8753D4, 0x00AC2E01, 0x2F952A07, 0x2D207FE2, 0xCCCF15E5, 0x5E35AE27, 0xAFB80000,
    0x58A758E4, 0x92D5035B, 0xA9ED9D3A, 0x5F71C3AA, 0x66B9F7E4, 0x0C430F90, 0x2F84F81C, 0x2C06034E, 0xE2A0A345, 0x006105B9, 0x608983BF, 0x8CD869ED, 0xF9FDDECF, 0xFDFFFF06, 0xBBE344FF, 0x38637AA7, 0x4F6D73F0, 0x7F6FEDC1, 0xDE0B5B67, 0x4B7E210E, 0x51310040, 0x81F20419, 0x2400A7E1, 0xE8086103, 0x44200000,
    0xBF8D29A0, 0xB3FDC21B, 0xFFFF5357, 0xFB591053, 0x204227ED, 0xE55476C8, 0xFE736987, 0x84FE0037, 0x7F90016F, 0x40EEF862, 0x1E767260, 0x8D63E205, 0x5068420E, 0xFB6B420B, 0x8F40075D, 0x13410657, 0xC80C7F23, 0xA58638DF, 0xE367C7FE, 0xE735FBF7, 0x43BFEEFD, 0x4ABBFAF5, 0x1C9EFD3F, 0xFFBFC76B, 0xF5F90000,
    0x7E824A05, 0x8FBD1805, 0x9F7EB378, 0x460DDFF0, 0xC15C7727, 0x0BB8ABEF, 0xC6CB3637, 0x374C9FD7, 0x0DE58CF0, 0x3C18D18E, 0x01A264A4, 0x38498581, 0xC820EF4B, 0xC687F97C, 0x3C1F1E9F, 0x200070F2, 0x00DF01F0, 0x03F23D7F, 0x7E29FE47, 0x32DBADDD, 0xABA07CA0, 0xAB7FC2C2, 0xB5B07DE6, 0x84C75EED, 0xA9A20000,
    0x3168211D, 0x39C4FDCA, 0xE774A6E4, 0xF76A38C6, 0x6711CAED, 0x166E1A09, 0xDDD98B44, 0x2E382899, 0xEB8DC4EE, 0x38680EF9, 0x2FE5D0D8, 0x5E4A870D, 0xE35FB0CA, 0x6D171AC0, 0x1DE1FED2, 0x9C3FFCE1, 0xC175F50D, 0x78D87790, 0x10CA075C, 0xAEA0A5E0, 0x2E3B9495, 0x5BF0CE53, 0xB9BA2122, 0x16ACC1FA, 0x1F9A0000,
    0x95AF79F2, 0x5DD0FD59, 0xE2738AF0, 0x41BA5F00, 0x97DE9087, 0xFD64070F, 0xD2424E1E, 0x3E198FF7, 0xD1EE084C, 0x9E2DD961, 0xEA5A2CB6, 0x93D540F8, 0x13BB2CDE, 0x8A70CC90, 0x4C836017, 0xF25B8947, 0xD1A0407F, 0x9C16C269, 0xC1FB5198, 0x2FE07C02, 0xF30DE112, 0x38AA819F, 0x6427E6B8, 0x8039813D, 0x1C980000,
    0x9D1D192A, 0xEFF7C72A, 0xFFC644CD, 0xE96CEFBF, 0x628EFB81, 0x05285C3B, 0x35618333, 0x6CFC2ECB, 0xD0857934, 0xF0BE4795, 0x0BB172C1, 0xF21A5C37, 0x42BAA329, 0x9218B7F0, 0x1FB3BD9B, 0xECE21D48, 0x92E4E351, 0x79D17A4F, 0x1636C273, 0x8E6A9516, 0x1F7B2086, 0x1F9C0A8D, 0xCFD8167F, 0x59E6F383, 0x9FE00000,
    0x2D154119, 0xE327CF48, 0x07C45DE5, 0xE08140F3, 0x413B9C07, 0xBB37846F, 0x9E906B90, 0x9A631FDB, 0xBB32986B, 0xB31FDE18, 0x1070C3D0, 0x1D1EA443, 0x17F0B600, 0xB7A4402F, 0xC8A806E3, 0xCDE29FF0, 0xC8F6F67F, 0x47CA3DE5, 0xEFFB5636, 0xDDE7E60A, 0x74370916, 0x03F890A8, 0x03401022, 0x25102F63, 0x7D110000,
    0x4D2C836C, 0x3A2C47F3, 0xFFC2DBF6, 0xB6DEED02, 0x3114057F, 0xBA4DBFEE, 0x3CFFFE85, 0xD1FF9633, 0x8A05BFFA, 0xC02E3140, 0x073EDC85, 0xFC0A00F1, 0x03694F80, 0x2A7C5C00, 0xCE774705, 0xF85406BF, 0x50F83E6C, 0x7719C0B9, 0x143C1A8F, 0x959840E7, 0xFBEC98BA, 0xBFB52F19, 0xDF5ADFB1, 0xF7BE95CF, 0xFEE50000,
    0x33312EB1, 0xD12293B8, 0x48103C62, 0x80036891, 0x570A13F0, 0x6D235C7D, 0x00F753F8, 0x80C58CB5, 0xC63C9F7E, 0xF240F1FA, 0x0954FC60, 0x5109F606, 0x9619B4F6, 0x55FFC383, 0x1BBC3855, 0x4FEB8086, 0x5E804C79, 0x73D29DDD, 0xBB22F941, 0xB8A1EF1F, 0x92CB9B78, 0xC3DE1A42, 0xE5211C57, 0xCC1C45BD, 0xC8050000,
    0x93C32953, 0x0D1D73B4, 0xFFBF673E, 0xBFB55FC2, 0x0A301067, 0x4D7CB9E3, 0x5DB7FC9E, 0x55BE7E8F, 0xDFC1F719, 0xC07B11E8, 0x0FADE481, 0xCF95003B, 0x39B01F00, 0xE231EFF0, 0xBD652EA3, 0xC9E02AFF, 0xBB792DB6, 0xE840E387, 0x54E7B95B, 0x600CA7D5, 0x19348300, 0xEE114C5A, 0x74AA8281, 0x17F31AEF, 0x0B910000,
    0xEC459712, 0xC9D42FEF, 0xFFA4CC96, 0x7DA7606F, 0x28F8A399, 0x4D703878, 0x0802A8A6, 0xC0177F13, 0x017164C2, 0x2DBDFC38, 0xE14DAFC7, 0x80CD58F8, 0x8214EAE0, 0x231FE206, 0x2FE5206D, 0x6CE82677, 0xFA50F559, 0x69BF1608, 0xDFEFA4E7, 0xECD93FFF, 0xC4C001FE, 0x80C0B7BA, 0x5C9EB9FF, 0xEF7FBB8F, 0xEF6C0000,
