C23B9763
C12C326D
C13CC388
411C1FE1
C213639B
C1850670
C1A10344
C1B15C82
C207D59F
C25BF833
C18CFCAC
C1E3A2E5
C1B36EB8
C19B3C04
C1CB9C04
C1C453D4
C1743A14
C1AD719E
C17D6C0D
C18E53C6
C1C24327
C162B872
C1980219
C0DE8B0C
C19C87BB
C1EE1F94
C1992BE5
C1FD1144
C10D2EA0
C12937F8
C12082A8
C1F5D1A6
40C4E42F
C1183B2F
C118DF05
C1FD87DA
C1FE9ED4
C099D610
40024002
C1AC9421
C13B9AC4
BFFE266F
C201C947
C1620D08
C12841B0
C1A880BD
C1A4858A
C15B2578
40C6472E
C223C563
C16287F4
C1F7DF76
C257D548
410931D0
C0BB5231
C27E7622
C20E6741
C1612864
C1A77FFA
C1A37DF1
C210F552
C22B4589
C2150776
C1388325
C1AEA6CA
C13C1B75
C1E1D7AE
C17C56A7
C20511B5
C186327E
C13D8074
C1DD4518
C227A261
C1985FF4
C19F1B0C
C1A3100B
411D2AD3
BFE06090
C0A9399C
C2051AB9
C206C625
C1A24E82
C2367BB0
C1B2DF9D
C2106469
C22132F0
412E3971
C1BBDAF8
C22E7F17
40B62503
C20BA04B
C18A7DBF
C1CED308
C0AE6D8D
BF7E4AA8
40468A80
C14AAB5B
C21C9FCA
C14D9DA9
C0CB8DE6
C1C3FC11
C219993F
BF0E4F17
C1EF5C6A
C2195848
C23ACD5A
3EA8A709
C1F45A3E
C213D951
C247D0DA
C2192BBE
C2244FF4
C2000E10
C13E133F
40033F26
C0E9B283
C20FEC49
C144708D
C187C202
C19A6A9B
C21E9347
C1B8F0C2
C185227D
C1E9377A
C226D835
C1618206
C206D16F
C1AC0C16
C17CCB4F
C2021990
C23D6172
C218E7A0
C186E00B
4052B9AB
C1AF5473
C1E058C7
C1A96D29
C04752D3
C1B76C67
C261CA3B
BFBDC749
402FBD29
C0DFF148
C1B7B165
C1BD49F4
C02A821F
C1BF54DB
C0F765B3
C1CCFC63
C21323D8
C10480A5
C19E5C79
413397C8
40D01EA7
C2268D66
40B94FCD
BFD37F73
C16C9A84
C1FB02E0
C13BF8F6
41682615
C19F5F34
C1DF97E5
C0C2838B
C1C37B04
C1A5540C
C1E1FFE6
C1641ABD
C056D19D
4127584B
C1D867D0
C03BB4C2
C2105F8A
C0C152EF
C240EB10
C073638A
C1AEE0EE
3E9B295D
C0D0C007
C1F695D6
C20AE047
C20ED5B9
401B7FB1
C19C3071
C21D15A5
C1965193
C1935119
C206D4D4
C20B9CB0
C21A5189
40D6F62D
C175D578
C1ACEB8C
C1D9845F
C1F8E386
C24A0843
C077DFE4
C0D2C1F8
C08B7E3C
C0CBAFEC
C20D8CEF
C1998F93
C1F3B906
C1C35532
C1AE1FD9
C1269069
C1A116E2
C2177B1B
C08EF414
C1C8AC5D
C1A40201
3F8BB195
C16CC1DA
C17E8F2D
40EE024C
C1678FB4
C102302D
4169D88E
C21A7F36
C1C86B03
C18F76B3
C13EEA02
C214D2DC
C1807B63
C19B2C7C
404DAC8A
C21DA098
C0C43C20
C1A5986C
C184431F
C1BBF56C
C15BC625
410A00EB
C1C959FB
C115FE1A
C23000F0
C1ADD6B5
C1E45EF8
C1DDD058
404866B9
3F08BEC4
C0D87B99
C1E88678
C1417171
C19A3611
C1912EB9
C1E75E68
C175551F
C08F2B42
C214A2AB
C1EFEAEE
C173B3E6
C21C523D
C18A660A
C204C444
C029F74F
C0D2EC92
C1CC042C
410D9AB7
C1A67673
C12CCDEC
C240E121
C1A29F2D
C1B84533
C232F935
C202395C
C2182208
C1E5FF5C
C1C13ED3
C2332D9E
C2124158
C1682F15
C1AFCE8B
C17759EC
C10250DD
C16F297D
C207E962
C1A0A982
C1CFCC54
C123EBC6
C0441714
BFA4571D
C0246FA2
C1A428D9
C236879F
C2289F68
C0C12784
C13FCC7D
C1A96E56
3DE0E524
C1F9A31E
C1D119CA
C239AE07
C11713DC
4144B0CF
C1A04F57
C188676D
C105F700
BFB2E226
4019E1F6
C1827C9D
C1EA1081
4010CB17
C231E295
C029795B
C20269C7
C0B651BE
C18BF403
41438AC0
C2092701
C1140BAB
C197FDBB
C1C32845
BF3A1539
4180F797
C200107C
C10E1D7B
C1788771
C19D08FD
C19C5238
3E6C821C
C149C5D5
C1D5C509
3FF0082D
C220D4E1
C14DA7CF
C171DF2D
C1751346
C17F5AE8
C1D28CDE
C162C41A
41757CA9
4172D237
C19C50E8
C1C04B18
C1E8D21C
C1643DCB
3FA85200
C0B48FFF
C151C54F
C1C8B14D
C0F19BD8
C1504422
C0A489ED
C10BA401
C2232E85
C17D9FC6
C1AF63A6
40E7C885
C0B35DAF
C1F9E6E5
C1FBED8E
C0492A8D
404EEB7E
40C61A53
C15C35DF
C0958DDA
C1D2B9CF
C14C7CFD
C1AF8594
C1784E22
C160E99B
C27AE362
C1904A6F
C1EC3A47
C120A7B5
C18A377D
C085CCCD
C25FF9AF
C1CD883E
C0A86E0B
C1B199AC
C1FB154E
C18ED754
C156FD72
C20A3BBF
C1D47512
C1D2DAE4
C15E39A4
C13E609F
C1A0E5C0
C23E4406
C1C4E09A
C2125C27
C1A28FFB
C15616B5
C1C032CA
C18FE33E
C1F5C4FB
C1AE1E84
C25DD7EA
C21DCD83
C1CF1766
409A2B40
C14C69CB
C220D511
40CAFA1A
C232CEBD
C1CE20F1
C11D636B
C1A8F294
C1D5E796
C15C1391
C1C00151
C1CF93D0
C205A300
4107F4A9
C132085B
C18C86D5
C19C3663
C08D12D3
C21FBD99
C25F037E
406E52A1
C15F72F6
C14FDE13
C1876BBA
C1CAEB5E
C1165FD8
C1F25510
C1528579
C23A8F95
C2142159
C11A7C9C
C2041127
C25E7906
C18FB953
C03F6AF2
4144529F
C123F66E
BFBEC52A
C2090560
C0EEDB0E
C141255A
C0E19922
C197D207
C221B62A
C13FB7F2
C22B71BB
C2126865
C2154B84
C24AC101
C0BFE567
C1BBF6F9
40E6E7C7
C2066102
C1F3940E
C15175C5
C1561BE8
C1030FC6
C1DD8A1A
C200FA01
C19DEDEC
4147BC56
41061795
C193126C
41620A55
C182281C
C1AC3B94
C1640FAF
C20F449F
C1B88A50
414F446E
C2131278
C1F9EE7B
C27BA160
C1DCCF38
C058F97C
C1B2FF77
3FBD0196
C2179654
C2138392
C1E11E45
C11FB8AB
C1C61D4D
C211D0A0
C1D21296
41182DBC
C2139927
C178829E
C1EB4811
C20270F8
C21C3B5B
C16F911E
C10165D4
C1973E29
C2025C26
C1073B1D
40141327
C15AD34D
C1A6FAE2
C0F70522
C20FB9AB
415E2129
C1BD1991
C25C5F92
C1A77D6F
C1BB47A2
C24484FD
C15D5FEF
C212AB15
408ED488
413AB666
C1A33498
C1AC3E22
C02F46F8
C2137614
C1A94B1F
C183AC23
C1AC34A7
C1E16EB8
C200855D
C2509BF3
C1D34BED
40C838B9
C1034179
C22A0F94
C1973EFD
4100C9BC
C120D1F5
C1699708
C22F8B31
C1857521
C075C06E
C1612325
C11A2A5D
C22DC329
BFB0F989
BFC78835
C205C7B7
C1053AD6
C18B2362
C1A5C66A
C20B3A71
C1B3AF20
C202BA0F
C1C1F6F1
C1FB365D
C1A10CA8
C1C5D15B
C2304BF9
C0388FEB
40D90DD2
C141E344
C22FF0FC
C18CD374
C17C8EA1
C1EBCB54
C0A97C02
C20E5AAB
C20E7F0C
C147ECB8
C0DFB054
404BA090
C14C6D43
C1C07CF2
C1CEDE28
4171AFB0
C21587A3
C11BBAD4
C1DE60D9
C1EFA28F
C169B0ED
C1D37432
40D083FA
414B03BD
C18552DC
C18FD911
C1B830CA
C10BDFDE
C1B62024
C1A9ACF6
40DDFD78
C20DA8F1
C07ECEC6
C14141A1
C07CFCA4
C0F4E795
C26402E9
C0161342
C1814C75
C20FD55B
C1443323
C1AC985E
C24BD585
C23388B2
C138E11F
C17C3A5A
C207893B
40E21BFD
4149B1B1
C21C22DD
C183B8E3
C182BBF2
C1EFFE25
C26560BE
C10C11E8
C136E376
C12C5BCF
C171C633
409C3860
C14BD4DD
C14E4976
40973799
4100D990
C22F098A
C14F48EE
40EE0E60
C1B35675
C20518A3
C10BB556
C1BB96E6
C1CE3604
C181533C
C0DE7AC1
C1F508A1
C1ADB964
C109F251
C2028430
C180FF1A
4106CFC2
BF5D734E
BF38C173
C18BECAD
C24A2EC0
C1B4886B
C19EDD97
C20415FF
C196800E
C1F56318
C1077B70
C0CD1D43
C1393572
C1CC62F5
41412017
C17857D8
C1613EA7
C23F18C2
3F2BEE92
C146CDB5
C2324EA8
40987A10
C217F5F1
C1A7385D
C1E4A76A
C20EB121
C1FA7990
C208B38B
C1C8881C
C1D7A862
40D244BD
C2081FA0
40576806
40C41819
C1EE1BB6
C1BAB9A3
C110E07B
C1F74AA4
C1E6EC34
C1E52AB5
C1649C71
C12C7879
C200861A
BF363A49
C11685ED
C1724C81
C015045E
C13B5461
C1D03D4B
C1BB2B4B
C122E87F
C10F4114
C0C58052
C1F9175F
C1D4070B
C184D93E
BFEEBD27
C1CBA3E8
40C4138B
C2111EC4
C2123248
C1F69978
BFDC716D
407EF951
C1C8BEAE
C1C6D658
C18FD1EA
C1FB7C2C
C148E3A5
40D60FB8
C1819843
C1BEF30D
C17E562E
C0A72ADE
C1A1ABAE
C0E2E17C
BF82088E
C1B9B447
4102A563
C1171A8F
C201461E
C201865F
C1C7DB7C
C10110FF
C1235859
C21BA2DC
C2027AE3
BF3E81BE
C196D919
410B265B
3FDF656A
C1F9AA60
C0462FD0
C0645527
3E9B7BBA
C1285167
C1835D0F
C11B5CC5
C203466D
C1DA5A16
C011B665
C04E3DE1
40E5F37D
C1F893C8
40D3F54E
C1004911
C189B246
C1BE4DD9
403E9B69
C1555C8B
C200AFF0
4062B66D
C1D2FA26
C1DE4106
41664D49
C15E038E
C1D42420
C19D091F
C1805FC1
C198FC4E
C13E2E0E
C248D50C
C228A372
C2282CC9
C109EEC0
C1422003
C1E03B7B
C1A5C958
C160EFFB
C198FCD7
C0B5BAAE
C15E65A5
41DAF553
C12F1F15
C0ED9612
C2088E05
3F9AB43F
C1A76489
C0A8CDD2
C2298F91
C20998A0
C12CCBA0
4173E554
40621ADA
C1E1CC69
C1D722A3
C22489D2
C1324119
C18272B9
C1887F51
C1CFDC5C
C172CF9A
C1ADAA97
C16164D5
C1E24D83
C1F88570
C23E6A54
C171106D
4132BF7E
410F711C
C1C8F9F4
C1DBA9AD
3F68D930
C1480119
C22C2441
C2234140
C202FC05
C1553EA0
C11DD6E2
40192F1E
417A737A
C1CDB8AE
C20BE772
C1BB5C56
C18CB009
C0820F76
4100AF0A
C1A2350C
C1D1FB71
C18E9ADE
C1DAC5BE
C1BAB54B
C15C8EB3
C201D428
C1664CB2
C18DEEA6
C17B497F
C1BCB382
C18AC013
C199C060
C240AE93
C2082EAF
C1AC3EF4
C206AF5C
C0926E5B
BEBF40BB
C1611AB7
C1E91103
C216A46D
3F9444D8
BF598915
C0E02CC2
C097888A
C21324F6
C1CBA39D
BF304A94
C2314F4C
C1AB97A4
C129F3B9
C1F3E332
BFADBDFE
C1B67EC2
C161EA59
C1B54F1E
C1A2656F
C1223A2D
C1E1B31B
C1A8C416
C1C3D292
C1680350
C149E4F9
C220B77F
C086C954
C12605AA
3FDDEFBC
C1AB7676
C2175939
C1A41F05
C1EFE004
C2384361
40A7F9E0
BFEFF57F
C2007042
C187D2E3
BF9A74FA
C2239643
C1C5619C
C18BD31A
C21423AF
C1797304
C130D819
C181D88B
C1B744E4
C05F35A5
C11D3571
C2189DFE
C1DABE99
C217BEAF
C1B53C7D
C1562975
C1FA2DA2
C1D94A9E
C2075AB7
C1E5E707
C2250C89
C1A1491C
418C6D25
C21B3BC9
C1AE1D16
C1893E46
C23E3316
C00BC98E
C1D62F56
C156791B
C144018F
C0FD27C2
C25B6EBF
C1DE6F54
C172EF96
C1D80F1A
C217AF24
C1A859E1
C215F6B1
C1A11E95
C178DCB5
C24F483C
C1EB8021
C16DA98A
C1FD2341
C1FC3852
C126F634
C1B2EA41
C2390CDF
BF48991F
C103FCA5
C24D5B19
C15E86F2
C1BBE3E3
C185BBEB
C1436C55
C201F8A4
C0020A17
C1781F00
C096282E
409FD844
C0AC1019
40DA0861
BFC0D8EB
C0C7405D
4126EC75
C1AA7293
40DEAEBB
C180C0EC
C1937625
C0D7618F
408704F7
C1ED676C
C0482056
C1A80D0B
C1A4070B
C08E1E50
C0F1AF9B
C173A8A3
C1F891BA
BF5B012B
C10528F1
C1E2EC85
411307D5
C1AADB5B
C0CB41FD
C21019B4
C2487928
3FD797FA
C1BE9DC8
C1514C33
C1FBC824
BFB4FE22
C00D3360
C228AD3E
C1EEEAC4
BF9B8CA7
C1C2F59B
C1FBB747
C204297C
C18D2BF0
C1E14525
C09B71A4
C087969D
C0F683EC
C0788E8E
C1B2777A
C1DB76E6
C0A79B27
C1F4A62E
C1E4ACE7
C20B2604
C2341CDB
C064657A
C2176F2F
C1E07C5C
C10E0644
C184220C
C1F70445
C0A8A44F
C0BEBDE3
C0C35653
C17AA205
C1CB57DE
C204C5BF
C0F029A1
40140BA0
C173753A
C0D6F48C
C1CBACBE
C1D9F708
C180340B
C23A89F1
C21231DC
C07F605E
C217AE9D
C1F86724
C24D88A4
C1B9E4EF
C18981F4
C14C0BA0
C1D7D128
40EEC993
C229002F
40F1F037
C1C59D0C
C13FE572
C1BADF4D
C202019C
C19BEC2B
C19598EB
411A0555
C20354DA
C12EDF18
C2149221
C20837B3
C1D9DF20
40A90D0F
C039AED6
C0F50111
C1A755EC
C111F2D2
BF83FF29
C126D0BF
C16D2AC0
C12EBB31
40585774
C1D9D004
C18864C6
C19B1F7C
C234CA44
C1CD680B
C2093149
C0EA1670
C054C146
C21F6FB7
C1E87558
C229E16F
C1EEBB06
C1B5DBCE
C182A006
C0B695C5
C225023E
C20120FB
C201564D
40BB596D
C201179E
C1A48602
C1CAE48F
413E3676
C2086AA1
41340FBC
C04D3EF2
C22499F0
C0DE08A3
C13A0B85
C0ADCC4A
C1A859A0
C20F588B
C1DB42C6
41891444
C15069D6
410C5B2C
C1A0CBCA
C12F026E
C0740858
C2410CA8
3FC3D6DC
C2330455
C13CA14C
C1D9DB4D
400B6C89
C0A7C845
C195CCC0
C2328F2B
C1A534AF
C18616EA
C1A25DB4
C04334BD
C1289FCB
C24BD89C
40414377
C1D3C3A8
C201A62D
C1995581
C16538E5
C20E14F4
C200E7F9
3E1C4BFD
40103C6C
C20E23D1
C192278C
C1650EAF
C1D7BC53
C0971CA4
C26886DB
C1256750
C1B4D812
C23A57A8
C112B7ED
C1DF9566
C0CE66A1
C235EC37
C1857450
C1EEFCF3
C21CBF86
40EDD260
C1ACEB91
C087E693
C1BCF961
C090F2FA
C12F6261
C1DE671D
C11D7E6D
C1942BA0
40551AA4
C21696B4
C1A8EB9B
C197872B
3F7BB696
C1EE11EB
C195B7C7
C17583EA
C20C11AC
C22F641C
C1A129FE
41531FA1
C12D0665
C20F5D93
C2028BC2
C193FA7B
C11BA0FE
C22FCBA3
C239CAA1
C22003A5
C1DFAA03
C1A03367
414746C3
C24B0B44
C0FD1A8A
C209A64A
C20E0C6A
4027B53A
40623576
404317CB
C1536395
C0E94C58
C235FBD2
C20843B8
C25C7CE4
3EACC87A
C0E38697
C0FBFEE2
40B5F17F
BE4B4939
C21DB08F
416A6702
C27E555D
C231ACDD
C1453CDE
C1D0C83E
C20FDB16
C2092F83
C0C44389
C181A9B7
C0BC0754
C2378641
C1F19A28
C21B6738
40047D0C
C11963E1
C1820557
C14D02A7
3E906160
40585366
C1F7538D
C20E296C
400FC743
C12B615B
410B1723
C20A9CF3
C18B9C04
BFF0E9AB
C1C59FE0
C1B0ACAD
C177CED4
C13F635A
C1241EDE
C1967C60
C0BB01FC
C1F907EA
C186B06A
C1CA86D9
C1E1FCC8
C1901AFA
C2087F7C
C1CABC25
C1E106E1
C2005998
C0C0896B
C12F110B
BFCF9E58
C12C97CD
C1BE9EC9
C1B241A2
C1B77DC5
C1953C54
C11FA6AE
C217895C
C17EDC63
C12B57D3
C19F94D7
C249AB6B
40311952
C182A55F
C1C7986D
C150B132
C244D76F
C1FBBB06
C03FA285
C167367D
C1FE7CD5
C1CD89C5
C24F3979
C1D6E6FB
C1DB3E2B
C148111F
C14B67A7
C16E6275
C2006533
C1F79190
C21F8DB6
C2268BDD
C1B8A4C6
C2039A3B
C1DBF9C6
C21FA3B5
C1921539
C1BAC765
C1C933A1
C1BDB220
C1CAD848
C200029A
C1B251D1
C1C0516D
C21CF7CC
C1A5464E
C0D6D6D7
C253B10E
C22506C4
410D4C01
C0A50314
C213EC3D
C1FBE7AE
41690BAB
412C9E1F
C0E33448
C14BB252
C20F0C5C
C157E68D
C0EF0D01
C1FE3F7D
C07363DD
C1F967AF
C0B083D2
C1A15043
C20D983E
400FE58B
40AE1551
C214EFCF
C2041123
C1AAAEA4
C15BC860
C1EE9A1B
3F89A29A
C1774F5F
C1EBA1A1
C19C31A7
C1C34B94
3F57036C
C1DC5292
C111BFF6
C19FEDF5
C1E58A45
C1676AA7
C208FE3A
