00
04
03
08
04
30
3D
05
38
3C
05
04
06
02
3C
33
02
00
3B
3E
3F
3B
04
07
08
3C
3E
3D
08
35
07
3B
06
06
3F
39
38
01
01
32
00
08
3A
06
04
39
05
3F
03
39
3E
36
00
07
39
3C
09
34
3B
3C
08
3F
05
06
3F
31
07
37
3D
01
3F
03
36
02
3B
02
04
3A
03
00
37
3E
01
02
3B
04
31
3D
3E
35
38
02
3E
3C
34
39
04
02
07
36
06
01
3C
06
05
06
34
3A
06
3C
3A
02
05
00
00
03
31
03
30
3E
3D
39
09
00
3E
3B
36
07
3B
03
02
3B
06
06
07
3C
06
3D
33
3C
02
3C
03
3B
33
3B
39
01
2F
06
01
01
02
3A
01
34
01
04
02
01
36
01
04
04
3A
38
35
3D
01
3B
3D
05
3F
03
03
37
3C
3A
3E
34
3C
03
04
04
01
02
09
36
3D
08
05
36
01
03
06
3E
02
3D
07
33
05
39
3B
36
3F
3D
00
3B
3A
38
3C
36
35
34
05
00
32
3D
05
3C
3A
3B
3F
02
38
3F
05
00
39
00
04
09
3B
05
05
38
00
3A
09
0A
03
01
3A
04
03
05
38
3A
01
08
35
34
01
04
04
04
05
07
06
3B
38
00
00
3C
01
33
3F
36
33
03
05
3E
06
03
3A
3E
05
3D
37
37
04
00
32
00
03
3D
3A
07
34
00
08
02
2F
3F
04
3A
3F
00
37
0B
02
3A
38
3B
04
06
01
05
01
01
2E
3B
04
3F
34
03
36
3A
05
3E
04
39
36
09
02
36
06
31
37
06
05
37
3E
09
03
3D
05
02
03
37
36
03
09
02
3F
03
05
3D
04
01
06
04
38
3D
07
0B
3F
07
32
3F
3A
04
3E
3A
32
04
00
3C
3F
06
3D
3D
00
3B
04
06
38
33
3C
3C
3C
3C
02
3D
06
3E
39
2D
04
06
3E
03
02
05
36
02
3C
32
3D
3A
05
39
01
06
04
00
3B
32
04
03
0A
33
3E
04
3C
00
04
34
3A
04
3C
05
02
05
0B
37
03
01
01
3B
38
3E
06
09
01
04
04
35
06
02
07
0A
04
37
3F
04
3F
04
3A
3D
06
3D
37
01
3C
37
03
32
3E
00
34
03
00
03
04
30
3F
39
37
00
39
36
07
3F
39
3E
02
3D
02
32
07
3E
37
37
34
09
39
00
3E
39
08
03
03
02
34
3E
09
3F
34
00
31
39
3B
0C
35
07
39
06
3A
07
3C
02
03
39
03
01
3F
2B
04
3E
3C
35
3E
38
37
06
06
07
3C
06
05
3F
37
02
01
0A
3C
37
01
01
38
05
09
38
06
03
01
0B
07
03
33
00
05
3A
07
36
05
39
01
05
0B
3E
0A
3D
00
3B
06
3F
00
3A
02
3F
3E
07
01
35
07
3D
07
3A
3F
3A
3F
34
3B
36
3D
3A
36
04
02
3D
3D
3C
36
02
04
3B
03
36
04
04
04
36
03
30
36
00
38
38
3F
06
06
0A
00
38
3E
34
04
37
3E
03
08
39
05
03
36
03
34
08
06
02
3E
32
04
39
39
03
34
38
06
05
3E
3F
3B
3D
06
36
38
3E
3A
0D
38
36
03
05
38
36
3F
09
38
00
05
09
00
3D
2D
38
09
01
06
08
07
01
3C
37
06
3C
04
04
35
3F
3B
00
3E
08
01
37
35
00
08
36
38
2F
01
06
3E
3C
01
3D
3B
3C
00
3C
01
3E
38
04
09
30
35
2E
3A
3C
3D
39
06
31
34
02
0E
3A
36
03
3D
35
00
3D
05
02
39
05
36
3B
09
03
06
39
39
08
05
09
06
02
04
31
05
05
04
37
07
2F
00
0B
34
36
37
35
03
33
04
02
37
06
33
00
3E
04
06
2B
36
3D
01
05
32
2F
05
3F
3A
36
3C
34
35
03
3D
3C
2E
06
07
02
02
34
3F
36
32
03
3A
01
3A
00
3A
02
38
02
05
01
3A
3F
00
03
02
00
04
0A
0A
04
3E
38
3F
0A
3E
00
35
32
33
01
04
3D
06
00
2F
00
38
01
3C
3F
38
03
0D
04
0A
03
07
30
39
00
01
39
00
05
04
02
38
02
02
04
3D
34
35
05
3E
2D
0A
3F
07
06
39
02
31
07
08
03
3C
3A
34
08
03
3A
3A
38
03
00
3D
04
3C
3C
05
38
39
2E
0D
34
34
03
3C
3A
36
08
3D
01
07
33
02
38
05
3D
3B
3F
39
35
35
34
02
33
35
3F
3A
3B
3D
03
38
0E
02
3F
3F
06
39
00
01
07
3D
38
06
0B
07
3E
31
33
3E
05
08
06
09
05
3A
05
3A
00
00
38
34
39
3A
34
01
07
09
06
3A
04
08
0A
06
0E
3E
0B
39
04
3F
3D
01
07
06
3C
00
05
38
36
00
09
08
35
04
03
01
3D
35
08
3A
09
32
0E
06
3C
31
02
02
06
39
30
02
35
31
3D
3F
3E
3E
01
04
32
07
03
3F
39
39
0C
39
04
39
07
38
05
3D
06
37
2E
04
3E
34
3B
05
3C
0A
07
3A
3C
03
38
39
01
39
39
39
2A
3F
06
3B
31
39
04
3E
03
37
0D
06
32
08
03
09
00
37
3F
2C
3A
31
04
31
33
0C
38
02
01
02
36
3A
3D
2F
3F
34
34
06
3E
36
01
05
2A
02
09
06
35
3C
3A
37
30
02
04
33
01
3D
02
02
3D
3F
02
3D
3F
38
3E
00
38
06
34
07
02
00
32
38
3A
01
08
31
31
3E
06
01
3F
3F
3F
3A
3D
37
3B
09
3E
06
06
3A
3F
3F
3A
04
00
3A
05
0C
34
3C
39
03
00
04
07
02
3F
02
3E
2D
39
00
39
3E
02
05
3D
38
39
05
37
38
3E
3A
3E
34
36
08
3E
03
05
3A
31
02
3B
36
06
3A
3D
3D
36
30
36
03
3F
0E
3E
31
01
3E
04
04
39
00
0C
3D
05
32
3A
00
03
08
37
3D
04
32
01
3B
00
3D
08
02
34
01
34
0A
38
0A
06
05
3B
3E
2E
06
08
04
37
03
37
3C
05
3B
03
03
10
2F
01
3E
3F
02
0D
34
01
0B
39
05
3B
04
05
3A
01
3F
03
3A
37
04
3F
3E
05
39
33
3D
33
37
14
04
03
04
02
02
04
05
00
3D
04
3F
3D
3B
05
09
39
00
3D
09
3C
03
05
3F
03
06
38
01
06
05
39
08
35
3F
04
37
32
31
31
05
02
3C
37
0A
02
07
03
04
09
06
3A
03
03
02
36
03
09
3B
3A
02
38
02
3E
34
33
07
06
06
3D
35
07
06
3C
03
05
38
3A
31
3A
05
3A
39
06
03
06
05
06
00
34
3F
02
38
05
00
3A
3B
00
3A
3E
06
37
3A
34
35
37
02
3B
08
04
0A
05
3D
04
05
04
05
07
02
37
00
3C
3A
03
06
0A
3B
3E
08
07
34
06
06
04
09
07
3D
07
06
39
06
05
05
33
3C
3B
05
3F
3D
3C
3A
06
04
3F
39
02
35
02
05
02
04
3B
02
06
05
3D
08
3A
08
00
06
00
3F
06
3F
08
3A
07
0A
3F
3D
01
35
35
3E
05
04
3C
2F
05
2C
06
02
03
35
3F
01
39
00
3B
3A
07
06
3A
3C
01
35
3E
02
04
03
35
3F
04
05
3D
05
05
01
05
3B
03
3B
3A
2C
07
0A
07
3E
3C
09
3C
07
08
04
35
02
05
04
3B
07
07
02
02
39
02
07
0A
39
05
3E
09
3C
01
07
08
06
03
39
04
02
00
06
03
00
02
37
04
01
3F
36
3F
3F
05
3A
04
3E
06
37
00
3D
3E
06
04
04
08
38
3F
04
04
36
3F
3F
3C
3F
02
03
05
05
04
3B
39
3E
38
3E
06
09
3E
05
01
3A
00
06
3E
3E
04
3C
00
2F
00
38
34
08
04
3A
3D
00
3F
07
03
00
36
3A
3A
2B
02
05
33
04
07
09
02
03
3A
08
06
37
3B
02
06
03
04
39
36
05
04
39
3C
02
3C
01
00
03
07
03
00
30
38
07
34
02
3C
3B
01
3C
32
0A
07
04
04
38
02
06
05
00
36
01
3F
05
3B
01
06
01
3C
06
07
36
37
35
39
06
3F
37
39
37
37
01
00
29
05
0B
08
07
3E
3A
36
3D
3C
37
08
01
01
3B
01
3C
3E
38
00
35
05
03
3F
05
3C
3F
04
3F
3B
35
02
3C
30
00
03
3E
3F
3E
3E
07
07
08
02
02
06
3F
02
2C
33
06
3D
2D
05
36
37
00
05
3A
04
04
03
08
3E
2D
3F
05
07
36
3E
07
39
39
38
00
03
03
37
3A
3F
04
3C
01
00
3C
38
05
03
01
36
39
04
06
03
01
00
03
3C
05
02
00
3A
36
02
3F
07
3F
05
3F
3D
34
05
30
05
02
3F
30
04
05
37
01
05
34
3A
38
33
3E
36
07
09
02
03
2B
01
36
03
3E
00
33
3B
3E
00
3C
03
03
39
3F
37
02
05
04
04
35
2C
39
04
3C
07
04
07
03
06
37
36
3C
05
00
02
00
3D
00
39
07
3A
3D
06
39
39
07
05
02
39
3B
3C
32
00
02
3A
01
09
03
3D
3A
3A
0B
35
00
0A
05
37
05
08
2E
36
36
3C
3D
08
01
05
3B
30
05
07
07
05
04
04
03
07
07
03
01
37
02
09
06
01
36
00
01
38
30
00
06
01
3B
36
03
3E
38
3D
34
37
3D
3E
06
3F
38
01
06
36
3E
00
3C
3B
02
04
05
07
08
00
38
07
38
3F
3E
03
03
04
36
04
02
3C
04
3E
03
01
03
37
07
3C
0A
38
3F
3B
35
04
3F
3D
04
01
00
06
05
3F
02
03
3E
05
06
03
04
3F
3E
33
04
3B
05
3E
06
06
39
3B
3E
01
06
39
02
01
38
07
3C
03
3E
3C
38
06
03
35
35
00
02
38
37
03
05
01
04
32
00
04
3D
03
3B
01
39
00
0B
02
00
04
00
08
30
00
07
05
04
36
3F
05
3A
3A
04
3B
01
01
3D
02
33
01
07
3F
3D
39
02
01
03
37
09
3E
07
05
07
3E
06
3D
08
3A
02
00
04
37
35
05
02
06
3F
00
00
02
00
04
3A
01
38
02
38
02
37
35
0A
39
02
3B
01
08
34
3D
02
08
03
06
39
3D
2C
3D
39
08
07
02
03
3C
37
04
3C
04
01
30
00
3C
04
00
34
06
3D
08
05
38
05
39
36
36
01
00
04
3C
3D
3A
0C
3E
08
04
02
06
05
32
36
04
38
37
39
03
3D
39
02
03
3D
37
3E
36
05
07
01
03
03
07
03
05
00
03
01
04
34
04
00
3F
3D
35
02
07
3F
07
3D
00
02
3F
02
3C
08
35
03
03
3F
06
3C
06
07
00
03
03
02
06
07
3F
36
39
0A
3E
3C
03
06
07
36
07
34
05
39
04
0C
3D
04
3E
35
3E
05
33
37
02
3C
08
3F
3E
03
39
38
3F
04
02
02
05
33
04
04
3A
00
0D
3D
06
03
3F
3C
04
04
31
3B
38
05
00
3A
39
39
3C
3A
04
3E
3C
00
02
33
31
04
38
3E
07
04
3E
3D
34
02
05
09
01
05
03
07
06
04
35
07
01
01
35
07
0A
0B
32
3F
05
05
03
39
39
08
3C
3D
30
37
02
02
05
3A
3F
3B
06
04
08
31
04
04
08
3F
04
3C
06
3D
39
07
3F
3B
01
3C
37
2C
3C
08
32
04
01
3A
38
38
03
03
3B
01
3F
36
03
33
02
38
06
07
04
3B
39
38
04
06
3A
04
39
3E
38
04
3F
3D
36
3D
04
3D
3D
07
03
3F
3B
36
01
3E
3A
38
3E
04
06
06
04
3E
00
04
35
37
08
37
00
04
3D
3E
0A
3E
01
3E
02
05
05
07
3F
01
34
30
36
39
07
05
36
01
3D
3A
09
00
32
00
02
02
3C
2F
04
07
35
06
07
00
36
32
35
03
09
39
00
00
08
3A
3C
03
07
03
06
3C
01
02
38
3A
39
3C
05
3E
3F
37
3D
3F
3F
38
35
3E
00
3F
04
04
00
05
01
04
3D
06
03
04
06
04
38
05
05
3D
3B
3B
07
3D
3E
05
03
03
02
06
08
3A
04
3F
00
03
35
37
3C
39
3A
38
06
02
32
06
02
04
01
3B
03
05
3E
3D
3D
03
0B
39
3E
3E
3D
3C
06
3A
08
0C
3B
3E
06
3D
03
38
3C
04
07
3F
04
01
3E
05
3B
35
37
00
33
06
03
02
03
3F
3A
3B
3D
3D
35
09
03
08
02
3C
3A
0D
38
34
2F
3F
3A
01
0A
34
08
37
37
01
3D
3E
3E
04
04
03
00
00
07
30
08
3A
3F
3E
04
3C
06
04
33
3B
04
02
3F
02
3F
3B
3B
05
31
06
07
3A
04
01
3A
37
03
36
3B
06
07
09
01
38
3E
38
05
05
08
05
3C
02
3E
09
3D
35
03
02
3E
03
3E
03
36
04
3B
09
30
35
04
07
39
38
05
07
32
30
3C
05
05
05
3A
00
09
32
3F
2F
04
07
02
01
02
3B
3E
36
00
0C
3F
09
34
3F
38
3E
0B
38
30
01
01
2B
03
00
30
3D
37
3D
3E
2D
04
04
0B
3A
39
35
3B
04
04
32
2D
2E
3F
00
07
05
07
05
35
31
07
3E
3A
36
3D
01
37
32
39
3E
06
37
04
3E
3B
01
38
3E
2F
31
0A
3C
02
02
04
3E
3C
3A
3D
07
2D
08
05
08
0C
3C
35
37
32
00
3E
3F
34
08
03
3B
09
34
3D
07
04
06
3C
04
36
04
02
32
37
05
0B
36
3B
05
0A
37
03
38
02
28
3A
39
2F
3C
3D
3F
35
02
05
3A
2E
08
3E
07
38
04
05
0A
3C
3E
36
07
3A
2B
36
03
02
06
3E
0A
08
00
3C
01
04
07
01
2C
38
04
00
06
2F
01
28
06
37
3F
39
3D
02
3C
38
03
37
3A
3E
30
37
30
0A
3C
03
3B
3F
36
0A
01
04
3B
3F
05
02
0B
38
01
06
03
3A
02
0A
3E
08
36
03
08
37
05
01
08
07
34
00
05
09
0A
08
0A
3A
01
02
07
04
02
05
38
06
3C
30
30
3B
3C
08
05
00
01
30
0B
0C
31
04
39
3E
3B
06
3F
06
02
03
3C
04
04
32
37
3A
3F
07
3D
02
03
3F
3D
29
3F
00
39
3F
3A
3D
08
06
05
3B
33
01
06
04
31
3C
08
00
2D
04
3A
04
08
07
3D
04
3C
3D
06
3F
03
33
04
03
03
08
00
34
3E
37
05
3C
04
08
02
28
00
3E
03
02
00
02
3E
01
3F
3B
06
34
02
36
07
06
03
00
02
04
06
3C
33
36
02
35
06
01
32
3C
33
3B
34
35
02
3E
3B
06
05
01
03
37
04
08
02
3F
04
39
3A
01
37
32
02
3F
39
03
05
05
3D
05
3D
3A
02
3B
3A
39
03
3B
01
07
05
05
31
05
39
3B
03
37
07
3E
3C
05
0B
07
00
38
3B
37
02
03
05
36
05
35
07
33
03
05
02
39
00
3B
09
02
39
3B
05
09
03
3A
06
03
3C
03
36
3D
01
3A
3C
3E
08
3C
3E
33
30
34
04
08
05
3F
01
05
2E
3F
03
3F
03
2F
2E
38
04
05
37
05
32
3A
34
04
3D
37
3F
0D
01
3F
01
02
39
3B
08
06
2D
36
04
38
33
3B
2A
3E
04
3A
04
07
03
04
08
05
3F
04
35
3A
05
3E
3E
02
3A
3F
36
09
06
38
3F
04
01
38
0B
3C
3B
05
01
3B
3E
31
03
34
00
04
3E
3F
2B
09
2A
3B
09
3D
3A
03
05
04
32
38
3B
01
34
06
30
01
3D
03
08
06
03
3C
35
38
0A
01
01
07
06
3E
06
3F
05
08
38
0A
00
3D
04
37
08
36
33
3B
07
00
05
3F
03
00
07
01
34
09
3E
3D
31
31
28
3D
32
03
02
36
34
3B
36
3C
3A
01
3A
04
04
00
02
37
39
35
3E
04
05
04
32
3F
38
06
02
3E
33
06
05
03
01
00
35
04
3D
05
3A
06
37
01
09
37
3C
00
07
01
3E
0B
04
39
06
00
3C
3C
33
03
3E
00
3C
03
36
30
3B
31
3C
33
3A
39
39
3C
3C
03
38
3D
07
3D
3F
3B
38
2E
00
32
3E
08
02
30
39
03
3B
39
3E
3E
3A
09
01
09
38
01
08
05
03
38
07
05
08
3A
35
08
3A
02
02
3C
00
08
05
06
02
35
3F
00
06
04
3F
03
05
3D
37
0A
3A
36
0B
01
3F
00
3B
09
03
34
04
06
30
3C
06
3C
39
00
05
03
01
3D
02
06
02
0B
03
3F
01
3E
3E
03
04
36
2B
02
34
38
3E
00
05
02
08
3E
03
01
02
3B
39
3F
3F
08
34
01
0A
06
36
39
3F
03
37
05
3C
37
03
00
3A
04
03
3E
37
3A
03
36
3D
03
32
05
01
2B
35
02
3A
35
3E
3F
38
02
06
04
09
05
03
06
03
0C
3B
06
09
0A
3D
32
37
00
03
07
04
3C
02
3F
01
29
00
03
05
07
32
2F
3D
35
3F
04
03
05
3C
00
00
08
3D
05
03
3D
32
32
3E
3A
01
07
02
39
08
3F
39
03
05
3E
06
35
3B
37
01
03
39
39
05
3D
37
07
09
08
02
08
09
39
35
3E
01
07
3B
00
07
05
38
08
04
2F
00
3B
02
04
02
3D
3C
3E
3A
35
08
03
3B
02
30
02
00
06
07
01
3B
37
05
32
3C
01
31
3A
03
01
00
05
08
09
3A
3A
0A
36
39
00
3F
06
08
3B
3C
3C
3F
03
07
07
3C
07
06
3B
3E
03
04
07
3B
01
08
05
07
06
05
3F
05
38
08
3F
3E
35
3F
02
3C
03
04
06
03
3A
04
3E
3C
38
38
06
02
38
3E
05
32
3E
39
07
3B
07
02
04
2D
03
09
3E
39
35
00
06
09
00
01
3A
04
05
00
03
05
03
07
01
3A
02
3E
37
3B
05
0A
0B
33
0A
38
08
02
04
38
36
34
00
0A
3D
02
03
3E
08
3F
34
37
3F
36
3F
03
05
02
3C
00
02
02
3C
01
3B
3C
3B
3C
34
3A
2E
01
38
3E
3F
06
24
03
05
3F
05
04
09
0A
03
0B
05
34
38
03
3E
04
04
08
36
07
01
01
09
2D
3F
01
06
3E
09
02
04
2F
03
02
3E
3D
06
05
04
05
02
3B
04
37
3A
32
00
00
06
05
33
01
3F
01
06
05
04
08
36
07
04
04
31
32
06
0A
03
03
03
37
3E
37
00
01
01
37
09
3B
06
3A
00
36
2A
3D
08
08
3E
02
02
38
04
2D
2F
04
06
03
3E
02
36
34
32
09
01
05
3E
0B
06
00
3D
03
01
08
37
0B
3F
04
36
36
38
08
04
33
2C
02
36
07
04
05
07
3F
03
03
01
00
35
3F
00
02
32
3B
00
06
37
3B
02
3D
3B
3D
06
3F
34
02
02
3B
37
01
32
01
00
38
00
34
3F
35
39
01
04
3F
3B
00
3A
3C
06
03
38
06
39
35
07
38
35
3D
3C
3C
3A
05
01
3D
3C
03
04
01
05
03
37
04
04
3D
07
02
05
3B
37
01
00
36
07
08
01
3B
08
3B
3D
36
06
04
05
3F
04
08
00
05
06
05
33
01
3C
39
3B
3C
05
3C
2D
07
37
02
34
08
09
39
03
05
03
01
3F
04
0D
3E
06
32
3B
05
3A
04
04
3F
06
06
06
08
07
36
08
08
03
05
37
36
0B
08
3D
34
06
00
3E
2E
05
03
3B
39
36
02
36
0A
05
36
3E
08
04
06
38
06
3C
3F
02
33
04
3A
39
02
03
06
38
04
3F
2B
37
01
3D
3D
03
06
04
34
03
03
07
06
04
06
33
09
06
3E
06
39
06
06
07
37
08
2F
37
3A
04
07
39
37
3E
06
01
3F
06
05
3E
3D
3F
38
3F
3D
02
3A
32
37
37
02
03
05
3E
3C
3F
3F
02
01
01
34
00
2A
33
02
35
3B
3D
05
3D
3B
3F
04
05
03
34
38
3F
04
34
01
3D
38
3A
00
02
02
04
3D
06
36
06
3E
03
36
02
02
00
3B
35
02
01
00
39
06
04
04
01
01
2F
06
3E
37
3A
07
37
04
3E
35
03
3C
3F
00
03
06
35
3B
39
06
04
05
3C
3F
3C
05
08
3A
30
38
38
3C
05
03
01
05
30
01
35
39
00
00
3E
33
02
36
07
09
09
06
3C
04
3A
3F
08
07
3B
04
3E
01
02
02
00
3E
32
38
02
04
06
3D
3A
08
3F
3C
3B
3D
04
3A
33
3E
37
03
05
33
3B
02
01
35
38
01
3F
34
04
3A
03
3B
06
03
38
04
01
33
05
01
39
3B
06
01
00
04
01
03
02
05
06
06
33
34
32
07
3A
03
0C
06
04
2A
09
04
36
07
01
05
3A
35
00
3F
3F
38
33
0D
02
37
38
3E
3E
07
3D
02
00
03
07
38
32
03
02
32
04
03
01
03
02
02
02
36
3E
01
38
0A
01
04
3C
05
0C
3B
04
39
3E
34
3D
32
3C
01
3B
34
04
35
04
3D
38
01
07
3F
31
38
06
3F
33
3A
0D
06
0C
3E
02
3E
03
00
01
01
30
07
03
3C
00
01
3E
39
32
2B
08
3E
3B
34
06
00
01
06
32
05
30
04
36
00
3A
3B
38
37
05
30
3A
02
01
05
07
02
30
3B
3E
3D
2F
09
3B
04
06
04
35
32
04
34
02
38
06
37
3B
3E
36
37
3A
36
3D
39
05
05
05
36
37
3E
05
06
01
3B
33
00
31
04
39
39
38
03
3C
3F
07
38
05
07
30
39
34
39
05
3B
00
02
04
03
3B
3C
05
35
0B
3A
07
00
03
07
3D
38
3F
03
38
39
38
39
3D
3C
3E
2B
3C
2F
01
3C
06
3A
04
3F
06
36
00
3C
33
35
02
3E
03
07
30
07
07
02
3A
37
0C
3E
00
3C
36
36
01
37
03
2D
04
02
36
37
03
05
3D
31
3A
03
07
37
39
06
0A
3D
3F
02
03
03
3D
0A
06
01
03
03
3B
05
06
3F
05
04
3A
35
04
07
3B
09
3D
00
3B
00
01
01
3F
01
00
39
00
0A
0A
00
35
33
3F
05
34
00
04
03
32
3B
00
04
00
39
2F
0B
06
3F
34
07
04
33
08
3F
3D
35
0A
09
35
00
3E
04
3C
36
08
03
36
04
06
07
38
06
02
34
36
02
05
39
05
03
01
01
06
08
3D
04
06
05
32
06
05
3E
3D
06
39
08
03
01
01
01
3F
34
02
00
06
3C
00
36
35
04
02
06
05
3D
37
3A
2D
3E
37
02
37
37
3F
03
34
33
3C
3C
3A
06
3A
32
3D
39
05
07
3A
03
06
06
3A
02
06
37
3F
36
06
03
3F
04
3F
39
3D
07
3D
39
38
03
33
37
3F
39
2C
36
00
3C
3B
34
39
08
37
30
05
02
38
02
03
00
04
31
01
00
00
3F
3C
06
04
00
37
03
3C
00
3C
36
3E
07
04
03
05
3E
39
02
3E
3E
31
0A
36
39
00
3E
0B
04
02
05
04
37
2C
35
04
07
36
36
3B
04
0B
07
36
03
05
3D
37
0B
02
31
0C
35
02
3A
01
3D
02
02
36
08
3C
05
3B
0A
05
3F
01
04
08
3A
01
03
3F
3C
3E
38
04
03
35
04
0B
3E
3B
3E
01
34
07
02
3D
2C
00
07
39
38
03
04
3F
3D
38
06
07
34
00
3F
36
03
3C
06
3C
3A
3D
36
3C
09
32
37
03
3C
3D
09
3E
3B
30
39
02
07
05
03
38
39
01
02
06
35
3D
35
3B
09
08
3F
06
37
3C
09
36
01
08
3D
36
31
0A
3B
04
37
3F
01
30
3C
3E
02
08
39
35
03
32
05
3C
3B
09
3D
3B
3B
3C
03
3B
3D
2F
00
3F
3F
37
02
01
00
3B
2F
00
3C
33
3D
07
38
3D
04
04
00
07
3E
09
06
01
3B
06
04
39
35
07
02
3F
03
3B
05
3D
02
3C
06
01
05
08
06
06
03
30
35
3D
3A
02
3A
39
03
02
3E
05
3D
01
03
33
3C
3A
36
0A
3F
06
03
00
3E
30
3D
32
39
0A
04
36
01
07
02
00
05
3A
02
3B
3E
32
3A
3E
04
3D
08
00
03
03
3B
3B
3D
04
02
3D
3D
05
37
07
39
01
03
0B
02
39
3A
07
07
3F
02
02
3D
07
04
00
03
39
00
02
02
02
32
0A
39
03
32
3B
3E
35
06
01
37
37
07
36
04
03
02
03
3E
3F
01
3A
07
3D
3E
3F
3A
37
02
3B
3A
02
39
3D
38
04
01
03
00
3A
34
02
04
36
3E
3C
35
3D
0B
08
3E
05
09
05
36
03
03
37
02
09
04
00
04
3A
00
38
07
01
0B
34
06
3D
03
39
04
03
02
3C
05
01
3C
3E
00
0A
02
36
00
36
06
02
04
3A
0B
35
02
3D
03
3F
05
3F
3B
3B
04
08
02
02
03
36
3C
3B
3F
3D
03
06
0A
08
04
3F
01
02
39
01
05
08
01
06
3D
08
38
3D
06
3D
3B
03
02
07
3A
3A
3D
04
30
03
00
08
3B
34
3D
05
3B
06
3A
02
30
01
2F
3D
03
3A
3F
03
01
3E
35
01
3B
05
3A
3F
3D
35
39
05
06
07
08
0A
36
3F
37
39
3E
03
3F
04
00
05
34
3E
03
3D
03
03
05
01
07
39
35
01
35
04
03
02
02
3F
01
3F
05
3C
03
38
36
02
00
00
04
06
03
3A
39
06
3E
39
3E
2E
39
3F
07
01
02
00
04
05
3F
05
3D
37
02
3C
01
39
05
05
00
00
37
03
33
3D
0A
3F
04
00
3B
32
03
3C
01
03
39
03
07
0B
3C
06
3C
01
02
06
06
03
01
30
00
02
06
07
06
01
2D
03
00
3F
06
06
03
35
0B
00
03
08
07
3A
3F
05
38
3B
04
3B
06
04
3E
3D
00
3D
3F
09
00
04
02
06
37
05
03
3E
00
01
3D
30
04
05
3C
07
2E
07
04
04
05
01
3A
06
01
04
03
05
01
01
3B
35
05
2F
37
04
3C
05
3C
3F
00
01
01
00
05
01
02
35
0B
08
02
01
3D
36
02
05
01
3E
36
04
3E
2F
04
05
3F
01
3D
06
06
3B
33
3C
3E
04
3D
3B
3E
3B
3C
3C
06
3B
3F
08
00
39
04
02
3C
09
04
3A
3D
0B
05
07
04
39
37
35
04
3C
02
3D
05
02
01
02
3F
3A
3B
04
00
39
3A
01
04
3A
09
04
03
03
00
3C
01
37
39
01
02
06
01
2E
3B
03
3B
04
01
3F
3E
3E
04
38
08
3D
3E
00
04
31
3B
04
3A
39
01
03
07
3C
3C
3C
03
03
3A
39
38
31
09
00
02
34
02
01
03
3B
3D
3D
04
09
3E
38
05
02
01
37
03
3E
01
07
3E
3F
07
02
3B
3D
06
3B
00
3A
01
07
39
34
0A
00
3F
03
36
3F
3F
04
32
3A
3E
01
3E
36
3A
3D
02
3C
06
00
3B
03
3C
06
03
35
02
3C
06
37
3A
02
05
00
3C
08
00
33
31
05
3D
03
01
04
3D
09
01
01
39
03
2A
01
06
08
06
3D
01
37
05
06
03
03
03
3A
34
3E
01
06
3E
07
0A
3F
03
07
04
04
02
04
04
36
3D
38
07
05
05
3F
06
3B
3F
3B
05
04
07
3E
08
3D
38
02
3C
3A
06
32
08
01
09
0C
04
37
3F
35
3F
39
00
39
33
36
02
09
3C
38
39
03
3C
3A
00
01
00
03
3A
09
3A
00
01
3D
3C
36
07
3E
3F
3D
01
00
3B
3D
05
06
3D
01
05
01
33
3F
3C
03
39
0B
3A
01
01
00
06
3D
04
01
00
3E
05
00
36
37
04
03
03
01
03
3A
3E
3C
07
35
0A
05
34
3B
39
38
3A
03
08
39
06
07
39
01
3D
3D
00
01
3B
01
39
01
03
38
06
06
03
39
3D
3D
0A
39
05
39
0B
3D
04
34
06
05
3B
04
3B
3A
09
01
34
3E
31
01
3D
3E
36
39
3F
03
3F
35
3E
01
38
07
05
00
3D
05
03
3D
03
3A
37
00
02
3B
00
35
3E
2F
38
00
02
3C
35
03
3B
05
04
30
3F
04
02
3F
06
05
00
33
03
01
3D
38
03
3A
07
01
03
03
34
39
03
02
38
0A
01
03
02
3B
02
09
09
05
04
06
3F
06
08
07
35
01
3C
3B
03
06
01
04
2F
38
39
01
08
3A
3E
05
34
06
02
06
04
05
06
2F
05
38
38
3B
09
01
3E
02
02
38
02
04
06
01
05
3F
04
06
3E
03
04
03
3E
3D
3C
3D
33
05
04
05
03
09
37
3D
00
04
2D
03
3F
38
35
35
02
3E
31
07
04
00
04
02
05
01
3B
05
3F
08
3F
01
2F
38
05
00
3A
3B
01
01
32
04
3F
35
38
36
03
3A
39
01
3F
02
36
02
00
07
01
04
38
09
36
33
00
31
01
01
04
03
01
02
3D
35
03
04
30
36
02
02
3E
39
07
34
09
00
05
30
3B
3E
3F
3E
04
3F
36
3D
39
06
04
3F
36
35
3C
33
3E
04
02
3C
07
01
04
2D
3E
00
08
05
05
33
36
03
02
37
02
05
05
35
36
08
05
06
05
02
38
3D
38
3F
3E
04
33
00
38
3D
08
2F
04
01
3B
3E
03
02
3F
05
37
3E
06
3E
3D
02
06
01
37
3C
3B
01
00
3F
01
31
3E
33
04
05
03
03
06
3B
00
38
35
05
35
38
08
3E
03
3E
07
38
3E
3E
05
07
35
3C
05
02
37
34
01
05
05
33
39
2D
39
3C
02
00
01
04
09
3B
03
05
07
03
02
37
39
00
06
06
38
3E
3A
03
00
3D
03
05
32
01
3C
3E
00
04
3D
33
3A
3A
2F
36
37
3C
3E
34
01
05
06
00
3D
38
3A
00
2D
3E
04
3B
02
03
35
06
3E
03
07
04
03
3C
08
08
31
09
38
06
01
3D
39
02
02
00
3E
3F
04
34
02
01
3F
06
02
05
01
3C
0A
0A
04
03
07
02
07
07
02
31
03
3D
2F
3C
03
02
00
06
38
3A
33
35
03
3C
02
03
36
05
3F
30
0A
00
04
04
3A
38
3F
06
01
3E
05
03
35
3F
02
3E
04
08
08
39
37
03
07
01
03
35
3D
07
03
03
03
3B
04
3B
38
03
00
3B
2C
35
3B
3B
06
38
09
37
04
06
3E
02
3E
02
03
31
3C
03
05
0A
3A
02
02
07
00
01
2E
01
39
05
02
3F
03
33
39
00
05
3C
3D
01
3F
3F
02
03
07
31
01
07
06
05
07
3C
06
01
03
3B
00
04
02
06
33
3E
06
04
02
05
02
3B
01
06
04
37
02
05
3E
05
04
3A
07
03
04
3F
02
36
03
02
05
07
02
3A
06
3A
09
08
3D
01
3E
31
3F
04
01
04
04
35
04
3F
04
03
38
39
34
04
34
00
00
3F
02
02
31
39
04
09
06
00
00
09
38
03
36
36
3B
06
3A
00
2C
02
3E
37
3F
3C
39
3A
3E
3D
3C
02
03
3D
3B
04
3F
02
3D
09
3E
04
04
3E
05
2F
3D
2D
3E
3D
34
35
05
38
02
05
04
3F
3A
3B
32
01
3E
04
00
06
3F
05
