1D11
0004
1F77
1F83
1F42
04AC
1CB0
026C
1FF4
1D51
02EA
1F13
1FEA
02A3
1E1B
0568
1FEC
0004
01B5
0204
1F1E
1F0C
01F6
0022
0138
1FC7
01CE
1D8C
00AB
1C1B
0399
1FD7
1DFC
1E60
03B8
00B5
1FA6
00D9
1E86
016B
0218
007F
1FF1
1EF4
1D5F
1F4E
1E03
00E7
0035
02D2
0114
018B
038A
02A0
009F
1DA6
1EE8
1F8E
00CC
00CE
010C
1FBB
1DE4
1B6A
1E51
001D
1D89
0092
1D89
1FA7
02B5
00EB
0071
001B
1EE5
1D3A
1F95
028B
020E
004C
1E26
034C
0165
1E77
1E2A
01D9
1FF0
1EE8
1ED7
0404
025A
1DF8
00F4
003D
1DFC
000B
00BC
1FEF
010B
005E
012A
1FF8
1D26
1E80
1FEE
0316
01A2
005B
0008
002D
1E96
00EF
1F22
00FD
01FE
00E1
0147
1E6D
01B2
02E5
1E86
1F72
0201
0125
1FAA
01B1
033C
0000
0033
0198
0241
1F39
1F34
1FAE
1F6E
03C1
0110
1D9F
00AD
1E69
00A3
039D
033C
0043
01F3
1C5D
0032
1EF1
1EFE
01F6
0069
00E0
00AE
0147
1EC3
0040
014C
1E50
07F6
1FB1
00D8
1F0D
001B
01B5
1E69
00D5
01C2
020A
009D
01F0
01AF
1FE2
0064
1E65
1EEE
02A8
1EB9
1EDD
006D
0385
006E
02E6
1F79
1E5A
01A3
1CD4
1D91
0117
015B
000A
1EEF
1EB4
1E40
1EDA
1FC9
1ED8
0416
1BE5
1FE7
0218
0096
1FA7
015A
03E9
01B1
00F5
0079
1D6F
01E9
0179
0134
1EFD
1E77
1FE9
1DBF
1DA5
02AE
1F77
0141
1E1D
086F
0577
004C
0216
1DBC
1F63
1FCB
0144
1E7F
1D75
0004
0426
1E7A
1E76
009F
0494
1CF6
1ED1
1C9C
1F44
1FD1
01B0
00D8
1EC2
0077
03E6
0028
0295
1E12
0110
1FB1
1B3F
010C
1E2E
1FE6
1EAB
1C5F
1ECD
0201
0273
1DF0
1DB9
1EDC
0348
1FCC
0064
1C48
0102
029A
014A
0085
00E7
1E9B
0015
1D14
05CE
01FA
008B
0159
1E52
04C3
1FAB
01E4
1DD5
01A8
1F66
00B4
1F67
1E91
0162
1C44
0018
1C6F
1E93
1BC9
036E
1F76
02AD
1F9F
1E56
017B
0125
1F93
1C85
1EB8
1FAA
1FC4
0157
1FDB
002A
1FFC
1E4F
00E7
1CCB
0643
0061
0104
1E4B
1FAC
005A
1D8B
0087
1E74
1BA2
041A
1F63
1FE1
1F9A
1F17
01DA
1FC0
0194
0323
1FF7
0081
1EF2
1FC1
004E
1FE8
1D63
009F
1FD1
1F29
1EB1
1FD3
1FD1
02EC
013C
1FE4
0044
0121
1F36
1EE5
038F
1FC0
1F53
1EF3
007A
02FC
1D69
01C5
00ED
0590
0468
0323
0406
0094
1FFB
1FF6
0240
1F21
00C7
1B6C
04FC
0175
03C6
1CF5
1FD1
02DB
02A5
1D6B
1E73
01A6
1E20
0089
1E91
1A3F
009D
037C
1E58
0119
0146
1DB1
1CFF
1DDA
00A7
1F34
1DB4
1FCC
1EE7
1FE3
02C1
1EB5
032A
1CAD
1D7B
1E77
002B
02C4
02B1
1EDC
00EE
0354
0095
1D8B
1E99
01C6
0016
0085
00C5
1F45
02D8
1E94
004A
00B8
1E98
1EB4
1F31
0201
0149
1FC3
00C1
01E6
1ED2
1FE8
0103
1F49
01FD
031F
0146
1F30
1DF4
0194
0299
1F86
1F8A
1F5C
1E0C
0095
1DBA
0185
1EFA
035B
1C00
1C4C
0153
1E1B
0480
1F37
0026
015D
02CF
1F73
1F96
1F62
0115
1C9B
1F76
0163
1EF3
1F19
0270
1DEE
1F8E
002D
1DD2
1BF9
0255
1E9B
1CD3
003E
1EA3
01A7
00D8
02DE
010C
1E3D
01A1
1F19
0095
1EA9
0114
1E04
1D72
000E
036B
0074
03C4
014D
1F85
1D6A
02AF
00B3
0130
004B
0110
1F6D
1C33
1E20
01A1
1E51
0095
1FEE
1C09
03C7
1F8B
1FF1
1E90
1FA9
0148
1CA5
1DCF
0082
1F5E
1F16
1EAB
1BAC
1E50
0335
1D38
0385
0333
1CCE
1FC7
0408
0026
1C71
1E68
1FA6
1C37
029C
1CE2
014D
1F71
1E5F
1E85
0002
0244
0176
0030
1EF7
1DBC
026A
1F59
021B
058A
0042
1EC9
00BC
00D2
1E59
1EBD
1C4C
018E
02C6
1FE3
0242
01DE
1F40
1EC0
03D4
01DE
1FE9
01E5
1E80
1E17
0387
1F33
1D5B
02D2
1E58
0044
1E3E
01C4
009C
1BE3
1EDD
1F61
0031
039D
1D58
0180
008E
1DCA
1F57
1CAE
0027
00A1
1E0B
024C
1CDF
005E
027C
1D9F
1CEA
1F41
0327
1EA2
012C
0023
0175
0299
1FBF
0157
0286
1F9E
1DEA
00D7
00B5
1F9A
0234
0107
1BBB
1D58
002A
1F1C
009E
1D28
0328
0059
1F68
1EF8
1EE1
1D49
02F5
1F0B
0305
1EC5
1EA3
0127
