#ifndef WEIGHTS_H
#define WEIGHTS_H
#include <stdint.h>

const uint32_t weights_l1[16000] = {
    0xC90D5975, 0xC7B6EB53, 0x986F182A, 0x0634A484, 0x6D70000E, 0xAAC03076, 0xF84130F6, 0x90BEF1FB, 0x03000C25, 0xBE31FE2C, 0xFB7EC87E, 0xB73BB8D1, 0x4448AA82, 0x2919E251, 0x84F41390, 0xA794EB0C, 0x6422004F, 0x002AE5F1, 0x1D420B45, 0x6B2E6FB8, 0xD20FF81C, 0x622D711C, 0x0E837388, 0xFCC282DD, 0xEB820000,
    0x1B3E94B9, 0xA59CC716, 0xFFEFCD9D, 0xCEDEF864, 0x52661ABC, 0xB21E185B, 0x73503B20, 0xDBA42937, 0x78902419, 0xF67A1BFC, 0x1A885FF7, 0x4E99F823, 0x329C0701, 0xE101F739, 0x6C1CC8EF, 0x81EBAF20, 0x1EE8C203, 0xF6F5183F, 0xF18F09F6, 0x95AD0EFF, 0x4BC079F4, 0x884250FB, 0x000024FA, 0x091297E2, 0xEFB90000,
    0xDE318632, 0x8013FA60, 0xFE2F8E1E, 0xB63007EC, 0x3693FD21, 0xDAC7B83B, 0xD1D7C1FF, 0x781C73DC, 0x1986F3B7, 0x987F018D, 0x0E197538, 0xA192A908, 0xDBE7F89C, 0x9816969E, 0x17D6DF8B, 0x1CE2392A, 0xC2FD257E, 0x3B607B8F, 0x5F44DA78, 0xA1316D05, 0x06BF5E40, 0x0682007B, 0x2CF813A4, 0x70600F35, 0xDED10000,
    0xF0A5FBB5, 0xEFDE5CC3, 0xABDC018D, 0xFDDB95E3, 0xB8239EA8, 0x03B8D7AA, 0x84A13795, 0x1ABC3079, 0x049E494A, 0xF6BE0834, 0xE1C178DE, 0x4608B84F, 0x78E6B564, 0xDA49517F, 0xF1B89325, 0x03968DF0, 0x3B11BA27, 0x9E41283B, 0x190AA348, 0x2B3D0D80, 0xAF95FFE5, 0x2460B4FC, 0x802C0415, 0x1974DDD5, 0x7FEA0000,
    0x3FDA81C9, 0x35EFE9DB, 0xF5707CAF, 0xAF43517C, 0xF76B83BE, 0x9D3224FA, 0x7C8C7E7F, 0x4A165EC2, 0x47D2FDE1, 0xC3A11257, 0x6E0330C6, 0xA46110DB, 0xC5D0BE77, 0x4C40CDA4, 0xF404F96B, 0x0076405A, 0x01F459E9, 0x3E864DF7, 0x503CFFFC, 0x0700FB90, 0x238955C2, 0xEFC485C5, 0xF682C9FC, 0x31BA0CDC, 0x3C880000,
    0xFB9F14F1, 0x938CC36B, 0xB7EE6FB7, 0xD2FA8FEF, 0x40B61D1B, 0xEEABD47F, 0xA6FADFDC, 0xEB96FB78, 0x303B2F6F, 0xD92637D7, 0x80DE1DD8, 0x019A0301, 0x6BF44100, 0x5EA87A03, 0x180FC07D, 0xA3AC0910, 0x7B2AF61B, 0xFB069BFD, 0x8476D17E, 0xFA0D8DF7, 0x3DE8DBF8, 0xC2FFBA74, 0x17FF9D70, 0xF47DF095, 0xEF3B0000,
    0x907DA807, 0xE11442E1, 0x7DCF722F, 0x03F4AAF9, 0x995BEE07, 0x6D1A1029, 0x7C8804C2, 0xC668160E, 0x2A191054, 0x20808608, 0x09838020, 0x468604D2, 0x83DE7E01, 0x79AFF96F, 0xC5FF7FE9, 0x2E37F7F7, 0xEDFFDC7D, 0x766EE9E1, 0x702E5A01, 0x759E5308, 0x00048240, 0xC9000242, 0x00004019, 0xE2280520, 0xD4490000,
    0x099E0E2D, 0x9FC7D2AB, 0x7CFCF1CE, 0xFF8F0CE0, 0xF7495965, 0x7ED6E27F, 0xF3CEBAE6, 0x812FEA3F, 0x84626332, 0x669007DF, 0xF4017C23, 0x781BC2A2, 0xCD5A4F55, 0x4E9A467B, 0xA8B9FB08, 0xE02721EC, 0x03DB6A70, 0x898D3C47, 0x0250DDE2, 0x2155FDC4, 0x187FC18B, 0xD9B1A325, 0x1FCFCEFD, 0xFEFE86FA, 0x5F5D0000,
    0x5B10740E, 0x110E9458, 0x3F8814BE, 0xC0599FFF, 0xDB9DD28B, 0x2BE2B466, 0xB36E2ACC, 0xBE4C9F7C, 0x6281A610, 0x9110762B, 0x4204209B, 0xC83404FF, 0xCB80A7F8, 0xCAA8997B, 0x28385E7E, 0x708FD2DF, 0xC07B59E6, 0x06F433A9, 0xB5374035, 0xE0F86D4E, 0x2BFFF052, 0xB3A34E5C, 0xF7D0E9E9, 0x0124C1B8, 0xFD6D0000,
    0xC4732DA3, 0x34010A93, 0xC111407C, 0x0FC1FE08, 0x13AEE93B, 0x3BAA783E, 0x4BAB4DBC, 0x3CE016E2, 0xCF567920, 0xF0741E97, 0xA8B3871D, 0xFF181FBB, 0xEA4577ED, 0x2A846E03, 0xE42780C4, 0x50500D4F, 0x000267D2, 0x8C4764D9, 0x2151070F, 0x1B0DF029, 0x342F0C1D, 0x87F4AB03, 0x994AB70F, 0x00609E07, 0x59B30000,
    0x29BA326A, 0x36FD2AB1, 0xF1B3BF7F, 0x2623BB98, 0x63D9F221, 0x6971C006, 0x7A2707F0, 0xF205F21B, 0x8F7FA14B, 0xDF0AEEAD, 0xA9763BFA, 0x11F5D3F0, 0x3DF01E47, 0x88D6E45C, 0x213A7058, 0x97D97932, 0x00FFE668, 0xFFFC97FF, 0x3EAEC442, 0x36DFCA40, 0xD16D800B, 0xAD8901D0, 0xF6D9B1E8, 0x5FFEE96F, 0x3FE40000,
    0x606EE3C3, 0xA5128888, 0x23D76382, 0xE865609F, 0xC062C8F4, 0x2AAF1E07, 0xC584F076, 0x19FF0C7D, 0x31E33C29, 0x4E0CB9DC, 0x21DAFF54, 0x0AA491E7, 0x916EE933, 0xDA17AA1C, 0x92762A7D, 0xE4E05AAF, 0x4F17E1ED, 0xFE783AE7, 0x66A8C97A, 0x8334BFEF, 0x0B6DC894, 0xE9C1B830, 0x690527FA, 0xA869B0A0, 0x7F100000,
    0x3023FAC4, 0x21DA940E, 0x78ABE182, 0xD20CE372, 0x8BD327C7, 0xE72B8758, 0x6867DCEC, 0xA6500400, 0x87622E73, 0xFCE7EE76, 0x2B5701A0, 0x30531384, 0x8371740B, 0x7B27F4B4, 0xC178995C, 0x7336027E, 0xC406F5BC, 0x91A24FFD, 0xED6F3E13, 0xF6BFD653, 0xFC879819, 0x656E2BD6, 0x151DB80E, 0x76AC60E6, 0x2FA50000,
    0xEEE67432, 0x97AF3E98, 0xBFB6D3C0, 0xF65774C2, 0x885331CC, 0x08281422, 0x1AA33FB0, 0xA10FFF99, 0x27BF267E, 0xBCB5BE90, 0xF5FBD9B6, 0x3705D8D9, 0xEBABE120, 0xB0D07114, 0x01F19139, 0x6C8E65D6, 0xD61F3041, 0x097F67B3, 0xBB63BE11, 0x17090280, 0xE967EB29, 0x957E3F95, 0x9FDBF75F, 0x5EDEE6CF, 0xBE940000,
    0x6219681D, 0xA255DCAB, 0x53FE2883, 0x85215F91, 0x00A56C70, 0x0F103960, 0xEDB7E46D, 0x8981508F, 0xD5BCADBF, 0x87924F9A, 0xE3F004AF, 0xFA133C2F, 0xE0AC17E9, 0x172DCAE8, 0x2A67E77F, 0x846560AA, 0x06845900, 0x24036600, 0x014FC920, 0x43FF4648, 0x3434DCC4, 0x5FEC004E, 0x665068A1, 0xA7C97B90, 0x35440000,
    0x6BF8A3AA, 0x4616B676, 0x7EE46CBE, 0x5BE5735D, 0xB1F3F7DC, 0x3DD419B5, 0xF2227947, 0x48104229, 0xEC202DF2, 0x4B80D5C1, 0xFF4973F3, 0xFEDF6A02, 0x7E0002BA, 0x4B807D65, 0xBC00DBFF, 0xCC718E7B, 0xEEA477FF, 0xF8D3F6FE, 0xE7FFDBBE, 0x9E444A7D, 0xF76CF643, 0xB0DA65ED, 0xBC1F3A83, 0xF748B2E7, 0xFCFA0000,
    0x1A388511, 0xEEAB6B93, 0x7FBF695F, 0xAE9BBBFC, 0x0812EE80, 0x028601E8, 0x55003C62, 0xA48DD507, 0x42C00440, 0xE8382C29, 0x1A894347, 0x948C1FFC, 0xDB46770B, 0x662BED2F, 0x617A2965, 0x1F1797B0, 0x6BDD9343, 0x3D1C900F, 0xEB5E83FF, 0x7F7A991C, 0x86CA4010, 0xBFE853CB, 0xF3F6F9AB, 0xADFA6365, 0xF3AE0000,
    0x4585BEB5, 0x8EAEF53B, 0x2E3D9253, 0x7C2ACCEB, 0xE8E1131F, 0x47FCC522, 0xA4087E32, 0xC11DF495, 0x7792A768, 0xF23F41CF, 0x37EEE81A, 0xDF5EF877, 0x228D3F4A, 0x2EC1F8B0, 0xF257819F, 0x1004C967, 0x21E8B8A2, 0x0C6B5B26, 0x7034B370, 0x04B429C0, 0x972F0401, 0xFF0400E8, 0xE5EEFB66, 0x79F68B19, 0x1F9B0000,
    0x50B7FB05, 0xD8F73146, 0xF88EEAC9, 0xA76309F6, 0x42CF0C04, 0xAC38E698, 0xF8FCE8B7, 0xEE72AAD7, 0x9070AF79, 0x000B6280, 0xE17E20BE, 0x1FE0CFCC, 0x205AFF4C, 0xD5FFBF5A, 0xECBED58A, 0x001FF2B0, 0x00041B80, 0x40C55003, 0x23CDEBBB, 0x2D3E9825, 0xEAF790FC, 0x9CF48E6F, 0xF781BB07, 0xCEEA932C, 0x6E3F0000,
    0x7A1DE410, 0x9DFD1CAB, 0x67F65113, 0x60D2BEE4, 0xDD8C0AAF, 0x44DC80D7, 0x139C16D3, 0x3BE1533D, 0x7E0DE7DF, 0xF93636EF, 0x77E4138F, 0x78A50068, 0x8F501D80, 0x7281A23C, 0x007E90FE, 0x1FDF7FA1, 0x70FADEBE, 0x5AEF6CB1, 0x3ABBBC40, 0x948E2645, 0xF3BBC981, 0xC09A6CB2, 0x09D05AF5, 0xE14EB9F7, 0xCF5B0000,
    0x3D5FB574, 0x5EC16851, 0x904B739E, 0xA602A101, 0x214D0160, 0xA6A06BD3, 0x750617FC, 0x342B7FD2, 0x8393C4B8, 0x1C006823, 0xE000DEE4, 0x0458945B, 0xE2711FD5, 0xE9FC7345, 0x95CF7BF9, 0x3F1A4EEF, 0xBB9F64D0, 0x051F7A40, 0xA9E7B31A, 0x17285092, 0xF68DE01C, 0xB00F6F59, 0x602BBD77, 0x0D2DA1AD, 0x5D2F0000,
    0x06F2A28F, 0xA581B010, 0xB03C78CC, 0x1C70CEB9, 0xDBEBF0BD, 0xCA888E6F, 0xC4AC49D0, 0x50383804, 0x3707C19A, 0xA1F48DFD, 0x3C41FF0E, 0x9DADFB71, 0xAB2FDEE4, 0xEC467E49, 0x518FF34E, 0x157948E2, 0x1DC83B01, 0x1FD33989, 0xB4BFA99D, 0x0A4E0FD0, 0x2BD6DAB8, 0x3925B988, 0x77DE95B3, 0x8F933D90, 0x15530000,
    0xFD33CC8A, 0x8A7C80A0, 0x4FE0B157, 0xFDE51FB8, 0x2428DD96, 0xC03AC94B, 0x03E253FC, 0x9B7F4D0F, 0x9A32E0E1, 0xCE5F1A07, 0xF1B540C9, 0x1ADA06F4, 0x6F73E68B, 0xEF7EE5FB, 0x3B837F7D, 0xD0FFFE0A, 0x87FEDEE8, 0x35FF9680, 0x80AEB430, 0x4AF4C1D0, 0x6A9C020F, 0xE782A457, 0xFF040AD3, 0xA40FAFC7, 0xF6EA0000,
    0x7C7F4562, 0x24F642DD, 0xA7FFE8C8, 0x7B0ACF0F, 0xFF4F78F8, 0xA8F98688, 0x40B531BF, 0x87CF1AD4, 0x6FE1E0D0, 0x9C5F0407, 0x83788360, 0xA2514E10, 0x91FFC112, 0xE3181518, 0xAF810D18, 0xF01020A1, 0x805F0D26, 0x87A8C3FA, 0x7B952510, 0x5027BF5F, 0x53F11FCD, 0xF374861E, 0x3C51FB1C, 0x500EAA79, 0xCDE50000,
    0xE11E5F91, 0xBFCA98AC, 0xF457DAC6, 0x299B786F, 0xFFE106FB, 0x6C1DDFF8, 0x8F17F906, 0xC1FE00CA, 0x3B880CE7, 0xE0547A7E, 0x07124681, 0xFD655687, 0x98B831A5, 0xF274F03D, 0x208E2BF1, 0x8F1CEB8C, 0x7C65E761, 0x52578CB1, 0xF7E1FDF9, 0xCF472F8B, 0xE7C0C93F, 0x944E6FAF, 0x000BFFAB, 0x2B6D040A, 0x04AD0000,
    0x5692EE6B, 0x212C0911, 0x20843211, 0x1F270BDA, 0x3ED59D2B, 0xFA2F593F, 0xFEDF417E, 0x8C793BF0, 0x2CA3E465, 0x2D341038, 0x7324000E, 0x386BAAF6, 0x006E43C0, 0x5F848FAB, 0x5BE54F7F, 0xF84F961D, 0x843FA4F9, 0x5BD27EB5, 0x5B2DAA38, 0xFE29069F, 0x9E87D075, 0x305B164B, 0x2A0F3450, 0x08B9FB73, 0x8A0F0000,
    0x61244420, 0x1BD63D37, 0xFDFBBBFF, 0xDFF8DA99, 0xFDC42523, 0xAE7A07F0, 0x63BFF000, 0xF67C8029, 0xAD84835B, 0xF0EFCDC7, 0x5FFA9C27, 0xC9997DF6, 0x3032C03B, 0x259189EC, 0x195A8880, 0xFA22C88B, 0xE8581A8E, 0xAB846C03, 0xC5D362A8, 0x8EA80BE9, 0xEA03497B, 0x0ED5CD27, 0xFBFDF205, 0xFFFE6DF8, 0x23750000,
    0xB9B686D0, 0xA502180C, 0xF354AADC, 0x03BDCB06, 0xBD90761C, 0xB3F5FDDF, 0x9CDE3F58, 0x32E0075A, 0x60E343A9, 0xDDE085DD, 0xFB08FFCF, 0x099314F0, 0x3818F458, 0x03030E30, 0x0271D122, 0xE66E00D0, 0x28F90F8F, 0x0ED0ED09, 0xD813120C, 0x8010EAC1, 0xDD987D81, 0x1C0ED8CC, 0x5FE4A515, 0x3C3595C3, 0x9E380000,
    0x6AED3D50, 0x55F2A182, 0x8417A6C0, 0x02652C80, 0x5E0DDC48, 0xC8BF0136, 0x0F50CDF1, 0xD2C1EC5D, 0x6D6F4166, 0xC77BC27C, 0x2FD0AECF, 0x27177C22, 0xF5BFE21B, 0x9E38F078, 0x6AC1198C, 0x7F427D86, 0xAE242A55, 0xC05F6414, 0x206C3581, 0xBD556617, 0x8C97C274, 0x6FEC0343, 0xCD43E936, 0xDEFDFF1A, 0xA6EE0000,
    0xEBA2CEBB, 0xEF33A621, 0x407D5CCC, 0x17452C4E, 0x505C1754, 0xE4E231D9, 0x74D3C514, 0xA98C0470, 0x869FF698, 0x90BB1F86, 0xFFC680AF, 0x600C00FD, 0x89003FAC, 0x8680FCE1, 0x400D4A16, 0x80267062, 0x006C09E0, 0x2B583D00, 0xC1747484, 0x006F51C2, 0x0B955D06, 0x715480D3, 0x6ECB03CD, 0xA2EAD039, 0x16210000,
    0xE9FFA6BA, 0xBDEEF53D, 0xF7F7A692, 0xFE40A0F9, 0x71566D7E, 0xE1858F55, 0x6E36023A, 0xCD5FFE6E, 0x4D63EEDF, 0xD442A927, 0x830CDFF0, 0x004F6E02, 0x23D38088, 0x2160021E, 0xA00100B8, 0x42044D44, 0x001F4BA8, 0x12EC1FDC, 0xAFAFFFF2, 0xFFF645FD, 0xC6EFA52F, 0xFE656973, 0x5D9DFAA9, 0x571BE179, 0x4E510000,
    0x7FF22E0B, 0xDDBC060D, 0xEDC2DC9D, 0x42037B6D, 0x3003C7CC, 0x43A32478, 0x2213CC82, 0x19DF55EA, 0x61FFFBAA, 0xCACA7EA0, 0x3C066800, 0xA0BF01D8, 0xABE516F5, 0xFE17E7FE, 0x22DE67FE, 0x2DD7D58F, 0xD0036277, 0x435F3618, 0x05F39410, 0x96617602, 0x77BDF854, 0x8A5F20C5, 0x543A35F0, 0xA00232E4, 0xBE270000,
    0xE03DD065, 0x541A6764, 0x93877B40, 0x50A2E69E, 0x52297030, 0x01EA7584, 0x15D5F023, 0xCEC71207, 0x38724081, 0x1E140A95, 0xC39128B8, 0x760E8706, 0xA0FCEA58, 0x3C1D0DE7, 0x93DBBA96, 0x8FAE7F69, 0x69C269E3, 0xDF86F001, 0x90A00899, 0x10B30187, 0x03A10554, 0xBF134FBA, 0xE758B1C3, 0xDFB87DB0, 0x1F2C0000,
    0x08D69B67, 0x7FFDD929, 0x3F7BB298, 0x74431601, 0x72177801, 0x44A47020, 0x0970B541, 0xC18FFFFC, 0x637FF4F2, 0x9FFAB6D4, 0x4BF8782A, 0xC46BCBB2, 0x40247909, 0xCA7296E8, 0xCE206004, 0xFE2E7800, 0x61426074, 0xD8BD4F6C, 0x20FA60E8, 0x96C45B41, 0xA841D41A, 0x18B21DD8, 0x109BF90B, 0x97BF058B, 0x27B80000,
    0xC3AADF3A, 0xA5FDE718, 0x7E9B8B0B, 0xE58FA62F, 0x52DB4B31, 0xEFCA75CD, 0xEFF85CDC, 0x5D3DDB35, 0xD8BEFE9C, 0xEE4FB37F, 0x4FBA8B68, 0x5C1A1802, 0x13700068, 0xE404C03B, 0xC10059A3, 0x81E59290, 0x35940DCB, 0xE484BEFB, 0xE257E515, 0x323966BE, 0xFD9DEEFC, 0x9B0F7D58, 0x3B5E2BD8, 0x55F2F1FA, 0x033E0000,
    0x84488DB7, 0x5454A6F1, 0xF287F93B, 0x97AA509B, 0xB0A0E007, 0x85C963FE, 0x53E152A5, 0x0E470B01, 0x0363E71C, 0x4E10FF51, 0x8745C041, 0x1C1F15CD, 0x840081B9, 0x63FC3DCF, 0xBFFFE61C, 0x1FD17291, 0x9E56F9F6, 0xE7765121, 0xFCE3E1F1, 0xED3980CF, 0x56210962, 0x6585EFF6, 0xF943F60E, 0x2FBFA11F, 0xF1730000,
    0x479A9659, 0x4DBBABC0, 0x7DE80FE3, 0x0D112B65, 0x880863FA, 0x03AFFD60, 0x57FFC602, 0x0A0EF023, 0x503E0052, 0x13E02E02, 0x6C1DE02B, 0xF4CE2F3A, 0x1960F3E1, 0xE3DC70FE, 0xA3E28EF7, 0x68A835E2, 0x1E9A5030, 0x99DF906E, 0x187217DF, 0xBC3CB60F, 0xF7B558DB, 0x9C32656B, 0x7BA0D091, 0x9FC019F2, 0xEFF70000,
    0x6C9F13BD, 0x4B416F34, 0xFFBA7BEC, 0x242AABF9, 0x18ABF4F4, 0x2A057D5A, 0x0365469D, 0xA8F9E916, 0x08CB8DFD, 0x42783098, 0x02D1F0E8, 0x3A020B06, 0x9861E0F0, 0x69BC360B, 0x8587F771, 0xE0CCBEA3, 0x1C6FFD17, 0x87B5D73A, 0xA0076740, 0x1BFF7A24, 0x9A77C14B, 0x0FBC3557, 0x578AAED8, 0x96B92B93, 0xFB1D0000,
    0xE3F16FA5, 0x647C99D4, 0xDE6212E6, 0x105DEDE5, 0xFA35816B, 0x0C7327B7, 0x5A05BBC5, 0x28FC6C77, 0x5407C010, 0xF8F8193C, 0x1FA0AEAD, 0x7C1AF17F, 0xC5D21FE1, 0x1709CA11, 0x202F882B, 0x9FEC4030, 0x370DBB4C, 0x4A5AE9E3, 0xC0B5B641, 0x1727EBE2, 0x735FB8C2, 0xF871C7A2, 0x426EEA84, 0x3A7F0019, 0xB32A0000,
    0x1066D4B4, 0xA166A47B, 0x12BDC784, 0x09D6DC00, 0x6E24245C, 0xFEF6A486, 0x736E11FF, 0xB5AC5BE6, 0xEFB4D4D6, 0xEEAED9F9, 0xEBE31FFA, 0x6065EA0D, 0xA6B8A281, 0x6B0013E0, 0xD000CF7C, 0x00FF9E80, 0x4696AF9D, 0x7404E095, 0x96FE4E7E, 0x22CFCFE8, 0xF21E3FFE, 0xCB82BCC2, 0xBF2BE2F6, 0x04DCB8EB, 0xC3E00000,
    0x3B966822, 0x398F9DF9, 0x3ED3F7F3, 0xFEAE4309, 0x022B3505, 0x87D9C0C0, 0x2546E203, 0xEDFEBA3D, 0xFBF1311F, 0xDE98A57F, 0x44AC6E01, 0xFC2E802E, 0xCCD08CEF, 0x6803F1DF, 0xB9B59FEC, 0xCAD52760, 0x2D14DAC1, 0x86069FDB, 0x44779228, 0x5F348150, 0x36FC0241, 0x7ED206D6, 0xDC3F0169, 0xFBFF13CE, 0x397A0000,
    0xB3AB9711, 0x6DF3D2A6, 0xB90FF266, 0x0C1DBE80, 0x17AACA87, 0xABBD81C7, 0x51CC7FBC, 0xAE8A0BEB, 0xF15FDC6C, 0xAFA19BD0, 0xD0DEFA27, 0xB795B818, 0x701B3D07, 0xEFF97879, 0x8FA50D10, 0xFE30AB0D, 0xE3AAA496, 0x98DC44F0, 0xA0502790, 0x2941EDA9, 0xE60960D4, 0xCC4B89DB, 0xC028D64E, 0x82A032DF, 0x730A0000,
    0xE16003AB, 0xAAE56042, 0x5C0077EF, 0x88E2CFFD, 0x03A48057, 0xE88C2F58, 0x3C846F83, 0xB800A504, 0x27FAD075, 0x06046960, 0x814C4E08, 0x2301BC05, 0xD5DFA3F0, 0x393FFC46, 0xCFF7FEE9, 0xEFFF7C5F, 0x6EF271E7, 0xFBF4F16B, 0xD1ECC90D, 0x69BD088F, 0xC02802B8, 0xF4823FEF, 0x4023D0F5, 0xFEAF733B, 0x8AF80000,
    0x57C6FF4E, 0xC9E7BB03, 0xFF3D57C0, 0x705B9A19, 0x241A05FE, 0x02A011EC, 0x27220760, 0xB087F600, 0x843BF003, 0x1EF70916, 0x41B2A392, 0x137A7CCD, 0x7C274536, 0xE6CA9BFD, 0xC1608218, 0x1F20D6C3, 0x6147D836, 0x02FF8572, 0x024DD6AC, 0xB930C440, 0x54BBDC02, 0xB77E8169, 0x9AE04748, 0xAEDE9A5B, 0xBFED0000,
    0x10E1C8B3, 0x1000D556, 0x21C35041, 0x205A0D39, 0x0F5FFDCA, 0x6C6F1A61, 0xC8B62781, 0x5232F492, 0xC715C0E5, 0x90F909BC, 0x85C46A38, 0x1E3C0F8D, 0xC963A0DE, 0x5BCE4788, 0xD7C1FF02, 0xAC1F27F8, 0xC3E20446, 0x23777506, 0x987E61CC, 0xF8805FC7, 0x0C13C00E, 0xDAEEC020, 0x48F68A35, 0x7AF62CE0, 0x5EEE0000,
    0x105AB87C, 0x5193DE02, 0x1DFFE779, 0x6C7ECE96, 0x90F875D8, 0x0A450EA2, 0xE4205828, 0xB6E35281, 0x93335429, 0xC70E391E, 0xA7A06293, 0x7F0076FE, 0x70006BC1, 0x4685BE1A, 0xA05AA2CE, 0xD000BCE6, 0x03D6D3A8, 0x293EF9C7, 0xE3947B5D, 0xEF7D1A08, 0x7B43AE82, 0x993A70AB, 0xD76CF14E, 0xEFFD0C65, 0x6B9A0000,
    0x56924195, 0xE14FCB7C, 0xB03EC9C1, 0x80F28606, 0x2944E7FD, 0xA63FD6D7, 0x12FFFF63, 0xE4FFFF0F, 0x049DB3D1, 0x00E60710, 0x0ED82260, 0x69E85808, 0x6562A8E2, 0xEC19057F, 0xD350EF9E, 0x2830B660, 0xD2BF1095, 0x95DE6630, 0x8C624364, 0x05C5BCA2, 0x0C196145, 0x04B8800F, 0x9E322749, 0xDBFBC219, 0xFF000000,
    0xFDD3A11D, 0x68431D10, 0xFB9B2260, 0x99DFEBA8, 0x8A4C6E65, 0x8CAB0603, 0x8B103CA6, 0xB80C156B, 0x83304A58, 0x1C603A14, 0x958160FC, 0xC214037A, 0x9F44FDA7, 0xFE9F9FB7, 0xE8D3FFF6, 0xFBFCDFD1, 0xC7DFE9CD, 0x71F7FC70, 0x149768C2, 0x39D87818, 0xABA80150, 0x5AF80F52, 0xFBC55F0F, 0xDE0B2B81, 0x7E1E0000,
    0xFD754215, 0xD1D2FF5F, 0xCFCE8E93, 0x7F9EEED2, 0x703F8C9C, 0x2130F2CA, 0x4D1FD487, 0xD21284FE, 0xF8FA1321, 0xCA2A883A, 0x02E0EE48, 0x3690380E, 0xC94EC1BE, 0x1E86D748, 0x08FEECDC, 0x4F0FCD27, 0x7AA06D44, 0xE6089517, 0xD07AB075, 0x0CA00A13, 0x9C218872, 0xF75CDF62, 0xE7839C14, 0xF2F7609B, 0xA55B0000,
    0xA855A939, 0x0EDA2EA7, 0x8517FD60, 0x7E989F17, 0x8AD27D5E, 0xD5FB7F61, 0xF0ABB007, 0x257A03E8, 0x9F148E07, 0xBB3951CC, 0xFF06BA3F, 0x841F5389, 0x13838F33, 0x55946D32, 0xD9087E0F, 0x4107C1FE, 0x017689EC, 0xD3ABEFE6, 0x1988F986, 0xE9FEA12F, 0xDA41CD6E, 0x3571782D, 0xFFD4D00F, 0xFDABDC35, 0x19F70000,
    0xD2C61A53, 0x213D97CD, 0xBAFF011E, 0x0BB23E86, 0xDB249A57, 0x8AD1AA1B, 0x37F423B2, 0x9D7C7D7F, 0x983CADEC, 0x1ABC0E1C, 0x7BE60DF7, 0xB9BD05EC, 0x2D611F0B, 0x348BC249, 0x7DF8C5D7, 0xDF83B772, 0xF023FAFF, 0x10F78940, 0x884C7B02, 0x2A213F05, 0x50E36026, 0xE258CC8E, 0x1385C6A0, 0x087D25BF, 0xED9F0000,
    0x77D3E7F0, 0x11D5C63A, 0x56B2653C, 0xB37566FF, 0x9A797C60, 0x042260CB, 0xE6F806BD, 0xE6FFBFB5, 0x17E4BE54, 0x6C2E6BD5, 0x7542640F, 0xF46541FC, 0x001029B2, 0x4C003FF0, 0xAC007317, 0x2085F73F, 0x0A0E9FCE, 0xB01CF7F0, 0xAF0A77B1, 0x62589692, 0x5BD927C0, 0x548D4556, 0xF6DFF1A1, 0xBAF35C1E, 0xAAC50000,
    0xAD41CCBA, 0x647C5D68, 0xCD8CDD48, 0xA42A2838, 0x41F1D712, 0xF277FEF1, 0xFC9FF96C, 0xDBFFFF68, 0x27F67F79, 0xE2EF3BE1, 0xE40AB812, 0x32A102CF, 0x83617A26, 0xE30D50FF, 0xAFCAFEF1, 0xE6207176, 0xEC158A70, 0x64BF27B4, 0x3522A425, 0x1F0B10F6, 0x6AD11C24, 0xBF5FB63F, 0x3BFF38E3, 0xFEDFE9F0, 0x6D060000,
    0x60766F23, 0x97DF5D35, 0x787FBF54, 0x4DFB4912, 0x7EB8C2D6, 0x8FBE951C, 0x4EE79565, 0x572FC1A2, 0xCDE0EFFD, 0x5E7585F0, 0xFDBFE9CE, 0xE2EB606A, 0x0CA6E301, 0x80561FB1, 0x63D17A0F, 0x570AA8AB, 0xE0670EEE, 0x40602DC1, 0x271867A0, 0xB37B7D84, 0xBA1BA266, 0xA6EB0084, 0x23FFBE90, 0x3CBF05B8, 0x5EC40000,
    0x23DC3522, 0x32A783E8, 0x19F8627A, 0x0764A7A0, 0x1A315608, 0xD52BEE0A, 0xC722A733, 0xCA765659, 0xEC5EC12D, 0xA1D9C790, 0x5BFE537F, 0xED787BF5, 0xE3D9FA3E, 0x5E619A52, 0xB20D0A43, 0x80008FB1, 0x1C082780, 0x7186DA04, 0x12BEEA02, 0xAE7D781D, 0x27BD21A3, 0x1FF29E97, 0xFD66E54B, 0x1ABC0730, 0x9EB90000,
    0xF9601F8C, 0xCFC487D2, 0x10DE6440, 0x25162F8C, 0x6FFA79F3, 0x08677686, 0x090D4551, 0x81E9F259, 0x696B002D, 0x07F97671, 0xE4F0F706, 0xFF9E1FFB, 0xC308EFE6, 0x3805ED71, 0x901F8113, 0x0068A060, 0x02005C00, 0x23455990, 0xE00378BA, 0x1996C000, 0x7BFD4690, 0xDBAB9C34, 0x780384BE, 0xEF652D95, 0x5BFC0000,
    0x417870A0, 0x1F2A8E7B, 0x4E0DA30D, 0xB130CF35, 0xFA44B32E, 0xB36CCAFA, 0x50A50B2E, 0xBA49FADB, 0x000F01E0, 0x60EE7724, 0xC7814E88, 0x572ECF84, 0xC057D84C, 0x417FA7CE, 0x84F96CB7, 0x2FBF1F1F, 0xF0E5F8EA, 0xDEA1E4AD, 0xFE3F2FA7, 0x70E70106, 0x0983C4DA, 0x9040459B, 0x2091E366, 0x0B02DEE3, 0x858C0000,
    0x9EFA5E91, 0x2A615724, 0x708E30E9, 0x002083EC, 0x02293780, 0x1B50F611, 0x6B687C64, 0xBB0F0315, 0xC2FCB694, 0xAA8C2BEF, 0x31503580, 0xDCE6C08B, 0x350183B6, 0xFF806F80, 0xE5BFDEF9, 0x15F3E53B, 0x05B9D5D8, 0x2AD75881, 0x8FA380E0, 0xFC714409, 0x0901C872, 0xC00A87C4, 0x53F9E0CF, 0xFEB7C7BF, 0x9F6F0000,
    0x38FB73EB, 0x7C7DEFB1, 0xD7FDFA79, 0xA2607432, 0x813B707E, 0x39B024FD, 0x073FFF56, 0x7FFDFF43, 0x400264F0, 0x00D86200, 0x151F3001, 0x013200F1, 0x61C0EFC9, 0x0351C22E, 0x2DFEA391, 0xFDA44AFF, 0x4BF9D957, 0x5739F957, 0x0C9A49EF, 0x809D964B, 0x0DD46870, 0xBF1E04DB, 0x6C8A9719, 0xDFC081FF, 0x7EE80000,
    0xEE001F29, 0xEB280262, 0x1E6CC347, 0xFF22C552, 0x5C597EFF, 0xC19BF710, 0xBEB0007A, 0xB2001BF0, 0x61EFF6B9, 0x076E8FBD, 0xFF957C1F, 0xA02F0C8B, 0x28EE384B, 0xD2FCB6B9, 0xBA777E85, 0xA0FCF8DE, 0x9D0515E0, 0x29439199, 0x803CCB67, 0x099DECA3, 0x1DE5ED49, 0x17978575, 0x6E687DA0, 0xA840AB21, 0xF2FA0000,
    0xA2073BD0, 0xADE5846A, 0xA4B5751C, 0x0548AC42, 0x7625264A, 0x76E8847F, 0xFFD13C28, 0xDAC1FCE7, 0xDC4C3DBA, 0x623DFFF1, 0x604FA58D, 0x01E0B5C0, 0x1CDD1E61, 0xB26DCA9C, 0x90814383, 0xE2873EAB, 0x85835714, 0x582E6DA4, 0x654BFDE0, 0x63E1C4AF, 0x6B2FF583, 0xD834081E, 0xBE3DEA78, 0x18BCB1BD, 0x034A0000,
    0xB236784A, 0x2F484F8A, 0x80625BA2, 0x07471137, 0xD28B0AE8, 0xACA06E26, 0xA3AB6A56, 0x30F15166, 0x174BCE4B, 0xB220FCBF, 0xB93F4138, 0xF7E04686, 0xF3DA368A, 0x9FA1CF4F, 0xD82B29E4, 0x0C4DD4D0, 0x7E27BF9F, 0x55178AE4, 0xD8BFEDA4, 0xBB1BA47C, 0x43EEEDC5, 0x7037E3FA, 0x0714AA58, 0x002E0574, 0xDFE00000,
    0x72E8AFCC, 0x404842D4, 0x06640D51, 0xA4180385, 0x6A9D4AF7, 0x1320769A, 0x0B874BA1, 0x83D39C2D, 0x367991CE, 0x856D19D5, 0x62B01482, 0x57446380, 0x5E3DC05D, 0x69DF85BF, 0xDDB2F4F3, 0x7F9D6639, 0xB270F78F, 0x77F7CFB8, 0xFE21B18B, 0x7F97903A, 0xD175D46B, 0x085800D4, 0x2000624E, 0x8828D243, 0x47D30000,
    0x81D8A15B, 0x6381F580, 0x000308C0, 0x3E865D41, 0x07382FB2, 0xC537907A, 0x0B0D24ED, 0xBF63E566, 0x1F04DB6D, 0xE1F0F33F, 0x064AF130, 0x278EEB03, 0xF6EC387C, 0x05878C3B, 0x88F0052E, 0xDF181289, 0xE3B6036C, 0x5E92C27C, 0x4434EB8E, 0xA2412622, 0xF0CFFCBB, 0x507421BB, 0x808CA56D, 0x00211608, 0x38090000,
    0x71659D36, 0x20433152, 0x478D0CEA, 0x56384FE7, 0x324CD688, 0x3CED818B, 0x0F34289B, 0xB415009B, 0x01F598B0, 0x1F080747, 0x82C2C6BE, 0x1E9ADF86, 0x1955D198, 0x33F84DF6, 0x7DB5DE7F, 0x7C39B6A4, 0x15C8445A, 0x26865A10, 0xF0B78898, 0xF020395A, 0x93A50E40, 0x16F4BCA6, 0x6C164177, 0x58170FC1, 0x44DA0000,
    0xFA46B854, 0x39BFA4BA, 0xF3BB62A6, 0x4752990C, 0x9BAA216D, 0x74E079FF, 0xE5026FFC, 0xE8255EDA, 0x23F02568, 0x31002452, 0x40010988, 0x0018B8BF, 0x822FCBE0, 0x901EC40F, 0x6BFE14FC, 0xEF1CAC4E, 0x9F48D397, 0x5FAEC0E5, 0xDFF6B49F, 0xFE1872FF, 0xBC5215FD, 0xCC2907C0, 0x15F8A887, 0xA7C5033F, 0xF47B0000,
    0x95360FA1, 0x8F48C077, 0x8047435F, 0x41A96232, 0x5DB69812, 0x3E0F3E05, 0x857EE0FA, 0x2C6F2BBC, 0x65A79EB9, 0x5D83B322, 0xCCFB807D, 0xFDC50F2F, 0x4CA2F27E, 0x847B0770, 0x55E01199, 0xDF41996B, 0x5A36857F, 0xB2C1A1BF, 0x250C41FE, 0x07C3B982, 0x24D3E083, 0x685F06B2, 0xA88B8600, 0x01E27569, 0xCC080000,
    0x7111F8B6, 0xA7FBE7F8, 0xE9FF618C, 0x0DDA5480, 0xDB29082D, 0xFD682F89, 0x3987F0C5, 0x53042091, 0x3FB48502, 0x6F80E6E9, 0xE684FDDA, 0xA02BDD6F, 0x00D0EB3C, 0x1B478043, 0xCEA82407, 0x6D42919A, 0x0C0820B0, 0x09062EF8, 0x23EF8EC1, 0xCF59827A, 0x281A17F7, 0x1FC01B54, 0xDC0A5F7F, 0xFFCF4B5B, 0x3C6B0000,
    0x6A72D4AA, 0x3B86CCD2, 0x20FF4D8C, 0x38DC2EAF, 0x396958A9, 0x9C2DD029, 0x7C04C3ED, 0x25F83236, 0xBD07C2B9, 0x82FE1734, 0x3CC1A59F, 0xAF9A73D7, 0x8A742F49, 0x0F187F31, 0x24EFCB0F, 0x0BF34360, 0x07400604, 0x30819C07, 0xF073BD7C, 0x01EF4FC0, 0x2FF9B011, 0x9E1F0B1A, 0x4EE15235, 0x85A01A00, 0x46F90000,
    0xF30C7619, 0x67FB7A0E, 0xC0124CFF, 0x30D765FD, 0xF87D197D, 0x2060DFA9, 0x8049967A, 0x94B23BF5, 0x4C03FE4B, 0x4282D01F, 0xF61BA03F, 0x913D65A5, 0x33880FA7, 0x98815AFD, 0xEA02F87D, 0x302F945B, 0x80F4B36D, 0x9F208F7C, 0xC1DF7A20, 0x8300B9C0, 0x50C6FA11, 0x4F9F6FC9, 0x9B8BE138, 0xB1BC15E4, 0x14FA0000,
    0xA6D2D5C6, 0x3EEFAA2F, 0xDE3F6B65, 0x875F01C4, 0x07AC2901, 0xEBC603FF, 0xFA22BFEF, 0xE01AFEE7, 0x01D94E24, 0xBA009E46, 0xE847EC54, 0x532D6451, 0x609F0F00, 0x39E32E43, 0x71AC4347, 0x1D38A533, 0xE7AFF156, 0x4FB21E51, 0x7D8FDAC4, 0x3C4F6581, 0xB1B49B3F, 0x9079DC53, 0x297FD778, 0x9FFED49D, 0xFE860000,
    0x9E0B3509, 0x7AB5308D, 0x2FF7CA6F, 0x72C1F9DF, 0x6BF207C8, 0x0F31FCC0, 0xCB2D98C0, 0xF64944F8, 0xBE009C29, 0x72F26CFF, 0x1CFF9BF0, 0xA6147E25, 0xBCA4F6D3, 0x581F93A5, 0xE039830C, 0x21C45D5B, 0x3CD0B20B, 0xCF31A0C4, 0x8FCAB6B6, 0xCB4413E2, 0xF9A8BA3C, 0x36F1AA70, 0xA5AD6B86, 0x72F6AB75, 0x48CC0000,
    0x7753BA77, 0xD28FCDBB, 0x417C7686, 0x44537432, 0x5FFFC904, 0xEDECA27F, 0x8C18F9F0, 0xBB3DB024, 0x4734A6A4, 0x8801EB1F, 0x045FD079, 0x1F3F5213, 0xE9E826B5, 0x154238A2, 0x35958938, 0x1BBC2002, 0x37041B1F, 0x36C4E011, 0xCA5A5465, 0x07819487, 0x60D1C801, 0x057F89B6, 0xFB3CBF0F, 0x47FAF6F7, 0x9D3F0000,
    0xB4713B03, 0x8B9E5D60, 0xF74FC533, 0x77185C21, 0x9CB80284, 0xFF651CE7, 0xF601607E, 0xD7B3ECDB, 0xE889C1E0, 0x00023E00, 0xF180303C, 0x4031C7E4, 0x1C51F8B7, 0xE63FC74D, 0xD7F1F6B5, 0x3E967745, 0x00B2A586, 0xDE49BDF7, 0x1E015DC0, 0xB0E6FE8A, 0xF55B2079, 0xF92100AF, 0x8A0EBF70, 0x7D02B242, 0xFDED0000,
    0x93F1B404, 0xCE6486C5, 0xE29D8E9D, 0x31030BF7, 0xE10B9CEB, 0x13BED258, 0x05E0B8D9, 0xFA06D303, 0x03B08330, 0x5C14130F, 0x818162E9, 0x765836FF, 0x82C3D1A5, 0xC9897DB2, 0x6755E3F7, 0xDFB47CBF, 0x5C8EF1EF, 0xB0E7D212, 0xA42AA030, 0x1270512B, 0x382808E3, 0xFA0ADE14, 0x77BD89C9, 0xBB284FD1, 0x15380000,
    0xD1BA066B, 0x95CCD4DD, 0xF8A68C5D, 0x7EC1113F, 0x5DD1A2F5, 0x430F8010, 0xC6AA0027, 0x8438411D, 0x8220FDF0, 0xC8BEDC3A, 0x19BB3100, 0x82823FAE, 0x26C3FC08, 0xD897E2BF, 0x9C7B67F2, 0x1F1DB241, 0xED4AF33A, 0x1A77951F, 0xB2024FA6, 0x02082E53, 0xF100B044, 0x088021C4, 0xB10194E0, 0x1C0698EC, 0x1F820000,
    0x490B4BEC, 0x29008B3D, 0x1CDC7321, 0x7C82407F, 0xF46D9EC6, 0x10444D7C, 0xB7D00F20, 0x7A01FB67, 0x280729E9, 0xF43F537F, 0x863EB3FC, 0x6062FF02, 0x01BF4011, 0xB3B20C08, 0x8D817E22, 0xA03FDF4A, 0x0076FAF4, 0xCFAFE303, 0xD83729CA, 0x6B4EFD54, 0xFB4AC29D, 0x3BDD1676, 0xD827EC31, 0x40634DA1, 0xE4280000,
    0xA39037A2, 0xF00F82FE, 0x487FBFAE, 0x914C1CE0, 0xB4EADBFE, 0xD58CC9B4, 0xF3FA4FFC, 0xBFFF7FB1, 0xBFFE566C, 0x3F000C75, 0xDD8A55C8, 0xB85EE015, 0x01E80075, 0x7B10228E, 0x784947FC, 0x27A12659, 0xD6E47697, 0xAB9FB5A7, 0x11D96C96, 0x55A6EA03, 0xD8F38D0C, 0x1AABBCA6, 0x31FE6120, 0xA772FB2A, 0xAEE50000,
    0x7D5DADF6, 0xC9608554, 0x701AF680, 0x682A7A7B, 0x83EF03C7, 0xCB53F60D, 0x533BCA44, 0xFAF1987D, 0xE63F9A7F, 0x87D99DBE, 0x54E19706, 0x6F92DC18, 0xDBD3D82A, 0x0D9FCF42, 0x7D347A7C, 0xFF27F40B, 0x60FC3BE6, 0x57165F0C, 0x4233E182, 0x73553CC0, 0xCD30924B, 0x47C83FC6, 0xBC04E1DF, 0x8AA7ABE9, 0x416D0000,
    0xDDA7C991, 0x3FFFB9A3, 0xF5BE98F4, 0xD55FFA87, 0xF491428D, 0x1C3011FB, 0xDC462BAB, 0x9407F223, 0x54B73C7A, 0x1A88B483, 0x3254E367, 0x5E1B30F8, 0x0559CCE4, 0x801D541E, 0xB0F7DB52, 0x01AE50A0, 0x05781FC0, 0x0E86C802, 0xD06CFD76, 0x3123E9CE, 0x23E7D883, 0x3FEE198E, 0x1781EE51, 0x66DF0DFE, 0x95DF0000,
    0x64D3222C, 0xD0062A81, 0xC4D90F84, 0x1460A7BA, 0x994B5D0B, 0xF9D7703C, 0x867607E1, 0x6AD87A2B, 0xF883C8E6, 0x9AB04F3F, 0x8F0074BC, 0xE12F814D, 0x426D04BB, 0x83825CB7, 0x886D4709, 0xA11E839A, 0xE3D81C0B, 0x1D6EB8E3, 0xC839B6BB, 0x52C6C3D8, 0x5A4C1DF7, 0xC3A57BA3, 0xE3032257, 0xB20B40D6, 0x07FC0000,
    0x5797B25C, 0x5FDDBB37, 0xFBF9AD6F, 0xDFF2DC02, 0x724EAF42, 0x015BC104, 0x26AFE003, 0xFFFE0033, 0x86BD2239, 0x9AF8E720, 0x0862DE84, 0xAF7917F5, 0x7970700E, 0x94121FED, 0x52945FCA, 0x7003DB47, 0x8877E06B, 0xF74D4983, 0xC0D64FBE, 0x37FE7100, 0x87F8F062, 0xC59010EA, 0xFEFDF9A1, 0xDFFF07D0, 0xFFA10000,
    0xA3D71C67, 0x76F6D367, 0x7BFE0BB0, 0x3FBA1014, 0x57D8833A, 0xFEAE12FB, 0xF8857FFF, 0xD5063FED, 0x0D000DE1, 0x58001E4A, 0xC0020A23, 0xC03CCB7E, 0x80C0747A, 0x947182E2, 0xD98E9C98, 0x9C4EA20B, 0xF188374F, 0x8FD6B826, 0xA5ACC5FD, 0xAFC4EF2B, 0x32EDA8DC, 0xC3FB7208, 0x36DFC165, 0xBF4E7F7E, 0x3C780000,
    0xCD40DCB1, 0x8019D779, 0x3B95E090, 0x14A1E7A6, 0x293598C9, 0x47C9468B, 0x12473C6B, 0x296B4453, 0x581C23AE, 0xE7942E01, 0x1D71D016, 0x9FC184FA, 0xCAE01D97, 0xF853F675, 0xE27F1247, 0xAFD15C30, 0x7B7EF4D7, 0xEDF2B3C9, 0x31B0D0D9, 0x7D4725E8, 0x41F5CEC1, 0x6AD10093, 0x00001F7D, 0xE010AD74, 0xFF150000,
    0x0C3B13B5, 0xE0200179, 0x9011B0E9, 0x30AC383E, 0x1AC784AE, 0xB4C5A76A, 0xF094B8DF, 0xBE0AD8CD, 0x70A2DA89, 0x8C92E57C, 0x63638E94, 0x4C1D7C3F, 0x1365F0E4, 0x75BFA483, 0x79A272BC, 0xEED3C68F, 0xC5AE21E8, 0x4A9A3E07, 0xAE8AB29B, 0xFF46D5FF, 0x38412BF5, 0x00031649, 0x3B0C741B, 0x0501A10E, 0x72CE0000,
    0x2A65918B, 0x3FD68713, 0xBC3FCBBF, 0xFFA24AEA, 0x608CF41F, 0xBFFA4609, 0xDF77941E, 0x1F70F679, 0x713DA45C, 0xE72B4CEE, 0x67EDC9CB, 0x9B22D8ED, 0x1962DB1F, 0x96E88CB9, 0x0D0CB365, 0xBC5C601E, 0xBB74497F, 0xF80442E6, 0x805835DA, 0x0190C9C0, 0x0B9B1202, 0xFC2C8971, 0xFF7BA2BF, 0xF35E133B, 0x2B5B0000,
    0xB46F0917, 0xCD342BC0, 0xE3D0256F, 0xD94CF5FD, 0xACFFF7A7, 0xE09313E9, 0x74A0B406, 0x406C27F0, 0x4385AF00, 0xD6E8E819, 0xBF04B037, 0xE41800FD, 0x609B05DF, 0xF7E442CD, 0x3F00D2DA, 0xF8174F37, 0xE3E96AFF, 0x59C834FE, 0x4976017D, 0x4D9400D9, 0x11D55A22, 0xE8384DDF, 0xB826892D, 0xC2857129, 0x77F70000,
    0x14DB0421, 0x66086C38, 0x3431EE88, 0x2F458809, 0x7F89C1D5, 0x6F26AA3E, 0x3271CE07, 0x6F7849BB, 0x53274FE3, 0x10BA5273, 0x87327FF2, 0xFC6F5C0E, 0xC6FF70F9, 0xD5EE0670, 0xB881D4B6, 0xF41E33CD, 0x106858D0, 0x3507F002, 0x604A10C5, 0x04003872, 0x911711F7, 0xD6BCDCAC, 0x8D7C74D5, 0x16B70B08, 0x92990000,
    0x444BC8A0, 0x42B2438E, 0x010ED7C0, 0x0C84621B, 0xDBCC868C, 0xB4C18558, 0xFC2F1DF4, 0x6791A18D, 0xBB90C9D7, 0xC1A34E6F, 0xA8305691, 0xA71EF61C, 0x323FB0EF, 0x87A50961, 0x97B9FE2B, 0xDA1E011F, 0xC3CB314D, 0x33823F43, 0xF48E683A, 0xBD0E87DF, 0xD488FE0C, 0x6407E820, 0x0017C837, 0xEF9FAD4B, 0xA7790000,
    0xB3024468, 0xE9C798DC, 0x6FDF9526, 0x7FD864BD, 0xCFDDA17F, 0xFFA896FA, 0x709BABFA, 0x9017DFDA, 0x4F0001EB, 0xD4006E47, 0xD002F8DB, 0xE03977CF, 0xD18513E3, 0xCC7CFF0D, 0xC0DD48E2, 0xDFDEEA18, 0x447FF94C, 0x87FE982A, 0xEBF19DE7, 0xEA79ECDE, 0xABFC18BF, 0x7ADE13E3, 0xFFFFBC8B, 0xF9F96A9E, 0xBC760000,
    0x282E323B, 0x5957F679, 0x73762974, 0xE7ED0AF2, 0x9303C0FD, 0x86980F64, 0x7BE7A206, 0xE9F8007C, 0x7E48030F, 0xC4101F65, 0xFEB9FF37, 0xED3410FE, 0xFC92201D, 0xAC0F15F7, 0x992BFC87, 0x28376E6B, 0x2D5FD78D, 0x64B621BC, 0x05CF5742, 0x0C6DE580, 0xE57F800C, 0x350978D5, 0xEB3E79D9, 0xFF7FD4F2, 0xD76C0000,
    0xA3A78E86, 0x97C7AA1B, 0x70CF7EAE, 0x13BAF740, 0xEF384463, 0x406C05FE, 0x28F49FF1, 0xD2877A56, 0xB471D086, 0xD99D1F1F, 0x20AA4F3E, 0x8E41D365, 0xF1EAFDC6, 0x590BE916, 0x21D8050D, 0x2EE9E101, 0x59A2000F, 0x8664C01D, 0x0C2215A3, 0x3B203FA6, 0x12116223, 0xC5FF0AA6, 0xD4E40263, 0xA73DB615, 0xBF6C0000,
    0xB28A8E89, 0xF303F4CA, 0x0BBE4D27, 0xAF019DA1, 0x35D41A8F, 0x1E776919, 0x7B890AF5, 0xEEE1B5E0, 0xFB04CE2D, 0xE01C82BE, 0xB1065FF0, 0x076B9F91, 0x360FF76F, 0x1EA10610, 0xFAE60A1F, 0xAA34CD28, 0x9D406700, 0xAA06F632, 0x97354352, 0x17415FE8, 0xFE04A49D, 0xDD167F07, 0xA3F3E576, 0x2433E6E3, 0x0E290000,
    0x2AC396C5, 0x6DB1E882, 0xDF3BEFF3, 0x507D6D62, 0x1BA7D541, 0x3C227B51, 0xF1F30602, 0xC7B73E76, 0xFA1C7CC8, 0x69E88C7E, 0x41F9B63A, 0x678E639C, 0x692F1FF0, 0x4455E242, 0x8E1C9812, 0xB167C239, 0x009C71DC, 0xD340E1C3, 0x7C041668, 0x42368373, 0xF89102A0, 0x0DFF7294, 0xDEFB8375, 0x7AE127D1, 0xA1CF0000,
    0x01E911DA, 0xCFE6F7B5, 0x9E6C2615, 0x3120EF1F, 0x880B16F8, 0x0B84173B, 0x0AA1A0F2, 0x149632E9, 0xA4E1F24C, 0xF8477E40, 0x01A98758, 0x718E7E79, 0xFAE3F1F4, 0x0F4FFE74, 0xC37F5146, 0x1E8C7900, 0x7F075A00, 0xE4793203, 0xEF093474, 0x70E689E7, 0x7E6B3685, 0x010BE199, 0x2F86859F, 0x7A885450, 0x36090000,
    0x46221B45, 0x4F7DBE57, 0xDFFF80D7, 0xDEFF0B5D, 0x713268F0, 0x03403D4E, 0x4006061A, 0x3822808F, 0xA03130E8, 0xD6B93EBD, 0xF7D274D3, 0x9033BC44, 0xE92AA818, 0x42E04BDA, 0xCF80964C, 0xC8070E77, 0x4EA0D6B8, 0x7A8DD22A, 0x70CE2C69, 0x0E753C60, 0x5080D02F, 0x0E7C18CF, 0x1DC78A80, 0xFFFFB93F, 0x867B0000,
    0xC2D2F1AC, 0x41F7E1F6, 0x35F34ABF, 0xB96D9EDF, 0x000320E8, 0x03BAB600, 0x17849847, 0x9DC3821F, 0xBF7822DF, 0xBF07220A, 0x3AD15D67, 0x2E9B865B, 0xB2218E2F, 0x9E74DDF1, 0xB7767FB8, 0x5CE8E8CC, 0x1DD316C2, 0xBE36B19E, 0xD8BA15E6, 0x265E4E2A, 0x7665E9C6, 0x8F5830B5, 0x799E40D3, 0xA355AB37, 0x322B0000,
    0xB1D17750, 0x43C17144, 0xE95A8805, 0x93FB9B54, 0x1DF48FC4, 0xFD49F83A, 0xFE0F0B0E, 0xAEF080B2, 0x2E097F48, 0xF039D33F, 0x2448C1F8, 0x4D164BA1, 0xAA491DBB, 0x583CCF53, 0xE8B8465E, 0x9BB9DCF7, 0xB6428F9D, 0xA1A865CE, 0xD54F15F6, 0xBCFA368A, 0xE532EF0D, 0x4D93B305, 0x813564B8, 0xC8288D4C, 0x09F30000,
    0xB4BBEE40, 0x9DCFBA91, 0xFF9836BD, 0x1E113BE2, 0x085497E8, 0x08BABD20, 0x0A7F704B, 0xB3FE880E, 0x4BC793C6, 0xC1CDF4D0, 0x0D7D1400, 0xE8E710DA, 0x7E607721, 0xAF6705DF, 0xD34607F7, 0x7196AE12, 0xB8D1D587, 0xF64D753C, 0x81FA57FC, 0x9C444FF4, 0x58FF10B9, 0x380E84C5, 0xDE9A0548, 0xECA7D6EB, 0xCE450000,
    0x83B5503A, 0x24220F92, 0x08185EC0, 0x0606C4FD, 0x00D57BE3, 0xABBFF823, 0xF360C10F, 0x9A4E07E5, 0x6FE16779, 0x7E0E7B42, 0xE1C6CA9E, 0x025CEE92, 0xCA99224D, 0x6DFCEBEF, 0x3F29F1EC, 0xB82B57DC, 0x43A6BA00, 0x0EDE6001, 0x301300B7, 0x038A70C2, 0xD5AB7C2D, 0xD5D7460C, 0xFFFD6A43, 0x7337FC0C, 0x4D690000,
    0xD9250AEE, 0xBFFF610A, 0xEAE9EE95, 0x35F96EBE, 0x7829926F, 0xF1924574, 0x93C13F61, 0x4BFF7F1D, 0xFFEB3B6F, 0xF28F8BBD, 0x00992640, 0x88AE0005, 0x12600804, 0x6247A25E, 0x7075B0F8, 0x4F08750D, 0xE231EB25, 0x01D389ED, 0x030BB7BA, 0x13DEC5AA, 0xDEB79F2D, 0x864278C0, 0x3DC9F902, 0x57F22144, 0xDF560000,
    0xE56F3824, 0xC123B954, 0x17DDAB65, 0xFF8422B9, 0x76178225, 0x798352EF, 0x70BF68B4, 0xC738F110, 0x781D32C6, 0xF1DA362C, 0x16C01601, 0xBF10A805, 0xDA5A001A, 0x36D81129, 0x74842AA7, 0xEE03E65B, 0xFC12F63F, 0xEF330DFC, 0xFD59FDF5, 0xF4FF61DF, 0xDF09D8BE, 0x0102E986, 0x2485BD3C, 0x1D0460CB, 0x01760000,
    0x1415E486, 0xCAE14910, 0xADE5E3C4, 0x01803001, 0xCA5EE4D1, 0x1A45D224, 0x2B1A7A2B, 0xFBCA205F, 0xD8BE03E4, 0xCB806E3B, 0xEDE109CF, 0x7E18B379, 0xD58177E2, 0x273976F1, 0xAFF71ECE, 0x887982DA, 0x26843600, 0xB0427A1B, 0x008622F8, 0x84E47444, 0xA20F5A7B, 0x50FD038F, 0x5B480B9D, 0xA7959CC3, 0x72B20000,
    0x64F016DE, 0x0DA9D5B0, 0x0B488042, 0xE033665E, 0x0134D690, 0x0CC95760, 0x25B8B406, 0x6DE7E099, 0x947C0235, 0x2FC01327, 0xFB40F8E3, 0xF42EBB6E, 0x1BDC95A4, 0xF74658FF, 0xF93915A2, 0x11F127E8, 0x3E6DB842, 0x65F3C918, 0x0A67921C, 0x1C944A2C, 0x0A001EBA, 0xFEE10607, 0x4E096041, 0xB6D352EF, 0xDA6E0000,
    0x9BF9A63C, 0xEF098935, 0x95902B34, 0x4461E053, 0x6C1A03DB, 0x776659E2, 0x09865678, 0x50A64196, 0x822E9B82, 0xF859FD7E, 0x01384B84, 0x3EA506E5, 0xF53A78F7, 0x2AE35583, 0x47FA6314, 0x3D980FA7, 0xF19DB8FE, 0x7F2623E0, 0x269B7E23, 0x76BFF896, 0xB486E9F4, 0x41DE9F7A, 0x2EE9865F, 0x48498AA3, 0x8EC40000,
    0x3B129F70, 0x9BCF6E0C, 0x705FD6FF, 0xC41EA2FA, 0x72A36B0F, 0xC18B85BA, 0x1DEB41EE, 0xEC3E3E98, 0xBE4CF837, 0x1183FCE8, 0x316D706C, 0x07D1EC82, 0xFC9B71EE, 0x8C1CBDCE, 0x65CF7E2A, 0x1CC9E6F3, 0x9FBEEDAC, 0x1B1F3DEE, 0xB4F4DC02, 0xEAF0D890, 0xEB3D2C7B, 0x54B20B6D, 0x2B41EA01, 0xAE75E130, 0xFE470000,
    0xB4421637, 0x799813F8, 0x21FFF706, 0x4BB42026, 0xFE45B20B, 0xF5103AF1, 0xB5BB21E1, 0x2BBEBB69, 0xFB87B79E, 0x900C1E00, 0x2FAAF80E, 0xE8B301D0, 0x2D40FE49, 0xF703F911, 0xFBEE377B, 0xFEE0A8FB, 0x17EA4FFC, 0x264BF191, 0xFEC73823, 0x6FAF8A70, 0x0BE99A11, 0x3B02C59E, 0x6C799560, 0x0802FB9F, 0x5EF80000,
    0x257E7BB3, 0x1F6DAA93, 0x5FD7AAB6, 0xC023F2D5, 0xC27427FA, 0x091B3F40, 0x42E4AE01, 0xFDF7F073, 0xA00F0772, 0x03F06100, 0x163DB011, 0xA3F999EE, 0x50B0FB4F, 0x721E5924, 0x4AE7262F, 0x74E12B5E, 0x558BD510, 0x917312ED, 0x02CF08F4, 0x7DDF1D6F, 0xC515E22A, 0xC61E1751, 0x6C2787C5, 0x3E944BB2, 0xF46B0000,
    0xF1D8B18F, 0x5DDBE684, 0xFB7A91F5, 0xFFA98CFC, 0x4C2B0E80, 0x152B3681, 0x3A037005, 0x403F6001, 0x8E810C3A, 0xD2A68879, 0x4196EF94, 0x69929897, 0x7B962383, 0xCC397AEE, 0x100F8AD3, 0xF2E39473, 0x1F7338A1, 0xCDBCE1CD, 0xE73498F6, 0x6E3F860B, 0x6E8D28F2, 0xE000BD81, 0x006F2EB8, 0x3CFED1F5, 0x37A50000,
    0x8932217F, 0x3B60720E, 0xA5FFDEF0, 0x30D12C09, 0x7BFAED68, 0x1D7BFB18, 0x9581DFDB, 0x051F9E82, 0x9EC57F04, 0xC21F0F6C, 0x3279B5D1, 0x4FF6E72F, 0xA86B7AD2, 0xB268B8E1, 0x7BAD4109, 0xB1A9B920, 0xE7410050, 0x8C3B698D, 0x41295858, 0x6A4C2C80, 0xB49B2808, 0x77BB8259, 0xDF5D2C75, 0xEFFE9A12, 0xDDA90000,
    0x9990D1D0, 0x1816A302, 0x194F63F7, 0x19B9DEC1, 0x49E7EE39, 0xF69F6307, 0xA246787F, 0xAFCD04DB, 0x963192B4, 0x061E0610, 0xF3E48157, 0x1E9E02F6, 0x8CA619C0, 0x1F99E9F5, 0x987427CB, 0xFBC5C2FC, 0xBC70015E, 0x8266AC5E, 0xD8D92900, 0xC95FB655, 0xDD55F880, 0xF03B1A51, 0x1250E0C1, 0x0000E735, 0x7C720000,
    0x2C9C7784, 0xFE1213BB, 0xF3BF5A00, 0x0330D809, 0x9BFA48F9, 0xB60017C5, 0x9C01FF4E, 0xC1D871A5, 0xCC95F6BA, 0xA2FB357E, 0x2D64FC0E, 0x280B3C33, 0xF9E88C43, 0xE8D8B4C3, 0x7AA1D641, 0x2FAE856A, 0x796E3840, 0x8C65F51B, 0xB2338014, 0x788D193B, 0x0F78604A, 0x1FB7BF22, 0xFF4350FD, 0xFDF41C56, 0x17F30000,
    0xEA3A98A3, 0xC580C8E8, 0x722064AF, 0xCBAEF09B, 0x23F7A7E4, 0x0D3D5083, 0xC4798B7A, 0x43F0D340, 0x8F0CC7B6, 0xF8E89078, 0x8CA73751, 0x3590BE0C, 0xE80FE0EF, 0x43BDAE6E, 0x97E18FA0, 0x503CA97F, 0xE12C69F8, 0x7AD9BE45, 0xF60FFC38, 0x0A899E85, 0x2E1A0905, 0x36F05067, 0xA8304BBE, 0xCA21A243, 0x46AC0000,
    0x4E3F49D4, 0xB2F6155A, 0xF7FEC788, 0x7B4E122F, 0x7F96407A, 0xD4FFF564, 0xE017FD9D, 0xE07FF7AA, 0xF5E588AF, 0xFE00EDF6, 0x02037910, 0x00880400, 0x0460A528, 0xF8483E5B, 0x45C38DF1, 0x607F7F43, 0x43DF4098, 0x39BE6DCF, 0xFFAAE7BB, 0xF68B78C1, 0xE174BB80, 0x367BF6AC, 0x9D109ADB, 0xD79203DF, 0x64120000,
    0xEEF65C1D, 0x02ADE240, 0x5BA594EB, 0xAF869E41, 0x68697D1F, 0x317EFE6E, 0x0FFFC4C4, 0xFDFF3F13, 0xD2E3C011, 0x05F75F00, 0x4B1FB013, 0x80A403C2, 0x6E807217, 0xE47F47FB, 0xBFEFC7A3, 0xEDCDF8BF, 0xC1C69CE8, 0x4666FD9E, 0x0D1AAE1A, 0x1BB34573, 0x00E2E400, 0x1FC48630, 0xBFF1C9F0, 0x9DC3BF8C, 0xDE940000,
    0xD87F22A8, 0xFD1D5FB9, 0xF795E6FF, 0x4F9A2064, 0xB82BA0AE, 0xA7FF0814, 0xBDF74E8A, 0xF7E94674, 0xB001ACE0, 0x02327EC0, 0x60D8B03E, 0x814FAFC8, 0x9FF1FDA7, 0xE57E5FED, 0x5B417C75, 0xA107F6A6, 0x82C6629C, 0xA975654B, 0x6AA13722, 0x0289F800, 0x0569C018, 0x40D3810B, 0x633A29D0, 0x44DC568D, 0xE4F50000,
    0x634A12B5, 0x3E87AA87, 0xBFBD1EFC, 0x97CC0C41, 0xF2E5A5E4, 0x2C303BFE, 0xCF613645, 0x2D1E906B, 0x34800D62, 0x400D62B3, 0xFE230FF7, 0xFD6767EF, 0xF83CC5D6, 0x100A46EE, 0xB0047DC2, 0x07304DB4, 0x0B3D8BD8, 0x1408D9F5, 0x19CCA281, 0xE0305A33, 0xD4CC04FC, 0xB7E05FED, 0xDF5BF23D, 0xEFFF1BFB, 0x62040000,
    0x2188BA17, 0x0F351058, 0x0E3BAB00, 0x746D39D3, 0xA3E333BE, 0x0EE67C17, 0x4A6DE8D7, 0x349C3FCA, 0x5F839FA1, 0xF87EC95F, 0x86A855F0, 0x6896FA2E, 0x11AFD00B, 0xC9AE079A, 0xC2882A90, 0x090E980B, 0x843D1F39, 0x4344353C, 0x041D073F, 0x3BB47D3A, 0x520E1442, 0xCCF8462A, 0xA7202FE0, 0x0F9194E6, 0xA6AA0000,
    0x49FB9C5E, 0xE699BDDD, 0xCE3DD16E, 0x10FDB62C, 0xAEFA9BA7, 0x6C46B095, 0xE3D4CFFA, 0xADF38957, 0xFFC6BF8F, 0x7FEEF06F, 0x00E05E00, 0x00060412, 0x27000180, 0x6400C107, 0x101ACE72, 0x43E80C50, 0xAFD8BFAF, 0xAD8F1BFB, 0x7C53A1F6, 0xDA0F593E, 0xB0EF49B9, 0xDA0E7AD1, 0xB9BC2892, 0x57EC3C42, 0xCFA70000,
    0x41B6E109, 0x5FEF10C3, 0x7FEDECFF, 0xFE063FF7, 0xF875B47F, 0xF4EA07C3, 0xE781F4CF, 0x623C3446, 0x8707C61A, 0xE2F62CB4, 0x5EA580CE, 0x997544F0, 0x1D40F725, 0x1BE4C827, 0xAF4E6489, 0xDB3C578F, 0xA9E45CE8, 0x3FC91FA9, 0x686521A0, 0x72AFB909, 0x515C9A72, 0xB6FDCFF6, 0x447F7BC6, 0xDF8E89A5, 0x2E8F0000,
    0x9FAC301B, 0xFF75C553, 0x62FF9019, 0x37C71D25, 0xE42ECC3D, 0x2C1F99D4, 0x1BB4EE07, 0x338FD658, 0x1CF1EBF9, 0x92287EB3, 0x6BD1B9B9, 0xAF191BD9, 0xF0A8663C, 0x7EA6BE88, 0xE01A8C00, 0x07A31082, 0x4F902621, 0x3111A01B, 0x203420B0, 0xC1EB9641, 0x1140F016, 0x5F0B01AC, 0xDBD25B2D, 0xCBFCCD1F, 0xF7800000,
    0x822AE9D8, 0x8ECED89F, 0x3F8263F9, 0x4A8AC7AC, 0x148BFDD0, 0x06F6D740, 0x1EC61541, 0x2FFA860F, 0xCAC499EE, 0x8140D47A, 0x8CA075C1, 0x663ECA1B, 0xFF44B1FC, 0xDF027DEE, 0x0C839DF2, 0xC8775F12, 0x0FFAFCE0, 0xFD008899, 0x40408961, 0x12104750, 0x9CF3C3C7, 0xC1C2B5A9, 0xACACD488, 0x73348FA4, 0xDECE0000,
    0x9E474DBE, 0x0789CBCA, 0xFEACA077, 0xA607ACEF, 0xFA1CCDF6, 0xB6F6EF9F, 0x5F200FE3, 0x4104EA1D, 0xC8021F30, 0xA02F1E44, 0x01C652D0, 0x06D736A0, 0xB906A406, 0x1E343BC8, 0xD104B867, 0x090E45DC, 0xE99078F8, 0xCAB5A6FF, 0x00437BFE, 0x2511FFFB, 0xE53EFFFE, 0xA69FFEB0, 0x30A5F12A, 0x7FBC64BF, 0xFF8C0000,
    0x9F74FEAB, 0xB7AEFB6E, 0xE2FE0687, 0x92629F4A, 0x9E27FA22, 0x02B944D6, 0x570C1C0C, 0xAAC2D432, 0x2B7308D8, 0x10FC1727, 0x9AA3DFAB, 0xFD0980FD, 0xB77CCBB1, 0x06875124, 0xD0CF87D8, 0x1F828600, 0x6168DC16, 0x1822C3E9, 0x3EE22A3A, 0xEFF67C70, 0x3ECF21E3, 0xE2CD37D4, 0xA139D417, 0x603DE27F, 0xF79A0000,
    0xE2E2EAD8, 0x490D809E, 0x303026D9, 0x02035800, 0x0E5F8402, 0x0872C446, 0xCB6EEA45, 0xA0DF475C, 0x33F73163, 0x752AF73E, 0x9DE0E3C7, 0xC226691F, 0xED5C3DDF, 0xFBD257EB, 0x2A81F66F, 0xC043D727, 0x00DEAA98, 0x08CF5000, 0x03ED4B28, 0x1A18C525, 0xA5F9441A, 0x1F863FB6, 0xD3DB67DF, 0x95BC5415, 0xAB720000,
    0xFAF07CF6, 0xDAAFE46E, 0x47694B2E, 0xFE05E379, 0xC864FBD0, 0x11C610BA, 0x2F488EF1, 0x5887FA6F, 0x00BFDF30, 0x137FFC12, 0x01DBC000, 0x08580EA1, 0x0181DE00, 0xB17F5B11, 0x067C0276, 0x0B508372, 0x16BBEFEC, 0x6CF6B9D1, 0xA6B7C2FF, 0x7C9CA2F8, 0xA1A4ED6B, 0xE0DF56F0, 0x30C77A20, 0xFFDDCC97, 0xBCD20000,
    0x60CDF038, 0x7CE1C56F, 0x7BAF969F, 0xC6F89FB1, 0xCB23FA5F, 0xC394C246, 0x0C89CC0B, 0xCB04103B, 0xDA00B5AA, 0x34D61BE7, 0xEB6BFFBD, 0x6FF39CF3, 0xBE6E1F50, 0x5D2B70EF, 0x76C790D7, 0x19DFAE29, 0x04D5ABFC, 0x5A390B04, 0xF817C5FC, 0x52E625D8, 0x277443E5, 0x01116052, 0x6E0C2AA7, 0xFC53FD85, 0xE77A0000,
    0x0F90C70E, 0x21E9F437, 0x5405B15B, 0x08F4F28C, 0x026DF1C0, 0x1ED9E601, 0x1E6FF802, 0x997FC017, 0xFFFC43DD, 0xE3C86F70, 0x7219D217, 0x0110A146, 0x6BB0C575, 0xEC36644D, 0xB25ABCFD, 0x23E2D68C, 0xCCFFE712, 0x6ED3603F, 0x2EE7A3BA, 0xB6FD5334, 0x3120906B, 0x36000BD8, 0x503C45D3, 0xAFEEC93B, 0x5BA20000,
    0x67256DA0, 0xE35CAB54, 0xFFFF8DB6, 0xD2F2AB23, 0x583625E7, 0x64814585, 0x5232C7C0, 0x602649B2, 0x23E02670, 0xCF6A1650, 0xE8CE386B, 0x6F18656A, 0xE8BF836D, 0x6D6CF80E, 0x9C3F207C, 0x87E05F56, 0x7240F537, 0x8FAE3478, 0x5D961B87, 0xF896D429, 0xBFA595B2, 0xB0B384EE, 0x0708A35D, 0xB873A25C, 0x7CA80000,
    0x664AF892, 0x59DB7835, 0xFAE2DC67, 0xBDFD76BE, 0xB3049FC3, 0x00ECD9C0, 0x3C9FFD40, 0x05E61AAB, 0xBBC35783, 0x2FDBD0FA, 0xFFDBD685, 0xEBBD7C7C, 0xB459A2CF, 0x8DF800F0, 0x7DC46B06, 0x6843D872, 0xF03CEF7A, 0x475FA8A8, 0x5AC8C3A7, 0x86D88AE8, 0x2B33B4D8, 0xE76178EA, 0x770DD043, 0x0A7E1492, 0x20F70000,
    0x35747645, 0x557E4E39, 0xEFBFC3DF, 0xEF5A2F7E, 0x981D17FC, 0x243817EE, 0x7DD21F4D, 0xBB80164D, 0x000FE542, 0x0078BD10, 0x11E4E05E, 0x1A018EF2, 0x3097FC1A, 0x17E55AB9, 0xF759D229, 0xE492B655, 0x43C2760C, 0x6A9315BF, 0xC1A70590, 0x16326563, 0x5B7EA9F3, 0xBF41174C, 0xBF66E00F, 0xBF3F2FB7, 0xDEE80000,
    0x846DE390, 0x2E83B855, 0x77C739DC, 0x2DF00EE6, 0x29D6F008, 0x5F568044, 0x4731262F, 0x9EF94256, 0x24100150, 0x47402839, 0x9A03C18E, 0xB858534F, 0xF765BFF7, 0x7633F909, 0x6379FE7D, 0x2B7F7777, 0x8A6EB7C0, 0x6AAB3A03, 0xF0A10442, 0x08DC0804, 0x2DDB00D6, 0x887A6E62, 0x55DC122F, 0xECA15E13, 0x5BA20000,
    0xFEDD7543, 0x5B88F7C8, 0xB117DC34, 0x14397BC1, 0x9629AA76, 0xFE8C0E03, 0xAEA8E258, 0xFE0FB80B, 0xF0A08144, 0x0F509A80, 0x6A81CAB4, 0x479C18C0, 0xEFD16C1E, 0xC933EEFD, 0x7FF1AD76, 0xFF1C1CB8, 0x73C5462F, 0x32875DF1, 0x2DAB6AD2, 0x31DAF772, 0x524F9744, 0xE8791843, 0x28001220, 0x0011A945, 0x5CC70000,
    0xDE6D4602, 0x30C47209, 0x18BF878F, 0x217C22D0, 0x7D4A7E07, 0xA0B5F07D, 0xF87E0F35, 0x9641EC56, 0xBE1C2AE2, 0xF0E0C6BE, 0x084ED5A1, 0xF4B43A14, 0x746EC22C, 0xAB52203A, 0x63539CCC, 0x7C58EC93, 0x412D1BC2, 0x3EA87367, 0xDC9D88F3, 0xA3CDE0A2, 0x36E6FFA7, 0xDFA0D245, 0xD4C501CB, 0xB021FAAF, 0x16100000,
    0x481F5564, 0x6C9562AF, 0xFB83171F, 0xBEFD88F4, 0x5871F1E0, 0x86D997A1, 0xB58BFC03, 0x8183E805, 0x97058362, 0x807751EF, 0x82C1D816, 0x55B1E037, 0x786D2D1B, 0xD8D3A8B9, 0x8CB8C7C5, 0x4B186C12, 0x788D4C63, 0x8DD5C00E, 0xE0C3C078, 0xE5CC2712, 0x041D829B, 0x193A0BE7, 0x57AB43AD, 0x6FF46B9F, 0x71850000,
    0x2F5D704C, 0x0B9B889F, 0xEB3F53DC, 0xBFFFD813, 0xFE3C774B, 0xF7B096FF, 0xEB0FBFC9, 0x293F807C, 0x8600079F, 0x74006AE3, 0xB4039FB1, 0xEA6B4B3E, 0x503D11F9, 0x32BB77BB, 0xB071EE80, 0x39538CCD, 0x013D2F2D, 0xA1603406, 0x284C4AB6, 0x7BA8E0F1, 0x8D10197D, 0xCDD7B5F3, 0xFDDFFA58, 0xFFFCEC9F, 0xB46A0000,
    0x1189FB1C, 0x8405AB17, 0x907FF6B8, 0xE004FCFA, 0x00D6B0E3, 0xD7F4C217, 0x1D7AB886, 0x1177CF55, 0x7F91105E, 0x3F08A248, 0x60CEE140, 0x4AEAA002, 0x5F80820B, 0xE45240AF, 0xD440043B, 0x8980FB08, 0x007B78C0, 0x54F78F09, 0xEF7BFFF2, 0xF672DE17, 0x63FFF662, 0xD9FB76DE, 0xC7F97DB6, 0xA008DCD0, 0xD11C0000,
    0xF048006C, 0xDFFA8729, 0x579FE446, 0xC77AEA4A, 0x71E06EA4, 0x0E052A85, 0xAF4504EE, 0xA91ADFF9, 0x3DFFFED9, 0xECBFD00E, 0x853B0070, 0x00F425E0, 0x04063980, 0x5F3DC484, 0xDFEC0001, 0x6BAA0C88, 0xAC710319, 0x8C00C534, 0x9DAA25E3, 0xEAC33E8C, 0x1970F585, 0x2477B1C8, 0x3307F938, 0x1969ECD5, 0x6BE50000,
    0x089F2ACF, 0x3FA3E2EB, 0x3EFFDC3F, 0x70B88FE3, 0xAAE3D916, 0x11D21D21, 0xB00A321A, 0x4D418CDE, 0x1C08B45A, 0x220711CC, 0x82FA67A0, 0x7B00279F, 0xFFEFDADD, 0xC143F933, 0xA2BF01C6, 0x51A89DF1, 0x9FACA094, 0x5C3B5EF3, 0x7A1D71FE, 0x59416C42, 0x8A8A6BA9, 0xE2BFBF44, 0x29FF01C7, 0x9D2134D5, 0x6D0A0000,
    0x12137293, 0xCBD7F51C, 0x52AC8264, 0x1F1ACBE5, 0xF8249A9A, 0xD263385B, 0x15386C55, 0xEB7101FC, 0x68501C07, 0xC51D9D2D, 0x01C00FE8, 0x6C0FD77F, 0xB9ED2CC5, 0x3C3BFC55, 0x22B3BE82, 0x15E39220, 0x53063247, 0x3A9805B3, 0x4D2D5233, 0x50FD22B4, 0x182BD99D, 0xB5FE3A39, 0x9BFF00A0, 0x1F901177, 0x3DC70000,
    0x4E3FB060, 0x39DF480B, 0xA7EB277F, 0xFB4C1782, 0xB53FA704, 0xF1FE9400, 0xA7684048, 0x91801FEB, 0x90096DFA, 0xB7F7AE9F, 0xFFF1FB4F, 0xEBF5ED97, 0xFC74EDBD, 0x00D0A7A4, 0xE416DE15, 0xB1B2623B, 0xFEC26B37, 0xF749C7FF, 0xC02A2A5E, 0x1008DDA2, 0x068B6028, 0xCC008C69, 0x30217750, 0xD597D8FE, 0x676F0000,
    0xC1C218C2, 0x39CD9549, 0xBF9CD861, 0xFFDF07E9, 0x8FB9BADE, 0x33FC1FF9, 0x79827F7D, 0x98BB6BF9, 0x240712B0, 0x1272BB2C, 0x01DBFA42, 0x1EF60E5B, 0x22C72F80, 0x34707C83, 0x70AF627D, 0xBCE80DE7, 0xFDDBE4CF, 0x6D1F3C18, 0x74E3F6F9, 0x07954243, 0xA0019970, 0x50F6FF88, 0x4EDFFEDE, 0x7DF9F60B, 0xFFF50000,
    0x6C87BBA7, 0xAFF8A59E, 0x972DE455, 0xF99CF6FF, 0xC5574FCE, 0x13BF8FFC, 0x3DD00F80, 0xB001EC4C, 0x64064752, 0x542BFCDF, 0xA39F4FF4, 0x5421DE1C, 0x8B788213, 0xA0E03CFB, 0x15202A29, 0xC38E0FE9, 0x1843028B, 0xF1BD97E7, 0x80D7ADBE, 0x06896E56, 0x6FAB6738, 0xFE9D0EEA, 0xBEDA8A11, 0xFEFF4736, 0x47040000,
    0xC11FD9B5, 0xF7FAFA2F, 0xDFE74BBE, 0x79990EA8, 0xC932FCC8, 0x6057248A, 0x29F614B3, 0xF5EC005E, 0x987ED209, 0xC4CB781C, 0x10F82902, 0x9F9A601B, 0x7D5C8FF7, 0xC100E839, 0xF01728F8, 0xC1EB6968, 0x1DF02C83, 0xF94AAB1B, 0xF06D196C, 0x023F6680, 0xCAF6B883, 0x66329481, 0xA140E890, 0x6998F99E, 0xFB3F0000,
    0xE83D8AEA, 0x76F77767, 0x5FDF7138, 0x3FC85B65, 0x3FD0513E, 0xFCAEC4BF, 0xF2F25311, 0xDD0870C0, 0xBA0206BA, 0x1E801B0B, 0xB0031AB9, 0x000B4EDF, 0x82DFF7FF, 0x0A343CEB, 0x305DB783, 0x4A63FF70, 0x00D7F1C1, 0x1778F99A, 0x1B665F9F, 0xF52F0FDD, 0xEDF7FAD9, 0x13B3C590, 0x91803BDD, 0x2010B524, 0xFAF10000,
    0x936150C0, 0x02100F66, 0xA0742C88, 0x3CC05A3A, 0x4FF80A2F, 0xBE43C151, 0xEECA106C, 0x67C39559, 0x5C09FFAD, 0xC08A67BE, 0x5006BBB8, 0xBA0C0BD9, 0x86AF7E60, 0x04E8F803, 0x57C50233, 0xBB572B0F, 0x9B3A1FC7, 0xCC4EB10B, 0xCD79349B, 0x7C39BA5D, 0x2B355BE7, 0xC22870F1, 0x08400360, 0x40227A68, 0x5C480000,
    0x0410739C, 0x77690B62, 0x919D74C0, 0x0F614019, 0x7BEB81CD, 0x123C3F6D, 0x944AF9ED, 0xD10298A7, 0x3C1A1ADB, 0xD228C8FF, 0x09FFEBE4, 0xCF924BC2, 0x69EFFFA4, 0x133FF01B, 0xE13F8118, 0x00FF18A0, 0x00E81A60, 0x0F6D8042, 0x7553C8CC, 0x3F652863, 0xD6BFB15C, 0xBFB98B12, 0xF9EFBCA3, 0xFEE9FFD3, 0x081A0000,
    0xB0EA16A4, 0xBE68606D, 0xA99EBC3C, 0x196EDA83, 0xD224183E, 0x4A6107C0, 0x0E123C9C, 0x7A5F81AE, 0xA05C481C, 0xB6080584, 0x288BE6C6, 0x554E19C4, 0xD7D7F016, 0xB9DF8AC6, 0x9753D872, 0xBEE8D735, 0xD83A61FC, 0xD07EAFCA, 0x599BEAB7, 0x73175D76, 0x059F4983, 0x6962C355, 0x104080E3, 0x0C04D9E7, 0x7DD70000,
    0xC0A81366, 0x801B2E60, 0x72E76081, 0x3F3DB6A3, 0xA02C50A7, 0x02D34868, 0x1B968703, 0x5830F01F, 0x5B9E140C, 0x2BC37FF2, 0x385D2DA1, 0x959C46E5, 0x7BF047BB, 0x3B296C63, 0x934727E6, 0x21884CB6, 0x5FDCFF54, 0x718E3BAF, 0x68F74A6F, 0xF9B769FF, 0xEB3E53F6, 0x66AE2F59, 0xE0200A56, 0x0880B180, 0xD4AC0000,
    0x397F0580, 0x58DFE6D9, 0xFFF704BA, 0x7FFD60EB, 0x63CA175F, 0x7E806EF0, 0x5ECF6F9F, 0x226B2DE6, 0x78405092, 0x000016C6, 0x0007062C, 0x372D5025, 0xB4C1A23D, 0x30B0A2FC, 0x5C0837DD, 0x1002B2F4, 0x007D6490, 0x0C4E9037, 0xC8EF8FF9, 0x17BBFFEF, 0x796BF7EC, 0xDFCF6FE4, 0x3DC1FEB4, 0xF00726D9, 0xFC5F0000,
    0x160C9525, 0xBBF32A80, 0x7FCCEE01, 0xCFADC3CB, 0xEA5321F9, 0xA39C2FCA, 0x47110F41, 0xDC81FB31, 0xA00EA5E0, 0x00771E90, 0x1BF11869, 0x7C083B53, 0x813FEBA9, 0x55781C03, 0xFDDE8062, 0xA0FE2FBD, 0xAE06E869, 0x9B955523, 0x455BDE55, 0x7BF34B01, 0xA3B7DDFB, 0x10ADA7F1, 0x36EADE5A, 0xB4BF9443, 0x38550000,
    0xCF4CAD4E, 0xC02FBDA3, 0xC9EA4706, 0xEC00496F, 0x75F8CBB8, 0xEAF9938B, 0x729F42A6, 0x339C05EE, 0x59C2445E, 0x9C004E74, 0xDDE66701, 0x7BBE7D98, 0xFA8FC2A2, 0x249D0DE8, 0xC6FFD1D2, 0x2D98FBE1, 0xEE778EDD, 0x9069EAA9, 0xC5D965D4, 0xB289BD49, 0x890FD13D, 0x31FFE243, 0x93DF9011, 0x0EA06551, 0xD10B0000,
    0x9278613D, 0x53FB5DCA, 0xD9C3A7A0, 0x42115605, 0x6FE20FB5, 0xFEB0224A, 0xFE07D114, 0x307CB0EE, 0x08E41CB9, 0xCE096E38, 0xEDEDBCC3, 0x93F706C3, 0xF6F2BC0A, 0xD54696BC, 0x55BC8061, 0x5F022067, 0xF2A218FE, 0x12682DF2, 0x0856BF69, 0xD8673F18, 0x62B7A915, 0x22FF31E6, 0x3D5C3FF1, 0x27C33EB0, 0xFB060000,
    0xD274EDBC, 0x7C612B59, 0xB8A39B7B, 0x0007942E, 0x64408BF1, 0x04F27FA0, 0x088E5823, 0xD9C2A92D, 0xEAD7A6CF, 0xDAD131E1, 0x20CE4C06, 0x43EF5B91, 0xB8E0366B, 0x66123FF7, 0xB0E28BF4, 0x59F6239E, 0x1981C4EB, 0x85660569, 0x1E7F8A74, 0x756DC704, 0xF38FCFBB, 0xE0BEB9E7, 0x0EBF0323, 0xFA3B1E89, 0xEB890000,
    0xC9FB825E, 0x95794A5D, 0x5225629C, 0xA00C51BA, 0xD0F0A5E0, 0xEA64E7A2, 0x552FBF64, 0xF6F9EAA9, 0xDDE4BE6E, 0xF4CB24E3, 0xCA2E0144, 0x54E40026, 0x01D03838, 0x380F329F, 0x53A30774, 0xA44C32CD, 0xDCC9428B, 0x8F177778, 0x36B6AEB1, 0x61330786, 0x2074D9F9, 0x981FBDD8, 0x975BF4A0, 0x4B75C9DC, 0xC3910000,
    0x86F2600C, 0x93FACE4B, 0x975018FF, 0xFB4F0D97, 0x47EEEACF, 0x4EAF61E9, 0xDCFC9747, 0x23D82A60, 0xBF783546, 0x43384585, 0x7F46187D, 0x743835F8, 0xAF00085F, 0x1E806CFC, 0x78013FF3, 0xC00D5EBF, 0x02B517FF, 0xF6E83FFC, 0xB6287D93, 0x23492E75, 0x7A0FDD91, 0x055A7164, 0x308A4033, 0xF4D66BA4, 0xA89A0000,
    0x7C99495E, 0xB90B95A5, 0x7A9CA37B, 0xEDEF5E7E, 0x831CA00D, 0x2F4F51A0, 0x6509386D, 0xF81008F4, 0x41628B60, 0xC9A93C04, 0x8D8903FA, 0xC81E2EF6, 0x1103FCEB, 0xEDFB9D4E, 0x99D3FEF6, 0xBD7BF717, 0xFFA0C697, 0xF3759D38, 0x945D9000, 0xBDFD0066, 0xF390022E, 0x348020CC, 0x3BDDFC7A, 0x5FB88AF6, 0xFB220000,
    0xC34ED7AF, 0x03D67504, 0x94F86F78, 0x8216BA20, 0x87884162, 0x004935C8, 0x0088ED31, 0x103A3AB0, 0x7696FF12, 0xEFFFD888, 0xE95E2930, 0x2CBD8F30, 0xC6705E03, 0x83E2C07F, 0xDA1C078D, 0xF0306F06, 0x86B053FC, 0x1501E780, 0x1F522556, 0x22602288, 0x1703C86B, 0xA81E3FC7, 0x095FBE9F, 0x5768E899, 0x9F1C0000,
    0x04AC95DF, 0x6AD7A3E3, 0x7F7FBA3F, 0xF7AA2DAB, 0xF404036A, 0xF06DB592, 0xF85DCA7B, 0xFD1FEF8F, 0x97A90E7D, 0x00BFF0CF, 0x9F36FEF1, 0xE067BF01, 0xC3D91000, 0x7EA76313, 0x4DCC00EE, 0x23E458A0, 0x6E0F6F9E, 0x8120999C, 0xAF67C7FC, 0xBB75CFFD, 0x32F47FFD, 0x753FFFFA, 0x5BFFBD87, 0xF7FF596B, 0xD2C60000,
    0x5D0DE54E, 0xFB1D7448, 0x6FD79771, 0xF7B987A3, 0x22126222, 0x37003D08, 0x4F01C045, 0x8871E029, 0xBEB700B7, 0xC2B91D86, 0xFC898F17, 0x0988A481, 0x9795D52D, 0xDC8D45D5, 0xA5F229E9, 0x6D773EF1, 0x74D5560B, 0x3F3E4A6A, 0x8E873380, 0x09D7C6E6, 0xADAB926A, 0x43190DBC, 0xC26F4910, 0x2EECDFD8, 0x007E0000,
    0x2A415A8A, 0xCCA0FD8F, 0x0009507B, 0x1EDB9DEE, 0xDCF6181B, 0xFC7BDE5A, 0xFFFF04DC, 0x3B905AE2, 0x8DE77E4D, 0x7F3CFFBF, 0xA617E003, 0xD3728073, 0x81200244, 0x0500FDAB, 0xA03B4D86, 0x1B0C2904, 0xF97F0DDB, 0x01E537A7, 0x5036AF4B, 0x11969B20, 0xBE31D105, 0x7285B2B3, 0x317F3A32, 0xAD79F69D, 0xE7970000,
    0x68A421EF, 0x8500E0E2, 0x80D9E2F8, 0x07DD2450, 0x5FABDF07, 0x70F8FC56, 0x7327835F, 0xD5F87E55, 0x07EE2414, 0x1C71F3C1, 0xB658EC0C, 0x05902D66, 0x87B1D57D, 0x9221A78F, 0xAA1615FE, 0x19F06578, 0x190B93CB, 0xEE73BF8F, 0x396A0B16, 0x126D1ED1, 0xFD80D99D, 0xF04ECA7A, 0x07781D42, 0x0050FAA0, 0x4ED60000,
    0x970F03C5, 0x1F5DEB5D, 0x62E782F8, 0x77DB1B25, 0xC79C223F, 0xF82002BF, 0xE2023E01, 0x0F5CC016, 0x0A40025B, 0x70104A26, 0x00124178, 0x78B33F87, 0xF9B91BBC, 0x846CED9C, 0x21D9CAC5, 0x0BF6D56F, 0x0E274FB3, 0x9EB8EDB4, 0xB6F61DD8, 0x19D97FFC, 0x9F78F167, 0x4C9EA5D9, 0x0213A1DB, 0xFD6AD4FE, 0xDD8E0000,
    0xBDC35869, 0xB0DC4755, 0x5CCB94EF, 0x97CCA51A, 0x15F7A7B4, 0x7ABE0B81, 0x37F03C16, 0x7E27837F, 0x9018DBB0, 0x07EFD508, 0xA0E2100E, 0x976B1FC2, 0x1F77FA83, 0x35FEA43E, 0x8DBDFF7D, 0xA4BCD2BE, 0xCFE279B9, 0x3A36ACAB, 0xEF57F44E, 0x41D02B3A, 0x5F07A15F, 0xC3202DC0, 0x8A009560, 0x0B0BCC9C, 0x5C890000,
    0x84584988, 0x7E0BB36D, 0x3B76BC5E, 0x6DB1BF01, 0x7C52583B, 0xA5844840, 0x0C2A3FD4, 0x938C9451, 0x51A864A3, 0x5A0306A3, 0xC29EFD1D, 0x5EEE68E9, 0xB5A7C783, 0x123C702F, 0x859FC4F8, 0x4282C444, 0x5FC8FF43, 0x6E33003B, 0xB0928CFF, 0xCAA084A3, 0xF4065DEC, 0x24CBBD0E, 0x055781BA, 0xC91B453C, 0xFFCB0000,
    0x4485C3D6, 0x64CCAF1A, 0x8B4B42E0, 0x021BD732, 0x4C7FF3BD, 0xD53BE175, 0xEB08A435, 0x29189FCE, 0xF9FFF6DF, 0xFF7374FF, 0x93F3F028, 0xE433000F, 0xC5128160, 0x37801202, 0x580D5A55, 0x01D4C6BB, 0x17A1CE9C, 0x3AEC97F2, 0xE3F3295F, 0xF9EDCD77, 0xD16DDC38, 0x4C5902DA, 0x102A99D6, 0x1FF9E9EE, 0xC21C0000,
    0x869E5B8E, 0x2DBEFDDB, 0xBFDDE23F, 0xF26E8D40, 0xBCD46A4E, 0x03BCFF50, 0x14324836, 0x6DC400FF, 0xEE015F39, 0xE0BFE6CF, 0xDFFF70F1, 0xFF73C7BA, 0x9B183D17, 0x07490463, 0x1C96D344, 0x287E2984, 0x45112004, 0x1911C499, 0x48CE4E71, 0x1543E94A, 0x042A200E, 0x37A707BD, 0xD99AB2D9, 0xF77DA296, 0x2DE70000,
    0x2025BE2B, 0xC579119A, 0x7C3BE0AF, 0x217BFF9B, 0x521A3F8D, 0x762B8193, 0xBDC1E6A1, 0x4374F0BC, 0x37B84E86, 0xF33F71D5, 0xD78475FA, 0x484743FE, 0x0BD00280, 0xAA35E10F, 0xC92E38E7, 0x2C92D685, 0x6186FAB0, 0x6FF6FF06, 0xDFC876DF, 0x7FBB6321, 0xB2DA3078, 0xC218050A, 0x3EC93FAD, 0x76FDF3C6, 0x326E0000,
    0x3B76600A, 0x5B2D3AAD, 0x7B8C81A0, 0x893AF884, 0x7E90CAC0, 0x7CB62597, 0x4BC95997, 0x4F9296A1, 0xB9855932, 0xF0E39DF7, 0xCBA073C8, 0xEE9B4234, 0xB0640A70, 0x2540780F, 0x5A18FFD3, 0x4398C4F4, 0x6607C487, 0xCE15D25D, 0x71AB07D5, 0x51F0661F, 0xEDBEFDF3, 0x2C6DB6A7, 0x81B600E5, 0xD7BD9B4B, 0xEE960000,
    0xDE554438, 0x9DAF3DEE, 0xB7EEB13E, 0xDFACA8A7, 0xDC956DF5, 0x6925EFFE, 0xF20FFEC1, 0xE7200090, 0x3D8003C0, 0xC0007F07, 0x1C011D80, 0x217A6A1D, 0x7C3889E2, 0xC16B5F98, 0x106D8AE9, 0xB12C535D, 0x472748DB, 0xCB9C54ED, 0x05DDAB5B, 0xDD0CB24D, 0xB8A26159, 0xA6110159, 0xC9DFF87B, 0xFFFEA677, 0xBF570000,
    0xCF897D9C, 0x1EFE606B, 0xF7FF7370, 0x05E2F05A, 0xBB868C3A, 0xA2D80DD2, 0x4D79F739, 0x53FFB62D, 0xDF08F78C, 0xC24E3078, 0x07A52003, 0xFC5A0060, 0x21302F17, 0x0E1EBC3C, 0xFD6593F8, 0xA8ED9B46, 0x02B1BF5D, 0x01845FA0, 0x0E3EA77E, 0x84FF8A92, 0xC7F0333E, 0xB36C1F0A, 0x1E1E5AB0, 0x35BA19F5, 0xD3D60000,
    0x52E53C9A, 0x6E0CB195, 0x4FFB50E1, 0x4DBC5CC5, 0x05214FC1, 0x7D84B80B, 0x3AB3C3BA, 0x37182437, 0xEAC3C970, 0x32549BF4, 0x8759F0FC, 0xC98C2465, 0xBEA78F67, 0xFD7067B4, 0x5F9ED4AC, 0xE1CD12FC, 0x1E019B11, 0xFEFBDA1F, 0xB422ADB4, 0x1384BB1F, 0x2686DFD5, 0x382D8691, 0x207410F6, 0x008B1065, 0xEE5B0000,
    0x90AA7875, 0xFFD2C987, 0xC0762BC0, 0x3BC6A804, 0x55C8D200, 0x09FC3328, 0x810AECF1, 0x19527F9B, 0x547F27D8, 0xB3FB76A2, 0xFEF57343, 0xA0A74E25, 0x01FBB0EA, 0x85EA0E8C, 0x5EEC3001, 0xFFF6A4CE, 0xFDC00B9D, 0x8181E400, 0x427A0430, 0x4CCC0844, 0x22FB30BB, 0x5FE087B9, 0xCDFBF95D, 0xFFFE40EF, 0x632F0000,
    0x43E0F7E0, 0x74610869, 0x8023C9C0, 0x1187B001, 0x31D6C001, 0x016E019E, 0x14422513, 0x0DC2FFF7, 0xB46A83A7, 0x43DBD76F, 0x4FB3DD86, 0xBAA63D57, 0xC52BC63A, 0x5275216E, 0x4FAE3CA1, 0x9AE17CCC, 0xD42C0D32, 0xC2CC6F8C, 0x12F841C0, 0xCE44A63F, 0xE69FC312, 0x4C7E0C51, 0x9E42665C, 0x2FF5A80B, 0x35C90000,
    0x632AA7F1, 0x77E6E616, 0xF7D6E7D1, 0x3879F674, 0x13039928, 0xFB363B47, 0x51BE6899, 0x1D9C2F03, 0xE3432CB8, 0x8E0E9C89, 0xE29DA37C, 0x26C41DFD, 0x7F92C7B7, 0x0EB14B9D, 0xA4F93407, 0x1B27C0FD, 0xB1BA03FE, 0xB0E068EB, 0x5C2AA358, 0x878C6956, 0x56265D99, 0x38180407, 0x26003412, 0x4439A27C, 0x64B20000,
    0x29A2D44E, 0xCE4FF919, 0xFCF7D33D, 0x7FC427A2, 0x74936741, 0x3269D44D, 0xFBBFE3E8, 0xEE182B6B, 0xC087D1D4, 0x00301D80, 0xCF29902E, 0xACF10BFF, 0x7811F9BF, 0xF9FF51DE, 0xBE061F8D, 0xA3CC6DF5, 0x816A61EB, 0xA936CFD7, 0x1DFF612F, 0x7E010121, 0x6668E328, 0x402866E4, 0x0F7E3E78, 0xE28873D7, 0xCDA30000,
    0xF9A0057C, 0x3D56EDF1, 0xFD68B8BE, 0x72665E26, 0xF204486C, 0x421427BB, 0x798AA162, 0x614E1511, 0x53184417, 0x8141985F, 0x1B4CC1F1, 0x329C3B37, 0x2E21BDA8, 0x712BCC14, 0x5AD887E8, 0x8ABA9EDB, 0xAB0B5B47, 0xA580FCC7, 0x24270DFD, 0x5E584C74, 0xF27C8EA4, 0x202A2EE1, 0x3672C97E, 0xEE0A9C67, 0x779E0000,
    0x8E5D30F9, 0xD624154F, 0xFD505BC7, 0xF2EFE94D, 0x14F44C28, 0x23AFB980, 0x1925CEB5, 0xE9747FEC, 0x41FFFEC8, 0x766EC633, 0xEE37F00A, 0x207000A0, 0x22A02534, 0xB6601070, 0xD685EA0C, 0xF9FC243F, 0x51C7001F, 0x010E42B2, 0x10A82637, 0x544B2B21, 0x94C89023, 0xC79D9235, 0xD73BACB4, 0x4FB025F7, 0x1EB40000,
    0x49EDDD05, 0x6FFF995F, 0x8F7FC674, 0xCFDD28B2, 0xFBD10328, 0xD4381262, 0x4C07E513, 0xC2B394AB, 0x97DC1792, 0x4C09AD81, 0xE0065E90, 0xA0A6BB06, 0x81692A0C, 0x92976740, 0x6825122D, 0x094A6DBC, 0x1E3C42D8, 0x1718EB42, 0xB127C2CE, 0x755039E6, 0x600650C0, 0x25FE97CC, 0xFFF7FB99, 0x7FF2B518, 0xD6C60000,
    0x14A5ADBD, 0x60744F66, 0x6F8DEB87, 0x6DAD77B7, 0x1057FEA8, 0x5A9D2084, 0x35B1784D, 0x992311B9, 0xC1F87BD2, 0xEF053617, 0xF1F05FF8, 0x3E37AEAD, 0x7E7B80E9, 0x5F2872CF, 0xA3179477, 0x40F4FA08, 0xABFEF614, 0x6F7F6BF6, 0xFE1FC095, 0xA7B81420, 0x730B05A0, 0x45FF05FC, 0xFEC26FBF, 0xEBF31202, 0xFF6D0000,
    0x725CF86D, 0x99F757FA, 0x08208A74, 0x2245B299, 0x25D3AA24, 0x1F6436B0, 0x57F7D193, 0xBFBBEEFC, 0x78684FE9, 0x242FEEA7, 0x09EE38F2, 0x4CF71738, 0x81A07FD2, 0xCFE3F86B, 0x881F680D, 0xC01853A2, 0x07003A78, 0x100A43F3, 0x6336D391, 0x22A73A00, 0x2B33E09B, 0x7FA81C23, 0xFED3A856, 0x83FE82DE, 0xA3730000,
    0xA9679905, 0x6B7FE67B, 0x59BFE9BF, 0xE487E7FD, 0xC7FE3EBA, 0x37B07EF2, 0x35EBF78F, 0x5A0FF125, 0x893AB5E8, 0x3602BBA8, 0x054613E0, 0x3EEC6806, 0x00518A0D, 0x18703075, 0xA24E01DA, 0x4AE157A2, 0x02DB6E18, 0x1FF4C201, 0x440580EF, 0x72FEFFF5, 0xFEFF7B69, 0xAEFE7ED3, 0xFCC7AB74, 0x3210E75D, 0x28460000,
    0x65003C5E, 0x404016E8, 0x001F0808, 0xA4793BD0, 0xBF15BD3A, 0x4FE1E8BE, 0x36B38CF7, 0xBD6E3EA0, 0xEAB1BE02, 0x443FC06C, 0x00F855A2, 0x1B0CE801, 0xFC87CA9D, 0x419EB3E5, 0x97FC7E07, 0xCCCFA91B, 0xD7701EFC, 0x6763C6AF, 0x669FF941, 0xDB73EA33, 0xB41931E1, 0xA5F82BB8, 0x05809814, 0xEE134E7B, 0xD7100000,
    0xDD271164, 0x41242014, 0x200CB76F, 0x7EB21EFF, 0x193DC36A, 0xAD5E12E4, 0x5A991F3E, 0x18C6629A, 0xE26CFEE3, 0x872EA568, 0x115E7DAB, 0x1D942E2B, 0x5B47F874, 0x210F294E, 0x0171DD7A, 0x4FAE55DE, 0xC77BB7DC, 0x47401D89, 0x0039F4ED, 0x92DDA9FB, 0x34D88730, 0x43902C98, 0x4A2410B2, 0x8E0243E3, 0x89520000,
    0x74993635, 0xA93180C4, 0xA3BA7364, 0x6DE2B85C, 0xBFC31719, 0x603FD99C, 0xE7BF1BC6, 0x6EC2A4E3, 0x6E0A8FE7, 0xF02457FE, 0x35723FF0, 0x7CA3FE12, 0xC03C6063, 0x0D1F43DD, 0x8BE8BEF4, 0x870A02DF, 0x33EE64A4, 0x3BD8EECB, 0x431682B3, 0xD88122D1, 0xF448322A, 0x1041CF2D, 0x163BFBED, 0xFF7CC30E, 0x3AFB0000,
    0x871B1D58, 0x28A4086B, 0x1C100C45, 0x28803AD7, 0x33B326E0, 0x3E12BE01, 0xE705E3B7, 0x283E1BC2, 0x594356AD, 0x1C673B01, 0xC25901FF, 0xA3DB1594, 0x96F3F15F, 0x94BEAA31, 0x0EB39512, 0x3CAF599B, 0x9BDFB27B, 0x413B4970, 0x22397DE3, 0x23FA7F78, 0x122BE457, 0x183B08FA, 0x00680680, 0x6C499CD9, 0x5B500000,
    0xBA8C7194, 0x61585E4D, 0xF3FC80BA, 0x6068FE11, 0xE83AB04F, 0x23F443F6, 0x106A74F0, 0x0953AC14, 0xBC39D038, 0x6B760319, 0x2864DD96, 0x37197621, 0x35343AA3, 0xD422C134, 0xFCF947A9, 0x4F20E011, 0x72744D87, 0x2B57297A, 0x48712D60, 0xA770EDB0, 0xA9D6FA1A, 0x02D18EF1, 0x0200427E, 0x1177FA3F, 0xCFBE0000,
    0xBB7F6B09, 0x20D7EDEE, 0xD7F7F6FB, 0x8FDACA1D, 0xE0A3BC3F, 0xB55B492C, 0xB09C61DF, 0x3ED4B340, 0xEBA7875A, 0x3FC1BDC8, 0xF802ACFF, 0x102C78C2, 0x0506C4C0, 0x661C3FF7, 0xA52179E8, 0x844C5070, 0xC47F485D, 0x857822E4, 0x5BD38D4D, 0xB1E47ACC, 0xDE12F30B, 0x8BDF91C3, 0xFA301999, 0x7582C1BC, 0x18860000,
    0xD09AC153, 0xAF6813D3, 0xA12C43EE, 0xA1CAD9A7, 0xA9CBFFEB, 0x1FD9BCED, 0xFD00092B, 0xC0282398, 0x0CAA9713, 0xF2FDA237, 0xE4D23FD8, 0x026DAB22, 0x112BE00D, 0x37A041EF, 0x400027F6, 0x00294A30, 0x0276F600, 0x309A481C, 0xA58BBF8B, 0xD597FB4F, 0x3BE7C40B, 0x7DFBB111, 0x7C6FEE85, 0x5DFBCDDD, 0x0B470000,
    0x0315BDEA, 0xEDDB914B, 0x8CFF6624, 0xD0DEDD80, 0xF7FCB195, 0xE2FAA19B, 0x8700133C, 0x4E2ABEE4, 0x48DDCE44, 0x3BC7BD90, 0x6EDEDB46, 0x878CA4B4, 0xF5AC941F, 0x00C4A87F, 0x0F414595, 0xE73C457A, 0x61E76A28, 0x2C2F69F4, 0xC273FD58, 0x0EE27B80, 0x960FC002, 0xB1460958, 0x0049CF0A, 0x7028F84C, 0xDF270000,
    0xD18828E0, 0xC7624F3A, 0xAE3F47B1, 0x87785F3A, 0xA2F293EE, 0x0C2F2F80, 0x4450B4F0, 0x5E300E74, 0x87A3CC19, 0xD81B112C, 0x606DEED6, 0xEBEE9D78, 0x30007BA2, 0xC7839C38, 0xF8348793, 0xB1AEC40F, 0x024C6C49, 0x9E9069B0, 0xF8531131, 0x20544D80, 0x2B9BF00D, 0xBB7FE9C3, 0xFE7EAEF3, 0x6FBA9403, 0xB9C60000,
    0xE2225B58, 0x7947E24C, 0xBFCBC864, 0x93378F38, 0x6007E900, 0xA7754B20, 0x2A862400, 0x78C44007, 0x85802961, 0x321E2C54, 0x35E10806, 0xEFD60158, 0x6BF13D0E, 0xE933CDCF, 0xD827FEF3, 0x9E37C94F, 0x0FE3D2B4, 0x4FB27B47, 0xF3985457, 0xDBFE680B, 0x382A005A, 0x00808255, 0x1E84009E, 0xF77CA2FD, 0xE5C70000,
    0xD4E74163, 0xA33E4A5B, 0xEA9FD336, 0x8E8FD8D0, 0xC0D1853C, 0x8B1E5221, 0x782A8067, 0xE7080C74, 0x5B217CE3, 0xC171DE13, 0x418CC3BC, 0x52C808F9, 0x3F215C4A, 0xEE5FBE7F, 0xD57C77F3, 0xEE5FEF11, 0xAAD5F4BC, 0xB3DE344C, 0x170B57A0, 0x03E2F780, 0x62008004, 0x2C718262, 0x805DE1C0, 0x4C210A80, 0x64930000,
    0xAD826735, 0xDFBE6B6A, 0x90769462, 0x850A4F21, 0x853C8A46, 0xA356D8AB, 0xE9D03173, 0xEE864BE2, 0xE85D4800, 0x4F50EAD1, 0x5E2644CF, 0x76E87869, 0x7018850A, 0xC0DC89BD, 0xA6800F89, 0xBC18E8DB, 0x85C02BFF, 0xBA113FEE, 0xC1F3BFB8, 0xE92FFD00, 0x4C8083F7, 0x7065C1F4, 0x162D0B89, 0x01806955, 0x8D690000,
    0xC98EA782, 0x0A3632B1, 0xE212A950, 0x780259AD, 0x9691A4B5, 0xCFE52E0A, 0x4EC1E2F5, 0xB91C14E0, 0x52E37CE0, 0x5C76EF30, 0x979A5738, 0x43A99F51, 0x1EF34D56, 0xDB0F851D, 0xDD19AFCE, 0x85C1B87A, 0xECEB4FE1, 0xF7A1FAF9, 0xC61B80BB, 0x2890EED0, 0xBAFBAE26, 0xB8A40076, 0x8FD0B350, 0x0803E5EF, 0x09FA0000,
    0x7580871E, 0xC02D9A90, 0x23007500, 0x2C060A99, 0x09D1DD00, 0x3D714BF7, 0xEEADAC26, 0xA85094D4, 0x05DC9713, 0x29F2FA0E, 0x3CD1E2B6, 0xE4652826, 0x809B01E8, 0x1FE81C03, 0x5FEE0B88, 0xFFFD8CDF, 0xFE49A35F, 0x8FE4FED0, 0xFAD5C000, 0x3F980127, 0xFF2000BC, 0x58005FA5, 0x07DFD9DE, 0x6FACB98B, 0x50050000,
    0x34B5BA2C, 0xEFD7BE91, 0xD5EF0837, 0xFEF9F5DE, 0x031778E7, 0x00F5FCC6, 0x53032103, 0x372B7C98, 0xA896D70C, 0xC41D35CE, 0x40FF50C2, 0xAFBFB51F, 0x7491F9E3, 0x6C38FC3E, 0xA07E7298, 0xA3C75D36, 0xE26E6F22, 0xCBB5B94F, 0xF05D1179, 0x87A587D1, 0xF24A2F11, 0x5CF0F4B2, 0xDFEB6EF3, 0x9BFF223F, 0xBF4E0000,
    0xC6760019, 0xBB49E7D8, 0xF799C9DC, 0x56302803, 0x6339407E, 0xFA501786, 0x3481E1F7, 0x921D43F2, 0xA3C01EA1, 0x3ECC1611, 0xE97F140E, 0xAB00166F, 0xB070AB88, 0xC1ACF891, 0xD7B44A80, 0x326B524B, 0x756B2691, 0x897FC45D, 0xF92AE544, 0x18833677, 0xD9C9DD2D, 0xA12528C5, 0x21002099, 0x0E412135, 0x78D90000,
    0xA56237F2, 0xA354AA09, 0x958AA9E2, 0xEF13DFFE, 0x9C26FA5D, 0xDC839A83, 0xD532B21D, 0x5ACC8B30, 0x3A21FD51, 0x7404B201, 0x000303D0, 0x12BF1006, 0x5340C210, 0x3B5C7803, 0x15632DF5, 0x00E8C045, 0x813AE1B0, 0x07DE5CDE, 0xBD85D9FF, 0xFEB7EB7F, 0xDA05EFFF, 0x1AFBC154, 0xB8107BA8, 0x4085DEAA, 0x946B0000,
    0xB3C7B59F, 0xF7C76B15, 0x6F6EBFEE, 0xCFF8F2C7, 0x37B61188, 0x6F064791, 0x950C0A16, 0xE7A91674, 0xA411441A, 0xD032DD23, 0x724631EF, 0x598B19FC, 0x136EDFC1, 0x7CF5F127, 0x0BF9306B, 0x5F86DE15, 0x701AE8F4, 0x716DBB43, 0x3E281C7D, 0xFA9139CD, 0xB3C64780, 0xF3512160, 0x3F802459, 0x40072BFD, 0xD1EF0000,
    0xCC617113, 0xCEEBC86C, 0xA1ED4804, 0xFF0766D4, 0xE97D78DB, 0xB274F0B3, 0xF5BB2FE8, 0xFC38FE93, 0x10075BF2, 0x60ECBA0A, 0x063120B0, 0x2E14B804, 0x032D4084, 0x5CF82321, 0x76031861, 0x59034794, 0xC8607CFF, 0x3FDE30AA, 0x6EF9D70F, 0x67B780F5, 0x6B2057DC, 0x3C84042B, 0xBCA65865, 0x7F06215B, 0xEB870000,
    0xA484DDFD, 0x2B98ED3E, 0x4F3E1313, 0xE17960BA, 0x479B0AC3, 0xBF79382F, 0xD982A22F, 0xD81C5E3E, 0x15037EC8, 0x5E6DE440, 0xE4397AA6, 0x508769E2, 0x300B86C0, 0x1B476700, 0x759F784B, 0x0F8981F4, 0x5E181585, 0x4B803927, 0xB3299F6D, 0x42B05CF8, 0xAAF6BD1F, 0x6D8F8779, 0x7EB8BA28, 0x340FAB21, 0xA19C0000,
    0x7871CD20, 0x6FD3EF53, 0x9BB7FC84, 0xF1F9503F, 0x119303F1, 0xFEB01C1A, 0xF913C236, 0xE078647E, 0x17850364, 0xFC1C4216, 0x8B1D3A2C, 0x9DED62F3, 0x0A9D16A4, 0x8A3778A8, 0x1B9B64FC, 0xBCF16AFF, 0xC7D5EAF1, 0x21C47FC7, 0xEADCEF5F, 0xBE6D3BA9, 0xFF040B35, 0x43E803A7, 0xE3A09D84, 0x9C888170, 0x6DE40000,
    0x71A652F7, 0xBECF2657, 0xF1BECE3F, 0x34D1B3A6, 0x407440FD, 0x57D8BBEC, 0x1D07EA03, 0x352CF475, 0xDEF117DE, 0xE206ED70, 0x056F4E00, 0x7D91411E, 0x5C166FFF, 0x6D2FDBF6, 0xDBA688F0, 0xA0769E7D, 0x17605E33, 0x78C7A9F8, 0x1AE01C06, 0x4B29184A, 0x5DFD23BA, 0x00B8ED75, 0x9AD4CF2B, 0xDEFFFA79, 0xAFEF0000,
    0x0ECDF635, 0x7FA4110C, 0x81CBDAF1, 0x043B7680, 0x2EE7DB97, 0x1F02FEBF, 0x73F482EF, 0xACCF8E23, 0x45C5C397, 0xA27A3D7F, 0x07017300, 0xF8F3BB16, 0x2F4824F3, 0x7AC4FF7B, 0x490DA7B2, 0xD99811A5, 0xB11931E7, 0x327B70C3, 0x80BE8DF0, 0x39E09C62, 0xE00DAF6E, 0x04BEB5FA, 0x804F8EAD, 0xC6E5EB1F, 0x2F250000,
    0x8066B419, 0x0DC3FA39, 0xDC7BDB7D, 0x4CFB84B1, 0x3F6DAD51, 0xBEBA2307, 0xB776E0AF, 0xC8E0F900, 0xFC478451, 0x040B3FC0, 0x505EC87E, 0x0EDD2FC8, 0x1B007481, 0x82427E30, 0x71EFF4C2, 0x034CE781, 0x243E2365, 0x87E117E8, 0x3D45DE56, 0xE5A0D7E8, 0x5D4DFC49, 0xD0FBD198, 0x2FF0F998, 0xAE7DA3B9, 0xF9E80000,
    0xA4ED3F49, 0xB22C286C, 0xB1BB1B73, 0x80403FFC, 0x01417DF0, 0x24C39F60, 0xA5C6A62F, 0xFC87C062, 0x82BC0B58, 0x8DE27743, 0x7E10D066, 0x6DCF1CEF, 0x0EF34AE2, 0x7B80FC7F, 0x30B3C5FA, 0x827577DD, 0x92073514, 0x043EFE02, 0x87B2D506, 0x21903529, 0x2D08A41B, 0xFD30EAFF, 0x79EA8E8D, 0x36B8134F, 0xF8D60000,
    0x4BBBB4C1, 0x83258918, 0x41BEF342, 0x0126A680, 0x0C100877, 0xBCDD029A, 0x5AC56B80, 0x3FF1163E, 0x4A968FAA, 0xCE389F7E, 0xCF22B4F8, 0x7E23E39F, 0x83F68340, 0x17F03713, 0x58048323, 0x41DB860A, 0x2DDF6203, 0x6E3FC1CE, 0xD3140FAC, 0x5A35D1A0, 0xF4D14F57, 0x45CAFAF4, 0xE1228632, 0x807C9580, 0xA7770000,
    0x97738920, 0xAFCB1DB5, 0xFFF4A74E, 0xD8CF3CE4, 0xD83901D0, 0xF5BEFFF2, 0x2F6EBF1B, 0xC885B606, 0x10436F7A, 0x10B7BF91, 0x37E240C3, 0xF96FA079, 0x07601F22, 0x0CBBE011, 0x7F700233, 0x491B027B, 0x07043BB4, 0x30E9CEA8, 0x51C30B4A, 0xC05049C0, 0xABD82AB9, 0xBDB4AAE1, 0x7EF9FD2B, 0x7FEB9CDC, 0xA7720000,
    0x77B89D3C, 0x1F7F73E7, 0xFFFBDCB1, 0x29D1061C, 0xF80AC24F, 0xFFC6245B, 0x785AC7B8, 0x3F425BFD, 0xEFF28CCB, 0xFB65AEE2, 0x60161346, 0x012638BA, 0x2B0C0EC2, 0x6803E3E9, 0x007F14F8, 0xCF400E21, 0x5388ECBF, 0xC84AB2F6, 0xEB2FD82F, 0xFD0F2D3A, 0xF2B4FB9E, 0xA8542084, 0x05045DCA, 0xA053ADE9, 0xFC900000,
    0xCB5FBE9A, 0x4663706B, 0xF17FD0BE, 0x07CF8980, 0xCD19940F, 0xAF2F41E9, 0xF0681BF6, 0x23A3FDDF, 0x5A280FAB, 0xC180AF79, 0x00043F78, 0x449974A1, 0x498DB5FA, 0xDBF9DD04, 0x87ADB1EB, 0xBCAE2EBB, 0x7C804163, 0xCB56235C, 0xFEEE96D6, 0xB32877BA, 0x073876EF, 0x784058CD, 0x0041B4E1, 0xA941C1E5, 0x15EB0000,
    0x0DBC0114, 0x6D6D81B3, 0xD9406F47, 0x21F07035, 0xC9E80798, 0xED881F8D, 0xEA0352DF, 0x605D2FF3, 0x01FE1EAC, 0x3F8E62C1, 0xDD9EEC0F, 0x560B40B4, 0x87D04380, 0x0BA07861, 0x87F004EE, 0x77F9FF87, 0xBF5E701E, 0xE156D728, 0xFA1EFDE4, 0xD94F6013, 0xC185CC0C, 0xCEE69A70, 0x63007356, 0x00123FAD, 0x671D0000,
    0x8ACF3564, 0x7EE5115A, 0x49025D0E, 0x19CF295A, 0x3584791F, 0xFD769FED, 0xF10FFB02, 0x52BC04A4, 0xCFC57CCA, 0x0BABC598, 0x7FFF6287, 0xC011297E, 0x80F3A0C0, 0x37F80D80, 0x8AA1F800, 0xA4304256, 0xD1713D5F, 0x845FF548, 0xB1402889, 0x61C0091B, 0x77842039, 0x05055B9E, 0x87FFDAC3, 0xBFDF3A8A, 0x13260000,
    0xD070C88D, 0xFC667E66, 0x2F737E77, 0x9C713536, 0x68734C29, 0x49590976, 0x6502FE83, 0x100E82BD, 0x37A5AA22, 0x12058CAC, 0xF75F7F23, 0x7E39DA38, 0x4DB95A54, 0x4B546CC1, 0x8FF60820, 0xBC2C0E81, 0x6561DC13, 0xE51F8AAC, 0x43C862D0, 0x5F5023A3, 0x8950002C, 0x55E1E926, 0x7BFAD115, 0xBFFF7ABF, 0x33600000,
    0x6FB6B0B8, 0x1F5BC1AB, 0xD0371C5A, 0x17AB0D05, 0x1B83E2CC, 0x022DD8E3, 0xD0489ED3, 0x58A5E057, 0x9C731F60, 0x87BA601C, 0xEE43E23E, 0xD8CFFDC0, 0x8040CA54, 0x16379A61, 0x0156F81D, 0x03EF43DE, 0x0FC12B00, 0x76039007, 0x40C7F828, 0x2F5DF991, 0x33E7E012, 0x758C4192, 0xDF4C93DD, 0x89D85408, 0x1C6F0000,
    0x658221F9, 0xD4407879, 0x41014ED4, 0x8107058B, 0x2BFC28F0, 0x270A8700, 0x6ED070C4, 0xD2975CEE, 0x68F09D72, 0x8F7DD614, 0xC72B02EE, 0x0A420D84, 0x8730EA03, 0xE8BA8CE2, 0x95BFFEFB, 0xA43EFF5F, 0x0BF7F0FB, 0x7FD59F8B, 0xFAE38E85, 0x441F0923, 0x139FA2F3, 0x67F21A33, 0x30203BD4, 0x080232B0, 0x4C280000,
    0xF41407EC, 0xDBA9FC15, 0x7732E7D6, 0x01F64600, 0x35F2964E, 0xD8DED016, 0xFED333FC, 0xFFA26AE5, 0xFB4A95CF, 0xFF3772FF, 0xE3C95FF0, 0x90C30A00, 0x07E00202, 0x7E00D2DF, 0xF017C05E, 0x83EFAD10, 0x1F35EC07, 0xA4860ECB, 0xA59BFE77, 0x3F038B59, 0xACDE7BBD, 0x53A0F8CD, 0x24B52195, 0x0FDF6856, 0x66390000,
    0xE1B6C2BC, 0x66CAEE59, 0xE7EE2230, 0xBD30B038, 0xE0052031, 0x0D5B8104, 0x128C0449, 0x0E7C030D, 0xF5C600A3, 0xEA00161D, 0x9C73EAD9, 0x9A6FB95F, 0xCF3731EF, 0xF9A1DFFC, 0xBA7FFF4A, 0x931F5F5D, 0x83C6FEA1, 0x0513EA82, 0x10AF7050, 0x02C88000, 0x65DFB801, 0x491933A4, 0x03FF2BF0, 0xCB6208B4, 0xB7EE0000,
    0x2156DFC6, 0x9FCFEB1A, 0x7BE2261F, 0xF2915285, 0x0206E622, 0x47BDD080, 0x34A17202, 0x98FF9412, 0xC3E191DD, 0xFA3650DF, 0x8FF0F4E1, 0xFA3EA01F, 0x1C3003EF, 0xEA3CD33B, 0x08FA1AC1, 0x9DD437E9, 0x3C63EE85, 0xA1E5BC0D, 0x12FF9E7A, 0x3BB200A4, 0x38F31460, 0x770112F6, 0xD7B4A16F, 0xFEFF36EB, 0x1F680000,
    0x622B2666, 0xCC9D28AB, 0x256C1590, 0xE66FE273, 0x4AFB7AF0, 0x66D2A60B, 0x0F31B59E, 0x97CE2647, 0x2CE0D8C9, 0xDC70B089, 0xE06374A6, 0x6E903555, 0xF4272E18, 0x00E57862, 0x8A07C124, 0x4776E3A4, 0xC16C9D0D, 0x229081F7, 0xCD396823, 0xA7E01C77, 0x1256DFA6, 0x3381603F, 0x0F39ED76, 0x00018BF7, 0x7C3F0000,
    0x8C63AD8D, 0xF87BE713, 0x7FBE71EF, 0xF7A5072F, 0xF83D86FA, 0x343EBF09, 0x84BE1B8F, 0x7CB0C6BF, 0x00075FF0, 0x00BBCF00, 0x19FD325F, 0x62FFB7C1, 0x4B3FCB25, 0x2FFBC84F, 0xB7947395, 0xAD2CA735, 0x6A50FA22, 0x7C06890F, 0x2AA537F2, 0xFF209B62, 0xF74B8AFB, 0xBBF93E71, 0xFE66FDE7, 0xFDFDEBBB, 0xFF1C0000,
    0xCF3DBD63, 0x9DDF919C, 0xFEF4F83B, 0x197D8350, 0xF75792F5, 0xAE781B79, 0x4D0E3FCB, 0xE793C06D, 0x354026A6, 0x5C1332EE, 0x9B336D44, 0x6DDF9A47, 0xEEC8E785, 0xCC1E7E31, 0x307E1799, 0x13CD5AEC, 0x11ED974C, 0x47BD7C50, 0x3CC4B841, 0x8D0F4748, 0xBFEF6A5D, 0xF15ECB01, 0x5FC5F84F, 0xFFFF2126, 0x2FC60000,
    0x0C230F56, 0x92DE55F2, 0x67D4B92F, 0xBA213A0B, 0xE839D05E, 0xC1C111F8, 0x1C4C77E0, 0x5201F655, 0x381BB0FC, 0xB1FD1F05, 0x19A57220, 0xBB18473F, 0x669712A0, 0x3C983E0E, 0x95E38619, 0xAF68B07C, 0x74224988, 0x403B73BA, 0x7BDDCB7F, 0xED9ECEAC, 0xDDB04A23, 0xB6FCDF3F, 0x74C947C2, 0xBFEF141E, 0x782D0000,
    0x240F0BE1, 0x39AD181D, 0xFFEF762F, 0x6433F7FB, 0x2C922F0A, 0x1CE751AC, 0xCF4B5DD8, 0x4C1E5917, 0x3BDB7CC5, 0x7F6B8BD9, 0x07330860, 0x56300805, 0x08A280B4, 0x2CC3D16D, 0x005E047F, 0x73E01491, 0x0F2FF8E7, 0xCE1FC71F, 0xE8E973BF, 0xDFB7FD7F, 0xEDDF7E36, 0x641FEFCC, 0x1BF12499, 0x1F25B1F8, 0xD37B0000,
    0x0148B27F, 0x028B5C8A, 0x9ECDDDDD, 0x900681FF, 0xB147F287, 0xD1073220, 0x1930221C, 0x51092BF6, 0x750BFA19, 0xE47FFE08, 0x20BE09A0, 0x20714141, 0x03A45700, 0x085FFC05, 0x398F0AFC, 0xE2FD12BC, 0x43FFF058, 0x1EB67250, 0x7FF36A9F, 0xED7C263F, 0xAB1DFAE0, 0x105962BC, 0x27ED0450, 0x203043E5, 0xD8040000,
    0x8E0E90D9, 0xBF9BED9F, 0xC56B2C74, 0x03E63880, 0x47F1F813, 0xBBC902AD, 0xE8C06F85, 0x7E078070, 0xE4EA1DD8, 0x0E29EAC4, 0x7AEF2897, 0x3A153CB6, 0x4632C6A4, 0x159E4571, 0xC6E2920C, 0x7FE0E400, 0x644066B7, 0xC20FA0B3, 0x60CC1480, 0x90599F00, 0xC654CCBC, 0xE68A0127, 0xA9FF9FED, 0x7BEF0E44, 0x9D950000,
    0x02D12D17, 0x8B59CD27, 0x73CA8411, 0xB515CB0F, 0x6D03BFD5, 0x6C947E6C, 0x53D4FEE2, 0x1E539D86, 0xFD0DC86D, 0x62F65178, 0x83E856C0, 0x3E1F0E45, 0xA050F978, 0x729405E0, 0xD0C5E16C, 0xE88F438B, 0x25E8F85D, 0xCC356C60, 0x51CAF1A5, 0x01A852D0, 0xB06C4D00, 0xFF60CE61, 0x8E0FEE7D, 0x37FE06FF, 0x3BFE0000,
    0x2DBCC9ED, 0xF316188B, 0xF30F7CA3, 0xCA1C6780, 0x0A6E128A, 0x0F98FF41, 0x0FBFE80A, 0x4CFF503D, 0xFFFF0B5D, 0x13987FCC, 0x75C0BC03, 0xA0668038, 0x9F901937, 0xF5194549, 0xA1C6777C, 0x15E38F10, 0xB4DAFAB0, 0xB3EFAEE8, 0x80177AFA, 0xA55241F8, 0xCBB00BA3, 0xBF624ADC, 0x90CACD7A, 0x46FEAA13, 0x77320000,
    0x018E9CBA, 0xD2310D64, 0x0210E140, 0x1C0591A0, 0x6F51E8C1, 0x3A2B7F6C, 0x92296EB7, 0x72F1E1F0, 0x35AF0EAC, 0x4807FCB7, 0x022CFFC0, 0x2D1DDA5C, 0x773E7D5D, 0x3987EDCA, 0x9BEDFA6C, 0x203AFE46, 0x834E7C00, 0xF31FE19C, 0x25BC42C8, 0x3BCACE42, 0x8482B061, 0x80290300, 0xA67F693E, 0x56FF5591, 0xEE790000,
    0x7798074C, 0xF5432D2D, 0x00D66C44, 0x00C44270, 0x4EDC42CB, 0x46FC341B, 0xF8C68DB7, 0xD458B9FC, 0x8F8F5F3A, 0x7024C28D, 0xC426B3DC, 0x781F7BD4, 0xE3F8ACB9, 0x7B910F10, 0xBCAC4808, 0x200E0208, 0xE6F0ACA1, 0xEB8C081C, 0xE0C10187, 0x00CC3CDC, 0xA48FCF12, 0x809C7842, 0x088BFFF1, 0x1FDC1C80, 0xEBDF0000,
    0x0A21A986, 0x4F9D2DAF, 0xFB9AF954, 0xADC0E81F, 0xDC39013C, 0xBB310687, 0x21CBF858, 0xD48F17A7, 0xBEAC1A22, 0xB5D707F7, 0x4CB34758, 0xA31EB42F, 0x993394F2, 0x7AE13055, 0x4D568060, 0xC16A26C2, 0x4E48D5A5, 0xFDB16C1E, 0x3C2B25FB, 0xF55F2BFB, 0xC153FC37, 0xFF8A8CD3, 0x20224C39, 0x7011C7DD, 0x6FBA0000,
    0x71869FDC, 0x3FFAB8E7, 0xFFEDF05F, 0xF73EBAF9, 0x3CC5FF7D, 0xE48FBD3B, 0xAD5EEBFF, 0x36424353, 0x0BA25C72, 0x840CF408, 0x075220A0, 0x0AF30000, 0x14127609, 0xA5DF4058, 0xF59C1FF1, 0x00A1F370, 0x00692B90, 0x47EE1213, 0xD88BFDFC, 0xD7F4B75F, 0x8BEF7FE0, 0x3FBFD7B1, 0xEFC514A7, 0xDCE9303D, 0xBE180000,
    0x6FE60D48, 0xD32C540C, 0x12F95306, 0x80794BFE, 0x37185F1E, 0xBFA7E107, 0x93FE195B, 0x07F13E52, 0xBC11C043, 0xF43B835E, 0x233E7595, 0xC21C2A62, 0xC3EC0588, 0x2B11A68D, 0x97908172, 0xE37F69D0, 0x6C68FD88, 0xD501E96F, 0x64E18DF3, 0x3149A12A, 0xEC0FBD76, 0x4E13CC6B, 0xD10DC994, 0x080854E1, 0xCAE40000,
    0xB1573D97, 0xF21FF1CA, 0x70287BE3, 0xA0563225, 0x0A1C19DA, 0x00342FF3, 0x4AA50601, 0x1A6F133E, 0xA2CDC8F7, 0x97AE3F35, 0x000D1D5D, 0x7F8E378D, 0x7E0E0221, 0x0CFD6CB5, 0x397B0104, 0x6F8110F5, 0xE02A190E, 0x10F33BE3, 0x17356E40, 0xB0E3F000, 0xCB65C112, 0x2CFD86B9, 0xB3C9465C, 0x06A7E25A, 0x7C940000,
    0xC3EA9609, 0xF66459C9, 0xAF12B66B, 0xE2024456, 0xACF3F20D, 0xB70E559B, 0x6CF29F24, 0x9C3EC9E1, 0xF5C69B6F, 0x1E77F9F5, 0xAE7B26F4, 0xF4D8E7C3, 0x8FA1FE6D, 0x96617798, 0x711E198B, 0xB03E62F5, 0xA82423D1, 0xB64FDEC1, 0xA51B6D51, 0x12516E12, 0x46F222C7, 0xB2341A19, 0x7708387F, 0x09808EF4, 0x578D0000,
    0xF403639D, 0xB22BDDBF, 0x7FF69436, 0xE3BC6F35, 0xA01EBB94, 0xF091FC0D, 0xF47F23F8, 0xDB86523D, 0x70BC0690, 0x3C3D5937, 0x43F84047, 0xD8D2B82D, 0x9BED5F87, 0xFA91B0D7, 0x786866FB, 0x0E067673, 0x03B331DE, 0x5F1B5EFA, 0x7973DE2F, 0xEB3FB67D, 0xCCA434AF, 0x205801E6, 0x1FD18672, 0xE6574AFD, 0xBF700000,
    0x8F4C8100, 0x30EC2850, 0x27D8C471, 0x39137235, 0x590649CC, 0x67CFA1C4, 0x1E948DF2, 0xF93D4637, 0xF168C33B, 0xA3B086FC, 0x18741041, 0x8D260078, 0xEA2807EB, 0xF381E6E7, 0xC23E933E, 0x97F3C699, 0xF9219189, 0xB01AB3B6, 0x80DAF43E, 0x544F8FFA, 0x0177B903, 0xEF8884EF, 0xD200402D, 0x3E005A6F, 0x9E800000,
    0x83EA363D, 0x42021B0C, 0x18A914E6, 0xEBC601ED, 0x5FD6D072, 0x65442119, 0xB000727F, 0xB2159E72, 0x00040164, 0x60006E6A, 0x000140EC, 0x0C1C19A9, 0xCB0F6DE6, 0xA93FFEAD, 0x9EFBF87F, 0x7E3FE75E, 0x5BDFEDF0, 0x13FA5C81, 0x01D680CE, 0xAA98C80B, 0x89912C0B, 0x4AD49258, 0x37E57C57, 0x465569AD, 0xDD930000,
    0x08A8225D, 0x253A0DE0, 0x8C2F4551, 0x680E4805, 0x06880864, 0x3C442F8F, 0x5D41E1A5, 0x9F8E36F4, 0x09E67EED, 0x0E7FAB42, 0xEC66605E, 0xE3E934DC, 0x3D743845, 0x06078AA2, 0x841A7E2A, 0x43EFA2AD, 0xBBFE2EEE, 0x8700F899, 0xE838C966, 0x29F09C20, 0xCD17E353, 0x772BD156, 0x1211F734, 0x4083A332, 0xD6CD0000,
    0xFF0EE11D, 0x7BCA91DF, 0x7B23AA62, 0x4A2BC0D3, 0xF2B49436, 0xA4CE0F71, 0xE6FED04E, 0x77EDDD3C, 0xDB879AEF, 0x18A481BB, 0x46EC96D4, 0x2A18FA43, 0xD8744288, 0x4761801E, 0x0D0AC761, 0xD1A417A0, 0x3881580B, 0xFB2E897B, 0xE75207B1, 0xB7D01C24, 0x8DCD7230, 0x002FB6C7, 0x345F6F40, 0xDE14B269, 0xAF100000,
    0x2D27B4A9, 0x07738AD5, 0xE57E9572, 0xA03A36D3, 0x05B9B3A0, 0x37D01785, 0xADFFF806, 0xCAFF9075, 0xFFFF0686, 0x83E05012, 0x7785B30E, 0xE432B8FE, 0x98837D40, 0x1784ECA2, 0x5C3B208B, 0x13F4D239, 0x00204FCC, 0x2B2773B0, 0x47B83C52, 0xCEB64249, 0xCD70648E, 0xA5816F12, 0x58559FBD, 0x2EF5AE4F, 0xD1F00000,
    0x42793E3C, 0x94885A1C, 0xF7FC1CFF, 0xB3C966B8, 0x086BA6F5, 0x261F7A99, 0x1BF7F861, 0xDF77B937, 0xFADCFB9B, 0x4C4AFE48, 0x1A054801, 0x6EE0007B, 0x5DA01E0F, 0xF415F968, 0xF77E042A, 0xCFEC3A9B, 0x7C325BBB, 0x7786D519, 0x14CF887D, 0xE4BFDF16, 0x3B337829, 0x3F41E0A0, 0xFF980889, 0x74521577, 0xFDE20000,
    0xE06B631F, 0xBA1CD7D4, 0x4118DF72, 0x81469000, 0x2E875F24, 0x327C902E, 0x7A06C075, 0x36576872, 0xF0DDA674, 0xFC49F726, 0x82EDF3F5, 0x51E3F75A, 0xF37FEF7F, 0xFEFFF77B, 0x79BF948E, 0xC000976C, 0x00504750, 0x02972404, 0x60FEE0A1, 0x4CBD380B, 0x19BFE2C4, 0x0E6E2F4F, 0x8103F2C0, 0x52B172CA, 0x51F80000,
    0xD3D1D750, 0xBEB51A16, 0x40A8E4FF, 0x40FBCFEC, 0x00B2DCE0, 0xCFA97780, 0x35876800, 0xA0AFE025, 0xD76B025E, 0x3B413F54, 0x727E5D17, 0xAD3C8020, 0xE0740F70, 0x2F3A7648, 0xE0E44B9F, 0x2135336B, 0x55B616D1, 0xEB1D0038, 0x7C0A8266, 0x0B769A02, 0xDF60DF09, 0x3C07E86E, 0x183F4982, 0xB3F3808D, 0x2E650000,
    0x9B14E92B, 0xEE77F9FD, 0x7C7D633E, 0xF06F40E3, 0x085233C7, 0x1CDDFFF2, 0x2FBEF9A8, 0xACFFBEE7, 0x8FBD8140, 0x0041E420, 0x0D188300, 0x6C0C0031, 0x89F8944A, 0x3607D883, 0xA4F8D7F5, 0x2804BED8, 0x3DD03C02, 0xBC629E5F, 0x0443E1F9, 0x39592DC5, 0x203907DD, 0x8A6B3CAA, 0xBE75CF3A, 0xA7A28B8B, 0x5FB90000,
    0x05B83F53, 0x4979AEDD, 0x15396CF7, 0xE087A7EA, 0x62096BE6, 0x9DBCF65C, 0x77E16B47, 0xEA8A45DF, 0x980EFD72, 0x0577E680, 0x83AEA57C, 0x0037EF42, 0x013BC233, 0x27F3014B, 0x300C5AB5, 0x00021785, 0x00CE5379, 0x57AC16BB, 0x9AFFDFF0, 0x7FBDFFA3, 0x6F36A77B, 0x1F9FA4F6, 0xF622B257, 0xBFDA155B, 0x9DE60000,
    0x83F19DF8, 0xE6600664, 0x5FDBF69B, 0xF43B67F7, 0xE306007A, 0xACC02394, 0x46FD96C7, 0x9BC1DC34, 0x7C1F835C, 0x0CF00143, 0x1F0BC023, 0xF1B20C7A, 0x1244B981, 0x390DF8A7, 0x11D401D3, 0x5860F0EF, 0x1ABBFD28, 0x6EFEB886, 0x64EB1994, 0x1F37AA7A, 0x478B574E, 0x348B5CEA, 0x847E0ABB, 0x4018CE3F, 0xFCFB0000,
    0x25350B54, 0xFF7F4A7E, 0x61FF2D7C, 0xFE639F5F, 0xE1F78BEF, 0xD84BC649, 0x6CEFAAAE, 0x7AC79FD4, 0x3D251B11, 0x60A04C1F, 0x8F8200F6, 0x04600BDE, 0x43D23C63, 0x0C013957, 0x040A3D7B, 0xE042359E, 0xDD18FDFA, 0x708B8B81, 0xA86C5004, 0xB6FA7CE9, 0x897FBFF5, 0x79CFFC39, 0xE0F66C0C, 0x6C8B5E6C, 0x1B150000,
    0x613A4F91, 0xDD2A11FE, 0x400D26F0, 0x32DBA9A3, 0x0FBA241F, 0x9D01CCF5, 0xD4CC3DA8, 0xB7826146, 0x58591997, 0x21E18F07, 0x200B36B8, 0x0AD53B5E, 0xC0ACCF68, 0x9E9FE530, 0x0621BD42, 0xFE4790AF, 0xF39C1B49, 0x97707B51, 0x2C8677C3, 0x53F3E5B0, 0x753B7F42, 0xE6A9EFD9, 0x28006FC0, 0xB481C5E8, 0xE0130000,
    0x478077F5, 0x31CC2A0B, 0x1FC0F055, 0xB7AA3BC7, 0x722301FB, 0xF49591FE, 0x25B20FED, 0xB2F17F8E, 0xD003E0DC, 0x24DF1180, 0x53E616D8, 0x3F03FF43, 0xF356E5CA, 0x3B1C7B22, 0x0BC05839, 0xECF8477E, 0xC6AA752C, 0x6E157E42, 0x1A0D4F0D, 0xA8753A64, 0xBBBB9821, 0xB7E80760, 0xD7E968A9, 0xF3F6F99D, 0xDC790000,
    0xC760A69B, 0x41924034, 0x57395B40, 0x3DAF18A3, 0xDD19FC2F, 0x8B4E607C, 0x1B740F40, 0x97B0F833, 0xFD9F1337, 0xC1F14AC7, 0x2C1AF110, 0xE3E68A18, 0xA6DDB3D1, 0x64040070, 0x1E8DFAF7, 0x57A7FECD, 0x8F3F0A32, 0x0ED2F89B, 0x509794CC, 0xD7E76424, 0x4FD1D380, 0x54EF7C26, 0xD84E0754, 0x0357986B, 0x9E490000,
    0x01747354, 0x83012568, 0x0D046B79, 0x0078DE6E, 0x9FCFA4CC, 0x9D364512, 0xAAFCF2A2, 0x6DC0504C, 0xC4CAE79C, 0x205C680E, 0x9B07427C, 0x30E807F4, 0x92000FA4, 0x0EF47D77, 0x2A1B53E3, 0xFA03E57F, 0x007F25E9, 0xD1CAD5DA, 0x9B0E48C3, 0xF80A1932, 0x95C9BD4E, 0xAC72A384, 0x02FC1409, 0x0C1240A4, 0x1C100000,
    0x96033760, 0xD9DFE3D5, 0x676F143D, 0x78BE9326, 0xA3193444, 0x65C6E0EA, 0x1C80771F, 0xB8968955, 0x98C04646, 0xD904CE25, 0x917F3E78, 0xAFD21B82, 0xFDAAF79F, 0xE1F7EFEB, 0x35FBAD61, 0x7C706287, 0x9F3278FF, 0x7B5DC6A9, 0x13A77CB5, 0x7B2BB009, 0xA25AC0A2, 0x91DC881E, 0xC6F0850E, 0x9FE05D92, 0xFC490000,
    0x70BDABB7, 0xA54CDC71, 0xFFDB67FB, 0xD0F8457C, 0xE00462DA, 0x53271290, 0x51C08682, 0x80E3E002, 0xFA5E809B, 0x06A204D1, 0x7021A45E, 0x0E802749, 0x174DBC35, 0x42DF49FD, 0xE2D8C7AD, 0x26F307B0, 0xB9F12585, 0xEBC0104B, 0xB9E71630, 0x5E02CAA2, 0x34973042, 0x4EE9A782, 0xD9690484, 0xEB7D6D86, 0x777D0000,
    0x4DBDB0BA, 0x65CA65B3, 0x174FB741, 0x179DF431, 0x9206E2F7, 0x7B2F03EC, 0x8B40BAFD, 0xEF012C48, 0xD2E75372, 0x54165B05, 0xD18075F8, 0x3234FF34, 0xE223D87B, 0xD99A07FC, 0xC4D16F1B, 0xA81FF5EE, 0xE2F805BA, 0x9A5A7A7A, 0x000D9BAE, 0x4372E9D9, 0x60B4BCC7, 0xBAC2C0F9, 0x0D218C70, 0x8C0B1AE1, 0xEC320000,
    0x9AF6A4EB, 0xA128008E, 0x4602777C, 0x8E0471ED, 0x1DDA7FE6, 0xB16FFDBF, 0xC2F7FBBB, 0x64D6FDEE, 0x0BD7A5F0, 0x0E7917B1, 0x03255290, 0x60733BDA, 0x85803272, 0xF65C527B, 0x81504D02, 0x3DFFFE0B, 0xA4B83DE2, 0xA104490C, 0x91B5E462, 0x8FB63C07, 0x8C93800C, 0xDC640033, 0x9DC01CC3, 0xD7C0BA44, 0x7E940000,
    0xD981EE32, 0x2291A5FD, 0x64114808, 0x3960980B, 0xF2C800DF, 0x5BABC6E4, 0xCEB00366, 0xA0B9C539, 0x9F1C8509, 0xE3DD1897, 0x3AC3311B, 0x22EFE267, 0xF0494575, 0xA6C3D286, 0xD0F8E92D, 0x0A1FACC8, 0x71C0360E, 0x0C016103, 0xC2E5723A, 0x304D4782, 0xA020FE47, 0x4603CB06, 0xC07EE304, 0x4ED30E15, 0x99CD0000,
    0x44CF231F, 0x5F878B20, 0x0D555DCC, 0x60845612, 0x774DC228, 0xD1720A57, 0x0A00EDF4, 0x601C2754, 0x11C43C68, 0x1F06C250, 0x2912C196, 0x8FC34E9C, 0x5511D343, 0x71BE38CF, 0x035B0325, 0x2E7C867E, 0xC736F4F0, 0xBB760C8F, 0xFFDFFF5B, 0xEF1BD6DB, 0xC36A0BEF, 0xE3C053C1, 0x40017C4A, 0xF2AE5276, 0xA8940000,
    0xE86C8A6E, 0x31FFB1CF, 0xEE95DA4F, 0xFBE6AFF1, 0xD81D8177, 0xA0A3409C, 0xF1BD2200, 0xC6FE021A, 0x7FF813AF, 0xFF80A55F, 0x57077501, 0xFFEB011D, 0xF1A4A8FF, 0xC6F0E7EC, 0x106E7FBF, 0xA1C8341D, 0xBB6A5B06, 0xF08EDD3E, 0x820146FD, 0x26035EA0, 0x47E3017E, 0xAE01E022, 0xE8FFE5D9, 0xE3FAAAA7, 0xCF2A0000,
    0x1A7C4A25, 0xE9CFCD40, 0x1CD3D4DB, 0x6F4FBBDD, 0x88C5FAE5, 0x1BCFE6A7, 0xF13F36F5, 0xF417E7FC, 0x83F7857F, 0x77007369, 0xE016FBB0, 0x0066FC23, 0x8F01A1CA, 0xDFE80240, 0xA0400704, 0x21703629, 0x817E6E00, 0x01DFB600, 0x9940F170, 0xFDDB4323, 0x2BF0D00F, 0x7FB720DE, 0xBFC70B30, 0xF57791DE, 0x6CBD0000,
    0x809612AF, 0x82E6BD2F, 0x81193080, 0xE245DCEC, 0x53EB8300, 0x4D8CD003, 0xF0F103D3, 0x39B03F9A, 0xD50BDFB2, 0xB0676D45, 0x070F43B3, 0x03FB6934, 0x0262A358, 0x0DE9FC05, 0x21255216, 0x7E20C463, 0x593B242B, 0xD7C982EF, 0x7B4A0047, 0x96B54A55, 0x62D799DB, 0xF12FF90F, 0x02DF9210, 0x58C9A3C4, 0x60270000,
    0x8110E83F, 0xD8E5504D, 0xCFA21C5F, 0xD5699958, 0x26824E0B, 0x846FC9BD, 0xEE07DADE, 0x57D69247, 0x25C9E67E, 0x3400905C, 0xBE0183F7, 0x180437CF, 0xC68137C1, 0xEC238B7A, 0xB8027F43, 0x6011EABE, 0x141EC2FB, 0x790827FE, 0x0CC6FDC0, 0x2E3CF167, 0x61708EA8, 0x9B27EBCC, 0x60D0B348, 0x0505057E, 0x450D0000,
    0x47C50C04, 0x00311DF0, 0x40063D38, 0x05243010, 0x2E502D86, 0xD3A89CCD, 0xFBDF232E, 0xF6606BFF, 0x8992DFF8, 0x787FD767, 0x869487FC, 0x3426298F, 0xA7B53C5F, 0x77EE0662, 0x57803118, 0x9816A58C, 0x01FC1BA0, 0x8B8FD118, 0x48762301, 0x2CA98B5D, 0xE2168A8F, 0x92F12E48, 0x3F4FF0F2, 0x81932C34, 0xE8710000,
    0xB52E5FFB, 0x7FE3D91B, 0xBFC77EA8, 0x95EE1101, 0x5BF25FBA, 0xFC89FFFF, 0xE900FEF7, 0x9B8D443A, 0xD20202C6, 0x208076B8, 0x070CAC27, 0xF9038926, 0xF115637D, 0xF4100E0B, 0x4289A2FA, 0x6A50C748, 0x25853AFB, 0xF4069B0B, 0x51CFFFF5, 0x5E185BF3, 0x2936B7E9, 0xF3C7CFF6, 0x9DAF396F, 0x6FFE028F, 0x62EA0000,
    0x64EE35B9, 0x6DF28EE7, 0xBAFEB3F0, 0x8C25EE16, 0xC731827D, 0x271D3B0F, 0x2143E60A, 0x780A2DF3, 0x3BCCBE01, 0x1E5B8331, 0x4C1F938E, 0x2D1D19F2, 0x45628D91, 0x54DDE92C, 0xA1258517, 0x367169D5, 0x204D96EE, 0x3EA81941, 0xC765F83D, 0xB44933B8, 0xFF6FA578, 0x23FAB150, 0x350575A0, 0x53487AE6, 0xA1900000,
    0x6C0F592C, 0x8B8A9F73, 0x7E6EAD35, 0x06C6D0A6, 0x6A33EFA4, 0x8629FFFA, 0xF247FFFA, 0x341BEFFE, 0x1826A774, 0x00003308, 0x00059800, 0x011F003D, 0x012267F0, 0x20417983, 0x4BDED05A, 0x239AC79F, 0xE85EA9FE, 0xD5BF177F, 0x39BF8FFE, 0x94BC12CF, 0xC9D58ADE, 0xA14D2281, 0xFDD01D2D, 0xF7999DAD, 0xECF10000,
    0xF0BAD818, 0x746A2000, 0x084B8380, 0x23BBF4F0, 0x4358CFCD, 0x27EF0817, 0xB9B04C3F, 0x464C6370, 0xC68172DC, 0x39C43537, 0x946181D0, 0x09880F30, 0x7E2AE9D2, 0x8B4FFBD3, 0x73D938D4, 0x1B6EC6E1, 0xEEDC2F4C, 0x33EEBD4A, 0x5E8A4DC1, 0x91F5B6D4, 0x62995F54, 0x80748C04, 0x1020AE98, 0x00014A1A, 0x0CB90000,
    0xD123AF3C, 0xBCFF396A, 0xDBECD735, 0xC16919A8, 0xF4D81DD3, 0xE9C44D26, 0x32ED3674, 0x883DFFFC, 0xD0BFFF9C, 0x3DD76DE8, 0x81839FE0, 0x20F57480, 0x23283000, 0x736C2003, 0x0145D436, 0xC85C77CA, 0xCEA9F681, 0xCF02909B, 0x786E73FB, 0xB69B0C68, 0xDEF76FD6, 0x1343B6E1, 0x30DC4610, 0x1394B39E, 0x86180000,
    0x6672830A, 0x2BF6EB8D, 0xBFFE427C, 0x0376EDD3, 0x76E11365, 0xDCF9771F, 0xA25D8F57, 0xB30ABAF5, 0x76DC0449, 0xB508D9E6, 0x65EB0DE0, 0x3F141B82, 0xA918F798, 0x573FE8B8, 0xE07F6787, 0x03F046D0, 0x198789A0, 0x14E87C00, 0xF7DAE820, 0xF574AD45, 0xF07E12BF, 0x62AE8FA1, 0x4D7FFD4F, 0xDFF43498, 0xA9270000,
    0x76EC6612, 0xCDBE3630, 0xABFF5994, 0xD7BA155F, 0x8080E76C, 0x094D3C00, 0x5EBF400F, 0x82AB5FD3, 0xD95FF97B, 0xF1FFC229, 0x1FDEFBC8, 0x0BF7FF28, 0x3DAC6842, 0xC87DE234, 0xC8961642, 0x76824503, 0x857DBDD7, 0x648FB419, 0x66C3CFFF, 0x7C591342, 0x9157DA8A, 0x5DA45DC1, 0xA78A7804, 0xBCB98A18, 0x71D40000,
    0x512D9CE5, 0xDA6C85A6, 0x13E6BE91, 0xE117857C, 0xC97A8BC2, 0x0F3EC730, 0x055F3BAB, 0x5EC7EC76, 0xA0B1EE7A, 0x7C3C0D03, 0x67C27111, 0xE235B3AE, 0xD3DF0DA8, 0x6CA0D0F9, 0xCE770F4B, 0xAC24FD3E, 0xC09BF3B2, 0x82B9CD6A, 0xD5140C66, 0xED1507A2, 0x224E8610, 0xCD7C1025, 0xDDF945D8, 0x97C23C17, 0xF74A0000,
    0x765D8C54, 0x28C6AA72, 0xCB1AB517, 0xB93DDC03, 0xD0D1AFD0, 0xAF19BA23, 0x52F53138, 0x3B97C1F1, 0xD0F2552F, 0xC40F59BF, 0x91B07650, 0x7B9EAB1F, 0xF31A1AFE, 0x47C31862, 0x6ABCA822, 0x90F524E9, 0x34F83001, 0xC681D519, 0x526E6A38, 0x80AD05DB, 0x4C9907E8, 0xCDB4AE8E, 0xFD7A4D05, 0x4F6DDCF1, 0xB5F70000,
    0x42030D06, 0x2DB8E8A2, 0x3F8D60F0, 0xD8369FCC, 0x082D6FC0, 0x0653A2A5, 0x0ED43CA1, 0xEC078615, 0xC7FD2178, 0x65603F1B, 0x3798FF67, 0x751D087B, 0x997255AF, 0xE1874E03, 0xCD39C453, 0x43534E00, 0xB727F835, 0xA5735C0F, 0xA1EB07F1, 0x7C149D0E, 0x4A4820A0, 0xAE5BAB30, 0x179B4811, 0xDFEF2D80, 0xFEEC0000,
    0xE3825121, 0x98DDFEB2, 0x78F7B77F, 0xB818DBF9, 0xC878DAB4, 0x62EF5032, 0x26D04546, 0x304C9324, 0x25649C6B, 0x6D8D805C, 0x6CFBB7E3, 0x3BCC5E03, 0x79903DD3, 0xF8065E5D, 0x948BA1EB, 0xC9DB4C1B, 0x3CB5C6C7, 0x097A1BE8, 0xAA77EB7F, 0x835A17C0, 0x6D34D004, 0xB85E02D2, 0x35493C5B, 0xBC424E70, 0xDD080000,
    0x81A0D000, 0x0804BB52, 0x001031D0, 0x90051803, 0xD2BC81CE, 0x411CCDD7, 0x270403F0, 0x77E84A93, 0xDEBFBBB3, 0xF57EE2F7, 0xB08C47F9, 0x0637FBDE, 0x251BFD39, 0xDDC64BF3, 0x66075A4A, 0xC02E096F, 0xC02528F0, 0x87400486, 0x8EC5015F, 0x044A8964, 0x3C6C36DE, 0x1332BE63, 0x915F44C4, 0x45FF6B76, 0xE3E40000,
    0x60B68B55, 0xA3FD556A, 0x7FEFF62F, 0xF5E7693F, 0xA018F5EA, 0xA5BC2BBB, 0xE7A16291, 0xF601DF69, 0xD81DFE54, 0x009BFE00, 0x20FE401E, 0x40B18BF0, 0x078FFF41, 0xF5FF461F, 0x4ECDF6F1, 0xF12CA3B2, 0xE0F76E96, 0x5AFDD81F, 0x3DEF81A5, 0xB67845FB, 0xE3F780F7, 0xF2E656E4, 0x7547BECC, 0x6EFFE797, 0x6E180000,
    0x53784776, 0x5EFB8250, 0xBA7F32F8, 0x38B955F4, 0x7D97CE3C, 0xB4C9C963, 0xACD4041D, 0x942C2866, 0x96EC6B0C, 0x3E801FBF, 0x8BBDF2F8, 0xAC77AF0B, 0xC423C177, 0xD61209DC, 0xAD033E8F, 0x2200FBFA, 0x241F08CB, 0x11FCBC7D, 0x0781A14B, 0x20F059F2, 0x83FB1714, 0x75AFD205, 0xBAF93E77, 0x554C95D5, 0x4D990000,
    0x0DD28F47, 0x2B619315, 0x5E263A29, 0xD837ABAE, 0xC2439FEB, 0x43EFE2F0, 0xDBBE26AD, 0x7D4B99B1, 0xA1F1E6E3, 0x3C761393, 0xF7C23643, 0xE90DE8FC, 0x11A11384, 0x4B9E852F, 0xB37613BF, 0x5C01F179, 0xE08F0318, 0x08D82F66, 0xAF0C7069, 0x58E0B181, 0xF10E22F3, 0x3B7C864C, 0x8DE6C0F1, 0xF29ECC19, 0x75720000,
    0x15FA0E99, 0xECDDB7E9, 0x08AAA4CF, 0x81F8DEE8, 0x7DA89DFF, 0x7E2F73AC, 0xC7FFFDF7, 0xB37F77FF, 0x20003F28, 0x40683F98, 0x04C73400, 0xA0C51022, 0x130C0530, 0x698A7003, 0x3587C875, 0x235A6CAD, 0x31FEB7FE, 0x4F84F027, 0xF0829221, 0xD03532DC, 0x116D7B7D, 0x7E8D2E61, 0xFF1404C9, 0xB68514DD, 0xFF3A0000,
    0x317E6FCD, 0x6B1A48BC, 0x134D1546, 0xEEC06037, 0xE4ADFF38, 0x20FBE82B, 0x0FBB9CD0, 0x5F2F7371, 0x6A70B790, 0x52EA1908, 0x792BA00B, 0x60750035, 0x02001F65, 0xB17F6005, 0x37EB5169, 0xFC75A66F, 0x058630BE, 0x2D00728D, 0x6CFCC879, 0x3725C6E4, 0x14CBBDFB, 0x291C40AE, 0x3C0118C2, 0xC06DDDEE, 0x36C80000,
    0xF637D861, 0xFFFFE865, 0xB6FF0CB1, 0xDCEC8EDA, 0x85BFB512, 0x8518DF11, 0x18A9F00C, 0x94785072, 0xAF2D9E7A, 0xF5FABD9A, 0x7CFFD9CF, 0x43777742, 0x74BE58A3, 0xD9B19F5C, 0x0BB09F81, 0xE8C2FF39, 0x903E8552, 0x8370F96E, 0x3ADED28F, 0x8AB843E2, 0x77EAFC3F, 0x1D3189B8, 0xFF777266, 0x4FFEFFED, 0x11170000,
    0x711195D4, 0x802FA674, 0x55FFCE02, 0x11BAEE9A, 0x39507087, 0x9881E87B, 0x1C6187F1, 0xF5D07A21, 0x0E0FE451, 0x80721896, 0x0FE08E92, 0xCE8A60A7, 0x5F9C64FD, 0x7B886857, 0x71CA4E2B, 0xD113D32A, 0x2AAA5129, 0x9C56DB8B, 0xE161FCDD, 0x18BC5D5F, 0x87BB4A5D, 0xFF23FB7D, 0x6BE344D9, 0xA9804885, 0x249D0000,
    0xFC825877, 0x94F6F58B, 0xA77ED9B3, 0x7FECBF95, 0xC04D57C2, 0x17EB7C08, 0x3CBB7003, 0x6824402D, 0x11F8051D, 0xAE9AF153, 0xF551AFFB, 0x7A76FD28, 0xF4707D1D, 0x341084E9, 0xE01616D2, 0x404812A4, 0x01FC8A7A, 0x916BD6C0, 0x20AC2682, 0xB47A5006, 0x2BF5030E, 0xDD80158E, 0xFDF9DE4D, 0xFFFFA11B, 0xA2E10000,
    0x82235C35, 0x940398A4, 0x00518188, 0x7FC4A205, 0x3B77CEA6, 0xB067D442, 0x735800E9, 0xBEED5F9E, 0x6747F991, 0xA6FFD245, 0xC7F63378, 0x606F6D0B, 0x8479D0B9, 0x4A648886, 0xA080004B, 0xEC1E00AE, 0x706E45AD, 0x47A75157, 0xDA019808, 0x892C9265, 0x93F18801, 0xDD2B0A11, 0xE7B7CAF1, 0x809ED4F4, 0x13E00000,
    0x0F5AA7A8, 0x37554F6A, 0xD5E7067A, 0x86555804, 0x75E7A207, 0xDEAE66F9, 0xCA067EB4, 0xCA8FDA77, 0x25429CE2, 0x3C78DB3A, 0xE2261F77, 0x0F7FEDE0, 0x78E9CE96, 0x46B3C8D5, 0xC1368392, 0x7E320C65, 0xE519DC6B, 0x3A1DE8B4, 0xC9AC1F10, 0xBB42BDE5, 0xF406A85E, 0x309729C6, 0x99CF197C, 0x3FFE5917, 0xFA190000,
    0x22CD0B88, 0x75D5E89F, 0xFA7F84A7, 0x056E75C5, 0x231C7C2E, 0x978722AC, 0xB234BC83, 0xE2139B56, 0x78266BF8, 0x0002F620, 0x00518E87, 0xBFE32DED, 0x29C3BBF7, 0xAB3BA64D, 0x9E9C034C, 0xE3C7A99B, 0xFE81742F, 0x8FFE221E, 0x0360DDD4, 0xA554470D, 0x4B3072AE, 0x881DACB4, 0x0808D212, 0xD862A7F0, 0xFA700000,
    0x35D1BF22, 0x2CAD4F73, 0xD82BE7DF, 0xE45D57FE, 0x20037959, 0xD33F4FD5, 0x9ED9FD5F, 0xE07FC571, 0x1FA3F737, 0x605F000C, 0x07F74301, 0xF45A000F, 0x85840BC4, 0xE659F703, 0xB7421741, 0xDBB22077, 0x0583435B, 0xF9B9A6A9, 0x0046DFC1, 0x02A408FC, 0x17581E59, 0xFE53D2FF, 0x24EF94A2, 0xF5E280FE, 0x46B30000,
    0xD0B10660, 0x61803E6C, 0x5FBEAE44, 0xA2219FE7, 0x9B0D7A1F, 0xE32B505A, 0x1BA5C1E1, 0xAC89BD56, 0xD407437C, 0x607E0101, 0x07E047A4, 0x54833B02, 0x5D0CE878, 0x27668547, 0x5BF1AC7F, 0x7ED9159A, 0xC0E7FD36, 0xD77F5F78, 0x9093E19F, 0xF89AC646, 0x2EB7D622, 0xD369004C, 0x62489D07, 0x022F4E43, 0xDFF00000,
    0x3EDE46BE, 0xBE300A01, 0x472C612B, 0xBAE7A031, 0x6F2B01FD, 0x45652252, 0x045C30FE, 0x649711C0, 0x30E31783, 0xE1230C07, 0x1E6F67F1, 0x5BB15EBD, 0x46703EC4, 0x1186CA8B, 0x5E7A9279, 0x5EE00F86, 0xD32B06D8, 0x6528A745, 0x4A00647F, 0x6EB2E0FF, 0xF60C6579, 0x60B29FD7, 0xB561C276, 0x718D3D46, 0x34AF0000,
    0x855097DD, 0x2A14DE7A, 0xC5DE4ADA, 0x2603FFBD, 0x2F6D5378, 0xEED2F962, 0xD0BC2486, 0x5886D81E, 0xE0DE8710, 0x50F83D43, 0x3E266963, 0xF09D1DEE, 0x0ED15BA3, 0x2FAC3E77, 0x79DD87BA, 0x086BE66D, 0xC0A6F1D9, 0x719B1B90, 0x29D052B7, 0xF335983A, 0x4D0472E8, 0x40E77E3A, 0x9C2926E0, 0xD82DECE3, 0x6FD70000,
    0x9C5C950A, 0x7BDE7079, 0xEDCFD87D, 0xD0F10568, 0x1BAF8E4F, 0xCAF8F00B, 0x17D1846D, 0x782B4C27, 0xA14A007A, 0x3268802D, 0x0E1887BD, 0xEF9BBF95, 0xDEB67136, 0x90B5E0DC, 0x3DF62B82, 0xB66128A4, 0x7FB56367, 0xBC02B2BF, 0x983912F9, 0x0142EF60, 0x624E4000, 0x38008321, 0xC00E0140, 0x03610564, 0x4CA40000,
    0x2C7B241A, 0x0A58CC28, 0x81B22FCF, 0xB182B2EB, 0xCDB13FE3, 0x1DEE6810, 0xB1620536, 0x571816C2, 0x2149BDD2, 0x7EDFDFF7, 0xC7E7BB66, 0xF033D70F, 0x84681B22, 0x59C0DABD, 0xFE045C0A, 0xE8135B0F, 0x3D122FEE, 0xC6397BDF, 0x86EE1CC9, 0x03E1FD90, 0x17A1700B, 0x56151E05, 0xA067FC11, 0x7ABBC5B0, 0xB02B0000,
    0xCB15DE09, 0x2F11010A, 0x80232D14, 0x03244C41, 0xC9804C00, 0x0921C085, 0xAA0E1B5F, 0x10F329E2, 0xAF137F60, 0xFBEEDE17, 0xB47E72AB, 0xAFEDF63C, 0xA26BC3C1, 0x59AFFEF2, 0x9BBF802E, 0x47E0D9C8, 0x80043680, 0x000CE2A9, 0x11546DE4, 0x6EC1AD39, 0xF614E899, 0x2C42B42F, 0x130BD00E, 0x429082AA, 0x7B270000,
    0x02C494FA, 0xC554C828, 0x7C78982B, 0x81046E91, 0x0F1C7670, 0xC0F71109, 0xF5740767, 0x1D00BA55, 0xC6C27C91, 0x9158D985, 0x029EC0A0, 0x00097AA8, 0x9076F7C3, 0x9BAFE270, 0xE03D818B, 0x00203478, 0x005B8D70, 0x39793F40, 0xBBD7DC1A, 0xA6BEB426, 0xB5FE9FDE, 0x15F9D7C8, 0x0961BB20, 0x80098B39, 0x9B3E0000,
    0x92058FD9, 0xF106AA6D, 0xC09FB9A0, 0x01F9209C, 0x5F126FC3, 0xDB883855, 0xFC238752, 0xAA78620F, 0x4B1F2160, 0x71684FEC, 0x234198D2, 0x739AD772, 0xAF08E30F, 0xD316F14B, 0x8EC6D808, 0xB8E0EEAD, 0x4603CBE3, 0xEF2D18B4, 0x5E3B9FDA, 0x13826C09, 0x8512D709, 0x40DE0025, 0x886123D8, 0x2BC24808, 0x3DA00000,
    0xD636EC34, 0x2C4CB1ED, 0xDC6F4BCD, 0xCC7FA844, 0x617BB0A9, 0x8B5FFDF5, 0x1F7EF66F, 0xFFFEE367, 0xEBF02F42, 0x405C7000, 0x343E7001, 0x5C7B00B0, 0x0EF01E70, 0xE207F4BB, 0xABEC97EB, 0xDFF6EEBF, 0x63B70DD8, 0x4F4B3F93, 0xA25E4521, 0x01D719D7, 0xC6B64ADF, 0x9758821F, 0x5AD417B9, 0x4102C37F, 0xFCCA0000,
    0x523A66E6, 0x10066A23, 0xF8CE7257, 0xF5DE59D8, 0x8C29D477, 0x0AEB0A20, 0x28CCEA2E, 0x6A9088AC, 0x27900446, 0xD0022CE9, 0x1B4B4331, 0x9E963FAD, 0xFE917D7E, 0xAB2B7FE5, 0xCB1BEFF5, 0xE8DFF687, 0x1AA9E9D9, 0x3F77F480, 0x05ABEC42, 0x15741002, 0x3100E006, 0x678B0023, 0xF4F84857, 0xDBF367C3, 0x6C180000,
    0xC5BA6A3D, 0x6066EFBD, 0x1B1822F7, 0xBF6DCE00, 0xBFF9ADD5, 0xFA1C4B79, 0x7F88E72D, 0x70440948, 0x8C3FD7F5, 0xB4108464, 0x8C0C8332, 0xF3167276, 0xFACFC011, 0xDDFC05BE, 0x47F93F66, 0x5FF93083, 0xFF86325F, 0xD7067011, 0xE98B04FD, 0x84D10797, 0xE30113FF, 0xAFB96FB3, 0xFB072AB7, 0x9EECEA1D, 0x91150000,
    0x1B1481AB, 0xF80864C6, 0x53C86F25, 0xFC74A1FD, 0xB1767C8E, 0xB169C0FB, 0x3CAADDA1, 0x6C35AB0E, 0x03D5B160, 0xFC5D41DE, 0x07506A82, 0x1E4960F7, 0xC87A0BE8, 0x81E81BA6, 0x9DFF1031, 0xFFF0009F, 0xEEBE4DFB, 0x0CC5BD51, 0xF0B6E80F, 0xF6500356, 0x5D089722, 0xC803BF78, 0xC47CEA7C, 0xBF3504D6, 0xC2ED0000,
    0xD9065286, 0xD7BFDFDA, 0x813FDD8C, 0x1AFA9260, 0x14CDEA14, 0xF7A404AE, 0x149D026D, 0xD89821F6, 0x543CDD25, 0xB370CB3E, 0x327B9D87, 0xEAAFF6EF, 0xF6A41E72, 0xD04AE1BE, 0x955EC322, 0x63B4FB8F, 0xF6EADE32, 0xF0AC4FF6, 0x7870D5B9, 0x42274DE0, 0x6680D807, 0x0A0400FD, 0x04000C90, 0xE0014A6D, 0x32090000,
    0x0E248DA8, 0x866ED12B, 0x0B7FCDE0, 0xE7C61CDB, 0x936E5874, 0x9F8F09B0, 0x731E69BE, 0x5FD59848, 0x4421CEF3, 0x5644BD62, 0x6043015E, 0x3C317BCD, 0x45795F62, 0xB23A7D7F, 0x234A0D3E, 0x6C337FF1, 0x86972908, 0x1DD2CD40, 0xBFC7C27E, 0xB576CB7B, 0x55F5FDE5, 0x3BEC442D, 0xFF829C1D, 0x88808764, 0xA2D50000,
    0xE270A5B5, 0x7D66849C, 0x4B9FDCC0, 0x113864A3, 0xF0567E3F, 0xBB30D1E3, 0x6D5E1E61, 0xDD71CDA2, 0xCE3C8360, 0x0196DE42, 0x38E8300F, 0xD882002A, 0x57F07FEB, 0xFFFD79F6, 0x7FCEFFBF, 0xFA33FC2F, 0x859FB970, 0xDE0EB657, 0x7DBEC5EC, 0x808D5777, 0x2A84E0F3, 0xED734213, 0x5C000A6A, 0x604853BB, 0xFE390000,
    0x56764110, 0x02C496C6, 0x0BF58FC4, 0x18317982, 0x3376BF4D, 0x68D67A59, 0x5AB14AC0, 0x1FEA65AD, 0xF07364E8, 0xD6E9B78E, 0x295A1B90, 0xC7A0D40C, 0xFF75E6FF, 0x747A37D4, 0xD702B06F, 0xC0FCC70C, 0x0F20B9C1, 0xFC0EB91F, 0x6EC6A1FD, 0x1D481BED, 0xC00D1FBD, 0xC24A7D5D, 0x903B47D8, 0x182480E6, 0xCEAE0000,
    0xA713CD40, 0x54674E98, 0xBBC4F60B, 0x130F465B, 0x1F08E49D, 0xCAB2A0D8, 0x0F8A0F4B, 0xFB68EA03, 0xD50F402E, 0xD572177C, 0xDA80321D, 0xA5D7D33C, 0x335DED08, 0x2F0C71E2, 0x03671DF6, 0x7E2004B9, 0x42A53D66, 0x1F3F8587, 0xF9ACA22B, 0xC15E60A6, 0x567D3082, 0x08D1E61D, 0x06040E89, 0xC020520C, 0x5CB00000,
    0xBEA0888E, 0x38C89569, 0xBE52FFA7, 0xEC28DDF8, 0x010A87C7, 0xDE82C283, 0xFD00751D, 0xC26C1E2A, 0x234EE8F0, 0x44FE470F, 0x3F1FE097, 0xF76BCCB0, 0xB762CE4C, 0x9AD6C9EA, 0x64389EE3, 0x308DC0A3, 0x896C8DF8, 0x968B5D9F, 0xF8085C3D, 0x8030BEC0, 0x43EF640A, 0xF3C805CD, 0x8B12DEA1, 0x98B19055, 0x29F50000,
    0x7062C4DA, 0xE5220652, 0x82D8D700, 0x8085E8C4, 0x322F0160, 0x82841B7E, 0x0605A815, 0x1047BCBD, 0x3078CE54, 0x3DCBE1F9, 0x3C7FCFDD, 0xC62D757D, 0xF7FFC9CF, 0xD1FC7C19, 0x55BF1D27, 0x64CA979E, 0x1C09BFEF, 0xC05E1B24, 0xD1B0B98D, 0x58CF1CEF, 0xE42D8E7A, 0xEEE922EF, 0x0D2AC428, 0x2353B875, 0x57560000,
    0xDE1AD1A9, 0xA0B001F7, 0x99103848, 0xECE49B59, 0x47CA71D4, 0x5B0E4DDF, 0x4161DBFE, 0x35C92AD1, 0xBBCACD74, 0xA47402E6, 0x47457750, 0x3E25DFC7, 0xA46F031F, 0x83CF23FE, 0x86E66C0B, 0x926F17E5, 0x0C2A05A1, 0xC60D4A48, 0x3327C38B, 0x5F816017, 0xDE6391C5, 0xCC7C053E, 0xA5B8E6BC, 0x85D26142, 0x7E8E0000,
    0x125F46CC, 0xB477BC1A, 0xCBCA3F7F, 0x65BD757B, 0x67CA2377, 0xF5133F52, 0x24047E37, 0x421FBD54, 0x2FB6F7D1, 0xBA102E2F, 0x2C56A1E0, 0x7EC4ACE3, 0xC1B85C3B, 0x1244CACF, 0xC01E9249, 0x6BA0E654, 0x01D2C2F0, 0x5EA9C984, 0xA0F9E87C, 0x1A6A730F, 0xCC7DF83B, 0xF1DD6D97, 0x78EC739C, 0xBEEB36FA, 0xA13C0000,
    0x0FAE4D62, 0xCFC77FEB, 0xB01E3DB8, 0x1BD91D10, 0x778FE04B, 0xBB8241F9, 0xFE3856D0, 0xD2047EB0, 0x51402C6A, 0x9C17FA43, 0xE848A83F, 0xA31205FA, 0x10001F83, 0x3D48EBB1, 0xE643C81E, 0xA40D18D1, 0xFFECC803, 0xCE88551C, 0xB7654878, 0x516CFE60, 0xFA5FBE72, 0xB4E5D9CB, 0x8582B78F, 0x93FE24ED, 0xF8B10000,
    0x26B59403, 0x90CD01FE, 0xAFFFEBDF, 0xF3DC7C1F, 0xDE26CE84, 0xCEFFFEE2, 0x8DF61F65, 0x0C01C816, 0xE81D02A2, 0x07A01F01, 0xF103BCFE, 0x2A53BFE0, 0x721FF45D, 0xBEDED570, 0xB5E15F83, 0x1ADE60B3, 0x7DB50153, 0x3A045DA3, 0x5C0444AC, 0x03835980, 0x3C575001, 0xCF5F0F74, 0xCF440B63, 0x9E24CDAB, 0xDE8A0000,
    0x06DD2AA8, 0xD4C1548A, 0x06370D8C, 0x81CE0809, 0x0FF55507, 0x582A523F, 0xFE802BD7, 0x6FFEDCFA, 0x8C8E02B7, 0x08004450, 0x000A6DF8, 0x418E723A, 0xA97F23E4, 0x4FFFAFE4, 0xCFF8E6CE, 0x3AAD707F, 0xF2589730, 0xCC010507, 0xECE4C04F, 0x7B080E19, 0xA503AF17, 0xF296EB33, 0x2FFF6C88, 0x47FDB45F, 0x79B50000,
    0x519CEE0F, 0x6FD36F4E, 0x81D78251, 0x1ADF12A0, 0x33AC2FAA, 0x2BF50B9A, 0xE4552704, 0x245417DB, 0xE5C9D3D6, 0x281F71FF, 0x81DFE15D, 0xED841EFD, 0xD3E1DB8A, 0x0F0ADC17, 0xE05F472E, 0x42D8AD2A, 0x808112E4, 0x18A0611E, 0x821C7350, 0x45727E00, 0xB1BF6814, 0xB1C64F16, 0x829E5E3F, 0x0E00818C, 0x18AC0000,
    0x674DF629, 0x3EFE1C9B, 0xABE69D3F, 0xFC9860BE, 0x0C3C4F3C, 0x9E35C7E3, 0xAFB8FEC0, 0xDC1D7035, 0x8186C9F8, 0x61FF9C5B, 0x4FC1F1E6, 0x9A7324FD, 0xA0BA0255, 0x74E4C901, 0xDA2A2347, 0x90180608, 0xFC9BBD0E, 0x4600E556, 0xAC04113B, 0xF1717DAE, 0x0E42EF37, 0xD83B17A8, 0x117EF4C7, 0x7304D1ED, 0xEFAF0000,
    0x98C16560, 0xD5F80CAE, 0x5F82FAB6, 0x78059A1D, 0xE91B000F, 0x06224530, 0x7920D948, 0xA00A7E23, 0x1A33DC43, 0xC325F916, 0x041EC7E0, 0x1C0D1FD9, 0x54807DCE, 0xC186A52F, 0x973B8649, 0xEBE4085F, 0xC69A0EF4, 0x3C3EA451, 0xBA2C3513, 0xF4A8E120, 0x3480E338, 0x2C4BAFDA, 0x21BE40E7, 0xCC3D9722, 0xD9370000,
    0x6E35C515, 0x76DF68AB, 0xF5FD975F, 0x36FBFF5A, 0xE7DC4AA6, 0x7BDED304, 0x7B062257, 0xFEF317DF, 0xCC41F654, 0xC06FC6CF, 0xCF7BFB2F, 0xABEF9EDB, 0xB47CAC95, 0xDFC2CB50, 0x180AA86C, 0x05E1EB04, 0x5F712AB8, 0x0801005C, 0x414C1D83, 0xCF17BCCC, 0xF4ED0057, 0xEFF8462D, 0x879FFAB7, 0xFF9F0D6E, 0x61790000,
    0x662465A3, 0x3227BC24, 0x7F9B27FA, 0x75BEFCE6, 0xDF31A733, 0xFD74607A, 0x468B07B2, 0x5EF8F48F, 0xDF8EE832, 0xF8EC28AE, 0x0A8E2760, 0x61EB1C01, 0x046701C6, 0xF5945ADC, 0xB101CC27, 0x58333C45, 0xE02ED0FC, 0x27BC645E, 0xDA55AF53, 0xE7987E45, 0x8114268D, 0x5B8600E1, 0x6A564B86, 0x9BD741E9, 0x8E9A0000,
    0xE4DF78FF, 0x52FEF23C, 0x151113AE, 0xD8C332DB, 0x91C3E7FD, 0x9F8947C2, 0x7530B99F, 0xC00F8402, 0x1C7290C3, 0xEB8138FA, 0xF2478F7B, 0x7D38627F, 0xE3090092, 0x6A8C145E, 0xC0009CE6, 0x80557BB8, 0x57ED4FED, 0x7E33177F, 0xE81FBF56, 0x770B7B3E, 0x0F6F95E3, 0xA3D9F4B7, 0x75C2011F, 0xA205ED3E, 0x39460000,
    0xE4660BBF, 0x961349DB, 0x2458FBE4, 0x5813257B, 0xC9401CFE, 0x072234EA, 0x7CBB0D07, 0xC70BF06D, 0xEEBE081D, 0x3FE255E2, 0xFC8751A9, 0x84C19838, 0x0F6A4745, 0x63053DB7, 0x70835FFA, 0x365F7538, 0x03E9F088, 0x055A1196, 0x75AF9803, 0x6CF2325C, 0x43D8AB42, 0x1BD2127F, 0x2C0AA55A, 0x90210C45, 0x40640000,
    0x5EBA0396, 0x2D4830F5, 0x500CDFC8, 0x916EAB81, 0x6871030F, 0xF720CAFB, 0x03B7E5F5, 0x3B7E5B72, 0xDDD3F403, 0x8CEE13D4, 0x83E28A00, 0x3946E000, 0xC3508C2C, 0xE9CD614D, 0xF6626BEB, 0x228AE49E, 0x709C13C9, 0xF7D7657E, 0xFFCD31A9, 0xFC3BD9F3, 0xFF17F13D, 0xC3208740, 0x4000BD3D, 0xD9064AF8, 0xA7180000,
    0xEA445BA0, 0xE7BB9005, 0x47FE55F9, 0x9C316A57, 0xE023A1F8, 0x28B236F9, 0x4C169F4F, 0x4EA7902D, 0x3C3EC343, 0x4AFE78E9, 0x36959597, 0xBF549FAB, 0xB000AF08, 0x2C17F626, 0xE6728A93, 0x8A8A46C2, 0x95323742, 0x77AEB5E4, 0xFC2B0A67, 0x717D765B, 0xFDA660FC, 0xCBF827D3, 0x7F0D662B, 0xEFEFCD83, 0xA1010000,
    0x5E570B0E, 0xED37D95E, 0x55C85720, 0x14045B14, 0x0367D204, 0xD95001F6, 0x882B22D0, 0x266003E3, 0x72319B02, 0xE31DF61E, 0x7AB843E1, 0x1F624E43, 0xE4A3E234, 0x6F0561C8, 0xC38E8AA4, 0x8B92073E, 0xBB04CE3E, 0xC20B53A0, 0x26FD4B30, 0x3F8B76D9, 0xEAF5FDBC, 0x4040A5FE, 0x00148B6B, 0x98012D02, 0x5C220000,
    0xC6B73BC9, 0x06B3E96C, 0x7FF794B1, 0xCF7A9CBA, 0xA7C8F3FF, 0xEA989B44, 0xD0F2F12E, 0x0F8600E4, 0x31A406AC, 0x96006B51, 0xF003043C, 0xE91CBB8F, 0xAA52C7FE, 0x96E0C7EC, 0xE3839D8C, 0xC861E0F3, 0xC90D5BC4, 0x3B391367, 0xF9A73C59, 0x27C81BB6, 0x239192C3, 0x0BD35A1B, 0xFF831E25, 0x6800D7D5, 0x583C0000,
    0x54A39323, 0x0EDF3348, 0xE9BF565B, 0x3BD9D735, 0x6956C29F, 0x092B81F2, 0x5AC74C1E, 0x7741C019, 0xD03D10D5, 0x45C24600, 0x7842AB97, 0x0B0279E7, 0xC50FEB06, 0x0E737BF3, 0x0BD7BF86, 0x1078E274, 0x0A6FED54, 0x5E90AC23, 0xCA10056A, 0x2ECE90CA, 0x0A64D556, 0x287F0E17, 0xE786A35B, 0xE5028B20, 0x4CFE0000,
    0x69E84F95, 0xE5A1EE48, 0x452C0693, 0x203AC040, 0xC70EB627, 0x7061A46C, 0x06E21F57, 0xA861783B, 0xBE3E43BD, 0x81CC05AF, 0x1EE0A647, 0x5F157ADF, 0xC00DF567, 0x8095CFC2, 0x01CECC6F, 0x9DAFA4F1, 0xD8805302, 0xC76C99A8, 0xC058C502, 0x7A112505, 0xA08DFCFA, 0x7861430A, 0xCD04491C, 0xA345F229, 0x003E0000,
    0x3EED2204, 0xDEF1F43A, 0x9B7F02EE, 0x9BF2FC68, 0xFDAC3E57, 0x092D90F5, 0x9A6F5E96, 0xB7C99EFA, 0x1E90DEB5, 0xE2ECF93E, 0x7947DDED, 0x4199DD00, 0x754F63DB, 0x779F16DA, 0x1BF15B80, 0x1FE5D9A0, 0x131B9B30, 0xA9DD93D4, 0x3F06A6BB, 0xED2012FA, 0x250617CF, 0x1F7FBD08, 0xDDEBF55F, 0xF8CC9C4F, 0xAC0E0000,
    0x845537DD, 0xD52B092B, 0x10FE3F40, 0x3FF3E474, 0x7AE86003, 0xB1A2BC2B, 0xE1560797, 0x21345A45, 0x4D87B779, 0x807C7580, 0x0BB6A000, 0xDB50A36B, 0x26E0FC4A, 0xA7D6FAFB, 0x09FFE1FB, 0x6079570C, 0x11AFD9E0, 0x0F505900, 0xED259B44, 0xEC7E913E, 0x777AABE4, 0x3E038D22, 0x29E4A5A2, 0x20020E94, 0x163C0000,
    0xB098495E, 0x24F67ED1, 0x6EA1FAD2, 0xEE0C58FF, 0xE035053E, 0x05811684, 0xEAB0DC85, 0x3C377028, 0xA226C4D9, 0x663B3CAE, 0x33A7677E, 0xF6594D16, 0x1C52CFA5, 0xB9D4E0CB, 0x1F787290, 0x8FA0F9A1, 0xF1E29362, 0x38744533, 0xCF3B1F0B, 0xB7B5F30A, 0x9501D097, 0xE07D25D6, 0x04C2D9DB, 0xAEEC6531, 0x9FFF0000,
    0xEB2AE14F, 0x7763D6AE, 0x81642049, 0x036A2D58, 0x1EBA7593, 0xB46D2208, 0x3CD1C24F, 0x6AE828F5, 0x7C9DE4F1, 0x7C03E52A, 0x01FF03AC, 0xCCA6FFF2, 0xB08DFEDF, 0x8E1FEA12, 0x207F2095, 0x00F63168, 0x00958C00, 0x08B00800, 0x254BC393, 0xBBBBC935, 0x41FFBEE6, 0x1FA44629, 0xE7F2BB76, 0xEA89962D, 0x21330000,
