#ifndef WEIGHTS_H
#define WEIGHTS_H
#include <stdint.h>

const uint32_t weights_l1[16000] = {
    0xA9FE4704, 0x3A00BF96, 0x819FC0C8, 0x5B1C7BDF, 0xA00D33FB, 0xC342F8E2, 0xE88EE1C5, 0x4B74236B, 0x3F492F13, 0xBF7CF313, 0xDE2BF3C7, 0xD81418FC, 0x0B107C41, 0x0A000D07, 0x2042A2D1, 0x69352F18, 0x01BFF1D0, 0x1D7678EE, 0x76BBEEDF, 0x86AF930C, 0x469F6607, 0x60BC494A, 0xD42C0F7F, 0x36EF0637, 0xF36E0000,
    0x5D34812B, 0x6CFBF7E7, 0xE3FF895F, 0xC4FFC091, 0x9F8D8E4B, 0x8912869D, 0xEF283FFE, 0xEDA7E0EB, 0x23780CFA, 0xF4447B03, 0x57138C3D, 0xA8958361, 0x05527D7C, 0x0E979CB1, 0x781CB90B, 0xA1CF829F, 0xE7B06D7F, 0xDF03CC29, 0xD0E1307A, 0x0380BE91, 0xA303EC56, 0x9EAB8112, 0x5FF8FD4A, 0x75CC07D5, 0x5D580000,
    0xCF2D1D58, 0x15CEFCEC, 0xF5FFD3EC, 0x6E585C11, 0x77F815DF, 0xA72857AD, 0x6C6E5D47, 0xFDB66AD5, 0xF557CFFA, 0x806F53B8, 0x392BE766, 0xE3B213C2, 0x09F7FF6E, 0x561FF13A, 0x603F6E19, 0x00526320, 0x00EA1700, 0x0F641802, 0x5F538A4D, 0xA5155C78, 0x7CF7306D, 0x3FFF3150, 0xFFC0FD4D, 0xB7BF796C, 0xD6D10000,
    0x9CDF02A0, 0xFF2D0DB6, 0xE22A48FF, 0x5FF0D3BF, 0xD5F7F883, 0x7FCC87F1, 0x73001A1D, 0xE0379DB8, 0x2DC5B606, 0xC93F3048, 0x0C1C37D3, 0xEF80A7F4, 0xF58D7F39, 0x01FFE905, 0xD9466067, 0x78E0EE85, 0x98DBE4B0, 0x39E32523, 0x2FC25725, 0xFEC0508D, 0x99438038, 0x678401BC, 0x5A77DD75, 0xFF3824B9, 0xBB2F0000,
    0x98DE2AEE, 0xB71B473B, 0xFE80CAEF, 0xB687B175, 0xBAF951FF, 0xF71FFAC1, 0x0F7FFDE8, 0xB8FB7B6F, 0x200EF1F0, 0x00D97F00, 0x04F45009, 0xC56402D1, 0x04F15C3D, 0x637FD069, 0x3FE6DE3B, 0xED059DFA, 0x1826E1ED, 0x7002D8BB, 0x091B8FF8, 0x070D018F, 0x7CB84F71, 0xFEBC8A8F, 0x5C108D01, 0x21C000EF, 0xFD420000,
    0x0AFE3766, 0x8225C0E9, 0x10F4B702, 0x23A47818, 0x6C4C5881, 0x2F602F1F, 0x62F4BC15, 0x59786FD4, 0xBEBC7758, 0x03EF73C0, 0x9ABCEC2D, 0x07366B62, 0x6F3FFC5D, 0xFD77F7CA, 0x25FDD37F, 0x904EC010, 0x08853EC0, 0x0C973428, 0x5703AAB3, 0x6ECE83D1, 0xB2716012, 0xB797108E, 0xFBEB07FD, 0xFEFD55A6, 0xCE530000,
    0x611EF4F9, 0x2A5C5852, 0x7CA9ED37, 0x57FE2B36, 0xBC48AC7E, 0xA39C0FD0, 0xFDAB9EFF, 0x38E0643B, 0x3D819401, 0x3CD035EF, 0x456FDE04, 0x191B2C5F, 0x3BA2743C, 0xE917A8AF, 0x1EA51FF8, 0xDD98BA37, 0x9581066E, 0x6C78A5CD, 0x04184E44, 0x3F1AD060, 0x904FFEA8, 0x705BB815, 0x3FFF1D37, 0xFF3BF537, 0x68090000,
    0x3AD0BC19, 0x094E63E2, 0x740794DB, 0xFB297716, 0x8BFE723E, 0x26506F91, 0x3FFDF80D, 0x1D7BC99B, 0xBFF8B637, 0x9FDA1608, 0x82A24008, 0x0067030E, 0x14B1E2C4, 0xE32F887A, 0x6FF7CEB2, 0x3E2FBF79, 0x23DF8A04, 0xFFBCE1BF, 0xA29703BA, 0x024A7D98, 0x50F6B407, 0x7FD7451C, 0x7E8B473B, 0xBF7AD3E1, 0xDA900000,
    0xA3B4DE2B, 0x216B5721, 0xFF01D667, 0x8F87D2FB, 0xBC3C92E1, 0xEFD8CE1E, 0x02FA51E5, 0xFF8C3C13, 0xC7E7C226, 0xF4783251, 0xA700F5E4, 0xE0E14EFC, 0x3E684901, 0x55EB6AC6, 0xD3561F64, 0x3B9DD7CD, 0x74C1B7A7, 0x2E7B75E3, 0x3E34D757, 0x7140243F, 0xA1FF51C1, 0xD47602DF, 0x4A384B12, 0x4E1AFB7F, 0xDE390000,
    0xD0E0B61B, 0x70BEE4BF, 0xFF6F9D9F, 0xBF8387FE, 0x5823FF2C, 0xC2B80085, 0x03F08103, 0xADACE215, 0xD737479F, 0xFE17B7FF, 0x82E45DF8, 0x6FF2843B, 0x5D4001BF, 0x6C54A5EE, 0x80563D37, 0xA3BA4D62, 0x3FC2D107, 0x1D045F7E, 0x284F10F8, 0x8370FFF0, 0x8F924227, 0x7C078460, 0xFD71E211, 0xA7FCC15A, 0x4A8E0000,
    0xFB9720A6, 0x72D42473, 0x7F4BDBBF, 0x32FA6307, 0xC9035347, 0xC6435044, 0x26B1A4A0, 0xC82F7029, 0x33BB81C8, 0x9BF83CB7, 0x3E013E57, 0xE59E4DF4, 0xC3D8B6A1, 0x851D582E, 0x67DA107F, 0x1FA4968D, 0xC6EC77B3, 0x6B1FB86A, 0xBF30EDF7, 0x91FE4276, 0x0604E3DF, 0xC0502A53, 0x0024A335, 0xA06191BA, 0x7FD60000,
    0x80BB611C, 0x9E33CD3F, 0x8F4FDB28, 0x2BF9BF3C, 0x3BB13FC8, 0x473FD88B, 0x1DA25147, 0x118A18E2, 0x05678034, 0x32B21405, 0x67C36F4D, 0xF8813C7E, 0x34A59FE0, 0x1B016955, 0x32754922, 0x1F21C3A1, 0x421D1218, 0x9C483B8B, 0xD357B238, 0x022D96A0, 0xF7781D80, 0x3366F93C, 0x8EE7DA4C, 0x2CCECAC5, 0x17240000,
    0xE3B0B942, 0x95440551, 0x15A17360, 0x1B06B75F, 0x91566FB4, 0x49456616, 0xAE352406, 0xC0E20BEF, 0x0F308FB0, 0x63D5F600, 0x4CF82001, 0x12EE0048, 0x38001D65, 0xA9BFFE47, 0x59FE1476, 0x3FD27F1F, 0xBB07F757, 0x4FFBB2D9, 0x3BA4DE81, 0xA8D4BAC0, 0xFAE10097, 0x2E8900E3, 0x968078F4, 0x4E01A2A7, 0xFDF50000,
    0x2051D9F5, 0x7EFC7404, 0xBFD980F4, 0xD3B995A6, 0x50488A72, 0x00F6744D, 0x1FC68D40, 0xD9AB60F9, 0xD294026D, 0x9C861EC9, 0x37A87F90, 0xA2BB2C2C, 0xF8B2B32A, 0x634C3FEE, 0x9BC3E46D, 0x8479ACA5, 0x07ED7014, 0x7D18D04F, 0x4BFF10FF, 0xDEE18672, 0x2214B4E6, 0x061878F8, 0x9922CF89, 0x677BD4B7, 0xFF6E0000,
    0x09A3EBF6, 0x402443AD, 0x2338320C, 0x0877F988, 0xB9DF799B, 0x5A1EC775, 0x9AFA3B6F, 0x3F4300E7, 0xAE2FCD4A, 0xC1085D7E, 0x1360BF60, 0x26467F24, 0x22ED743C, 0x0FBE8723, 0x4B84FF62, 0xE0DF8F4E, 0x036D8CD8, 0x7F0B530B, 0xC19AB1EE, 0x1BF12ED6, 0xBA281EDA, 0x1638E9F0, 0x863E20E5, 0x6BA07F67, 0xCAD20000,
    0xB2CE1196, 0xDFEC8417, 0x02CC29D4, 0xFF04D67D, 0xE8430541, 0x69F2F8AD, 0x3B547CE8, 0x3605BB37, 0x01FF7060, 0x69E27110, 0x138C8023, 0x39FC7A66, 0xAABA0420, 0x3EA5D375, 0x15E40071, 0x9FC0377F, 0xFE007F7F, 0xDA276441, 0xFB33E01F, 0x5DFA42F8, 0xC900777E, 0xD81C7FBC, 0x37FB3D58, 0xFBF82D93, 0xFDF20000,
    0xC4956A98, 0xDDFBB0F5, 0x5DA3F1CF, 0xCE72E7E2, 0xE0E0187A, 0x8BDADE72, 0x33E7C160, 0x82F39C05, 0xDE3DC035, 0xC36705C8, 0xEAF00F34, 0xB727710C, 0xDF36C74E, 0xE1E3C13D, 0xD83A3F7D, 0x932EA7AD, 0x73F0D05B, 0x66BBFC1C, 0x286BB1CB, 0x863F3560, 0x23705C29, 0x87F00E96, 0x342FF55F, 0xAF2F612C, 0xF34A0000,
    0xA82FD3B2, 0x9BFE354F, 0xABFA0D2C, 0x40FC7C44, 0x37047800, 0xCB1780A0, 0x497C7D74, 0xF34A6C83, 0x486A23C1, 0x0FB28EBA, 0xDA78F307, 0x379BB5BA, 0x3C23788F, 0xE075D8DC, 0xA7BBADA9, 0xE3BADCE2, 0xAFBBC847, 0x57FD47A9, 0x19FD4380, 0x5D4BC904, 0xDBA5B00A, 0x4D8200AF, 0x9AF25559, 0xF70F0FFA, 0xF6A70000,
    0x4C167934, 0x6BFC609C, 0xFFFFD17C, 0xFFCF2E17, 0x0005E60A, 0x175554E4, 0xDFBF9443, 0x8AEB542F, 0xB3F086CF, 0xD7212EE7, 0x42A49B00, 0xA3875017, 0x5BF4A3D7, 0x120C75D1, 0x2287F7EC, 0x00359D80, 0x43EEB81E, 0x7FD6884B, 0x11BE12E1, 0x08A290F8, 0x78B2D08B, 0x045A5681, 0x88AD0B9C, 0x77FEED9E, 0x638A0000,
    0xB5DA82EE, 0x4C353270, 0x0D94B7D1, 0xA1E4D41C, 0x0FC20585, 0xF9F81D12, 0x6B890037, 0xF4D0F7D7, 0xD591CF90, 0x80EBDD6F, 0x477EB2F2, 0x3CA7B7EB, 0x90E5E49E, 0x47058000, 0xC2A4841E, 0x1122ED49, 0x54342EA1, 0x8B850A1C, 0x424E0687, 0x3AD0F813, 0x62778F04, 0x05F02B27, 0x3650FD4A, 0x8F1B6CDA, 0xF3EE0000,
    0x23982FB2, 0x3C583D54, 0x1001DF0E, 0x48063BFD, 0x60C1BA8A, 0x53961EE5, 0xAE539363, 0x2A36C173, 0x818368F0, 0x28147E80, 0x27F9402E, 0x06EE09E5, 0xB363FE3F, 0xE9FF609D, 0x5D6E5179, 0xFED8172F, 0xC223FEF8, 0x2BEF1782, 0x4E2F085E, 0x1A59F23A, 0x434758B9, 0x4C30403A, 0x20811E61, 0x86002326, 0x1D1F0000,
    0xDDDFE53E, 0x13EC7280, 0x52DE2808, 0xC2A4D078, 0x3CC19680, 0x3E55C701, 0xA7E37C05, 0x45BFAA81, 0xDFFE0D36, 0xF2E971E9, 0xEE9A45C5, 0x2F39A037, 0x00531434, 0x2064D609, 0xDB301B9C, 0xBCA64939, 0xCDBFDA03, 0x82FDE8A3, 0x5388994F, 0x56E1A497, 0xFA217E2D, 0xBA0F87B3, 0xC2BBC33C, 0xD2FF9CEF, 0x53780000,
    0x00DCEEBF, 0x627910E7, 0x3F5AD92F, 0xAC68AFB5, 0xC1C072F8, 0x1EB70F83, 0xADFA387B, 0x3C078777, 0xF0689EB6, 0x6F083FB2, 0xF3C7B1F8, 0x18723E70, 0x15C6E7AB, 0x4A30BBF7, 0x7F57CF77, 0x487D5F3E, 0x84DDD541, 0x97F8A1FF, 0xFCAE8143, 0xCDF8EB75, 0x253FA58D, 0x167B04C2, 0x9C2F9A76, 0xD45909E0, 0x63550000,
    0xABA1A9CB, 0xEFF1E2DB, 0x57FFDC3F, 0xD86A9DCC, 0x12DE3603, 0xEC294059, 0xF89A1043, 0xF9B0DDD7, 0xF11BFE23, 0x187EDC3A, 0x005ECFD1, 0x00DC2FD3, 0x8458DE70, 0x653A5294, 0xF56E86C4, 0x9B9809A2, 0x3920D79B, 0xDA1AD31A, 0xF0E239FF, 0xFD559F7F, 0xE50C67FB, 0xC049FFD7, 0x200DB596, 0x4800AAAD, 0x3D240000,
    0xDDE879D7, 0x9FAFE93A, 0x337F36BB, 0xFF8779F3, 0x34720FFF, 0xE5C2BFF3, 0xBF63FFC2, 0x67CC286F, 0xF502478E, 0xD0006860, 0x01066868, 0x6D0FE017, 0xDAC10A62, 0xB0990A7B, 0x50811272, 0x0984A894, 0x004E5010, 0x0B059C2F, 0xFF5A91F9, 0x9F90F792, 0x5DABAF23, 0xB9FE7D15, 0xAF43E371, 0x99CC4DFA, 0xFFB80000,
    0xE345969A, 0xAE364DB8, 0x84363754, 0xC396AF88, 0x56CF304B, 0x625809CB, 0x81B1461F, 0x5A0CBFEE, 0xE9F2AC80, 0x3FEF9400, 0xEDDEA806, 0x906308B4, 0x80519688, 0x0EF892C0, 0xA685503D, 0x541C8583, 0xD5809D7E, 0x4C0C0F35, 0xE9A8D178, 0x4E49FA02, 0xECC8F037, 0xE55D1552, 0x00049C94, 0x60DFEBE9, 0xFB3C0000,
    0x59C25F4A, 0x13677FC5, 0xC4380773, 0x4026BD07, 0x2D4DE2A4, 0xC096177F, 0x6F0341F0, 0x6C07D0E0, 0x727A7F5E, 0x02FBF262, 0xCFB7F91F, 0xDE6FC56A, 0x0E3AA416, 0x1EB5E4C1, 0xEC05B82C, 0x146C2368, 0xAF8026F1, 0x780F258E, 0x806D58C8, 0x17FBF600, 0x0C9DC037, 0xBDBE001B, 0xC51201F2, 0xCFEF62CA, 0xCEB10000,
    0xE2B0A6B4, 0x10241CF3, 0x841C55C2, 0x682690DE, 0x00300A00, 0x0B102342, 0xF9863905, 0xA8D380AF, 0xFBFC0DFF, 0x7FC67E7B, 0x7CA07BBF, 0xE475971C, 0xE9F04BE7, 0x6F5DF4D3, 0x2F7B863E, 0xB8DADBE9, 0x0A0EA400, 0x25F6F40A, 0xB66D87C0, 0x0E607215, 0xED17E067, 0x5BE43FE8, 0xFB23C3EF, 0x66F63D0F, 0x15640000,
    0xB5D30843, 0x5FE11706, 0xB3558970, 0x07742CEC, 0x00A26D03, 0xD288EE74, 0x15E92FB1, 0x5EF07359, 0xF9CD213F, 0x93F5114A, 0x1EE7EA6A, 0xDD9CF6B1, 0xB314EEF5, 0x5D8F7A72, 0x015EADCE, 0x401D64A0, 0x00043FA0, 0x08133A38, 0x56A28BC4, 0x62DEF1D4, 0x339F0657, 0xFFE023A2, 0xEE04967F, 0xC2E3DF66, 0xE5340000,
    0x40A141B7, 0xCE3661EC, 0x10FFEE2A, 0x3FC7A0F1, 0xFDF26E07, 0xA5A5E07E, 0xE4270F87, 0xE330E662, 0xEF0E0B40, 0x70C0D667, 0x0281FBF0, 0xCC66EA07, 0xF75F4779, 0xA259110B, 0x1E0304A2, 0x70009E4C, 0x22577F25, 0x02AD9C3D, 0xF7AF25C6, 0xF897A34E, 0x51BAFDC3, 0x130E4686, 0x1AE70C72, 0x414033BF, 0x440A0000,
    0x83E7956E, 0x5FD2E9FD, 0xE3BC979B, 0x2379D460, 0x7B80E48E, 0x78ED3D7D, 0xF9B8327C, 0x5FA6FFA7, 0xBC1FDD7D, 0xF001D1C7, 0x0013BDDC, 0x00BD0BC0, 0x08BE7A80, 0xBE633E41, 0x694E561A, 0x0BED6278, 0x4F5C1E19, 0xEBE1E011, 0x7D03D07E, 0xC1CD41FC, 0xB677BEC0, 0x13EBD0AE, 0x9DFFFE14, 0x6FFDC63F, 0xD5AA0000,
    0x2C3D409F, 0xFFFEE947, 0x7FF8D1FB, 0x3FFEB5F3, 0xBFF7E3D7, 0xDC3C3CE0, 0x51C8A807, 0x62A6517E, 0xC898BFFA, 0xD3E9D1CA, 0x760DD974, 0xE022CDBC, 0x3AEA425F, 0x4623E47E, 0x7000BFDD, 0x0052EFF8, 0x03D26954, 0x7FF3153D, 0xD1E3D7D5, 0xEFC9FFEB, 0x76DF947F, 0x7DF247EB, 0x7E6A5909, 0xF9FCC418, 0x5AE40000,
    0xD7AD494C, 0x9FFFB07B, 0xDBEFC221, 0xBF6AA457, 0xFC3F9675, 0xD55A4F32, 0xF7F46F6B, 0xFCC74D66, 0x98000DBC, 0x06002681, 0xC003E658, 0x00B0E6C4, 0x11C3F0FE, 0x1ADF0F7B, 0x601F7896, 0x00067871, 0x206A3DC0, 0x99A37147, 0xFAAFCDC2, 0x7FBFCB1F, 0x7BBFBECB, 0x9BD9ECC7, 0x3FA5E61D, 0x47B49ED7, 0xFEDD0000,
    0xA3763677, 0x3EE68C0E, 0xDCFA35D5, 0xF229EC2E, 0x4AFB732A, 0x80BC1D36, 0xDF05CE1C, 0x3328FFA0, 0x6B71AC90, 0xE7DFA704, 0x64F5609F, 0xF1FB285C, 0x14CEAB25, 0x9248E51D, 0xFE30CF1B, 0x581F43DE, 0x007C4D7A, 0x06C791B4, 0xA84D0075, 0x14BCB8A3, 0x23FFB838, 0x0FB94D50, 0xFC3A5406, 0xB1D02B0D, 0xB9C20000,
    0x0807B8F7, 0x5D6C2316, 0xD5A83AA4, 0xB606AB6D, 0xA10E1B5D, 0x47A0F041, 0x52152EEF, 0xFA78C3A5, 0xB1C73EBD, 0x3C19DF61, 0xF27F7E06, 0x131FA83D, 0xD7B3C117, 0xC79F4EC3, 0xD37BD873, 0x5690169E, 0xF2DBFAB5, 0xC1756FA9, 0x496EE7AD, 0x7E473A29, 0x938AD95B, 0xA017BE5C, 0x103F8D5F, 0xB452F1B4, 0xBC270000,
    0xCB8CCECA, 0x39DF4DCF, 0x77FDEFB0, 0x9EFEA205, 0xECE2FDBE, 0x7D8F4C42, 0xECD7BEEF, 0xE3167FDB, 0xBFFBFEF7, 0xFF80F580, 0x20078800, 0x00220000, 0x033001BC, 0x2E007403, 0x119BC8F2, 0xBA387E39, 0x4741F7F7, 0xEFEEF95F, 0xB9FBE0D6, 0x5D2C4B6C, 0xFC0960EB, 0x18F37E86, 0x0897FF44, 0x572E4ADE, 0xFFAD0000,
    0x942BC8AE, 0x1FD7B659, 0xF27FCCFF, 0x51AE323D, 0x1559A7A0, 0x5153FE56, 0xCEB9D947, 0x4E47EE2F, 0xABEA20DE, 0x2A0A7950, 0x82A5596C, 0x3964933D, 0xF9093A8E, 0x4831C17F, 0x38001FFF, 0xA000CA74, 0x00EAF9AC, 0x9FC45DB6, 0xE2A1CBF2, 0xB2BDF7B3, 0xA9BBFADA, 0x76CE6EC1, 0x73C53A1C, 0xE0AEDF23, 0x6C3E0000,
    0xCABB4739, 0x9DFDB6BF, 0xFEFFB9BE, 0xAF6B1AF4, 0x6814B6A6, 0xEEDCC5DA, 0x980C68BC, 0x1022FFEF, 0x0717FFEB, 0xC849FE82, 0xE04E7C7C, 0x001F5DF8, 0x06534F82, 0x7F47640F, 0xCB7A52DC, 0x9757F66E, 0xE4BFCE48, 0x3FF5BE1D, 0xF8B926C5, 0xDFB370AF, 0xFF1821FE, 0xFD3B02C3, 0x2D8F69C6, 0xDFFF417F, 0xFD6A0000,
    0x065FB2DB, 0xBAC7E8BF, 0xF8FDD6BE, 0x6FC04843, 0xF509A236, 0xE754BFD9, 0x7A11C007, 0x513C000E, 0xF3400CC3, 0x70998DE7, 0x8FDB0754, 0xFF98356B, 0xDC63F18E, 0x8E99A68C, 0x9FBD06C0, 0x700A2BD9, 0x31A046C6, 0x90EC4CC1, 0x0345F7E4, 0x2EA316A8, 0x2E159016, 0xE606200B, 0xF418907F, 0xB741E117, 0xCBC60000,
    0xD2D502A2, 0xEED22DFF, 0xA4040920, 0x01076900, 0x1102E810, 0x04264203, 0xE480DAF4, 0x3482F9CE, 0x7E7F662B, 0x17FDEEFB, 0x41F339DF, 0x14283E31, 0x503EE583, 0x85FE4258, 0x0CB4178A, 0xEDEB590B, 0xB839A0BA, 0xC09DE6F4, 0x00D62069, 0x3D53DAE9, 0xF6ABE41A, 0x02451229, 0x8015FC24, 0x5638AF79, 0x489A0000,
    0x59822F50, 0x43341F1E, 0xC0EA7E51, 0x0FC5F036, 0x9E8F0397, 0xA0901BFC, 0x2440A3B3, 0x50043BDF, 0x411BC7D4, 0x92796182, 0x3F021281, 0xF039B236, 0x007BEAC0, 0x091F3C3A, 0x77F53A97, 0x05A9C2AD, 0x1EBEF935, 0x7CAB5A01, 0x8573887C, 0xF8E40902, 0x0153BE73, 0x7A139F8E, 0xDFF00C0D, 0xA031FBA6, 0x4D290000,
    0xA737EFCD, 0xDA25930A, 0x9A00F627, 0x67047C4E, 0x4D0C4043, 0xECAD28AD, 0x6A00DFE4, 0x20CE595B, 0x0CE04CCA, 0xBF0092E3, 0xFC470F97, 0x2C7BF07F, 0x02B582C0, 0x079D580E, 0xD1FF8270, 0x26A1460F, 0xCE0DF211, 0xCFD622B0, 0xDFC0F837, 0xDC5CA638, 0xD55818FB, 0x608001ED, 0xAD2C6F7F, 0x6F9F900F, 0xFFD30000,
    0x575CF140, 0x9BF6F69F, 0xCF1C341C, 0x2CDC7C0B, 0x4FCEE8E9, 0x9DA92A7E, 0xFE74AFC3, 0xF81EF03F, 0xC8D807FD, 0x54004AE4, 0x8001CC80, 0x8011F538, 0x03A724EE, 0x31FA7F69, 0x59F5BCC8, 0x3F7D60CF, 0xE4D926E8, 0xE3EB2B02, 0x7BF8D1C1, 0x1CE87F8B, 0x8D85255E, 0xE0164912, 0x15DA73C5, 0xCFFCAE3F, 0xFFF30000,
    0xE17CE5BE, 0xC3028AB0, 0x05374C87, 0xB21E432D, 0x83E57051, 0x7E47DF44, 0xA853AB75, 0x3DC5B336, 0xA4729706, 0xA63BBCAD, 0xE63B56D0, 0xE3941E1D, 0xF26AD670, 0x1E03DBB3, 0x3644D13A, 0x44EC0388, 0x3D600D83, 0xA6157029, 0x10338FBE, 0x06690B54, 0xE8ECC911, 0x750C0F73, 0xDA6C91DE, 0x066AB521, 0x1E1B0000,
    0x456BB670, 0x1BF73B81, 0xDD3EC01F, 0xFCFF4953, 0xD0FA183F, 0x0EB803C1, 0x7C00FDCE, 0x263CF675, 0x1F07AA18, 0xC1F81A3C, 0x17E08887, 0x9C138036, 0xB55E1753, 0x32BFD3B1, 0xBD1199A9, 0xC9F347A9, 0x71C48BA2, 0x3DC45B63, 0xF0F7A490, 0x2B7F1951, 0xE15DE90B, 0xB92FD576, 0x3F9B950B, 0x3FFFF248, 0x69D90000,
    0x354E53EC, 0xFA777F43, 0x3DF3F4F9, 0x75817737, 0xEA16F7EF, 0x8759BDA6, 0xEFF200F3, 0xDE00C3E2, 0x00B6ADD0, 0x16A0F70B, 0xD41CAFFA, 0x7A6BFFA8, 0x407FC3E0, 0x0DA05D12, 0xF800BFBF, 0x000E9E3D, 0x8307F777, 0xFD977FDE, 0xC87A13C7, 0x93B26230, 0x384BC298, 0x6EF613A4, 0xFFEB1D8F, 0xFEFF4691, 0xEEB20000,
    0x8ABC8FEE, 0xF0DD574C, 0x2CCBFF07, 0x487FF65E, 0x813C2740, 0x144F38CA, 0x076B41C9, 0x818B6693, 0xF0E269E0, 0xAF70828E, 0x36D811B2, 0xAECF6155, 0x5F63E3AC, 0x6D1F37A6, 0xB7C31662, 0xE83C8EA3, 0x87D1F378, 0x7C2E5B07, 0xFDAF787F, 0xE35C479F, 0x9D980D78, 0x95843CEB, 0x80008743, 0xC440858F, 0xD8FB0000,
    0xF23DA637, 0x3FDDB33F, 0xFFF591BD, 0xFF44AC5F, 0x5351F67B, 0x555DDFC0, 0x78B9C001, 0x90F43608, 0x36008C85, 0xE6E9EB77, 0xFFFE0747, 0x7F85FE0D, 0x781AE0F5, 0x44F60CE5, 0x061C5F0F, 0xFBA0F094, 0xB4190D4E, 0x9774BCEA, 0xD6DE809C, 0x856D83CC, 0x05F4332D, 0x7A7C5F8B, 0xFE67FF7C, 0x74EFB110, 0x5B620000,
    0xF6C85CCA, 0x0724408D, 0x8D719E77, 0xD02AAD00, 0x02DACC62, 0x9085436F, 0x01612873, 0xB63631E6, 0x0BDA59A0, 0x2DB5F71E, 0xB47060FF, 0x94FE1EB8, 0xA2EC9FE0, 0xA592BC71, 0xC9ABC210, 0xF87023FF, 0x034C6489, 0x1007654B, 0x027C0490, 0x09D5F881, 0x0E1BA833, 0x37C4C841, 0xC1949886, 0x8B6755B6, 0x1F6F0000,
    0x3255DAF7, 0xED77A480, 0x8CDA958B, 0xFCE5696A, 0xC2D11C78, 0x7272490B, 0xEC71735B, 0xDC4F3ADA, 0x48E27854, 0x8E48FBA1, 0x664EC356, 0xC2344C7F, 0xA4D0F7D0, 0xD68C3BF0, 0xB5027FAF, 0x9607E76F, 0xD1AD57F6, 0xE31923FD, 0x642277F2, 0x0F88B64C, 0x0A84780D, 0x70020007, 0x00005218, 0x00801EA2, 0x5FFD0000,
    0x5A77DD4B, 0x1DFFA393, 0x7DFBF7FD, 0xE3CB3DA1, 0xAA67EF67, 0xDEFF963F, 0x49735EEB, 0xF2D24076, 0xBA4803C3, 0xB4305BFA, 0x2E833B92, 0xFD4AD649, 0xC881DD97, 0x06166279, 0x7010261D, 0x00004838, 0x01162780, 0x62437C1C, 0x32E57301, 0xC65CFE24, 0x2902E113, 0xD5E039B8, 0xFEC3FD9E, 0xFFDF53BF, 0x332A0000,
    0xE96849E7, 0x20FB83BB, 0xFFAAE2B9, 0x023D20C0, 0x583ACC79, 0xE99C0D4F, 0xB2901F7B, 0x0E00022F, 0xBD2DC1AF, 0xFF79FB7F, 0x7A549F82, 0x26D25037, 0x13380601, 0x2101E202, 0xE03E5E54, 0x07F95459, 0x6F99FA16, 0x3E8E799F, 0x7D37B25D, 0x7ADFC979, 0xDCEDDF3F, 0x821A9EA5, 0x00237DD1, 0x104AB507, 0xF66B0000,
    0xC01C701B, 0x185CBD87, 0xFBBDCE76, 0x85BC22F5, 0xFA304809, 0x0A478CE8, 0x02900742, 0x5FCA263F, 0xE7936D2B, 0xF284165B, 0x42A7CFD5, 0x36E50342, 0x7FE08957, 0x6801F7BF, 0x195F6FFB, 0x43E2FFC2, 0x573EF817, 0xDA0FA4F7, 0x406E0722, 0x2924A54C, 0x1C87DFC0, 0x401B7C89, 0x11326555, 0x440B829F, 0x6ED60000,
    0x317EE4D8, 0xF7E24AF7, 0x8BFF79BE, 0xB3F9CE06, 0x5DB1C084, 0x51DD68C4, 0x07382424, 0xF854806C, 0x9490044A, 0x881F0E31, 0x83EA43B0, 0x4E922E3F, 0xD86E6FE3, 0x1DDFE821, 0x66FD419A, 0x9FE370E0, 0x59024F07, 0xFF1A2905, 0xF166907A, 0x2FEB9D81, 0x827F1213, 0x6DEF7D82, 0xFCEF964D, 0xFD5CF07D, 0xA1C90000,
    0xDB4D16CA, 0xA10843E2, 0x18941771, 0xD03B03F1, 0x5FBEB05E, 0xF57F8161, 0x502521F6, 0xC00B44E3, 0x11191D4D, 0x6134065A, 0x0C4EC3A0, 0x15543FCB, 0xF373FADA, 0xE3AFDF67, 0xD77FDEF3, 0x0E7E5DDF, 0xCFFF7B9A, 0x4F736191, 0xD3B71E86, 0x35396C41, 0xDB08A898, 0x2D433A4B, 0xBF609313, 0xFFE9557F, 0xAC1B0000,
    0xA09889A9, 0x62AF5776, 0x01FD76E1, 0x00421048, 0x04D64007, 0xDCB6E5FE, 0xC3F660BF, 0x2EB257C7, 0xEF850DDF, 0xC78C6ABF, 0xF6B7AFF3, 0x247FDD5F, 0xFFFFF45F, 0x635BD7FF, 0x3016FF7D, 0x000C04E0, 0x00007680, 0x000F6003, 0x20F411E0, 0x0E51FB40, 0xB42D6B7E, 0xA097376F, 0x007FEA48, 0x66BD7092, 0xD7FC0000,
    0x41917661, 0x5FC3CD28, 0xEFFF0084, 0x8FDA609F, 0x9EAF49AC, 0x51F01740, 0xF807C602, 0x0831DFF6, 0x2E019E8B, 0xE20B59F6, 0x6FDEDB7B, 0xEB056778, 0x889E3824, 0x14179FC4, 0x3399B9C3, 0xF8C4CDB1, 0xD1592E91, 0x8510070D, 0x1ED8C3B7, 0xEC58A950, 0x8D0C07C9, 0xE00BAB01, 0x163FD72D, 0x5FEFD7DC, 0x1FA80000,
    0x578784CC, 0x5EF67722, 0xAF6F103B, 0xEDCF51EC, 0xF4850945, 0xC17DC17E, 0x143D90C0, 0x20B9A60C, 0x835367D2, 0xD6220215, 0xA1C24895, 0x7B19971A, 0xC490F439, 0x04072CA7, 0x4067D900, 0x461D1050, 0xFCD00807, 0xEE426232, 0xC4B6C0A4, 0x71A1AFC3, 0xA9811E3B, 0x74016322, 0x4B1E055F, 0xFBEB135E, 0xABF10000,
    0xFF0FE73B, 0x00C87DD3, 0x1046ECFE, 0xC977DFEC, 0x9B63F485, 0x687E802C, 0x71BE8222, 0x5F7E1F24, 0xFFFDE71F, 0xFE857653, 0x21903820, 0x206E0802, 0x87380FC0, 0x1A00F7FF, 0x102EBFF2, 0x1D7B66EC, 0xD91218BD, 0xDC1E3CF9, 0x452FFC7F, 0x2C3DFD39, 0xCF85DEE6, 0x761D3C22, 0x38FF7441, 0x7752908C, 0x27A10000,
    0x3401483E, 0xBADD0B8A, 0xDFFFE52B, 0xF362590F, 0xE24D607B, 0x20D03FBC, 0x4F5D0998, 0xE301FCF5, 0x200F7861, 0xC0BB3FA0, 0x15E28802, 0xFCDB013B, 0xC57B25C5, 0x6919B626, 0x7CF78533, 0xF5F1066C, 0x2E1476EC, 0x398E2F63, 0x75FDD09E, 0x55CE6FD0, 0x0F376FCF, 0x9A9D6E94, 0xFD6A9101, 0xF54D327B, 0xFCD60000,
    0x07ACEEDD, 0x0DA7DF9B, 0xF17F9DC8, 0xE84E88FF, 0x817D7F96, 0xF62E3C80, 0x612DBBCB, 0x51EF22BF, 0xE1E16DB5, 0x3C0C6E59, 0x4223EB8C, 0x2F2EF195, 0x73B82E07, 0x56CDB0E9, 0x000A23CF, 0x002A87F0, 0x00FCEF80, 0x1EF51803, 0xEB39FCFD, 0xD26DFFAF, 0x71F6FEA1, 0x0FDB7C3C, 0xFAC9B763, 0x54696DCF, 0x59100000,
    0x88AD8F74, 0x2731400D, 0xE2503F7F, 0xA390A9E9, 0x3DC3BE0D, 0x1CFDF160, 0x840C1C03, 0xB3E2E2D2, 0x7C8FFCBD, 0xE05FD0BC, 0x36CE1FE4, 0x978CDF5A, 0xBA87E894, 0x31B6E193, 0x0EEDF8CA, 0x8B800C30, 0x14512427, 0x90043B5C, 0xA5DB3973, 0xECE89BAD, 0xED0AF57D, 0xB62943D1, 0x1D57F6CA, 0x6D13F097, 0x11BD0000,
    0x03FE0525, 0xFCFB495E, 0x07D5C324, 0x87EE27FF, 0x775E9749, 0xF5C3B63D, 0xEA5AD7FF, 0x7C17CF78, 0x76FFFF74, 0x2F7D5FE0, 0x0B3E1AE0, 0x6C784001, 0x29A8146E, 0x03408218, 0x50DE01BA, 0x03905782, 0x3C83F2DA, 0xF40E5FAD, 0xE0A74DFF, 0x1EF037FB, 0xC695FBFC, 0x6BCEFE8A, 0x0B7F1BB1, 0xFDC28B7E, 0xFF9A0000,
    0x86C235FB, 0x6EF3B1AA, 0x73BF06BA, 0x0378AE61, 0x42869B3B, 0x5E8287C0, 0xD71CAE2A, 0x3B87E29D, 0x381C3A97, 0x8FD708D8, 0xF080F49C, 0x851D4FCB, 0x00D6E2E6, 0x11DCED2F, 0x615C01E6, 0x75C3C06F, 0x6D367435, 0x8B653FC5, 0x0B670DB9, 0x7DFD24C7, 0xE49DEBD1, 0x214BC90A, 0x0124B031, 0xF1806FB4, 0x5C9C0000,
    0x1427A0E5, 0x77056A1E, 0x578140E3, 0x0143B018, 0x837781C0, 0x00285EB4, 0xE4440C3A, 0xFD71FFF3, 0xC703EC49, 0x7800A60B, 0x003BF1B2, 0xA55457EB, 0xB3647FF9, 0xDA07EF03, 0x0714668A, 0x902AA542, 0xFC382983, 0xF70D2830, 0xF11FC00F, 0x053501C1, 0xE91BA01F, 0xE433C9F7, 0x67C7C9FE, 0xD5063743, 0x85790000,
    0xA386D6FD, 0x6DE37FC0, 0x22B654AA, 0xEF2B3A02, 0x81DCE86A, 0x4B9C2E17, 0x6F08E0B2, 0x7A0A1A79, 0x818A2761, 0x85BC7EA4, 0x7AB1798F, 0x3FF367F7, 0xE4722F67, 0x081DED58, 0x6A9F5FAA, 0xFDE1DBA5, 0xDC012E91, 0x454B9BBE, 0x50B2CE69, 0x9DD47A95, 0x4AEDE403, 0x075ED09D, 0x89E019C2, 0x2000A7E0, 0xFC110000,
    0x2F624408, 0xA1EE4435, 0xA01FBA6C, 0x13C2337F, 0x8F5EB467, 0xD7AD8504, 0xC77CC267, 0x3BC4ADEA, 0xE817FDB8, 0xE8FDF468, 0x831F2AA8, 0x08849D80, 0x430DB7D6, 0x9203F611, 0xB2AF004A, 0x402FB896, 0x3EDB936C, 0x1BD15D15, 0x457ADD4F, 0xFC9DF82F, 0xF9B93D3E, 0x3C4F8FE3, 0x01609A3A, 0x0900D869, 0xD1690000,
    0x528DB763, 0xC38FEE7B, 0x40A52416, 0x68EBCB3D, 0x59EF83D4, 0x6F0AAF65, 0x050F54BE, 0xDBFA8F3C, 0x0F0DFE87, 0xDC2B903A, 0x440310DC, 0x505707C0, 0xF2081E59, 0x8A81A4AE, 0x07CE9571, 0x93F017AD, 0x0C12F13E, 0x87475E75, 0xFC3D8B3E, 0xF83A0F9B, 0x495FFDF7, 0x6BEEF329, 0x0AE712A0, 0x01A9182A, 0x31960000,
    0x2C13E9BE, 0x9A5F201A, 0x47DE32D6, 0x7D237807, 0xF82792CF, 0xD1D041F9, 0x81088761, 0x0370FA33, 0x6D1D6606, 0x70F835AF, 0x7F42E87D, 0xE1BD287D, 0x8253DE04, 0x2DC9603F, 0xE672077E, 0x5EA2FCB5, 0x69C0D23A, 0x1D03B109, 0xED8B10AB, 0xB4F68F31, 0xE7CA63ED, 0x1FE0EFF0, 0x7E9E03E8, 0x13A07BED, 0xC4B80000,
    0x17B517C6, 0x9FD7EFC3, 0xB0CF8437, 0x16F00F20, 0x76381A1F, 0xAFAF0698, 0x32D8822A, 0x379040AF, 0x988006EB, 0xFD21E7FF, 0xFB7AB3AF, 0xFBEFE537, 0xF0BEDE01, 0xD851E8B8, 0x4D7D9D02, 0xD36EFD9D, 0xBB234ABF, 0x1C90E835, 0x641ACDE8, 0x47D36E98, 0x70823D05, 0xD41B1C4E, 0x8386C457, 0xB0EBE43B, 0xE2660000,
    0x614A155D, 0x7D9B7C1B, 0xB5FB0561, 0x1D9D8C03, 0x1F9B8658, 0x3ECE2A2B, 0xD0C3A59A, 0xBE1EC49A, 0xD86BFCFD, 0x1E4F8743, 0x6F5A1B1E, 0xF55747C3, 0xB0807B82, 0x86C9EAA0, 0x4E047011, 0x865F53C0, 0x9CF01B6D, 0x5E040D3A, 0x407000AC, 0x05861C02, 0x72DBA81D, 0xFD4F0018, 0x0C06FEC0, 0x40A81B4E, 0x91D20000,
    0xB7948C31, 0x093426D6, 0x0608AA2D, 0x9E93D3F5, 0xD47A8BBD, 0xCC270A3F, 0x6EAF4A6D, 0xF22788AA, 0x1C505CEE, 0x451DA17F, 0x0793DFF0, 0x7805077A, 0xD246DE40, 0x6D1BCA02, 0x1C3F3268, 0xEAE024DF, 0x6C9FFC64, 0x5F36FC81, 0xFF62F8A2, 0xFCD3F72D, 0x9980C0A8, 0x4D6BB972, 0x0DBE44BB, 0x9FE7DBDD, 0xB5A10000,
    0x7A34D081, 0xA3FD178F, 0xBFD28DCF, 0xF4ECD1F7, 0x0EF52ED5, 0xC5AF8DB4, 0x471CBFAF, 0xA237E20E, 0x77E88F7F, 0xDA34223D, 0xA1665E00, 0x1D63D3D1, 0x78A0DF2F, 0xCF12E07E, 0x0002EEBB, 0x001EEE8C, 0x02F65F40, 0x088E3B8F, 0x67E1FFF3, 0x87D87EC0, 0xB2A3E008, 0x2C5E032F, 0xBFC37937, 0x7FFAF6E1, 0x36E20000,
    0x3477CF67, 0xAB1E2FC9, 0xFEEE5D37, 0xFCFF537C, 0x8B14A9AF, 0x023983F8, 0xB7018E83, 0xB03E3C1E, 0x66E17626, 0x460B805C, 0x2B7C4661, 0x4FFD681E, 0xBE60F7E7, 0x2909BD2D, 0x7306422A, 0xFFE1513B, 0x39C3CC56, 0x166AFF8D, 0x00A93DF5, 0x7178C800, 0x3F4E9755, 0x586AD1F6, 0x17AE05C8, 0x57FBC07F, 0xFF8D0000,
    0x4D49E775, 0x04844A64, 0xBF9E88C0, 0x3CABD0EA, 0x8F9A052E, 0xCFA6A489, 0x8D9817EE, 0xEDF4246B, 0xEC2C8BC9, 0xD9AB7ACC, 0xBB4135C7, 0x4E2EFA2B, 0xB2E578DF, 0x8F178740, 0x7E795198, 0x4E1A81ED, 0xE9E0228C, 0x18067B89, 0x30F402F2, 0x92411DC7, 0xA500BB94, 0x7C27FB12, 0x5016C7D3, 0xA2740CB6, 0x07FC0000,
    0x1CA282BB, 0x5D5EF49F, 0x2FFFA49F, 0x37EEBC83, 0x634A2A2A, 0xE8589185, 0x748C55E3, 0xC005D600, 0x47B30A4A, 0xCDECF3F7, 0xFB0731E1, 0xF4E9FA06, 0xE368A029, 0x50404177, 0xD01C04B0, 0x00C18D20, 0x1F97F941, 0xD8E7D7DF, 0x806FFFFF, 0x377B79F8, 0xC41DEFCF, 0xB20FE25C, 0x3C7F00D6, 0xBF8AAA7D, 0x631F0000,
    0x87D7E4FB, 0x9E33BA0E, 0x27757C2D, 0xECE1A046, 0xAFD4248F, 0x8D3C9100, 0x5D1280F5, 0x313A21EE, 0x83DC7658, 0x3FFFF611, 0xEFFEBA0E, 0xE88840B1, 0x118B2F84, 0x2EFCABA0, 0x3F170804, 0xF7CEC0A1, 0x05104608, 0x18A0C863, 0x80803D7D, 0x07641780, 0xDDF1918E, 0x607D886C, 0x698BE750, 0x78581960, 0x2BAE0000,
    0xABF273FA, 0x3FC65A4F, 0xF3646E30, 0xB81C4B8F, 0xB500A3B7, 0x451F4744, 0xFFF5E19F, 0xBF1410C6, 0xC14204F5, 0x3C80EBC3, 0x0F97F220, 0x9598F30D, 0x735F810A, 0x4DFE9B24, 0x8CDEDA02, 0xDFD798F2, 0xEEFB0599, 0xC4471F44, 0x3EF1FEAD, 0x344FADFE, 0x2D23F3D8, 0x9DB5CBFE, 0x3BC806C3, 0x9C258828, 0xD59F0000,
    0x12D5E059, 0x58CFC13D, 0xCAEFFCF9, 0x1C9B9D00, 0x061C9585, 0x1F3B784C, 0x2AF7F064, 0xFA8EB05C, 0xC5E06139, 0x2D101903, 0x88001088, 0x5E0C0669, 0x11DEF20F, 0xEDD7A93D, 0xA8F92DC7, 0xCFE1930F, 0x7C5E79D1, 0x9FD59C07, 0xF76D8014, 0xFBF60427, 0x9F39303B, 0xA9085F87, 0xFF2B819B, 0xBEEDF477, 0xFF660000,
    0x8BE47710, 0x60FA3FE5, 0x4EFFCCE9, 0xC4AE73FE, 0xC1607B79, 0xB0826BBA, 0x7DDFD60F, 0x7F7FC5BF, 0x90071BF8, 0x03CAB200, 0x00285001, 0xACD6003F, 0xD962BE14, 0x6016A033, 0x3DDE813C, 0xFEE05A3D, 0xCF6D5513, 0xD53F1BE4, 0x648B52CA, 0x83BF62DE, 0x6A7ADB22, 0x3BFC84E8, 0x7CA01461, 0x63E117F7, 0xDE830000,
    0xD88CB582, 0xEEADF4E8, 0x579E4749, 0xEEBC90F7, 0xE8FB0BF7, 0x20FDFBFE, 0xC9881F5C, 0xD60F9F34, 0x6005F603, 0xAC3FB73E, 0x1CA24CC4, 0xFF4FB86B, 0xE7F877E2, 0x46C264F3, 0xBC980663, 0xA7045A26, 0x43AC306C, 0x39CD9311, 0xB05E0442, 0x06B67FC0, 0xCB5A240C, 0xDC479B29, 0x87A893EF, 0xF7FFC7BA, 0xADD50000,
    0xB1053714, 0x90DD2693, 0xF5B4803E, 0xC4B659FF, 0xD20FB298, 0xD7C38102, 0xEFFD011F, 0xBFE940BB, 0xDC013C97, 0x7C0F1E5B, 0xF1EE7216, 0x0AF90B6F, 0x1A6D3B81, 0xFA26DFAC, 0xE1D97476, 0xBB43B8BD, 0xF027F3D3, 0xD4E72DFC, 0x8215BD02, 0x00ECD704, 0x4F85B18E, 0x30B884A6, 0x01FB63E4, 0xA0452AFD, 0x36E80000,
    0x3382E544, 0x8DBFEA0F, 0xBE7FEAFB, 0xF33B1FEE, 0x911B7540, 0xCDFDC028, 0x19F000C1, 0x5986A0B4, 0x61FCAF9F, 0xFF1B9FCF, 0xE2FEEFB7, 0xF3ADB66D, 0x7C7E99C7, 0x0A0D31DC, 0x22E13F12, 0x7E4139FB, 0x58154906, 0xC770BCE7, 0xC8041DDD, 0x007017E0, 0xDDED4002, 0x343A01B5, 0x34CF5907, 0xBFEFD26A, 0x76FF0000,
    0xEBEB9D3E, 0xF4BC1DDB, 0x7FE0C67F, 0xA72F7D42, 0x284460F7, 0xD4EEFFC3, 0x577FF6AA, 0xA5FFBB7B, 0xFD419139, 0x01A07F80, 0x013C6003, 0xD9E801FF, 0xFC40FEFF, 0xA7BFFAAB, 0x9FAB55F7, 0xA47EAE67, 0x297203A4, 0x69FD1273, 0x00D91BCF, 0xFC04D552, 0xD1B5683F, 0x3E604505, 0x891F3E58, 0xEF2C6D5B, 0xFF720000,
    0xD4864EE9, 0xA54CF016, 0xAB6A66BD, 0xB64AC884, 0x30F5808F, 0xA1A8837D, 0x42025444, 0x49A50C7F, 0x63050E86, 0x7070C0DC, 0x01C240FA, 0xB91407D2, 0x67AB5F8E, 0x3DE3B8AE, 0x9FB99271, 0xEFD85E57, 0x8FC6F2F0, 0xE9DEE482, 0x4FF3E7CD, 0x76300CF5, 0xDBD52F77, 0x2F013FCF, 0x321AE7D9, 0x1B642CF5, 0xE9DE0000,
    0xE388A9CE, 0xEB884E8D, 0xA8C79C5C, 0x81DDBDC0, 0x47FF013F, 0xFC680BBA, 0xCE02FD92, 0x70384478, 0x2E440410, 0xE0601427, 0x9323E19F, 0x7E8A0FE2, 0xE3088619, 0xFB244C49, 0x5A3E8EDC, 0xC75BD7DA, 0x31CFE6F9, 0x77FFCEA7, 0xE5E05C49, 0x9FDBC861, 0xC566E870, 0x8CBAF1D8, 0x2E9FF0CB, 0x7F6F8C70, 0x1B450000,
    0x1EA4B5B4, 0xF7CCBA03, 0xAC63E8DE, 0xAEBC2260, 0x6431A1AB, 0x44FA1396, 0x09A740E0, 0x10660CBB, 0x27A30682, 0xEB83B632, 0x687FD314, 0x4FD20B26, 0xFF9293E7, 0x3C57BE9F, 0x9FF1CFE5, 0xD74EDF1F, 0xC6773CDE, 0x4168E799, 0x24362F01, 0x45FF7543, 0x3FF1A039, 0x230A08DE, 0x13080CC9, 0x2FDE35E3, 0xF66F0000,
    0x7ECED3C8, 0x2C080310, 0x8C506B7C, 0x80608EFC, 0x0BE47AC1, 0xFC47BC1B, 0x1C3B41E0, 0x1D087D02, 0x29C3A251, 0xB050401F, 0x1602633B, 0x755891FE, 0x66965EA8, 0x5C41EEA2, 0xB3800A12, 0x5E1F41B5, 0xC2C355FB, 0x19EAEEE1, 0xB3283553, 0x605E8CAA, 0x301EEF25, 0xA8653FCE, 0x8614F687, 0x12006F15, 0xFB090000,
    0x6651C34E, 0x02345596, 0x54C45F4A, 0xBE2466AF, 0xB1E94202, 0xA14173C0, 0xC02CFBB0, 0x2441FF67, 0x81BC45C2, 0x49F0ED02, 0x1FDCA3C3, 0xB260900E, 0x85F050A2, 0x7BFE8C03, 0x33F09B78, 0x5FF043A7, 0xFC6E3001, 0xC8AF32A0, 0x6EC0EA03, 0x4D6D0E17, 0xF6A988BF, 0x528A3F23, 0x7447FB2F, 0x7F9F3D1F, 0xFB870000,
    0x30E2FA21, 0x89EEDEEA, 0x7D21236D, 0xE80C27BE, 0x013197FA, 0x1D57B2C0, 0x128EBE24, 0x770BF08F, 0x41DF520C, 0x13D60C00, 0x03C020D8, 0x78223357, 0x025DD848, 0xB5740A42, 0x332E0FE5, 0x8E801ACA, 0x890FF73E, 0xAE35D429, 0xA84FC794, 0x773446DB, 0xE75BF678, 0xAC6E0E10, 0x24960CF9, 0xB0022D7D, 0xFE9C0000,
    0x692920D3, 0x2C639D5E, 0x82987740, 0xB731F123, 0xEB65440F, 0xEAFC6179, 0x63F1CFE7, 0x76D0F475, 0xFF8FC1EF, 0xE0F04EB8, 0x1FC6B909, 0xE38F8A32, 0xEA2C8FFD, 0x56053AFF, 0xE04755A7, 0x4E66C56B, 0x70202C20, 0x9982F932, 0x540436C1, 0x4A1ED8D1, 0xD0192042, 0x5B78D99D, 0xEE23E2D2, 0x60E75FE2, 0xB6240000,
    0x025E1049, 0xE67EA474, 0xA2DFBFE0, 0xA2982A9A, 0xE215F39E, 0xD594C0C5, 0x4ED72CBF, 0xB5709BFA, 0x55387B91, 0xD17ECA00, 0x39AC3005, 0x85C902EB, 0x4F011CEF, 0xAA17F6F8, 0x1B3FDF9E, 0xEFB21A7C, 0xF883B51F, 0x8EDFDF05, 0x052FBDCD, 0xD51FAB51, 0x1A94C83F, 0xE41304F7, 0x40650531, 0x68034F25, 0x7F860000,
    0x14ED286C, 0x1CDF557F, 0xD5DFB3D4, 0x01FA3400, 0x9D8CE01F, 0xDBF601DF, 0xF89075CA, 0xD40F548F, 0xC17E1868, 0x1D006272, 0xC48AC01F, 0x841CD3BB, 0xC0447C2C, 0x16771AD0, 0xA0353801, 0xC2EAEA2F, 0xCF7524F3, 0xF10C431C, 0x2CFC42E9, 0x4380EE07, 0xCA0BB58F, 0x4C8D39B5, 0x48A5F8D4, 0x7D1F6A57, 0xF4FA0000,
    0x749E6493, 0xEE967CCF, 0xFCFFDA66, 0xE7DBAE9B, 0xAF0582E1, 0xEB0A7587, 0xC3492FE8, 0xF0C3F4C7, 0x620A79F2, 0x816ABE9E, 0x117042C2, 0x04DF3860, 0x55A74113, 0xB8686A7F, 0x2F02009B, 0x3002ECBB, 0x80C85DB5, 0x15BF35C6, 0xF369FF3C, 0x2B37FC72, 0xF95DEE00, 0x9AFAC5D6, 0xC8E85B3F, 0xC1C84B49, 0xBBA30000,
    0x07AD8627, 0xE6F57B57, 0xDFFA2168, 0x31CA75D9, 0x8D7F00E8, 0x8AA52E1B, 0x900667F0, 0x90E6B7FD, 0x24C15E28, 0xE40C0A19, 0xC00DA1FC, 0xCB260FBE, 0x54007FF6, 0x0F0BCB04, 0x10BAC042, 0x03AE6222, 0x1FC85808, 0x5F153502, 0x641DDF0F, 0x49DF6BE8, 0x048EBF02, 0x46FD85E1, 0x720D0E7E, 0xFBD7CBBB, 0x187A0000,
    0x8166F08B, 0xE1118B76, 0x710154E6, 0x00E4DB7E, 0xA52DFFA0, 0x70269B15, 0xDB99106A, 0x5B9919FF, 0xFDD21E16, 0x7E27F0DF, 0xF3BE10E3, 0x10460034, 0x07800284, 0x7E00F94B, 0x1028E070, 0x07CE726F, 0xFD7DF99F, 0x5BAF5FD3, 0x1F2FFE10, 0xA8AFBBFC, 0xD7FF0985, 0x22BC2877, 0x3E45E320, 0x505F9884, 0xE70F0000,
    0xBAFB0FDA, 0x53DB276F, 0xDFFFD7BB, 0x751987B2, 0xB894FFE6, 0x2A5EBCF8, 0x6F534FC3, 0x582EF0B0, 0x303E0E1C, 0xE1806D91, 0x0871DDC1, 0x2085B001, 0x79B92472, 0xAF64265B, 0xD1079DCE, 0x61E5A2F0, 0x0BF0FA35, 0xFCFAFA2E, 0x647B05C8, 0x5F24CEA0, 0x32B1DC03, 0x0AE7A01C, 0xDC684307, 0x4160C7FF, 0xFF9D0000,
    0xD8725BBE, 0x54940253, 0x815C1F44, 0x02F6A598, 0x3E277D0B, 0x70B3E1CE, 0xEF20D1F3, 0xF01C3F53, 0x02C3F725, 0xF87614B7, 0x0BC3D680, 0xFC197A77, 0x1C1291E0, 0x3D00FEA2, 0xCF2D493F, 0x9DD1E6BC, 0xA3844B3A, 0x64DA6C0B, 0xD53E5EB0, 0xD4E6D30E, 0x51997DF1, 0xDC838E9A, 0xEAA1C3CF, 0xE3296E5F, 0x67C60000,
    0x2E0667BA, 0xD7B6BB15, 0xE4FA432A, 0xD8F5CDFE, 0x29D4941F, 0xB795D647, 0xD4E42F94, 0x50C91D77, 0x6F801C74, 0x137FED65, 0xFE4E6F1A, 0x8000DCFA, 0x326BA7E4, 0xDE1BABA7, 0xA101EC0E, 0x8006531F, 0x40B82DF9, 0x8D38BF5D, 0xF10676E0, 0x2702FFD4, 0x78447000, 0xE21000B7, 0xD6800F3B, 0xE102BBC0, 0x98960000,
    0xAC4C193B, 0x977FD007, 0xFBFED037, 0xA4FF9BF2, 0xF9DD95FE, 0xCEB09F7D, 0xE80FA65F, 0xC2F706FC, 0x740315DB, 0x20D169D5, 0xF5259CAF, 0x4C10D0CE, 0xB50285C9, 0xB21C770D, 0xA894FA46, 0x2545D28E, 0x02DCACE4, 0xE5B63C0C, 0x7283FE64, 0xE033FACF, 0xE3FE88F4, 0x67A53F87, 0xB2FBD9F6, 0xDDED27AF, 0xB9820000,
    0xB67954D3, 0x87A601CA, 0x907FACF2, 0x4A7B0F7E, 0xEA775FE2, 0x062ED451, 0xFFF85A7C, 0x1E17A2F7, 0xA661D63A, 0x94391AC5, 0xAF8789C3, 0xF9112EBB, 0x132415D0, 0xB3C7E0EF, 0x31948DDE, 0x0BBCE85A, 0xD089302C, 0x01778383, 0xFE4E10BF, 0x24A0AC9E, 0x21ADB4F7, 0x95D51F38, 0x367A534D, 0x63BF1525, 0x27390000,
    0x6723A4AC, 0x61AFF5F8, 0xFBFF855C, 0x97F9FCC0, 0x7A3FF684, 0x0D1811C4, 0x0692B601, 0xC96E609D, 0xC23803DC, 0x97FE1B92, 0xE0945F9E, 0x2F875B63, 0xE811FE2E, 0x444460E9, 0xAEE4960E, 0x9045ECD9, 0x46E87EE2, 0x5204B0D1, 0xA86E8265, 0x9B38618F, 0x0F263DA7, 0x5CE958BF, 0xFE8EC0E3, 0xFF7F3AC2, 0xEA700000,
    0x33D200A3, 0xB4869096, 0xFABF30B7, 0x53D80F7B, 0x50C87FF6, 0x0BCFFD80, 0x6675482F, 0x3DA00082, 0xFF03F7AE, 0xE3FFE0B7, 0xBFFDC1EA, 0xFFF03A94, 0x6A0FE4D3, 0x013CC992, 0x04579481, 0x04805D58, 0xBD504B03, 0xE51ED827, 0x47584164, 0xDCDAC122, 0xC5DF021F, 0x87F81B6F, 0xBF7EF8AC, 0x7D2815FE, 0x05D30000,
    0xB2B29FB1, 0x5FAF981B, 0x77FF86BD, 0xCE7DDB1E, 0xAC33DC55, 0x64D89463, 0x1B32E860, 0x6A6C54CB, 0x0758E8F9, 0x94B4173D, 0xB360F364, 0xC69601EB, 0x1F532C16, 0x7A1FED45, 0xA1FA857E, 0xBF855E39, 0xF001F43F, 0x0666BDF1, 0x171D5F07, 0x2B4E7808, 0x17D79083, 0x223F000F, 0x335A04A8, 0x66C72CEF, 0xFEFE0000,
    0x52E37D68, 0xDCFBF50D, 0xFEFF9A9E, 0x7EDC08B3, 0xBDEBDD23, 0xBE3E79FF, 0xEDF83F5D, 0xDCF22EF6, 0x456004DF, 0x7A007D93, 0xD8078B87, 0xF41F207F, 0xA05006FE, 0xD6065FFD, 0x2E84FA53, 0x7D01D2BF, 0xE7DF2BA7, 0x506C1DD3, 0x7D7142A2, 0x1400002F, 0xD8CF4D0C, 0x3B45A2A9, 0x36FB31E8, 0xFFA000FF, 0xEE430000,
    0x984C4374, 0x8F11CB2A, 0xCD365670, 0x03F7CF01, 0x1DF3D6F7, 0xBABD855D, 0xC5CAA114, 0xBC6310EA, 0xC6C12E7C, 0xE473DE22, 0x82A0627C, 0x480606F6, 0xE220FE18, 0x0E07F1B0, 0x2E0E1106, 0x537040EB, 0x9F8821C8, 0x58016803, 0x8E6D8378, 0x4EFFFE42, 0x3439E41C, 0xB5E5C53A, 0x9A591AED, 0xD3981110, 0xBCD80000,
    0x0618D4ED, 0x84488D08, 0x0B28C810, 0x0C2E6A26, 0xC0CA08D2, 0x24503368, 0x262A0F14, 0xEE0E3534, 0x20B38CFE, 0x791DBFCC, 0x183E3F61, 0x2FFC8981, 0xFB3EFB77, 0xF14E72AD, 0x0E2BD2E6, 0x7DD8CE49, 0xBEE0DFCF, 0x4FF7C551, 0x5911B537, 0x36F8DD03, 0x9745747D, 0x0028ADEE, 0x32698A5A, 0x81FFA25B, 0xA62A0000,
    0x7B6AA62C, 0x128B3E93, 0xFE1E1BC0, 0x385BB823, 0x47BD0476, 0xF9082D0D, 0x0B10221F, 0x47144FCD, 0xFBD7D66F, 0xFE76001B, 0xE5BE17FC, 0xF0F47F06, 0x6E73A04B, 0xE1F0027F, 0x1681DCBC, 0x8003D6C0, 0x00C2F080, 0x3A07E40C, 0x00BE5A6C, 0x8333FD77, 0x097F05EC, 0x40F298E5, 0xA1FAD88F, 0x08B0A9C0, 0x74050000,
    0xC459061D, 0x57FF362D, 0xD9DFAD1C, 0x2CB0DFC0, 0xDF1D9A37, 0xBDE2C323, 0xCCD94286, 0x6F8E04EA, 0xF870C2E7, 0x522D0A78, 0x08746FE4, 0x47843888, 0x7C66E4CF, 0xC67091F4, 0x06BACBC9, 0xC3227518, 0xF39C8B8F, 0x180D34F3, 0x20A70FB6, 0x18817D44, 0x320FD8E0, 0x425E78D3, 0x12711780, 0xE9A477F0, 0xB9DD0000,
    0x21AA9CED, 0xB2BAF8FB, 0x3E5E9CB9, 0xEF993FB7, 0xA83655FE, 0xFF2A80A8, 0xDB67891D, 0x8A20D611, 0xD3F369D8, 0xFEDF93BF, 0xC8B8BFF8, 0x6DB7DC18, 0x0273814F, 0x8B6039E3, 0x6541BE8E, 0x503AAC06, 0xE0F7F13C, 0x35EE09F8, 0xC118515D, 0x7F827EC2, 0x5A26D662, 0x1A5FBFD5, 0xFEB705F3, 0xEDFF2F52, 0x0A6E0000,
    0x455838FB, 0x47B8656E, 0x8A576688, 0x38A2B4A1, 0x4FA3B96C, 0xFEB98F16, 0x8330F3C8, 0xDB17315C, 0x24CD120E, 0x8C420B69, 0xA643179E, 0x2E89B604, 0x1E6FAB82, 0xCBDFD570, 0xCFE3FD0A, 0xF866EBDD, 0xC85C066E, 0x84687189, 0xE603DF40, 0xF293FE9E, 0x472A6C40, 0x8E588853, 0x140035B0, 0x0000350A, 0x5D880000,
    0x875F2D1E, 0xE2145C8F, 0xA4002191, 0x802B7688, 0x05E5ADF8, 0x47F5FFE6, 0x0B5627FD, 0x04D955F3, 0x2292016E, 0x3DC97283, 0x1F004018, 0xB469131E, 0x0E6745D0, 0x74BA9E7B, 0x52B5F7B2, 0x1EFCD307, 0x868051AA, 0x40815C72, 0x102F8149, 0x4ECBFE0C, 0xDC10207A, 0x8F9C0793, 0xD35800EB, 0xFFC72CC2, 0x2F620000,
    0x3D477C77, 0xCDE7B255, 0xA7D22170, 0xFDE4392F, 0xF6D508F1, 0xE0CC1E42, 0x43706238, 0x6B4F2DC4, 0x7DE11DD0, 0x9E1EDA3B, 0x93B852F8, 0x20FBAE1B, 0x96FEC10B, 0xC57C1A70, 0x37411087, 0x78106C24, 0x43888824, 0x07D97B79, 0xF3A24CBF, 0xC20B7ABD, 0x7CA52E43, 0x96F35068, 0xFFA2EC51, 0xDFBEFE6E, 0xC6E20000,
    0xC867F3C3, 0xF8F71623, 0xFF90904F, 0x9E846211, 0x204CDAF1, 0x6CFC3FCB, 0x2CE7FFFD, 0x8516FFE3, 0xBC79273B, 0x600053DC, 0x3C22BC01, 0xB966003C, 0x0B600F45, 0x360177F1, 0xC0FFF93D, 0xBFFB9F2F, 0xE5958DDF, 0x10094ECC, 0xE18A3FF8, 0x0FEF4EA5, 0x4726282F, 0x1F030213, 0x9003FE91, 0xF5FC5153, 0xFD540000,
    0xB0E4A7A3, 0x9EF3FCB0, 0xE19F8BCC, 0xE9FF4E03, 0x0FD4783D, 0x6F4E0A51, 0xE2F8858E, 0x4B4A35E6, 0x74FF977B, 0x0E4FFBEC, 0xBDEFFFC5, 0xE0A6BD4B, 0xCE37DB03, 0xC6D8207C, 0x6B93A9EA, 0xF21059CD, 0x04C7AA68, 0x1C1CC7FC, 0xCEA79B18, 0xAB6F3E05, 0x2AC5B3F3, 0xFC346123, 0x2286D444, 0x91CAB322, 0x2E1F0000,
    0x0469596F, 0x82696774, 0x40186A80, 0x78874318, 0xCFEB5986, 0x19E68F2B, 0x6A71F0F5, 0x628BEFDF, 0xDFA3CFF9, 0x1E7DC633, 0x83F64EEE, 0x3832DDC7, 0xE32FD85C, 0x99E28189, 0x09007858, 0x01062213, 0x11C607F8, 0xBFE75010, 0xF2B04115, 0x7F51C41F, 0xF00A0C8A, 0x94FD9E1A, 0xE8086C46, 0xC0125900, 0x47C70000,
    0xD4368498, 0x4F5789E3, 0x71F962BF, 0x49DE7A07, 0x9378806C, 0x817B1F67, 0xF86795A2, 0x84783CE4, 0x13402C9A, 0x9DCC858D, 0xF8476F44, 0x0067000A, 0xE6142463, 0x3989A5AE, 0xDC198962, 0x53D3360F, 0x006228F6, 0x8EB427B1, 0xB01A75DE, 0x8C43E802, 0x61E5F001, 0xA17FA670, 0x0513CE50, 0xB447E514, 0xC0610000,
    0xF0163589, 0x7FEB90D3, 0x6CFFE37E, 0x0399C5C8, 0x3380C208, 0xCCCF8429, 0x74DA2D70, 0xF703F776, 0x7A3FDC09, 0xC3FDF6C8, 0x47FBE94E, 0xD0E05CF0, 0x04CEDC0E, 0x148DCEC0, 0xEBD48904, 0xDBF383AA, 0x9560D79F, 0xFA07866F, 0x402896FC, 0x0265DF10, 0xFBC7781F, 0xB46887AC, 0x20067DF8, 0x014528B9, 0xE3410000,
    0x55EB09D8, 0xF7CAFE59, 0xBEFFE6F3, 0x97482AD0, 0x61164422, 0x1E6C986B, 0xBC4A0806, 0x4678F87D, 0xB98E607E, 0x41D812F1, 0x7F01B5E3, 0xFE5C5DF7, 0xE0D2C0DB, 0xAEE9D7F8, 0x44464EA2, 0x0910E1F7, 0x3EB84367, 0xFF86DBFF, 0x54691F02, 0x4C10A8F7, 0xB92A0087, 0xDFA2FFEE, 0x7E611240, 0x3DE8BECD, 0x028B0000,
    0xB77A3A99, 0x7DEE25BB, 0x76022342, 0x38052A14, 0x95B5C50C, 0x93AF2763, 0x695BD7AB, 0xE199FFE8, 0x61C6DFD5, 0x3C6ED9BD, 0xE3F7FEDC, 0x93F9EAC3, 0x6CEB0557, 0x7AF531FC, 0x6A050014, 0x3C8A6EC7, 0x9901B89F, 0x1C3FA081, 0x06507F40, 0xB43A2D00, 0x03EDC001, 0xD5AE020D, 0x8733190D, 0xFFBE025B, 0xCE110000,
    0x1B5B6F28, 0xCFA7FB2B, 0x2DDF743C, 0x3297BFCD, 0xA815483B, 0x91AD43A6, 0xEDFB3471, 0xBE20A8D1, 0x99204B58, 0xE7596AA8, 0xB755EEBD, 0x5010BFE3, 0xF230FB9A, 0x960FF178, 0xA0040605, 0x00089878, 0x0304C371, 0x734CFFF6, 0xDBF8FBC4, 0xCCFE5A93, 0xE3CDF391, 0xB1797152, 0x04079094, 0x05B766F4, 0x2DFB0000,
    0x103DCFBB, 0x66C14BCD, 0xE8BFC664, 0xF8360875, 0xA4E887DC, 0x7D61F832, 0xF60E3EFE, 0x32F1BFFF, 0x9F054E35, 0xF0045879, 0xA81634F9, 0x808277AF, 0xCEEF5952, 0x61F18F56, 0x51EF0F59, 0xA6D30AFB, 0x4A00ADC1, 0xC24B227D, 0x062E3CF0, 0x921953D4, 0x76022E9F, 0xA47BA0C4, 0x03DFB0C1, 0x886898E5, 0x58BB0000,
    0xC69791B6, 0x37DCC80F, 0xFFFE323E, 0xED70A651, 0xBC0B5212, 0xE22BB0FB, 0x308C43F2, 0xB04EF78F, 0xC0F85678, 0x79238821, 0x281CB3C5, 0x39BF3652, 0x35907F16, 0x761780C7, 0xD2F6C069, 0x0E782E81, 0xE102F096, 0x2F6DACE1, 0x76E54B69, 0xB752ED9B, 0xB23E3734, 0x96620577, 0x1BE4D05D, 0xAFFB117B, 0xEB060000,
    0x2E351BFC, 0x52B411DB, 0x500289E0, 0x01669811, 0xCA605545, 0xF027EECA, 0x20AF1006, 0x5F9B4160, 0x341DEFD9, 0xF875F4FD, 0x87DF254F, 0x0A9D0FE2, 0x4AD0BE4A, 0x36AC7A57, 0xB41E269A, 0x49D5C647, 0x07017460, 0x013C2300, 0x27CC5E22, 0xFD404229, 0xEBD7E4BF, 0xB0C03F10, 0x822D712E, 0x13CF5E2D, 0x31AA0000,
    0xBAD70CCE, 0xB663B5FC, 0xAF75B377, 0xB8D646FA, 0x98F79DCD, 0xD6429DA0, 0x3C34B845, 0x5E55BB33, 0x1C97FF11, 0xF06EEC2D, 0xBD1642DF, 0x103803FA, 0x20088E0B, 0x14C152BE, 0xE4007BD3, 0xF01F157B, 0x80903DFF, 0x27D3C7FC, 0x00DAAE43, 0x8078B6E4, 0x1A01C848, 0x7989EB62, 0x93E6EA5C, 0xBBEFA040, 0xD14E0000,
    0xE67F0C5C, 0x4AFF502B, 0xFBFF5439, 0x76E73806, 0x41FE8972, 0x5EEDD1FF, 0xEF5DEEAB, 0xFE05FEB7, 0x9000A5F6, 0xEC001EE6, 0x0003CCA8, 0x006F4158, 0x29D8ACDF, 0xDFCEEC65, 0x30FFCBC4, 0x02D39FC8, 0x00ECE3E0, 0x3CE87E85, 0x7D77F9E1, 0x9CBC7A01, 0xFEBF469C, 0xBBFC030C, 0xFFE2FE0B, 0xFFFF4A5D, 0xFDE50000,
    0x72579C91, 0x4BC77085, 0xFB17A8B6, 0x31FA27C8, 0x15155816, 0xFF87424C, 0xE62AD703, 0xF086107F, 0x28260E63, 0xC200FA08, 0x2055B0C6, 0x96FC00FD, 0xDCB0DF1B, 0x297FF02E, 0x337EC24E, 0x7F625E55, 0xF03DDAF7, 0x719F8360, 0xBACDFC15, 0xD5CC7F9E, 0x73188907, 0x403900DF, 0x08048600, 0x680364AD, 0xFF940000,
    0x0400C06C, 0xB8B99AEA, 0x03AD5B08, 0x07080133, 0x7B062B4B, 0x23765222, 0x003E40F2, 0xED82F853, 0x86FDFF71, 0x183FB1C6, 0x00FE2F00, 0x03C00DA9, 0x8110EFA1, 0x956FFF26, 0x867F7753, 0xD4F07539, 0x00A3B6C8, 0x3636C001, 0xB87182CE, 0x57337113, 0xDDB5E75E, 0x3B8F472A, 0xF2C6FF65, 0x61CFBA08, 0x036F0000,
    0x43018EA3, 0x75B97A32, 0xB2F2FB2B, 0xCFCC3C1C, 0xE8B947DD, 0xF1B2B6BD, 0xB7626070, 0x6C05C0B1, 0x8006FF38, 0x21FBF301, 0x76E62147, 0x3861AF68, 0x475B08CB, 0x25E00671, 0x3C0070B1, 0x7869007F, 0xD7406A7F, 0xD0B33FFE, 0x01E17E2F, 0x1F584BEF, 0xFB04367A, 0xF10B7F48, 0x2DEFE285, 0xFF9D1DA7, 0xF7520000,
    0xAB1E7C87, 0x0767FDBA, 0xFE5BC784, 0x995099D6, 0x900407A6, 0x3C67F833, 0xC4569C07, 0x86C03FB3, 0x2E8CFE2B, 0xF888E7FF, 0x026679EC, 0x1017DE81, 0xF08F7ED2, 0x853F9065, 0x24F8D1C1, 0x81ACAD70, 0x3642942B, 0xF4D0634D, 0x12EE6E5F, 0x6EBCCF79, 0xEB585FB6, 0xEB213375, 0x07DFFAA5, 0xEC8B7247, 0xAF0B0000,
    0x127A16A3, 0xD755BAFB, 0xF3D79B8D, 0x1CF80BC5, 0x6592933D, 0xEEE60589, 0xF8E05597, 0xCF2793F2, 0x54002E65, 0x0104DE8C, 0xFA0744FC, 0x801B38C1, 0x631FE77E, 0xA1F9A797, 0x5F5714F7, 0xC0483C98, 0x4C0CCE83, 0x7A67627A, 0x7FFBE2DF, 0xF666EF7A, 0x5FEFB2FE, 0x021BF057, 0x80BF47F2, 0xAF80CE2F, 0xF87D0000,
    0xADDA6F5B, 0xC7B5EE47, 0x040FE698, 0x00350BC8, 0x31D77193, 0x2F77BE20, 0xF917F027, 0x80FFC5B5, 0xFF76C93F, 0x578BD10B, 0xE4289642, 0x24B4242A, 0x13992207, 0xF12C62CF, 0x794D2DB9, 0xEA00E2DE, 0xA2F2FD88, 0xE7FE4242, 0x3583BEC7, 0xF47FEC86, 0xC71B3DBB, 0xCD0697C4, 0x047F0E87, 0xF7ECFD21, 0x43EC0000,
    0x9958CF3F, 0x01F62445, 0x978FE3FE, 0xA0FDC86E, 0x6BD39FB4, 0x7E01E83F, 0x72068A3B, 0xEFF09AC7, 0x7F03D58C, 0x79D18EE6, 0x91BEF7B1, 0xCFAAB1F3, 0xF726323E, 0x082F3C55, 0xD1DA8954, 0x32822E44, 0x464347FB, 0x79A3B867, 0x4122077C, 0xB3AA3B86, 0x09804F57, 0xB6236692, 0xA3200FAC, 0x40009124, 0x3EBD0000,
    0xF8377627, 0x107A7CF9, 0xFA016C4F, 0x5C3F904A, 0x299B00EF, 0x595BF7BF, 0xD3AFFEC7, 0x05FF92FA, 0xEEC2371F, 0xC00030E0, 0x0C3F5805, 0x63EB003F, 0x66F0EFF8, 0x999B0AF3, 0x58085E1D, 0xEA1C82B7, 0xD6EAE6BE, 0xE72E24EC, 0x04CE1308, 0x67990890, 0xCAAE1A7D, 0x1F57FE9C, 0xABDF9949, 0xEFF7CF23, 0xBD2C0000,
    0xB029AFA5, 0x443DDB9C, 0x1F3A3689, 0x67F94F09, 0x17D7CAD3, 0x27CC1F1B, 0x9AE8DBB9, 0x3F1C82C7, 0xF831FA1E, 0xC2B50DF5, 0x327E95F0, 0x6D966731, 0xDEEBBBD7, 0x87ACEE30, 0x50166B17, 0x6325F114, 0x77092207, 0x30A8A067, 0x12201D33, 0x7728F61E, 0x899262EE, 0x768F1615, 0xFF7B84D9, 0x0E8AF487, 0xE4FD0000,
    0xC2FEBC22, 0xB3D9F38E, 0x5FEC1505, 0xFF58F2EB, 0xE813FDB0, 0xE5C003DA, 0x2E917EEF, 0x4053EB37, 0x1E053BE2, 0x00C59600, 0x00E2E261, 0x0D641A28, 0x01D4DF4A, 0x377A5001, 0x555C107E, 0x72C14FA2, 0xE416FF3F, 0x97FFC664, 0xBFA3ADAF, 0xF87E658F, 0xADE3A703, 0x272F4205, 0x2AFE8EAB, 0xDDFD0DA2, 0x7D8B0000,
    0xDCCE2857, 0xCF15E490, 0x01FEDAE2, 0x06E9E016, 0x53C653F9, 0x26845CCE, 0xC048A4CE, 0xC0A3D1CD, 0xC78253B1, 0xA067D8EE, 0x00B9C2A0, 0x5FECDEF3, 0xB1C1FF37, 0x1F9FC210, 0xE87FCB8E, 0x009E3CE8, 0x04654100, 0x0AEABE03, 0x6867FC98, 0x9E5BB260, 0xC9BFF06E, 0x543E3B5E, 0xEEC2FD67, 0x98018E0D, 0x390F0000,
    0x2DC4910F, 0x3DCBFD4F, 0xEAABA17D, 0xAE6F0B00, 0x6ADB8635, 0xBBFA097B, 0x808D1E83, 0xFAC4FAF7, 0xA1C134B9, 0x3C115843, 0x805F0E16, 0x0EBD81F1, 0xFD500EAE, 0xC3B83CCD, 0x4F0AE690, 0x6A5CE413, 0xE464803B, 0x67192079, 0xDA5E15CC, 0x6A0F5F0B, 0x6A384CE9, 0x8BC7BA99, 0x49F5EB89, 0x76CFB0B5, 0xBFC90000,
    0x3479241C, 0x86DE9A72, 0x086C7130, 0x06C75802, 0xC1F915E8, 0x5A2EF968, 0x6B1AD344, 0xB2AD033F, 0xEE15BE2F, 0xC1F6F0FF, 0x0D1D6DF8, 0x20A85F51, 0xC2437D5C, 0x280FF423, 0x30BC0157, 0x84FAA8FC, 0x05550374, 0x9C2855B2, 0xB6B6B764, 0xCE616C43, 0xC185A8AC, 0xB69ABF25, 0xB87FA951, 0x1EAAA64C, 0x2D6F0000,
    0xBA649BC7, 0x82104D1C, 0x7EDA6928, 0x09C77A38, 0x9D287783, 0xF223D03E, 0x63FFC7E1, 0x6F3CF847, 0xA187E3D1, 0x007A7A20, 0x0A08E200, 0xB052C00D, 0x3FAC0A9A, 0x89D27263, 0xFFF1BCC7, 0x3F2394FE, 0x9F7E79FA, 0x1DECFDC1, 0x7DBB0403, 0xBAC50706, 0x9AF8028E, 0x3D13094D, 0xFDCC868B, 0x2D685767, 0x5D4A0000,
    0xAAECD06C, 0xFF5E7FB5, 0xDDAF7716, 0x48BB16E4, 0x52F7B905, 0xE6C7120A, 0x63700B0B, 0x7DB0003D, 0xDA809C9D, 0xF8D5F0F9, 0xCFBE5F6A, 0x2CE32844, 0xFDB24633, 0xE900F4EF, 0x901DC5F1, 0x80CF97E5, 0x0EF1570C, 0xFE8FB98E, 0xFF63B9F7, 0xF71B4EF2, 0xF65D48E2, 0xE8C30288, 0x00100BCD, 0xEC40D5F9, 0xECF80000,
    0x21C0DFB0, 0xF6D7EB67, 0xEFEF36D4, 0x42B84F03, 0xA4EBF287, 0xDDDBA2AF, 0xB690943C, 0xAD7DF1EB, 0xA3218D7F, 0x8E06B518, 0xFCCFEF63, 0xEBD9E4BE, 0x35260F12, 0x975642BC, 0x87B12BB5, 0x720938AF, 0xE9E1BA2A, 0x2C3E2FE5, 0xC3793F08, 0x64B1F110, 0x7183A007, 0x8B1A0022, 0xA5A3D8C0, 0xC3587998, 0xAC620000,
    0xB678EDD3, 0xE0800AA0, 0x64203AC1, 0x200EFBDD, 0x02BB8BF5, 0xF0788F17, 0xEA363C94, 0xAA0C1D49, 0xD2544D3E, 0x0C1A91A6, 0x6961BE83, 0x5B5CAC04, 0xA25FE094, 0x01DF0FA7, 0x5DF9B642, 0x6FFBFE2B, 0x5CF7E5E3, 0x37D75B6F, 0x7F57E1DD, 0xFB4A6F3F, 0xFC27956C, 0x88D4013C, 0x604115FD, 0x0C085DA2, 0x66F90000,
    0xAB2E6543, 0x65FDC92B, 0x74D3F98A, 0x7BC76802, 0xB55B655A, 0x05B063FF, 0xF813EFFF, 0x409BFFFE, 0x0570087D, 0xE0007643, 0x0002D600, 0xC020FEDE, 0xA4086378, 0x9A14000B, 0x00053014, 0x080F65EE, 0x8229F4FF, 0xF7DC465D, 0x729A9179, 0x974860CB, 0x220B602B, 0xD4A41F2C, 0x9F317880, 0xD7F687FE, 0xF7790000,
    0xFB0F6511, 0x03225910, 0x41DCD110, 0x0270E381, 0xADF3A7A6, 0x3B78F841, 0xADA9942B, 0xEEC322E9, 0xF6BF5E9F, 0x78CF58FE, 0x803FAFD0, 0x1FCE5BF7, 0xEBACFEF5, 0x2197EE43, 0xA06FD05C, 0x00E097F4, 0x001DD240, 0x5437A106, 0x4C364B98, 0xBB5575B5, 0x9F0521B5, 0xE16217AD, 0x82D7FD9E, 0x1ECD874C, 0x1DB10000,
    0xEE697963, 0x8FFF10B0, 0xDA6EDBDD, 0x88BDCB6B, 0xEB2A81FF, 0x8F628FF9, 0xF2C7F082, 0x00F814F6, 0xBF00452F, 0x68F7ADB8, 0xFE2A4E74, 0x59E25E28, 0x7D00E320, 0x72BA736F, 0xF106EC03, 0x55D38D88, 0x78978BAF, 0x81B56860, 0x3EE1E696, 0x4B843FC2, 0x2D68F899, 0x8BFFFD28, 0xB63FF897, 0x593F8CFE, 0xD3360000,
    0xA9A4BBA2, 0x6FF7E8DD, 0xF0DFCD39, 0x0EF91A00, 0xDF80333D, 0x7E7E8383, 0xDFF03C6C, 0x7D479CD3, 0xF87388B1, 0x465085C0, 0x6C2AC0FD, 0x0080C8E0, 0x81874576, 0x063DBAB2, 0x20D1D7CB, 0xF49F4111, 0x40C60B55, 0x836DF945, 0x778FBF92, 0xF262FCF6, 0x0F7FB1F8, 0xF2DA8EA4, 0x41811F76, 0x00203365, 0x78420000,
    0x674521C0, 0x05F7D4DD, 0xFFFBDD36, 0x0736AF8E, 0x3A82EECE, 0x0CDFE819, 0x06791E65, 0x1EF0EF3E, 0xCC0CD2F5, 0xE1764A36, 0x0BB8AC72, 0xAB8EBC83, 0x719390E5, 0x0FF91F73, 0x5B01D743, 0x221BE6CE, 0x63BCB814, 0x3F8BC383, 0xC2840738, 0x0B1702CC, 0x74DB1FC9, 0xFFE08F2B, 0x802A420F, 0x06E644B3, 0x4EF30000,
    0xC5F97C56, 0x5A22147C, 0x327B4F1F, 0xF045FBFA, 0x23C57E23, 0xE653FDD6, 0xE13FF91D, 0xA1FE0065, 0xEFE8C7DF, 0x014024E0, 0x02069804, 0x6A278166, 0x27817F2F, 0x6C199DFF, 0x30E69FED, 0x287CFB38, 0x007B9342, 0x3C2CBE3C, 0x16517FCE, 0xA0FBE170, 0x2732F9A5, 0x977162DC, 0x9F3E7C5D, 0x4FBECDAE, 0xCF860000,
    0xC5E5E9A4, 0xBF5F3855, 0xB3FB8A6C, 0x67E73C1F, 0xEF74E767, 0x764049FB, 0xEF085FF8, 0x364FFFC0, 0x23708FC1, 0xF0002F62, 0x8002A124, 0x003309DF, 0x04A037F0, 0xD07CFF8F, 0x00EE2276, 0x8BE16EAE, 0x6343D8F0, 0x91A4A6EE, 0xBFE8DE6F, 0xFC9C2ADB, 0x677148A6, 0x60D3D2FB, 0x17EBBA57, 0xFDF937FB, 0xEFE00000,
    0xF081355E, 0xDC6CE089, 0xBFBF9786, 0x4A4C6DFF, 0x4F6C0F72, 0xF7E9A3F2, 0x68183FED, 0x947C4F9B, 0x1B812C7A, 0xB844A608, 0x40D35879, 0x346624C4, 0x07D01820, 0xFC35881D, 0xB8EF06F5, 0xD9C14F8C, 0x384EE620, 0x0BCE0CC1, 0xFFD4C931, 0x763CABFA, 0xAFFBDF61, 0x9BFFF2EA, 0xABFFF932, 0xCE23DBBD, 0xF8120000,
    0x62FF80CF, 0x9E3D8609, 0xD96E391B, 0x94ED5B3A, 0x99E12580, 0xDB2AEF9A, 0x36B7EC44, 0x2F9862EC, 0xAE8ECE8F, 0x21F9B15F, 0xD2364FFF, 0x05B4C742, 0x14569035, 0x14E29445, 0x33ABF642, 0x6BA24023, 0xFD082AC9, 0x83B131AE, 0x9248B433, 0x6A5B29D2, 0x98C06978, 0x9B9A8B9A, 0x5AFBFFAA, 0xA9BCEC79, 0xB6E80000,
    0x5B7A31DE, 0x40018724, 0x67C75205, 0xE418B703, 0xB0D195ED, 0x404FF80F, 0x03E04A44, 0x7D00616B, 0x50050190, 0x41C22E83, 0x7898F8CC, 0xA6910BE0, 0xFFAFEFFB, 0x6DB93BEE, 0xFFCEB6EB, 0xF2EEF2BC, 0x08021F23, 0x5216660F, 0xD016013D, 0x41C0B4AC, 0xFA6248B0, 0x73DEAE8B, 0xA1A01B80, 0x1001AC10, 0x60E40000,
    0xDB117338, 0x8EE78290, 0xEEBC014F, 0x8198578F, 0x01E35677, 0xFC0680D3, 0xF458A69E, 0xBD087E31, 0xE9A5E7DD, 0xE2FD9BD8, 0x5F095D87, 0xB157F370, 0x0C668AA3, 0x7E0B7EF2, 0x69C8F9BB, 0x945F1356, 0x8F1A6BC0, 0x86E1E4ED, 0xF87A89AB, 0x07FC1890, 0xAF4D6C53, 0xDF2D8948, 0xF150A217, 0xF081F045, 0xF2F20000,
    0x24561619, 0xEE5D41F6, 0x73693A81, 0x960321A5, 0xFC27F515, 0xB1F0107E, 0x8581C7A2, 0xA2D87E2B, 0xD207E3E0, 0xE0FA1C16, 0x06A5E240, 0xAAD4BC04, 0x3DA3805B, 0x44EC10FE, 0x4EAEBF37, 0x7B9306FE, 0xC87DDC7E, 0xC45BDF51, 0x58FDDC3F, 0xE15EB6E7, 0x331C46C8, 0xFC0144B9, 0xC802936F, 0xFA19E94F, 0xB4FE0000,
    0xE8E6DE1B, 0xE0A1C584, 0xDFB4E5F7, 0x1DA19FD8, 0x0189FF19, 0x494FF828, 0x36B911C9, 0x2E14A88D, 0xF2C7C1ED, 0x842C1662, 0x07B490B8, 0x2F9ADCC7, 0xDD2EE0BF, 0x117C5FEA, 0xD6CBFE7A, 0x8C7FFD6D, 0x07387A70, 0x5C462D07, 0xA0A7C04E, 0x882A5490, 0x80B18237, 0xD76ACE1C, 0xCB392C64, 0xC0302934, 0xD6CA0000,
    0x9A00EF64, 0xB93B2ABF, 0xA7D5A109, 0xFF10700E, 0xD75678D0, 0xD7A5091A, 0xBC03F1A8, 0x432F08C4, 0x53E1BAF1, 0x5C185690, 0x803C0FF0, 0x08020204, 0x1767E209, 0xFCBE3659, 0xA4812282, 0x44383564, 0x81FF4F22, 0x3EF8A969, 0xFBA24D5E, 0xCF0CDDDE, 0xD02D71DA, 0x9E3155AF, 0x3F70DDF6, 0xC8167F66, 0xDC340000,
    0xA78BA54B, 0x8211A1A8, 0x47860501, 0xE184A11D, 0xEDE28E03, 0x99888AEF, 0xF80CC5BC, 0xC40F98ED, 0x7C465F07, 0x2928481A, 0x1683668F, 0x3015ACC2, 0xF54AC132, 0x9EFC02C6, 0x43FE79CC, 0x3FFF8175, 0xFFAC0E07, 0xC7114006, 0xDCC0A0B9, 0xAEB011C7, 0x954D1C4A, 0x9BBB674E, 0x7B4FBE5F, 0xEFA5FCA8, 0x81CF0000,
    0xDB3B7729, 0x25B0B564, 0x0578EAB5, 0x97F102F4, 0xBFA74B07, 0xEAC0C429, 0x8A6B0717, 0xF89C6B78, 0xDC4838FE, 0x3CE80AE8, 0xE4F10BC0, 0x189ABE05, 0xB15F69DA, 0x2968C233, 0x580EE4FC, 0x01DC9A20, 0x1FF4FB01, 0xAAAB717B, 0x70A3A99E, 0xEECE9A28, 0x120FFF4C, 0x981CDB14, 0x68F86EB6, 0x20047FF6, 0xEDEF0000,
    0x1F66757F, 0xF1DFF7F3, 0x99FA56BE, 0x349BFDC3, 0x00A47A3B, 0xF9A16612, 0xFCF8635C, 0xFC80EEF9, 0x35E0AC3A, 0x29070166, 0x83C6AAF4, 0xD4179C3D, 0x0705D9E0, 0x4EABFCF3, 0xE0DA3346, 0xD60170B3, 0x9E5731D5, 0xF9D188C6, 0x5CDFD153, 0xE8E0B1FB, 0x1AA77F92, 0x779FE143, 0xF6F01FA5, 0x8800E6EF, 0x2F570000,
    0xFF95CB29, 0xFA60713D, 0x6B0F9B20, 0x3C794F07, 0x8FB6E1E1, 0xFCC41E02, 0xF2E1C32D, 0x943C60CB, 0xD381CF04, 0x184041E9, 0xCA639730, 0x7192F451, 0xB80FB5A2, 0xD0F735B9, 0xAFE3F08B, 0x787A5D6F, 0x468566A1, 0xE5464A2D, 0xDA5EDDDF, 0xDC7E74CE, 0x79B5EC54, 0x8E367CC7, 0x32F005F0, 0x2A08E444, 0xDD260000,
    0x9E8748C8, 0xD2F2CD7F, 0xFFFEA97F, 0xF44AF67E, 0x0E009F07, 0x2B52E2F7, 0x2AF0BE0E, 0xBC1FDF37, 0x01A27070, 0x603D1554, 0x07E56060, 0xBBF5181C, 0x05D25EC1, 0xA226D22B, 0x586E0378, 0x7ED05FFD, 0x58A4AFA7, 0xF407BE2F, 0xF0C5B97F, 0xC57E1BFD, 0xF4EF4FFF, 0x8848F1C5, 0x21DFF808, 0xCFD90AFE, 0x776B0000,
    0x338793B7, 0x5FE7A0D0, 0x877D8BD0, 0x19D06206, 0xE31CE631, 0xD34DA717, 0x06037151, 0x3E6E24FE, 0x9CEBB0B8, 0x4664063F, 0xE1E2DA2C, 0xAF9614E3, 0xFC271E96, 0x1B87AA50, 0xEC3C108E, 0x87CFE1E0, 0x79011217, 0x8291E478, 0x00242FC0, 0x394C915D, 0x568FF345, 0x43FDAA83, 0x31401D64, 0x2831BE76, 0x7D640000,
    0x36A0B951, 0x15BA34E9, 0x7FFEC533, 0x6EE6D411, 0xE75C4E12, 0xB609A40C, 0xE83AC3E3, 0x42593D68, 0xB163B861, 0xFE382EEC, 0x810423A0, 0x0068A008, 0x1CCD12A3, 0x6100281B, 0xCF41B5A0, 0xC00EDCE5, 0x83FFC6EA, 0x57EEFFF0, 0x1A639BCD, 0xD7FF252B, 0x06B4151D, 0x24A404FB, 0xBDD7DB26, 0x40961B7D, 0xED760000,
    0x56C8CB41, 0x25197C40, 0x40001A02, 0xC026A3F9, 0xA23511BC, 0xB22F03D5, 0xFE907830, 0x40C7C5FA, 0x325A5EFF, 0x8BF9AB18, 0x3E62CDF2, 0xF31E6E0C, 0x422FAB67, 0x6DDDBD37, 0x5F1A0D3B, 0x7577E2CC, 0xAFDE9FF7, 0x7465FB87, 0xFF3BFD86, 0x1EDF0607, 0xF13E5E05, 0xA3F1607F, 0x08003558, 0xA0017DC0, 0x59060000,
    0x00D9E81B, 0x0F80936D, 0xDA28862F, 0x7E3D733F, 0x207E9B1B, 0xC4D83566, 0x4CDF59BD, 0x09777DBF, 0xEEEA0EEE, 0xCF0C3B62, 0x7093418D, 0xD9D79C3B, 0x5FA4702B, 0x826F059F, 0xE7489667, 0x6E69556B, 0xCB072264, 0x6C60EFC6, 0x072CCE00, 0xB7476291, 0x1EE7879D, 0xE3E063D5, 0x31FEF890, 0x9F35F86C, 0xEC870000,
    0xA300D29F, 0x3FFF8FE9, 0xE7F94991, 0x7C501803, 0x3E18C275, 0x67ACA3FC, 0x4921FCA2, 0xEE302C1E, 0xE74406AE, 0x342D8DC7, 0xC9D99A7C, 0xC999E3A2, 0x3D8D55AD, 0x9C16F000, 0xA0D6CBA4, 0x099781A0, 0x5DE41C9F, 0x884BFEB9, 0xA15443DA, 0x1D0E8F4B, 0xB505318E, 0x02CF2382, 0xD01FFA7F, 0xDEFF5596, 0x1F490000,
    0x4EA3D396, 0x25A33FC0, 0x947A2CC6, 0x222C7ADC, 0x8F3F703B, 0xA1EAC910, 0x88DA15C5, 0x6C59E002, 0x9F088AFD, 0x91D2DF3D, 0x0C9DD370, 0xF3A73A80, 0x5D7070E2, 0xAA3E0ED2, 0x02D18948, 0xBE1F0085, 0x61D11CAC, 0x3B581F27, 0xD6BB687F, 0x59CEC60E, 0x1CC86C54, 0xDC07C438, 0xC08F40EF, 0x517854D7, 0x3FE10000,
    0x6A9C607D, 0x02240D29, 0x6F7C9884, 0xA7811A59, 0xA3F96067, 0x08EB7756, 0x3F818FB5, 0xBA646686, 0x938ED1FD, 0xC05E5BF4, 0x1D61BA31, 0x3F3FA032, 0xD5318178, 0x0FA0D3E1, 0x67FFFE2A, 0xDFF74D3D, 0x63D80B88, 0x2DC2BD07, 0x1C440070, 0xF8360F16, 0xA38970B2, 0xFA1F0F6E, 0xD7F0DD4F, 0xF7DEF4B4, 0xA5E80000,
    0x1FBC22A3, 0x37F6BFC2, 0x9F7EB35B, 0x82FB5F84, 0xDFE6D4C5, 0x4CE3B193, 0xF5F2B950, 0x7F8937EB, 0xB9C9E62F, 0x387D88F7, 0xD05A9F1D, 0x0FC9F7BC, 0xF30C3D35, 0x0487C9B0, 0xA63D6F40, 0x90417345, 0x8D7E0603, 0xCB510040, 0x9A047E41, 0xD008485F, 0x98F42BC3, 0x15E1FB34, 0xFF6B5415, 0x7ED47D9D, 0x1EE70000,
    0x44698CE6, 0xCF337833, 0x66DD2B80, 0xFFF5F3BD, 0xF765BECB, 0xFB681C1B, 0x116043A5, 0x220A3CCC, 0xF1C3C9A6, 0xF07E5679, 0xC7BE48D0, 0x4E67F806, 0x76E10011, 0xA7100031, 0xA8002913, 0xE013C51C, 0x82E44A4B, 0x0506C4C8, 0x4A15DB11, 0x648ED159, 0x72E45B4E, 0x19B92097, 0xD95212C1, 0x489267C2, 0x6EA10000,
    0xFC05A824, 0x02000FD7, 0x03906400, 0x7C92D213, 0xFAA3000F, 0xDD7490F5, 0x6FE023FD, 0xDFF03D15, 0xF9C3F51D, 0xFE3E8FCE, 0x83F4D8AC, 0x1A5E8647, 0xE027DA56, 0x2061F7A7, 0x1D84411E, 0xE1FA05B8, 0x1E5BB235, 0x35F7B6BB, 0xB4FAA420, 0x1E53D3C2, 0xCDA10209, 0xBFCB91E1, 0x5C361DEA, 0xCACF19F2, 0xEFAE0000,
    0xB0C1D462, 0x8391482E, 0x7E6DD7F9, 0xDDB8DFBC, 0x3C65E6B8, 0xD5290260, 0x52E3C84F, 0xAF3C1027, 0xAB058FE0, 0x413A0816, 0x2D7061C2, 0xD3081AFE, 0x3EC0FF2E, 0x6011AD26, 0x1319D4F2, 0x6C16DF0F, 0x1BD96065, 0x253E0E17, 0xCBB49362, 0x99B01C00, 0xB725019A, 0x4165F3FD, 0x77CE0C9B, 0xB34C62A5, 0x5F220000,
    0xD8844A8C, 0x6300B51E, 0x7FCF000E, 0xBB1C8C88, 0x3BADCD40, 0x5771C9CA, 0x4BD81C21, 0x0C9E82D1, 0xD038A977, 0xD3040F8E, 0x7FE03B8A, 0x6E9FB75F, 0xB93C767F, 0x5F075E20, 0x9161E72B, 0x0E79C8B1, 0x47754118, 0x00032A83, 0xB0BA4CA0, 0x013F1608, 0x3411B841, 0x7E913AB9, 0x8364006C, 0x7FD2D0FF, 0xFB7F0000,
    0xF85815A2, 0xFEB75D16, 0xD65E32C0, 0x0E2C0801, 0x17374811, 0xF30331EB, 0x3C0A95B6, 0x706DF506, 0xD986A690, 0x80F85FD4, 0x16E1BB81, 0xC83F9C3E, 0xB83EE5F9, 0x1E49D59A, 0x2DE5E06F, 0xD2FF4704, 0x12002230, 0x74057503, 0x430640E4, 0x0CAEDD15, 0x0F11001E, 0x9DBE01E0, 0xCF000251, 0xD3F82358, 0x776A0000,
    0x5FB76EA4, 0xDF5FD07B, 0x82C6E541, 0x0403B46D, 0x2168DBCD, 0xE015B2C6, 0x25050F48, 0x19F2E60C, 0x6DE6C2E7, 0xFCEC6F63, 0xEE272C0D, 0xC79BD0DC, 0xBD3F9597, 0xD50D78DF, 0x0467CCE7, 0x55E08BD2, 0x76828B0E, 0x299BA1E7, 0x08BB091A, 0x9A6FB1AA, 0x300ABBE5, 0x458010A2, 0x05004D16, 0xC80450EF, 0x7E660000,
    0xE763288C, 0xFF81BADD, 0x9784FEE5, 0x082EB359, 0x71089806, 0xF417847F, 0x28E0E4E2, 0x14055184, 0x08F2CE03, 0x0F059A18, 0x10552782, 0x9EFB8C01, 0x6F39C405, 0xF9331106, 0x71D885B5, 0x27C05FD2, 0x308164FF, 0xB0A76FF6, 0xA62F18BF, 0x7F9D97B2, 0xCF1F5CB1, 0x2AF05AF8, 0x00018C54, 0x0441B737, 0xF89B0000,
    0x4278ACA0, 0x64CB0B30, 0x5ABD2B43, 0x103453F2, 0xFD9CB8C3, 0x69134D13, 0x2F6881C0, 0x29653C33, 0xD8CB08EE, 0x01218741, 0x9675D8F9, 0x4710BD63, 0x20BF835C, 0x29BC6803, 0x1F07E0E3, 0xE0EEEABE, 0x0CFDA701, 0xFFD7781F, 0xF25545B5, 0xFDE4991F, 0x671C7BF6, 0xEA4FA4F4, 0x405C2023, 0x8000CB2D, 0xEC800000,
    0x933FC16A, 0x96DBFB4B, 0x8DDFB840, 0x4BCFBD02, 0xD0208656, 0xD3BFB404, 0xADBE15EA, 0x6EA20DAD, 0xD00C4E70, 0xA3CFB541, 0x43A45302, 0xF27435A5, 0x3C02720F, 0xFEB20E9F, 0x9F486BA1, 0xF604FBB3, 0xFA02FBBF, 0xF80476FE, 0x2095EFE8, 0x56777520, 0xAF0038C6, 0x200072EF, 0x00039BE9, 0x0710C757, 0xFD9E0000,
    0xAE0A2561, 0x7DCEB3D9, 0xBAA3A03C, 0xAC8A926F, 0xCA09F463, 0xFAB10A48, 0xF7891C4B, 0x3212E447, 0x0099092A, 0x194E451D, 0x81C1C33C, 0x163E0BE8, 0x1CF7DCA7, 0xF9FFB77F, 0x2D397EE3, 0x3F7FC25A, 0xE3C250DE, 0xDB01D920, 0x3D2BF309, 0xD0F07409, 0xF7026171, 0x6A0000CF, 0x801D510C, 0x19D3F43F, 0x7C4A0000,
    0xC5C69747, 0x3723166E, 0xC0DDDDB8, 0x6F86BC8D, 0xEF95B231, 0x377D7A4F, 0xADB0A6DF, 0x6E25A355, 0x09541718, 0xDD22660D, 0x80C701E3, 0xD0981AF4, 0x8164DD80, 0x06CEA682, 0x09FA27C4, 0xCBD83120, 0x744F1481, 0x7271210A, 0xCBFCC00A, 0xFE98D14E, 0x4EF31032, 0x5BCE4944, 0x566E004E, 0xBFDD3B96, 0x7B350000,
    0x04AD19B9, 0xB9CFD333, 0xDAEDD43F, 0xF77BC1B6, 0x653CDF77, 0x5E6994ED, 0xCBAE97FC, 0xA979D39B, 0x9C09BBF5, 0xAF1E83F8, 0x3B88F7D6, 0x5D8D3ED2, 0x4FE5CC6C, 0xCA07524F, 0xC3F19D63, 0x5D4137F3, 0xE436B8BC, 0x3ED2C6C5, 0x3232B995, 0x7323B400, 0x71B80C43, 0x03E8E275, 0x1FCE0365, 0xAFB15427, 0xF6CF0000,
    0x38202A85, 0xA5FC6A78, 0x8CD2F3C0, 0x80F7E323, 0x4F8F9CCA, 0x5CE56EC7, 0xA6A41E0D, 0xBBF7ABB1, 0xE28E1AFE, 0xB1E79FBB, 0x4A6073FB, 0x622F4C26, 0xC4FE03E5, 0x2B686003, 0x780D8597, 0xA1CFFD7C, 0x1E7CD103, 0xDDAE527E, 0x694E89D5, 0x1839F43B, 0xFF49E775, 0x200E9FE9, 0x0032CFD1, 0x7419CD55, 0xCD620000,
    0x9A26019B, 0xDD5EC9EE, 0x63FF85AE, 0x5B6DEFFB, 0x7898C5D5, 0x26554080, 0x233C000E, 0xE578096A, 0xEE042721, 0x8091FE00, 0x04794807, 0xC6E689F2, 0xFDB4BFAF, 0xA83FE74D, 0xDF17FF67, 0xF11EB676, 0xC778EA74, 0xFAEEC40F, 0xE23C1775, 0xF964E52A, 0x7EAE1000, 0x4DD00203, 0xC0806995, 0xFF837BFA, 0xFE600000,
    0xE1C94678, 0xD7FF6D8C, 0x9FE1562F, 0xFFC036F2, 0xFE622FF6, 0x962A40EF, 0x6E415FB6, 0xC442497E, 0xB2D03554, 0x5D0046CF, 0x62211BA4, 0x6202E0BF, 0xC3847BED, 0x6F086FEF, 0xE89F6E51, 0x081584D9, 0x01EA73EC, 0xFC85BAFF, 0xEBF11FF7, 0xC0FCFFDC, 0x289BEFB9, 0x4FDFEECE, 0xFFC0497F, 0xF1E8B59B, 0xE3820000,
    0xBC05F91E, 0x3E7CF702, 0xACE022BE, 0xC66588FF, 0x65B38C20, 0x060BC000, 0xF3EC007E, 0x37F0FF9B, 0x3BFFF7EB, 0xBFF6FCA7, 0x3BFF2009, 0x0A6D1D0F, 0x0121EE8A, 0x0A73A2D8, 0x0EA0E640, 0xF772D4E6, 0xA2A40AF8, 0x1FB2E5D6, 0x2D3DA505, 0x02B03FC1, 0xABCAE938, 0xBD346888, 0x9CCFFC19, 0x5F1A1B7A, 0x0D8E0000,
    0xD50BF080, 0xD5F8EDD7, 0xC342525D, 0x7EDED8A5, 0x17E20111, 0x949C82FE, 0xF3483E7E, 0xEC51FBBE, 0x02CBA4F4, 0x1801801C, 0x8181613F, 0x2AB87BF1, 0xF8827E6A, 0xB81BCF60, 0xA622FD98, 0x723E35F2, 0xD1D27CC2, 0xF41C27B6, 0xC03165F7, 0x2699D89B, 0x753C2058, 0x5FC0894C, 0xB33FDD9F, 0xFFFF669E, 0xFCE30000,
    0xD41E758A, 0x77712280, 0x861C3A28, 0x6C469615, 0xF4E5713A, 0x0E520F8B, 0xFDB39EFC, 0xD7073EDF, 0xDD93BF78, 0xE6006ADD, 0xA041E477, 0x800132AE, 0x0248F381, 0x926C969D, 0x6AA1A9DC, 0x3E3A4C27, 0xE34F826D, 0x7D9C62C7, 0xE8F50074, 0xC4B2154A, 0xF9017C17, 0x80334B33, 0x15FC98E9, 0xF77D107B, 0x98F50000,
    0x1A398DAD, 0x3FD7ED13, 0x9D2844EE, 0xDA3D3049, 0xCBC7841B, 0xA7A5067A, 0x5020B7E2, 0x421D8153, 0x46804F80, 0xA812F007, 0xF7BEE89F, 0xB90929B4, 0x21E987A0, 0xBF3C7C08, 0x819F04A0, 0x17777910, 0x6E543C63, 0x2D5AE287, 0xF261058C, 0x5742A1E8, 0x9F25AD39, 0x8059E57D, 0x0EAEDED9, 0x3EFDD9BF, 0x182D0000,
    0xA43A031C, 0xB9A70350, 0x051A0C58, 0x6BB1F902, 0x516F087D, 0x8A9A0A8A, 0x0503E510, 0x3C0FE21F, 0x7571C1E1, 0xA337161E, 0x20D07B23, 0x32EF3E00, 0x44FFA61C, 0x865A203B, 0x4BC23904, 0x6463516A, 0x044C91FC, 0x67CDAF5E, 0x17B0C0DD, 0x2A443C1F, 0x8F09880D, 0x397C804C, 0x95C80225, 0xB676EC82, 0xC7ED0000,
    0x1E70CFE1, 0xA38F1574, 0x5C40C8E1, 0xE005E01D, 0x027280C0, 0x0A82429C, 0x60007F23, 0x6449F88E, 0x2B752BE3, 0xFD9A7EBF, 0xF831531F, 0x887EF008, 0x6DDF51AB, 0x7FF859EA, 0xDFB4FEB4, 0x1DD12F3E, 0xC18DCBE0, 0x71F6680E, 0x07F1C0C2, 0x4FA81A01, 0xEC01E001, 0xD47068A5, 0x8490CE59, 0x4FFEE1CA, 0xEEF20000,
    0xD6824D79, 0x48A808A0, 0xF72D93CB, 0x3FC0997E, 0xB4C8202F, 0xD3F9B3FE, 0x1CE083EC, 0xB0EC3E3C, 0x0243E752, 0xE87E5F2A, 0x07A37ED8, 0xDF0EF11F, 0xFE790EF8, 0x90E0BE32, 0x846F41B7, 0x6C889778, 0xD71B9BAD, 0x713AF9CA, 0x8F0FCF6A, 0x3B73A153, 0x1713EAFC, 0xA2D5BFD0, 0x2CBFAEC7, 0xA7EB14B4, 0xC7320000,
    0xE01A865C, 0x19DF7ECE, 0x5FE5486B, 0xFF38E0B7, 0xF01606ED, 0xD2F027EC, 0x2B202F51, 0x1000FF25, 0x220F3541, 0x51EB8813, 0xD1B0A280, 0x3E7EFF15, 0xF7FBA5FC, 0x46445887, 0x61890474, 0x83F903E6, 0x5646F8EF, 0x82F73D32, 0x05D73617, 0x1AB767A5, 0x5E47CC62, 0xC87FA7C2, 0x0F48E778, 0xA7F952BF, 0x71630000,
    0xE0060F6C, 0xB0208804, 0x40196D40, 0x0A86F440, 0xCAB69E4F, 0x22AEEA7D, 0x8BF350F1, 0x9F4E3B8E, 0xAAA3D0EC, 0x803E973E, 0x13D9C068, 0x3EEABF22, 0xCC71F079, 0x5F38AFFE, 0xEF86FB33, 0x187FF9D3, 0x1ECC78B1, 0x20485EBB, 0x7CAA81A5, 0x7B5FD8A9, 0x1701336D, 0x9FFA8AEE, 0xC6A8235D, 0x83F2C086, 0x86B00000,
    0xFBFDD539, 0xA521254E, 0xB0857EF4, 0xD1F49A1D, 0x3DB0D580, 0x037F0E73, 0xAA811C84, 0xA85414EF, 0x81D8D3D0, 0x4D306D3E, 0x9D88280B, 0xBD16797E, 0x8018E4B8, 0x61FD9B27, 0x1FB7FED9, 0xFFFCCD3F, 0xFF335DFF, 0xE955F82D, 0x76D7C009, 0xDF58001E, 0xB580009B, 0x3FE05BCC, 0x7A77FC2F, 0xFF2F6BFE, 0xBE690000,
    0xA8509068, 0x7FBFF96D, 0xAF90F336, 0xFFF453FA, 0xD3D947FF, 0xFAE873FF, 0xF887FF9D, 0xC0B60057, 0xB900074D, 0x10004DEE, 0xF60E4B97, 0xF9FC322F, 0xEF07254D, 0xDE59FE2A, 0xC48E74C1, 0x383E99C0, 0xE39D9243, 0x69F9087D, 0x27D5D64F, 0xEE07B04F, 0xAEC09DFF, 0xC360EEC1, 0x34B9F856, 0xFB3F72AE, 0x7C490000,
    0xF150F666, 0x9F7CF3DF, 0xEDDFE8BB, 0xE83D675C, 0x40CD7FF0, 0x03F0BE68, 0x498C3801, 0xDB07C4B1, 0xF07D0074, 0x0BD01F47, 0xEA8FFDC3, 0xF9D7777C, 0x82B08D80, 0x2B8DA800, 0xF3BD83F2, 0x3C8016A5, 0x83AB3234, 0x4BF43857, 0x5A031295, 0xADDC331A, 0xEB42CCB8, 0x9C969ADA, 0x8C9552CE, 0xBF137F85, 0xF3160000,
    0x30B6CCFB, 0x2B71CF10, 0x60BE084A, 0xE286219E, 0xEBE072E7, 0x5753DE9F, 0xF67F82B6, 0x24DA9699, 0xF70F2837, 0x5858A07B, 0x8416FEE0, 0x5509F001, 0xBF0D023F, 0x99BD407D, 0x2EFC2B06, 0x6FC3145A, 0x38656C11, 0x9FDDF420, 0xE3C14458, 0x9E41F693, 0xCDF1FDBE, 0xFC7BC74B, 0x0884FDFE, 0xC00F478A, 0x232C0000,
    0xC3019A5C, 0xB9CE99B9, 0xFAFFF19A, 0xDA711DE1, 0x4F1F1A41, 0x835D86D8, 0x0F94B681, 0x39CDC405, 0xCB1D83A1, 0xF6180613, 0xB3C06A1A, 0x8803E4A3, 0xE050F96A, 0x140EDBC0, 0x49B8C08D, 0x8ED99448, 0x69F2C307, 0xE51D651E, 0x44358988, 0x18C22F96, 0xCB122521, 0xD425838B, 0x9E587FF8, 0xEFECBDDF, 0xB3E50000,
    0x887F8DF7, 0x39CB632C, 0x7AC208F7, 0xF78607FF, 0xBA360FFA, 0x26DB9736, 0x87F107FE, 0x1880D355, 0x006FB9D1, 0x4FA7352F, 0xE1F58EC3, 0x93399447, 0xF166E35C, 0x07C84BF1, 0xE521CDBD, 0xA98B2967, 0xE1D25E4F, 0xE69BF87A, 0x8D151005, 0x0380CFD0, 0x41CFDC0B, 0x3D8FA906, 0xFFE834B8, 0xF7B91BAC, 0x84E00000,
    0x0B629275, 0x5E76F55F, 0x97FEC2FD, 0x7E0CD3EF, 0xD049336A, 0x47531230, 0x2FA5F0E3, 0x303D1635, 0x26A5E492, 0xC02B4EBE, 0xC2A8EC20, 0x7F18BC3D, 0xE152ABB7, 0x971CFC2D, 0x787715CE, 0x93D81C09, 0x37A05322, 0x7B53FA98, 0x5328D275, 0x41408778, 0xAFD51783, 0x1131C07A, 0xD7EBBFF3, 0xFFFB089B, 0x3B8E0000,
    0x3B258EF4, 0x3F76EBB3, 0xF7DD3693, 0x7E7A76F3, 0xFB0FC2D7, 0xF03A2238, 0x5F910FF0, 0x8E59FF37, 0xBE7DD52C, 0x0B2FCD1D, 0x20EB76A6, 0x2B96EED1, 0x72F2FF8F, 0x0625E1A8, 0x834ADA8C, 0x6D539C62, 0xC265FE3C, 0x9715E0E6, 0x00BFB8A2, 0x0D6070E0, 0x3336DC0C, 0xD5BA0171, 0x9F2D505D, 0xD7FDBA37, 0x2B350000,
    0x9615B923, 0x3798FC9B, 0xFA077B30, 0x4C3B3FEB, 0xFB11813C, 0x0E2C93C3, 0xD2C13896, 0x18169579, 0x3131013F, 0x086821D7, 0x29059BC0, 0x1251BEA7, 0x571C3C33, 0xF13D023F, 0x9FDBBDF7, 0x07F05FAE, 0xFA2042BB, 0xF257A97F, 0x3FE3CD77, 0xF81E32DB, 0x45025572, 0x2C006BA1, 0x200104F5, 0x1C2DBE53, 0x4DA50000,
    0x7B8FB0A3, 0xE0ACE078, 0xBFDF1D73, 0x60C2DCFA, 0x4BC6A65F, 0x6BE4811D, 0xDC968212, 0xA5302ACB, 0xF5005439, 0x786EDFDF, 0x9FBF8CF4, 0xEDB4FF03, 0xFD2FE83B, 0xA76ED007, 0x83E016C6, 0xC012B41B, 0xC09C0708, 0x052BA03A, 0xD1C18799, 0xC860E5ED, 0xFB66F789, 0x6AF5F726, 0xE1CF3FC0, 0x2842C510, 0xFCC40000,
    0x724D5281, 0xBDEE405B, 0xEF905C5C, 0xF200AE3B, 0xCC4BCF1F, 0x65705EC9, 0x5A0676F2, 0x937F8FAF, 0x157F7AA0, 0x5527975D, 0x195BFF15, 0xF0A37C9A, 0x37910183, 0xB7A550FE, 0x013E4773, 0xDB82D4F4, 0x783FD547, 0x03F362F5, 0x0B0F8B81, 0x4B5C320B, 0x0586E404, 0xA02B00D5, 0x99D006D1, 0x0831CB4F, 0xDECD0000,
    0x44A8EBF6, 0xBC7B9880, 0xEFFF951E, 0xC1FA48EC, 0x7F8C44C7, 0xF9AC687F, 0xB23FFFB6, 0x1CF971EC, 0x1FA40708, 0x5E80664D, 0x2902DD1A, 0xE083D35A, 0x246BE004, 0x8E8326B1, 0x26F77F03, 0xEF62895E, 0xE34747F5, 0x2381C7C7, 0xA3C88741, 0x33485FD1, 0x5D68D56D, 0x35A7B18F, 0x390FEFB5, 0x95DECDE3, 0xFEA20000,
    0xC26CB31F, 0xBF175014, 0xD75F1B80, 0x443B9212, 0xC79E4082, 0xEB70058F, 0x543393F6, 0x801A5FD0, 0x81C0AAE8, 0x5E800327, 0xF87A723C, 0xCD80C1FC, 0xE0664CC4, 0x9CB73881, 0x421FC024, 0x4F80D0EC, 0x5D382415, 0xC52023B9, 0x29C30B90, 0xAAA29382, 0xC657DFC7, 0x01F59BF2, 0x19ACDCD9, 0xB1CE440F, 0xDE020000,
    0x5B391FD4, 0xA1018B90, 0x07382525, 0x30714F19, 0xE4AC93AB, 0xFCF908C6, 0x088F1072, 0xAF85CCF2, 0x7CA04313, 0x0454B00C, 0x4785A7E2, 0xE00C6F49, 0xFF54F801, 0xCA9BEE2A, 0xE56F3CFA, 0x48E195BB, 0x5BA8435E, 0x93FEB16F, 0xD5B668B4, 0x5A290E6D, 0xD26F67FA, 0xB6E56B5C, 0x3A7AB3C0, 0x20802831, 0xB0120000,
    0xDF5D5E63, 0x03580B70, 0x47CB6851, 0x7D9A1F63, 0xEB3B806F, 0xB11410BB, 0xE36FCF2A, 0x99F87F33, 0x3207E173, 0x007E7E8C, 0x0770E004, 0x1F054340, 0x639CC24D, 0xBF7AC645, 0xF7E8583B, 0xB8406EFC, 0x06B85DDE, 0xDFEFAA3F, 0x8843ADB9, 0xBBFB56C7, 0xB7CAEE39, 0x5A58EBDF, 0xC1A506AF, 0x0AC5C6CC, 0xFD820000,
    0x79A01270, 0x3DC7F858, 0xFFF77C17, 0xD8FC0EEC, 0x10EFF920, 0x04C37FE0, 0x77931584, 0x2C826FEF, 0xAC20F5EF, 0xC90F1B95, 0x878DDC28, 0x6EE1D8DF, 0xFCA6C7F9, 0x4860F013, 0x439CD244, 0x259841A5, 0xB5305814, 0x9813618F, 0x600038E5, 0x29CE8C45, 0x03BA0805, 0x46E75320, 0xBBC219EB, 0xF7FF223F, 0xC33A0000,
    0x9B0B7CFC, 0xD8EAE1D4, 0xD7D5ED40, 0xFE01821B, 0xFA6E0867, 0xB87061F8, 0x50AD4FA9, 0xCFF87C1E, 0xDA0FC0FF, 0x80FF1A00, 0x07F4F000, 0x2E10D3B6, 0xD9E16A56, 0x74DD1359, 0x78445029, 0xA60206EA, 0x2CB9451D, 0xBEB66CBD, 0x71DFFB97, 0x26A3D2F4, 0xF31AB7FE, 0x57E9A241, 0xFAA58B1D, 0x7FF5B6DE, 0x9CE30000,
    0x392ED8E4, 0x64668B40, 0x543DE50E, 0x1C5C5950, 0x47BB548F, 0x2660A33A, 0x4CA879D9, 0xB60B00B3, 0x668660AE, 0x099715EE, 0x134FAF30, 0x7DC0FF9A, 0x22C79E00, 0x627FF507, 0x18170A19, 0x157EC367, 0x16A6F224, 0x66DF7C4F, 0xE3CE5C45, 0xFE79FCCE, 0x93405DB1, 0x6625FB37, 0x626FE265, 0xBF5C941F, 0x0D800000,
    0x55688B4C, 0x0FFF52D2, 0xBCF5B545, 0xFA623873, 0xF3468DF2, 0xA26F901C, 0x14CA0239, 0xF16DCFBF, 0xFEFFFFBE, 0x7EFFB4C3, 0xFDFE3457, 0xA0773FEA, 0x19D82293, 0xCAB607CC, 0x6A704D00, 0xD403F16E, 0xC2162A88, 0xA450249C, 0x66206E8B, 0x407943F4, 0x31D26E03, 0x49841514, 0xB9F9F8D6, 0xCBFB8D5F, 0xAFC60000,
    0x03C33061, 0x77BEB89B, 0xEABFB7DE, 0x72B9AE0C, 0x8D796CF0, 0x0ED9B5A5, 0xE48BF68F, 0xA3E5E4BD, 0x629E8CEA, 0x86F01157, 0xBFA08502, 0xB9AF787D, 0x68151F72, 0x14030A08, 0x80B2A899, 0x47D6A9A9, 0x31440E03, 0xCD40EB0A, 0x19C002DA, 0x4F128B49, 0x1748AABD, 0xDD190C1F, 0xD3464A8D, 0x7F7FC25D, 0xFCF20000,
    0x45CCA65E, 0xFA54F639, 0xFE7AE0EC, 0xF4B7D0A1, 0x7016F7CC, 0x0667F104, 0xB6FF5842, 0xA3FF081C, 0x04621320, 0x18E01BC0, 0x0DA4D890, 0xF7B341C6, 0x3D1DBBB7, 0xEF222F5D, 0x9A345E5D, 0x93C36D31, 0x15D3FA11, 0xDDFF9C1F, 0xC89680AD, 0x22A94500, 0x74376064, 0x4B9080D6, 0x87E00698, 0xFC904CD3, 0xFFE00000,
    0x2D5D64FF, 0x602047D0, 0x44E19BC8, 0x3FC0AC30, 0xFA771889, 0xE273F83C, 0x05EE83EE, 0x7F343973, 0xA7C7E3BD, 0x00B46A00, 0x0742E002, 0x18AC01F3, 0x0BE05F13, 0xE3EFFF59, 0xCEF7DEF7, 0xFC9EC2BF, 0xF8D73F6A, 0x6BCF1F07, 0x58EF98C7, 0xE388810B, 0x1FE47694, 0xD345CECA, 0x3FAC9D30, 0x00006990, 0xDC0F0000,
    0xACFAAA2D, 0xCF37A1CB, 0x95F58864, 0xCFFE7FEE, 0xAE575D77, 0x9A47F1E9, 0x75B60751, 0x98982E4B, 0xA6FC878A, 0x7FCD5BC3, 0xD7EE5017, 0x1723C02E, 0x217980A3, 0xC71032CD, 0xF9C3D27C, 0x725E57F8, 0x01D8DA8C, 0x3DA67322, 0xE9CC3CEF, 0x8EEE07E8, 0x05E07F07, 0x2E05DC28, 0xE56FF9CC, 0xFF7FB23C, 0xCE7B0000,
    0x2DD16D9B, 0x2DFF359F, 0x93D7AEF9, 0x6B446125, 0xB64F7D3E, 0xDEB54FE3, 0xFCC5386A, 0x6EE7875B, 0x90703C38, 0x0F253683, 0xF804AD3E, 0x2869FF04, 0xB1FFFC33, 0x56041ED1, 0x2006F70A, 0x00083A8E, 0x00C125E8, 0x763D5FFF, 0x43ED6FCF, 0x222AF716, 0x3111E857, 0xDA42010B, 0x3E032FE2, 0xE1D4B38F, 0xCD9C0000,
    0xAD1510AB, 0x07B69696, 0x012B5481, 0xAD47A05F, 0xD87C09F4, 0xFB94096F, 0xF65C0136, 0x86E82FCC, 0xF3C7FFCC, 0xDD7FFFFF, 0xC202F578, 0x022F3F83, 0x7136F291, 0x92FA00FA, 0x56A10B12, 0xA00245AC, 0x026942C8, 0x856C728D, 0xB4110702, 0x4AA00374, 0x0E35ED56, 0xD0663207, 0x29AA7E42, 0x98543072, 0xD69D0000,
    0x7A887734, 0x06201104, 0x70006041, 0x8E03BA01, 0x04091920, 0x8124C016, 0x72072EF0, 0x009FF3E3, 0x28FB0842, 0x7FF41B3D, 0xBD2048E2, 0xE3E13C8C, 0x2F1AC2E8, 0xDBFF9E6A, 0x5EBAE6AC, 0xDB7C8438, 0xD01A4F00, 0x0C17280A, 0x82820002, 0x0EE82501, 0xD9F00E59, 0x68152F71, 0x805BE28E, 0xE2FFFA97, 0x35B90000,
    0x12C6B5BD, 0x8C04378C, 0x7FC8D769, 0xB900E6FF, 0xC049B1DF, 0x20BFD8F8, 0x07FA0F81, 0x1C20F019, 0x004FC070, 0x01C62500, 0xCAA560B8, 0x4C147FA0, 0x1C16C567, 0xDFDB29DB, 0xFCE5B4BB, 0xA2934A59, 0x200E748D, 0xB8433F09, 0xE9A78A59, 0x2936E2D0, 0x7FCE9EEB, 0x7A687F39, 0x41359810, 0x0121F8C0, 0xDEF90000,
    0x1ADAAE5F, 0x5FDEB9AB, 0xBFFB8B69, 0xFFC1AD71, 0xF6B7CB7A, 0x076FD3FB, 0xCD2DB3DC, 0x657C8869, 0x2F402CDE, 0x66001E8D, 0x404819DA, 0x3842908C, 0xB1D9FBAE, 0xD602AE79, 0x654F1F89, 0x9349E9B9, 0x201F214A, 0x86F82878, 0xFF01E555, 0x950007FE, 0x2468FA0E, 0xAFFD352D, 0x2FE5D0F7, 0xD34EAA6F, 0xFE2C0000,
    0x2B6E2B2B, 0x767CB1F2, 0xBBFDA4C1, 0x37CED86A, 0xD5B917D8, 0xDFA538FF, 0xF7C43FFB, 0x805FFD55, 0x99700772, 0x20006620, 0x0003A2A0, 0x023C403F, 0x11B29EFA, 0xFC767E8C, 0xCAA1E445, 0x5AC4F711, 0xBA482A65, 0x9BBD3C62, 0xFAD8EBBD, 0xFDC148CA, 0x15B037DD, 0x54EE0ECC, 0xFDFEEB51, 0xFFFEFFFB, 0xFFDB0000,
    0x45511687, 0xD261FFCF, 0x37CCFA69, 0xFB24B3E8, 0xD1399673, 0xC11016F2, 0x05B77D47, 0xDFFBFC28, 0xBA0F8096, 0x005FD000, 0x01717000, 0x4F6A8201, 0x20B84840, 0x222D0246, 0x902416F9, 0xC0029EB5, 0xA87CF029, 0x4C86D0BE, 0x982F9FFE, 0x7FDFD336, 0xFF3FE73E, 0x7F0332ED, 0x2D8D7E69, 0x7FF16E59, 0x377D0000,
    0x789CC521, 0xDDFAB38D, 0xEF96C94C, 0x0122707F, 0xC0673971, 0x86792784, 0x6E00FC06, 0x4071E463, 0x051F877A, 0xDDE0AAA2, 0x7F0EBF47, 0x795C55DA, 0xB5141471, 0x01835C01, 0xC7F88873, 0x5E922CC8, 0x278E9C0E, 0x39F30874, 0x479D4295, 0xB977D10E, 0x4550E5E6, 0x405D81FB, 0x0274E042, 0xE7D73A3D, 0x1AB60000,
    0xAEB9A56E, 0xD5A4A192, 0x7FD7BDFE, 0x1FA4D2DE, 0xF8DA73A9, 0x4C98BE68, 0xE68DF641, 0xD29305B2, 0x885E1A10, 0x9FC2594B, 0xFC002567, 0xE05CD378, 0x13C08DA5, 0x40030056, 0xD051117E, 0x09F0AFB1, 0x082B7CD0, 0x40B8F0F0, 0x5BF6CF9A, 0xC975F286, 0x6BCA157B, 0xBFE0A7F8, 0xFC5DE055, 0x6BE35B84, 0x93A20000,
    0x9254BE97, 0x1DF7FE5D, 0xDDF978E8, 0x19DA0A02, 0x930F4009, 0xCC78000F, 0x788153F8, 0xA21E3FE7, 0x11BB78D4, 0x3A4DECF2, 0xE05AF507, 0x48311FF0, 0x22372FE0, 0x6547C502, 0x581E8800, 0x2736A08A, 0xD1106CBE, 0xA992A092, 0x787604AF, 0x18419FBC, 0x5CBC5345, 0xB083E950, 0x8F67997A, 0x1DF13F77, 0x7F3B0000,
    0x8C6BBC66, 0x64088F2E, 0x8348EA62, 0x0476D810, 0x02DA81EB, 0x1ED03E39, 0x4F831CDF, 0xE2E3C7BC, 0xED78D651, 0x441FB566, 0x80D91D01, 0xDDB1FE97, 0xE609E9B4, 0x6DBA6FA3, 0x763B293A, 0xA3FA1B84, 0x75262E08, 0x46E7378B, 0xB7D69B83, 0x42ED9516, 0xB9589AF3, 0xB78C3F6C, 0x4F94D40F, 0x8FAD55B7, 0xD2770000,
    0xE4EFCEB6, 0x04DE5E35, 0x7C84CFBA, 0x30FCCDD1, 0x081B502D, 0xA214F003, 0xE25B400F, 0x8CB14804, 0xDBE0944F, 0xFF47259B, 0x87EE8D79, 0x87EC400D, 0x8D4018FF, 0xF600BF5E, 0x606B7FEF, 0x4AC3A276, 0xFD07D3FD, 0xC3567DFF, 0x102F77B8, 0x10B27C40, 0x1A08107C, 0x7007C4C2, 0x13FC3B83, 0x3D908EE8, 0xE1130000,
    0xA5AF5EBD, 0x7DD53710, 0xA361A907, 0x96714733, 0x78A0F07C, 0x5C2589CB, 0x14A838F6, 0xB65A1DD2, 0x31F1D8A1, 0x68760C63, 0xABC6F27E, 0x754811FC, 0x93E98680, 0x3F98B835, 0xC1F687C9, 0xAA2C7964, 0x33B73401, 0xE0116C23, 0xD42449FB, 0x050023BE, 0xEA050F68, 0x26C1B962, 0x2221F4EC, 0x001150BD, 0x9D450000,
    0xEB2BAA87, 0x0AD61E62, 0x7BFBC1F8, 0x73BAAB81, 0x1D5AFE4E, 0x2A1CF062, 0x04F78E12, 0xCF71E307, 0xE89C1260, 0x638042A8, 0xF0A54003, 0x0EE10272, 0xAFD0FF7E, 0xAD25677B, 0x47DC27E3, 0xEFF33C19, 0x9FBDD7D6, 0x4FA2B237, 0x16BD28BC, 0x40AE3D01, 0x079B58A5, 0xDBCE4071, 0xF7080E2F, 0xF123E7B0, 0xFC890000,
    0xC7998211, 0x30761634, 0x11683B6A, 0x17A63E18, 0xFB347807, 0xF04ED0FA, 0x1530CFD5, 0xF9F06D0F, 0x2F8FB176, 0xE0D81C32, 0x0FA1EA03, 0xDE1CD101, 0xC6B6E6BD, 0x12B2AFDA, 0xBCFF7EF7, 0x80C3A7F8, 0x00007921, 0x04C61F6D, 0x9007EAC5, 0x8ADF8F15, 0x7991C954, 0x530AE318, 0x4E5D038B, 0x09803D84, 0x64240000,
    0x663F2E61, 0x7E9D6E71, 0x7E8790EF, 0x61153BF3, 0xE014BF83, 0x8056145D, 0x077D69A0, 0xFEB54E00, 0x6079D37B, 0x3B1928AF, 0x50A0CE42, 0x67F5423D, 0x7E80E426, 0xE0768F43, 0x546BC9FF, 0x47813518, 0x6920F5EF, 0xF4577CD6, 0xF497027F, 0xF97F9FFB, 0xC2DB15B1, 0x80600CFE, 0x6030EEBE, 0xD9B974BE, 0xADDB0000,
    0xB07C6F71, 0xD5B74A07, 0x597E2379, 0x21627B0C, 0x1F1EE2E9, 0x83B228C4, 0x65861479, 0xF85FF497, 0x9771C52D, 0xD7669318, 0x6D3CE553, 0x7DF6BE90, 0xDDE4797F, 0xD6DE6ED5, 0xA3E18447, 0xDE12B001, 0xE07885AC, 0x03F84DC2, 0x1E26DCA8, 0x2267E211, 0x450E5D03, 0xB5FC2A97, 0x1F810195, 0x3240F18F, 0xE8DF0000,
    0x1A5BFBD8, 0x3307DABE, 0x7E08A61F, 0xF0042FFF, 0x51B3FFFF, 0xB1F61BDB, 0x2FC03F7E, 0xD20AE9F9, 0x000FABF9, 0x00297F80, 0x07B85840, 0x1AB3BFE7, 0x2522F628, 0x0376807D, 0x1E017B79, 0xAB2BD6F2, 0x81A1B808, 0xF917122F, 0x57B70BA4, 0x7B736B9F, 0x8BFE8FFD, 0x2EDDBA2F, 0xD12E2CCC, 0x7EFD340D, 0xFE500000,
    0x20BCF939, 0xDF9EF441, 0xE1D53098, 0x08FC0283, 0x6F5EE057, 0x0E5680A6, 0x43907ED4, 0x680AA0AA, 0x1B506F44, 0x67F7F78E, 0x077C1473, 0x3FE58791, 0x7C747036, 0x81B602B0, 0x0E100700, 0xFA6C4902, 0xC9266C78, 0x5E6068D4, 0x04547710, 0x01832612, 0xDC6B9429, 0x240F8827, 0x95D14128, 0xE75EC16A, 0xEF6F0000,
    0x6E93BD9F, 0x4FF79740, 0xC0771400, 0x1F99A846, 0x97EB0A36, 0xA8E00268, 0xD0FE1EB4, 0xF9D3C016, 0x96588325, 0xCF001238, 0xF00111BA, 0xC0814B5C, 0x21F766E8, 0x444B1E20, 0xEEB9F39E, 0xFE3DB0B2, 0x53C0094F, 0x1EC877A3, 0xD4685EFA, 0x006887B0, 0x8FA07E16, 0x3E07B92A, 0xC1FF806F, 0xCF90AD60, 0xF9640000,
    0x23A6EC5D, 0x1B0B5AAD, 0x9A79A57A, 0x8B4418C0, 0xBFF36683, 0xDBFB30DE, 0xEFD20570, 0x918FFCE8, 0xE41EBF7C, 0x015C6DC2, 0xD6C376BC, 0xC038E400, 0xDD8190D4, 0x167503B8, 0x7A00580E, 0xD180D60C, 0xCD42DE3E, 0xB24C6246, 0x5825C106, 0x06ABFCB0, 0x3CBC8502, 0x1C3E4007, 0xCCF81311, 0x5FC37B43, 0xC7860000,
    0x93AC89C6, 0x88F70087, 0x57F0E848, 0x9D077904, 0xFC223023, 0x487A2911, 0x19F78347, 0x6FFC7155, 0xFFD6259E, 0x80E13800, 0x1CE4B00F, 0x087A01FE, 0xCE60F3BD, 0x634BFAFF, 0xB9EFF3B6, 0x5A796651, 0xFDE60538, 0x2DA7FF91, 0x45068F59, 0x71BED43D, 0x620D6F63, 0x33B986CA, 0x7E0D1490, 0x9E62E75E, 0xDF590000,
    0x862FCFA6, 0x97FE8F2C, 0x6438AC10, 0xA8DF239B, 0xECC83AEA, 0xD0E3ECFA, 0xE4FB918F, 0xBA89ECFF, 0x1EE13D1A, 0x0CCDC9CC, 0xF707F03F, 0x905D00BB, 0xF7A007E4, 0x55881EEE, 0xF400E3F5, 0xEF4753DB, 0xE41FB7D0, 0x06348F86, 0x3D6DFD15, 0x286034C8, 0x03080947, 0xF740D10A, 0x57FB8BFB, 0xF48EBBD9, 0xEA7C0000,
    0x5FEE0008, 0x292D0A20, 0x17A04D90, 0x2C160B17, 0xD8BDC79D, 0x290ED971, 0xB1AE1F75, 0x5BD1EDC4, 0x0E8DB233, 0xF187F66F, 0x0B27C539, 0xE82EA1C6, 0x87483774, 0x678D25A5, 0x408C0F7B, 0xFE9DB67F, 0xCB440FF8, 0x13CBDF0C, 0x4933A021, 0x566F0F9D, 0x1AF668D5, 0x8B41A008, 0x08030D90, 0x40602B62, 0x8C980000,
    0xC2FAC648, 0xE778AEE8, 0xFEDFC57F, 0xD5D1CAF1, 0xD3BDDEF0, 0xDF848E06, 0xB5A5E2A8, 0x93DF7A2F, 0x008D9000, 0x01729E00, 0xB81F480B, 0x81E2038A, 0xFC40FA7F, 0x312FB779, 0xDFE57B73, 0xBEC43C38, 0xE01FDBBE, 0x4222D110, 0x00177720, 0x702FAFAC, 0x20295B84, 0x766284CB, 0x9BA810C0, 0x00025503, 0xF8500000,
    0x5A46DF7B, 0x8DEAE9A7, 0xFFDCF057, 0xFC70BE3B, 0xE82DB64E, 0xE44399DC, 0x829FAD86, 0xD6D8AB37, 0xAA2BA8E5, 0x5A650A05, 0x630FC9FE, 0x85EF01FA, 0x7F667D4B, 0xC4BB6BC4, 0xB9F8CDF9, 0xFF0F1F15, 0xF407D9BE, 0x10FEBDC1, 0x3E773C64, 0x7032BC00, 0x1BAF8805, 0x40411F56, 0xA878B238, 0x0FF990EE, 0x5C7E0000,
    0x694E1213, 0x77BCFBDB, 0x8FFD20CF, 0xDD42B17F, 0xB755F483, 0x79D02C69, 0xCC031B8F, 0x83AD9EA3, 0x2B607C3F, 0xBC011983, 0x6001A817, 0x9615B8DF, 0x217547E2, 0xDCB87E80, 0xA054F899, 0x0E07C279, 0x807E41C0, 0x17678CED, 0xF5D46DAA, 0xF044F87E, 0x29FDCCE2, 0xBBDF0151, 0xAC545B18, 0x90463EFF, 0xFC470000,
    0xEC9116E5, 0x4717387F, 0xCC3E704C, 0x0D68841A, 0xBEAF7686, 0x4EE5B41E, 0xD196C7D3, 0x9AE0FCD0, 0xAF5C25A8, 0x21FE5666, 0x7EC3706F, 0xEF16BC3F, 0xC0E1EB71, 0x07577ED7, 0x22FF8803, 0xA03E3420, 0x11C03500, 0x1406A808, 0xF025F51A, 0x162FE2C0, 0xCEF3541E, 0x5F61038A, 0xE62BC844, 0x49FC3622, 0x33C20000,
    0xB5B776F8, 0x3FDFAA27, 0xFFFD2C13, 0xCE52C962, 0xF2F11100, 0x93281F09, 0x6C03F818, 0x81E3EE60, 0x6FD7AE7C, 0xC2EFE8DD, 0x2AA90D1C, 0x4938A5D0, 0x00D94E27, 0x7E13502D, 0xE77F018D, 0x6A0BC133, 0x61FD42A8, 0x87B5ED5C, 0x7E69F08F, 0xB0DB63C5, 0x693DF827, 0x777F8A01, 0xFFDD4BFA, 0x7FEFFFCB, 0xDE490000,
    0xC1BC2D63, 0xAFBE7A5D, 0xAFC5B719, 0x7663701F, 0x9A2E00EB, 0x0C381D80, 0x2693E03E, 0x201E878A, 0x1BE23EE0, 0x9D1A4F19, 0x858B59F0, 0x10126F9E, 0x98B8F9B9, 0xD4262E80, 0x6EB8BCCF, 0x8C1F01F0, 0x03F10FE2, 0x3DCDEA53, 0xC16D4E3E, 0x0AF553EE, 0x1DAF3542, 0x37E5C813, 0xF598DCA4, 0x41F4D31C, 0x93490000,
    0x5677C64D, 0xD6281120, 0x40206002, 0x00047448, 0x369F83E7, 0x00AD94CE, 0x53EB0CB9, 0xBA9BEAD2, 0xCECC8DE4, 0xDFF4D93C, 0xBDBF8298, 0xF950A9CF, 0x0F41EC63, 0xCC064FBA, 0x01DCEBDA, 0x741E00A7, 0xE30A267C, 0x7A066A06, 0x8852E86E, 0x80430604, 0x38109FC4, 0xCC15CA71, 0x0016A84E, 0x85268B46, 0x83A10000,
    0x3616EC21, 0x77D324E7, 0x87FF8DEB, 0xE7E63C5B, 0xF2A3E59F, 0xCED8CAA5, 0xFE03F514, 0x81FAC8BB, 0x901A9450, 0xCF8F5E1F, 0x6091D98A, 0x0D0E381F, 0xC13B8774, 0x063C2720, 0xA160B800, 0x9FE93369, 0x56682F00, 0x6C053007, 0xD0D78098, 0x1FE21BC2, 0x51B1440A, 0xDF9D9132, 0xEFF19D25, 0xFFFA8CD7, 0x4EE70000,
    0x33332393, 0x46035304, 0x5F7E7248, 0xA5F93E98, 0x3D8A0D9B, 0x1AA8C85B, 0x40578FB6, 0x2DD8C83E, 0xCE8DE41A, 0xA95C5AA5, 0x9835BFD9, 0x893BFB3E, 0xC00F0AF7, 0xCE7B06E0, 0x4B813C61, 0x500E4603, 0xE0FC335A, 0x23C15046, 0xF0120475, 0x1AE00214, 0x9000BB07, 0x710ADB01, 0x75EAE667, 0xFE825F17, 0x04A90000,
    0xD152FED5, 0xC9260ACE, 0x48386C24, 0x73630118, 0x4FC647E1, 0xBF60CA7F, 0xFDD70F74, 0x9F313AC8, 0x8BF4A5A2, 0x34434585, 0x8C086138, 0xA12A0000, 0x60E0CAD6, 0x07A61E99, 0x1F4DF81F, 0xAB882170, 0x0E282F0E, 0x6C98618D, 0xE44E1184, 0x06408640, 0xF37FEF0A, 0xDE248821, 0x03E17C25, 0xFBFCA582, 0xFAB10000,
    0x6F14D677, 0xB933D0F3, 0xB8EE0C64, 0x00A077C0, 0x0958F069, 0x799F808B, 0x63FA429A, 0xF628DF9F, 0x4B039478, 0x400F9FE0, 0x697F04EE, 0x00F06FE1, 0x040A5F04, 0x5E1B5F14, 0xE03C659E, 0x22833F71, 0x8A3CDA3E, 0x43CBB970, 0x9F7795A4, 0xEB5E42DE, 0xD3E6DBE6, 0xE6469437, 0x01C01240, 0x00A080E4, 0x680E0000,
    0x2E4D4F17, 0x1FFEEC2C, 0x7FBF5C16, 0x77D80F6C, 0x578DED50, 0x4EEBF1B1, 0xD91E190E, 0x5FCF1A3A, 0x72436B36, 0xCC3E259B, 0x8D6575D5, 0xE31A187B, 0xAAE36F8D, 0x162AE631, 0x13844565, 0x83535039, 0xA6211687, 0xB32969C6, 0x30D9C662, 0x0CE8DB10, 0x2919C311, 0xFDBA7864, 0xD9E71A4E, 0xFA2EF59D, 0xDB940000,
    0x27866AEB, 0x9FD6B65A, 0x0C83D18D, 0x8B7F585C, 0x3FF31FA1, 0x0F3FD979, 0xE88B6B59, 0xBFC764AB, 0x7C7448BB, 0xF04DF57D, 0x004F4FF8, 0x1718FF8F, 0xF6CBF273, 0x1DAF7392, 0x56FCCBC2, 0x27E53D76, 0x3E082F56, 0xF21DF346, 0x1C513F7B, 0xE0348839, 0x169E6D5D, 0x61EAAB6A, 0xF7CFFA3F, 0xDDC1EBFA, 0x699A0000,
    0xC973AEA7, 0x2EFDB7C9, 0xC07E916D, 0xA1FE83BF, 0xE357D7F1, 0xDEDABF80, 0x3E2A0E1D, 0x6BDBDE40, 0x2C4FC5B7, 0x1C266E2B, 0x07330172, 0x9E7281A1, 0xA149BEAD, 0x748180E3, 0x681E3A51, 0x204176D0, 0x0194C93D, 0x0E1A9629, 0xF3099BFE, 0x17037F3E, 0x9F2FF7D8, 0xB7DDF4E6, 0x0844185A, 0xD04B52D2, 0x6B1F0000,
    0x8CA56609, 0xBCC9FC63, 0x7BBEE8ED, 0xBE02F737, 0xB8F91197, 0x83127F10, 0xEE06C015, 0x0AF25870, 0xBD1B2887, 0x17C9E903, 0x201D465C, 0x08D5B109, 0xDF122029, 0x29DB69DE, 0xD69229F9, 0x30532A92, 0x28FAD215, 0x76F701B8, 0xB7CBF74C, 0x7A77DE2F, 0x937FBF9E, 0xC03FFDC7, 0x002192FB, 0x8028606A, 0x40510000,
    0x490B88CC, 0x4E93D1B1, 0xF41AC6A6, 0x034FB870, 0xFDDAB60F, 0xAEC5507D, 0xDCDE1D1F, 0xFFC1E7D7, 0xDE1EC6F1, 0xB1A5721E, 0x0AB797AD, 0x86C86BD6, 0x812CF974, 0x1A98B160, 0x209830CA, 0x91088B6F, 0x6081CDE2, 0x42FD78D7, 0x6B51E780, 0xF8CF0E77, 0x283D19E7, 0x3262F926, 0x81E634F0, 0x50205AE0, 0x19570000,
    0x06C2B40C, 0x6A7B90AB, 0xB664C71E, 0x3DE7D05B, 0xFBF89116, 0xFC7EEE97, 0x39EB23BC, 0xB87AA2DA, 0x4F062631, 0xD4021C47, 0x89AF6E3F, 0xFF1801F7, 0x9FC227EE, 0xD580F8D7, 0x01A743E9, 0xEC0070DF, 0x018FE7FD, 0x0377FF15, 0x07F5CF99, 0xB7302D83, 0xDB93B073, 0x5C1F37F1, 0x7FC3E48F, 0xA9DA8735, 0x3EE40000,
    0x7C1FA241, 0x80341DCA, 0xA972DE60, 0x62573257, 0xCCCC148C, 0x3EEC313E, 0x900C5FD2, 0xADD781AB, 0x5D2A8E3D, 0xE026C67F, 0x2143B5F8, 0x02705F90, 0xC52DF65E, 0x84E2B893, 0x101EAA06, 0x85A253EC, 0x2A8EA25A, 0x711C46F6, 0xEE457A52, 0x1E28CECF, 0xCD6286ED, 0xF1D01969, 0x0F0FD7DA, 0x4C23B9AD, 0xBDD00000,
    0x774E0D65, 0xDE9890D7, 0x3208C545, 0xBC570ECF, 0x00499FF7, 0xD6DBA0EC, 0xCF1B07FD, 0x7FC3F7B2, 0x20E1BF7F, 0x260D5509, 0x476E4E7F, 0x147A4771, 0x7E84FA66, 0xACC71FBB, 0x38062999, 0xE01F80A1, 0xC3118F6F, 0x71B367FE, 0x0901A347, 0x0151DAB0, 0xF36E1E25, 0x7BA5FB02, 0xF186ED59, 0x46C85B8E, 0xA1450000,
    0x7FC97671, 0x2B015439, 0xE867243C, 0x33FDC8E2, 0x9D21662F, 0x7488032C, 0xF28D4AE4, 0xA426807E, 0x44400580, 0x8820563C, 0x01400700, 0x531E0DC7, 0x79A7F868, 0xA3D7DE8F, 0xCE7BFECF, 0xDB1FF0F9, 0x49E7F8B4, 0x156263C1, 0x3F68F48C, 0x18BDD109, 0x8BA57197, 0xE8E0C297, 0x912D8283, 0x480BD065, 0x3F8B0000,
    0xA303BB2B, 0xC9164E10, 0x13483ED1, 0x8CA225F4, 0xC5D3AC5D, 0x7C95C4D3, 0xC3E08C6B, 0x3CF2CEBF, 0xBA1CED87, 0x58CC4F65, 0x85A20CA8, 0xDEE87E8D, 0xED70749E, 0x39A22FA3, 0x5D60FD6C, 0x851EEDFB, 0xA1E0763E, 0x1D0CBF03, 0xABD3783F, 0x9F27C5FB, 0xD7C15FDA, 0x4F127E5E, 0xC226CCD4, 0x92170BE3, 0x2EFC0000,
    0xFB4C1833, 0x3A24E497, 0xCA7D7440, 0x0029B10A, 0xF0600185, 0x85493A13, 0x4A0B85DE, 0x747966E2, 0x85C59EE8, 0x58638921, 0xE27FC21F, 0x1F1A0BF3, 0x84D08743, 0x9240B310, 0x4465B000, 0x15B3A592, 0x2B987339, 0x5991E322, 0xF852476A, 0x488D3498, 0x98EE2980, 0xB077B292, 0x03D8F450, 0x00027579, 0x5F650000,
    0xE41C2A3E, 0x2550B7D7, 0xFDD5F6B5, 0x9744BFF5, 0x450D7A87, 0x5EC670F0, 0xB21B9FA7, 0xC360E152, 0x0E0C4003, 0x70C03E4D, 0x04908123, 0xF84AA3E7, 0xB93DABC0, 0xEFF7B58F, 0xDC38CFF2, 0xADF3F4C5, 0xFD77EEBF, 0x85EF7278, 0xCFFECEA2, 0x7B5AF214, 0xC689503D, 0xA02E40C3, 0x61DE9AEF, 0xB370F372, 0xBF9F0000,
    0x99F68D7D, 0x13E48289, 0xFBFFEC1F, 0xFFFC8A7F, 0xF7F5B9BF, 0x893FC412, 0x8FFF3BCC, 0x5FBA3FD7, 0xD9E7BE19, 0x3E582628, 0xE3C27227, 0x2051244A, 0x44F9E043, 0xD5F41460, 0x6C04517E, 0x71233D70, 0x3D8EDFCD, 0x39469FE1, 0x80F6D770, 0x31363EBF, 0x81FF95D8, 0x7B4FECA0, 0xFFDFFAF0, 0xFF3B11FA, 0xFA0D0000,
    0xA8967752, 0xFF77AF91, 0x5B7F9164, 0x41F93536, 0x785360E1, 0xCFB89C64, 0x95431894, 0x12C36461, 0x3652C989, 0x8EF40810, 0xE1E36E3E, 0xE69D71E4, 0x5AB6DD00, 0xBE47FB38, 0xF47B018A, 0x026F71B1, 0xB5E030CA, 0x32C12461, 0x7C1BC316, 0x034EE6D9, 0x9BDD7E9F, 0x791DEDC0, 0x6F23DD5C, 0x40AC29F1, 0x61E00000,
    0x343240EC, 0xEDDCE988, 0xFFFEDF77, 0xF94EA324, 0xFA5F916E, 0x4CA6F773, 0xD797FFF3, 0x9D0FFB50, 0x583BF95F, 0xF42AD9FB, 0x013E6BC8, 0x01FE0602, 0x0D248004, 0xFA0210FF, 0x40C85474, 0x07001470, 0xE082F24D, 0x167EF4FD, 0x121FB7BC, 0xDE71C9AA, 0x78FEBFB5, 0x597D3EE1, 0xDFF751A9, 0x2EF5967D, 0x7F590000,
    0xBA081F87, 0xBCA41BA0, 0xADD1DA05, 0x042FEA1A, 0x81E840F8, 0x081E5B70, 0x7F388E23, 0x3FE3F00F, 0x969E0066, 0x1BE8028B, 0xF93471F5, 0xF0CF475C, 0x1A7AABE3, 0xA85F3D68, 0x7BD7802F, 0xE0F34EAE, 0xCF3BF990, 0xF5FF383D, 0x3EF58E9D, 0x16403805, 0xE656D463, 0x51BE6E90, 0xA367A3B8, 0xBC24F262, 0xC7E90000,
    0x8E03B244, 0xFAF63F27, 0xBFFDD33B, 0x895E5982, 0xF4B0AA2F, 0xE8C60887, 0xD4C2D147, 0xBB0CD07E, 0x5800696E, 0xC800BA88, 0xE7991F07, 0x2196EF33, 0xC1EFA304, 0x23D86E90, 0x1E0F942D, 0x60EBBD74, 0x1FB06207, 0xFCFBA138, 0xEEFC0EEF, 0x5DC9966E, 0xAB16E5D0, 0x82DBE2E5, 0x437547C2, 0x88890271, 0xF7720000,
    0xDF2C2127, 0x272883A3, 0x9EA07208, 0x340776EF, 0xD869A3BF, 0x111A8C68, 0xBF883CE6, 0x691393F7, 0x248C4E21, 0xC9ABFD68, 0x192C1014, 0x0F2D3FE1, 0xAF44FF2F, 0xE97FF497, 0x1FF3FFEB, 0x7E3D8787, 0x80D0D2FC, 0x5921F748, 0x290FE406, 0x557AA1DB, 0xE980A071, 0x782024C6, 0x000089A4, 0x40017AB6, 0xFA540000,
    0x9F0795D1, 0x21B07B3D, 0x7269EAAE, 0x245C7A97, 0xC7745B5B, 0x37BFD1F3, 0xE7FC4FFD, 0x2FFFCB5B, 0xBFFF3F9C, 0xCA0867AF, 0x0407AD01, 0xC8648020, 0x013002B0, 0x7A00E0D8, 0x3036BF6B, 0x17BDEC31, 0xCFC04DFE, 0x0C241ED7, 0x62F2EFA4, 0x9DCB865B, 0x8EF50B6E, 0x10CA18D5, 0x5587F1EB, 0x70A91D53, 0xF6570000,
    0x020BD77C, 0x61DD4E0C, 0x63BF75DB, 0x44BDDB7F, 0x416AFBD9, 0xE7067FFE, 0x378CFF34, 0xF17FE9EF, 0xD0253F76, 0x004B1508, 0x157F7101, 0x1CD300B9, 0x22309C44, 0x12FB701E, 0x7B778135, 0xFF3803BD, 0xA8F8EE7A, 0x7F2FCAB2, 0x2DC76267, 0x60181BDC, 0xD3BB4B9B, 0x9BC14F9B, 0xAE080869, 0xE6BB5A1F, 0x7E090000,
    0x36C996BB, 0xE6D63BC7, 0x6DFCF9BF, 0xF3C7F136, 0x2A555C7F, 0xF7BAFFB3, 0x3FB7FF5B, 0xF95FBF3B, 0xFF1175DB, 0xC0F52428, 0x05341401, 0xE656007C, 0x05701FA8, 0xCE037BE1, 0xFD5EC3FB, 0xFBB008FA, 0x6F9003FD, 0xD409DF50, 0x358C0844, 0xC0ACABCC, 0x4DBC08B2, 0x57110146, 0x850B9869, 0x2D7240DB, 0x4E4C0000,
    0x4BB6D2B0, 0xAD4D745D, 0xEFE775AE, 0x17682001, 0xD15F0613, 0xEB6AAA53, 0xBA9B2A24, 0xD8C61103, 0x1A439CE2, 0x4D00823C, 0x31C543E0, 0x12452401, 0x3FD07406, 0x7945E1EE, 0xCF3C106D, 0x87C24154, 0xE215735D, 0xE6E67279, 0x4A6FFFFC, 0xFD5157FA, 0xBB0FFB54, 0x486820CA, 0x03A0631E, 0xFC950CBE, 0xFC000000,
    0xB497843D, 0x2EC7D9EB, 0xEBEB1330, 0x64595007, 0x721090BE, 0x2A200282, 0xD401F816, 0xE99E0E9A, 0x3B43D0B0, 0x789402C1, 0x98514E91, 0x8D10171B, 0xB847D48D, 0x89C6A12D, 0x64CDD9C3, 0x97F04B31, 0x4E00430F, 0xA249723F, 0x1DDF0CDC, 0xC8D11DFC, 0xBC05BC80, 0x40ABF9C1, 0x602515F5, 0x7809C365, 0xFFDA0000,
    0x29FABEC5, 0xE2FDE81E, 0xF5FDFB89, 0xEF16682F, 0xFF2D8A74, 0x3B87C6A2, 0xA5E23DEA, 0x5FEB09BA, 0xB00F0BA5, 0x81EDE694, 0x01EAC040, 0x144E0400, 0x43B3D800, 0x213EA206, 0x0D8C263B, 0x61410727, 0xA40A477D, 0x458F23F8, 0xA1E5FF7E, 0x8D3E1E9F, 0x6579EEFF, 0x0C50428A, 0x496A0D5B, 0xFF9CE4BC, 0xF94B0000,
    0x68E6A2F6, 0x5EC2AB6A, 0x796D8D3F, 0xDE731BF8, 0x7049DBAE, 0x1D65ABA2, 0xE8A42837, 0xF9C08AC8, 0x8F095E29, 0xE02B3C8E, 0x0A7FE0F2, 0x7390275D, 0xF86CFED6, 0x231ED8E7, 0x84C8A2C6, 0x1C56AD5D, 0xCE482EC5, 0xEC43F12C, 0x40FC44E9, 0x1A99B9A2, 0x249B4D12, 0x4458C838, 0x9757AE4E, 0xFAB7EF9C, 0x7B110000,
    0x50BE82F3, 0xEF49299D, 0x0D0DDE8D, 0x2084FCD1, 0x72FA0A49, 0xA5D4B702, 0x4FBF397F, 0xFEDD11D3, 0x45F1FC74, 0x663F9213, 0x43B1E11C, 0x1D0CA946, 0xA67C9CE4, 0x2597001F, 0x8AEC16B7, 0xFD4EE07E, 0x3D01F566, 0x79BF63B6, 0x0617375B, 0xF7FFF833, 0x750FFCFE, 0x823FFBD0, 0x01FFC864, 0x0C60DBEF, 0x7F4D0000,
    0x28D3AE96, 0x9D08AD71, 0x7B13DB29, 0xFC4CB8A9, 0x61E9A010, 0x02C74280, 0x7AC7244E, 0xA7606F4B, 0xC7069AF1, 0xC216FC0F, 0x4040A23F, 0x52DE3FDD, 0x3807DFC3, 0xF63D9F2C, 0x1F37FFE4, 0x7CBEA75E, 0xD3EEA1E5, 0xFADE8012, 0x32B4B004, 0xC1C98802, 0xF4110104, 0x585014DF, 0x00C09480, 0x484482C1, 0xDBDE0000,
    0x2AD65B15, 0xFFDB458B, 0xADFC83BD, 0x81DE2840, 0x111E0203, 0xEF50C10A, 0x300613F3, 0x7266BCB6, 0x9F172E70, 0xE9830E07, 0xC00FE27E, 0x578405FF, 0xB064FE40, 0x9C346619, 0xC6DEF004, 0xF2CC12B1, 0x9F184421, 0xCB0362BC, 0xA26A07C4, 0x8D7C3D7D, 0x06C2B78E, 0x00053E15, 0x013FB8DB, 0x48039EB5, 0xFC0B0000,
    0x499F8F3D, 0xBF3BB3A6, 0x51EB78C0, 0x46DE0C8B, 0x89C0F7DF, 0x372CF760, 0xFE05E5E4, 0xF4A8407F, 0x2C1E1E83, 0xC12F857E, 0xC1FE6AB6, 0x1E524CC7, 0xB9EAE9C5, 0x68147C13, 0x70FEC176, 0x07E016E0, 0x38DF4F68, 0x06BCED00, 0xF2FDDC1D, 0x750B2731, 0x4B0BE85F, 0x41B7A723, 0x3FF5A94E, 0x1C36093C, 0x159D0000,
    0x2FA26268, 0x8BF78F0D, 0xB77BAB1F, 0xAFC621B4, 0x606DFC33, 0xE295AFFF, 0xF7257F9F, 0xBBFEEDA4, 0x9E8086F8, 0x020863C6, 0xC00C259A, 0x80328424, 0x802AE121, 0x16C75EB8, 0x63C6FF0F, 0x1A84EA00, 0x423E9B00, 0x03C2BC45, 0x7D23701F, 0x862425FD, 0x67FE1902, 0x239D400B, 0x8FFF3F19, 0x1DD3743C, 0xF4080000,
    0x4E3DF67B, 0x1AFFDFE7, 0x378E2E1E, 0xE4A0005E, 0x8F302F52, 0x2F06B18D, 0x7E3719E0, 0x67F0BF83, 0xFF9742C7, 0xF0FA5ABF, 0x147A71F0, 0xFBBA5F0B, 0xFCBFF283, 0xC7BE0219, 0x80A047ED, 0x4E0A4020, 0x329F2AAF, 0x1348A254, 0xBB86DC42, 0x85595746, 0xF8EABDF6, 0x0F3482B8, 0xC879EA45, 0xC052BE86, 0xEFD60000,
    0x3EE2BC3D, 0x04E7E325, 0xDFFF797B, 0x857AF7AE, 0xC929F3C9, 0x81B2F9A0, 0x6FE7B602, 0x39207101, 0xA03C03DD, 0x03AC0E80, 0xB90361BF, 0x716A2FE7, 0xDB156B5D, 0x15FCF1FF, 0x53D65FE5, 0xE2681165, 0x43D4D207, 0x2AC6040F, 0xE8674620, 0x8CF68B00, 0x6F501A64, 0x59C73528, 0xAB658A22, 0xC00643AA, 0x5CBC0000,
    0xAF84E3C6, 0x3FE6FFDF, 0xB751B0BE, 0xE7CDA981, 0x7BB0B39F, 0x45A923D8, 0xE14BFAD8, 0x524B6010, 0x9DC80E25, 0xE0207076, 0x038887F8, 0x79BE6E81, 0xA9317C98, 0xD59D8586, 0x159CF4C0, 0xA6598E8E, 0x72DA4C75, 0xD07ECD58, 0xE7F9647A, 0xDDE73A82, 0xEED26CAF, 0x8C0C01EC, 0x50FBD8CD, 0xFD697379, 0x0E000000,
    0x74F77F9B, 0xCE061B68, 0x908B3668, 0x0019ECB0, 0x00C745D8, 0x07373E81, 0xF1ABF962, 0xDC46C215, 0xF8FC35A2, 0x8F8A8903, 0xE2DA7CE7, 0x7D103C5D, 0x8B9A9EB0, 0x8698FDC4, 0x0EF7C672, 0x9282524B, 0x101AA4B4, 0x41733340, 0xCB07D28C, 0xD1B4A88E, 0x97849FB0, 0x67702F0A, 0xFE310E5F, 0xBB9F6A16, 0x03020000,
    0x7821C165, 0x5DEC60D4, 0x77BF11AC, 0xE0BC21EE, 0x167299FC, 0x07361FC9, 0x87CFBE8F, 0x95E56879, 0xC0D7A484, 0x00FC1109, 0x0680A0B1, 0x4D166E63, 0x13FF0B28, 0x2ED3A46A, 0xFCD05909, 0x5E5442BC, 0xE9615756, 0xD031170B, 0x841826F8, 0xC77CBE26, 0xEF2FEF7D, 0xAD7BAC67, 0xF3CF6B5F, 0xF7FB557E, 0xFE610000,
    0x2BA4BBC3, 0xC8B5F5AF, 0x7C530576, 0x03E46AE0, 0xD3C48F21, 0x44904109, 0x218E1836, 0x30733FCE, 0x323F7F90, 0x63FCDE67, 0x0EBE367A, 0x05EF1F99, 0x02BA625F, 0x2AA29F62, 0x5EFFA004, 0x354866F8, 0x10183748, 0x8906C15C, 0xA0660F91, 0x3DD17905, 0x84AF9C3E, 0x85E0C5F2, 0x0703FEA4, 0x0D7C90C4, 0xEE680000,
    0xFAC836D7, 0x7B8B28C4, 0x7EE8E7FE, 0x3A7807FA, 0xB0583FEA, 0x12904BF4, 0x57A3BF83, 0x24EFBA30, 0x000FC160, 0x00711A31, 0x0F891068, 0xF1381A4B, 0x302702C1, 0x25056C0F, 0x60D1D5B5, 0x820076F3, 0x6DF5D61E, 0xE37F4DFB, 0x0DFDCD49, 0x6EA5BA47, 0x9859C8A9, 0x2F10E7F6, 0xF7E6477F, 0xFEFF8087, 0xFFC30000,
    0xA7B22002, 0xA22C87FB, 0x17806260, 0xBFA530BF, 0xAED507D8, 0xC0B911B7, 0xD9282F73, 0xB0118B40, 0x04AF5401, 0x58A8E400, 0x2F017801, 0xE40A3076, 0x2FBA24F3, 0xB7F80B17, 0x5FE0A4EF, 0xFFF4D1D7, 0xFF9031FD, 0xFF8FB404, 0xD84B0017, 0xECC40257, 0xCB19EEFB, 0x95843F9E, 0x5BBEFC6E, 0xC08F81BB, 0xA96D0000,
    0xA0FF2B48, 0xB5EF30DB, 0xBE7BDE75, 0xDD375EFE, 0x540C2D8B, 0x72A4A05E, 0x01270279, 0x953CA743, 0xFFE5E098, 0x7C4B1F0F, 0x0E28F370, 0xEC9DBC0D, 0x1DA7C093, 0x6F7C35F9, 0xEB020D88, 0xFC58F9A5, 0xD03F8E67, 0x74E8A1CE, 0xD5B404DA, 0xA0A0211B, 0x98265F02, 0x39B8961D, 0x2EEAAA26, 0x5C008B0E, 0x269A0000,
    0x8FF438C1, 0xBCFCD2CB, 0xF831746F, 0xB5E5DDFF, 0xEC3407FE, 0x2B7C5FEF, 0xF82103EF, 0x45A078BD, 0xD41CEA9E, 0x040FF381, 0x072340AC, 0x23154721, 0xFF49F67B, 0x77D10922, 0xAA086337, 0x000E85F5, 0x83B44700, 0x7404A68E, 0xA8CC3F28, 0x1632FC81, 0x827FDFFC, 0xFEE837AF, 0xE4463079, 0xF50FAE92, 0x4DE00000,
    0x270AFFEF, 0x7FAE6B70, 0xCECE30C7, 0xE238115F, 0xF0239BBE, 0x061FBD72, 0x161416E8, 0xB27FD533, 0xAC71F5D0, 0x06670E3D, 0x0AD3F163, 0x79953D38, 0x17045E6D, 0x867E98BC, 0x636A9B38, 0xDE0052CE, 0xC2AF8D06, 0x30F81D62, 0x1615D651, 0x3716F002, 0x63DBC800, 0xD2560C0F, 0x03AD04ED, 0xE0998ADB, 0x69590000,
    0x0E71273F, 0xBDF2F9DB, 0xB3FAA67F, 0xBAC60FF7, 0x90667D88, 0xC7E7EB5B, 0xA5E60B94, 0x535451F4, 0x34972451, 0xFE3C5107, 0xFFC3C06F, 0xF0200178, 0x03F00ED4, 0x5C81316C, 0xD601438F, 0xFC0F086F, 0x915B30F2, 0x8416B7A3, 0xFC75E545, 0x83820C48, 0x0F9175A3, 0xFE7DB043, 0xB5580EE0, 0x2084A871, 0x28220000,
    0x5409E453, 0x7EE5EA25, 0xBF5EA136, 0xAC39D237, 0x83BC4623, 0x7BD11607, 0xF204C6B7, 0x3D7E1E66, 0xC70756C8, 0xE830400B, 0x1A40C1F8, 0xB78A1F32, 0xE923B339, 0xDE1DE0F1, 0x19A1B648, 0xDEE73D2B, 0x720DB39A, 0xE7097872, 0x321D0DC2, 0x9BB87714, 0xAA87739A, 0x642E8819, 0x97E49244, 0xE8C1ACE0, 0x1A9A0000,
    0x2534FD89, 0xAFF7B717, 0x486C4A4D, 0xE5E57295, 0xDB63CBF4, 0xD16F0AB5, 0x17C02E42, 0x58086815, 0xC02ABD40, 0x06BF8FE5, 0x42DB79F3, 0x2B738CC1, 0xEF7B6007, 0x2EE20013, 0x6AC0C23B, 0xB0283664, 0x00E6FAEA, 0xE26E78B4, 0x4CB5FDB8, 0x9FF745A9, 0xC35CD03F, 0x8C6E40A4, 0xF8013580, 0x9EDFE43E, 0xBF190000,
    0xA7E2E76B, 0x9FFDFBFB, 0x6EB225FA, 0xD6A36554, 0x218FE820, 0x2E75904B, 0x703A8046, 0xB4201FF2, 0x3967DC58, 0x84766640, 0x42DBA5A4, 0x779A7DF1, 0x7CE0888A, 0xE2956015, 0x791F808C, 0x612893E0, 0x9FF04E35, 0xBD2060E6, 0xF33309FF, 0x42F23D08, 0xAAA5E404, 0x3226B09C, 0x00510C40, 0x38053B38, 0x1EC10000,
    0x0B0F6B24, 0xDF69FF0B, 0xF9FEA83C, 0x3FD3C687, 0xE200AC7B, 0x8247A564, 0x7C6431C6, 0xE4C612C4, 0xD2D8071A, 0x1E2A10CB, 0x4C2F8648, 0xF7884E3F, 0xF30AE16B, 0x069F97B2, 0xA2FA2F06, 0x4FE5D7B0, 0x1A7C0740, 0x9DA0D820, 0xFC09B44B, 0x226F8CF5, 0x33BA6F14, 0x6FF9E7AC, 0xFF3E2B4B, 0xF0ED2836, 0x23920000,
    0x1FFC7FC6, 0x97DDB1AE, 0x37FCCCF9, 0xFD88E7FE, 0xFC6F3E7F, 0x369BFEB2, 0xAFF7DFEF, 0xD009EB23, 0x008FA760, 0x003F0522, 0x02F6D3F8, 0x02E93E01, 0x01F70030, 0x15A00A1B, 0x7304209E, 0xC40B0335, 0x000FFDA0, 0x44DEE2BF, 0xD17FE7BC, 0xC6F4B47B, 0xF0B5967F, 0x5FA6937F, 0xD9A826A2, 0x9BE789F5, 0xBFB60000,
    0x1542299C, 0x4A76EBB8, 0x8C9B20F0, 0x3BEBEE8B, 0x3F2B74DF, 0xF5F20CA7, 0xF4DA04B4, 0xFFD4C617, 0x1596CB91, 0x05C00862, 0xE209E2BC, 0x401EDA02, 0xC457605D, 0x0F341CB0, 0xA3DCB54F, 0x3F773AE8, 0xFBE28568, 0xBEC0B003, 0xF1E1083E, 0x8D0043CB, 0xC531325F, 0x1733CF76, 0xF7FFA563, 0xF876D966, 0x12FE0000,
    0xB433870F, 0xC4812920, 0x414077CB, 0x68040FFC, 0x0303FB12, 0xF1BF0E25, 0x3BF2A22B, 0xFC0313E2, 0xC0F2E8F1, 0x4804F101, 0x8181406A, 0xC8462EE1, 0x1A31DA27, 0xDDFEE007, 0xFF7CBEF3, 0x8DFB33BE, 0xA96655BD, 0x0FAF5EC0, 0x1CAF040F, 0xC9AE822F, 0xC4A05093, 0x40D200F5, 0x2FC5C4C3, 0x01415B15, 0x00040000,
    0xC14E572A, 0x14FFDA63, 0x57CF477F, 0xD7F3DFAF, 0x9E4298EB, 0x37451103, 0x37CAC301, 0xBEA4D569, 0x6C898468, 0x0CD709D0, 0x614E617C, 0x680804FD, 0x0856FFD2, 0xE64C3366, 0xE7E25DE7, 0xF88FB29B, 0x0617B86B, 0x99F2A375, 0x6F57F239, 0x70271794, 0x3BC588D4, 0xBA500334, 0x0A841AE0, 0x00221525, 0x4F870000,
    0x7E138876, 0x83FF4478, 0xFFFF240D, 0xEFA9DDA1, 0x0EE62B99, 0xF6B3E5EB, 0x6396F4C9, 0x217FD635, 0x03C22152, 0xA000ECF5, 0x08012860, 0x6A3EC434, 0x02BBA49A, 0x7015185F, 0x80C03F82, 0x0240F830, 0x001CE7D0, 0x0E211482, 0x5FE3EAB9, 0xF7532B78, 0x32E4B820, 0x8FF7612E, 0x7FF3EB0B, 0xDFDF71D8, 0xFC540000,
    0x13166D5B, 0x5FFA54C3, 0x7F1BCCFF, 0xEAF27D59, 0x109B194D, 0x0F4707E0, 0x69C17694, 0x101DF16F, 0x064707F0, 0xAE3A3A9E, 0x1F8E3FF3, 0xD56BF19B, 0x8DD806A8, 0x96E27500, 0x84708238, 0x1AC87FE9, 0xF00F121E, 0x2A7962C9, 0x06D037AB, 0xF7A5CC03, 0x1EC4D021, 0x249BA125, 0x887F7053, 0x3FEDAC8F, 0xF3FD0000,
    0xE751F279, 0x9654E32A, 0x7EBF8B77, 0x3FFE1416, 0xEFB4A469, 0xFA73EB34, 0xF7CF21BF, 0xEF68082E, 0xF02B8754, 0x06D07681, 0xF003E0BC, 0x415B1FE8, 0x8B82FBD7, 0xD4A9177C, 0xF1445E77, 0xEB425A77, 0x4D2F1750, 0xF8E411C9, 0xA57B0A2D, 0x36D93790, 0x00C7401C, 0x8398871B, 0xEBFA5AA7, 0x6EBD1CF3, 0x6FF60000,
    0x9D1FA2DC, 0x98C6BCB5, 0x6FDFE739, 0xEDFB17BD, 0x00FEEFA8, 0x3FFF7B05, 0x27E2603A, 0xFC0006F7, 0xC920B9F4, 0x028D4EC0, 0xF3E9D8DE, 0x3FE70BFF, 0x8176FB1F, 0x623B4DFA, 0xCFD73BFB, 0x9362C77D, 0x84E6D2CB, 0xC4022007, 0xA4362840, 0x11BA9180, 0x63FFD802, 0x3F10C453, 0x6B601C18, 0x50446340, 0x7ECE0000,
    0x3163FC9A, 0xB73FDD90, 0x3F7E70A0, 0x684CC459, 0x34E54ECE, 0x4E2B8684, 0x4F474E84, 0xD2E1C079, 0x516006D3, 0xE026947E, 0x89FF0AB2, 0x7FEA5FFE, 0x7345FFBD, 0x1E87DA77, 0x803F8189, 0x00087D36, 0x00EBE882, 0x01FD587B, 0xC31FFBC8, 0xD0FFBF09, 0x35FD770E, 0x156A0D36, 0x64D8FD1F, 0xFB7B0B07, 0x9E890000,
    0x98E92A84, 0x95E212AC, 0x905E281E, 0x33C7801D, 0x91FE03E0, 0x76E85817, 0x4587DCF7, 0x0C783FEA, 0x87BFDE2C, 0xB8EDDC42, 0x843EB034, 0x72278BB6, 0x16A45052, 0x17CD0E51, 0x13ACF804, 0xF2C72096, 0x527862A6, 0xC38B884C, 0x605411ED, 0x07043004, 0x9CB7600B, 0xB91FC38A, 0x15FDFEB4, 0x518E9DE6, 0xDF950000,
    0x15ACACCF, 0x4FE7F2D4, 0x2A5702DD, 0x6F71995F, 0x7C78EE03, 0x6B81D896, 0xBC79D52A, 0x66F8248F, 0xFE0406B3, 0x3058C9FB, 0x9DF32CE1, 0xEFD8F044, 0x7469497E, 0xCAF42294, 0x6F8D2F44, 0x3E83E09C, 0xFE3C4B5B, 0xA3D1F85E, 0x3E3290EB, 0xB68407F6, 0x5FA3268A, 0x6659DB52, 0xEFC178CE, 0x1BC07FFD, 0xCA8D0000,
    0x3387F8CD, 0x58DF4B97, 0xFFC7E8BF, 0xFDD816DC, 0x1CD4EE50, 0x6E193F02, 0x1D7FE804, 0x3CFF7025, 0xFEA5019F, 0xE08D22D1, 0x46D90883, 0x48F6004D, 0xBBC02E82, 0x661FE7ED, 0xFF6B106D, 0xE1C6FFF3, 0x1DF0DA53, 0xF422575A, 0xF56AF66A, 0x007F830A, 0x05798342, 0x98F2E86E, 0x10AFD989, 0xD3FFEC3F, 0xFB5A0000,
    0xB45DF2A3, 0xCECBFF1E, 0x003BF55F, 0x813A69FC, 0x11801F1A, 0x9F5FB063, 0xF41E0594, 0x9BE82234, 0x4E6EABC8, 0xF1A0B79F, 0x1E4D59F0, 0x1F184F01, 0x4423FC6E, 0xC0FDE0BF, 0x8F5F1DC4, 0x38D0EC05, 0x0F0F1526, 0xF8E07FDE, 0xFC2D8A9A, 0x86ED83F1, 0x6FEDDF87, 0x381A626D, 0xA4613A53, 0x8851677D, 0x5C080000,
    0x8109535B, 0xCD842314, 0x4408E280, 0x2006A0F9, 0x20664488, 0x1B7F1A89, 0x257D60F7, 0x80A7062E, 0x2360C9E1, 0x4F045619, 0xE2A000BE, 0x1C610DA0, 0x5ED65C1E, 0xF1DFE5FA, 0x654E7C3F, 0xD3C7F37E, 0x73F6E3F0, 0x5F8E7F01, 0xB1F38028, 0x9C780403, 0x72A2B079, 0xFA334ED7, 0x8405A4BD, 0x71289CA1, 0x15140000,
    0x6E4D7835, 0x52DFE867, 0xF8E3DFFF, 0xD2DF4F9C, 0x004F6003, 0x88B80642, 0x0F03E809, 0x40572C17, 0x7FFF049F, 0x7BFFE5FD, 0xF7F94CA5, 0x8FE80005, 0x8550441B, 0x75ABD1EE, 0x244C74F9, 0x78C1CAD3, 0xED7FEAA7, 0x82F635C3, 0xE7FB3050, 0x4C7C9C88, 0xB809100B, 0x6427E776, 0x47BDC81B, 0xF7B87217, 0xBBE20000,
    0x6216825E, 0xDDD3DD9F, 0xE2F3F938, 0xF7596C7F, 0xD408BE7E, 0x45CDDFEA, 0xA0BEDDAE, 0x57680447, 0x7F0001DE, 0xC2109FF7, 0x18D93F40, 0xCD967602, 0xBE9BC1FB, 0xC8B7B03C, 0xC1B11F8C, 0xA79994AA, 0x63918BC1, 0x28B85C5B, 0xC27EF195, 0x7E54B385, 0xF7CDEC44, 0xEE4C4EA4, 0xB4E57C9E, 0xEB51FC7F, 0x6F2E0000,
    0x3BFC47F0, 0x8FF3F39B, 0xBBFD8E7E, 0x43FA0901, 0x7734022F, 0xEA40016D, 0x10097F81, 0xD71710FE, 0x13F01ED0, 0x7A000A87, 0x7BC22025, 0xE3035BB2, 0x90E35E08, 0x8E2701C0, 0xC2969A85, 0xF09210BF, 0xCFA017CB, 0xEA05BC2A, 0x79E84559, 0x0B082FCF, 0xF042BF8F, 0x4401B1BB, 0x086E72AF, 0x7BE36F25, 0xDBB80000,
    0xE3C34107, 0xEB638ED5, 0x6434D980, 0x03966001, 0x7FE00204, 0x591A157E, 0x3728FD20, 0xD90048AE, 0x7E1F0BF2, 0xC1FDC6E3, 0x6BE86D53, 0x9E2FFC0B, 0xC8432012, 0x85FC22E0, 0x8EC83C41, 0x7F455C1B, 0xDC385D00, 0x8045821C, 0x23C992C1, 0xBD544C1F, 0xAC5FC1B3, 0xCEFA1EA3, 0xDDA3D4CF, 0xDEFE9ACB, 0xFB280000,
    0x8DFF0DC2, 0xCE4C72B5, 0x7C4E8A87, 0xFDFD937F, 0xE45E0374, 0x57E50FBE, 0x50014620, 0x603CD3A5, 0x07D20CB1, 0xC31D1A7E, 0xEBD6EE74, 0xF32A02BD, 0x259617C0, 0xF1376CF7, 0xFBBAE6EF, 0x5B418077, 0xD467DAB8, 0x91736D11, 0x96B8F711, 0x2D7DB078, 0x0751C232, 0x605F0CF4, 0x11FFD25F, 0xB7BFEE58, 0xFF990000,
    0x770F48CA, 0x23482905, 0xBFF888C5, 0x3D1A80B8, 0x1A1F8BCF, 0x4390F171, 0x8BA73FCD, 0x71E60AFA, 0x30E0D6EE, 0x9CCD87F1, 0x401E9B91, 0x4F9BDDC4, 0xFF057EBE, 0xFEB67375, 0xD6F77E38, 0x0CEDE525, 0xB331F87C, 0x757FE5E4, 0x0327BC41, 0x62A7E441, 0x0F1B9A28, 0xC6BE0001, 0xABC08A73, 0xF8FD60AB, 0xE9D70000,
    0xE9D5C22B, 0x5684196E, 0x454C165E, 0xF4172BFF, 0x28F7377A, 0x76880FBA, 0xEC0875F5, 0xE2A797F4, 0x6936E505, 0x0B406922, 0xF200F3EB, 0xB075A1E5, 0xA7C40381, 0x1CC808EF, 0xBA0018BD, 0xCC7FC173, 0xEFB2E95F, 0xE886537D, 0xFFC7C0E7, 0xF1807076, 0xF30E47FE, 0x35143961, 0x441DE407, 0x29AA8FEF, 0xA8800000,
    0xA4FE1C56, 0x648BEB1D, 0xDE366F31, 0x56FE544C, 0xB319CEBC, 0xE4A24101, 0x47C0201E, 0x7FC000CF, 0xC82058F8, 0xC377EE65, 0xF294F1FF, 0x90C7EFDC, 0xEFAFE9BB, 0xF96AFF72, 0x0F957F03, 0xF87CF8E8, 0x8CDFF6F1, 0x9665E581, 0x601BCD05, 0x1253F500, 0xFB4681C0, 0x38900A15, 0x01681498, 0x40018385, 0x4EE80000,
    0xED6D5EC8, 0x41C76582, 0xF47FB68D, 0x055A7940, 0xFB68FE04, 0x4B1F41DA, 0x31F83FC1, 0xDEC3B46A, 0xED19C075, 0x99760E37, 0x1279D738, 0x070EB1B5, 0xF045A20F, 0x984F7B2A, 0x8254868C, 0x4F6AFDC8, 0xE6A46C0D, 0xA1D2751A, 0x03FC9220, 0x8D4C6E85, 0x2282F00C, 0x63970153, 0x2DF0A62F, 0xFAB4049F, 0xDFEF0000,
    0xFC9C2989, 0xC7FD4A3C, 0x3DF1DB7B, 0x39C6CAB1, 0xDD531FF1, 0xA62DC181, 0xF8898BEA, 0x38F65EB5, 0x7D123E1D, 0x32401A96, 0xFF0821FA, 0x30494788, 0x80C03FAE, 0x2300D4FA, 0xA0067F8F, 0x800713DF, 0x031E93B4, 0xDC793FF0, 0xAF23DE64, 0xC49D3FF1, 0x3725FF83, 0xDDF4C584, 0x7FC05D13, 0xE6B8794C, 0x8A850000,
    0xB229D0BC, 0x9F3DB3F5, 0xBFFF3D3E, 0xC0589F8B, 0x27C3922F, 0xFBF049FF, 0xFA03DF02, 0x33E50834, 0x4D0F64C0, 0x7805BC07, 0xEF6B61D8, 0x6C2610D4, 0xFED05C07, 0xBD82A85F, 0xBE5F37D9, 0x2292316E, 0x02640FFC, 0x2794FFD1, 0xFC3E1885, 0x0031F300, 0x636BF890, 0xE8FFEBE2, 0x837FE7A6, 0xC2FD7EBD, 0xFA460000,
    0x2A6F5278, 0x1EDDF5F9, 0xF9FFA277, 0x50B0CF78, 0x9A792756, 0x269E6482, 0x3E9D1203, 0xDDF7521B, 0x48558029, 0xAF6A0E2F, 0x72F8F1C5, 0x4D890868, 0x7774EE0B, 0xFB1DC1BF, 0x1F782CF3, 0xBF83E5B0, 0xE0E8E166, 0x3A3F0DE6, 0x0175AF00, 0x60367900, 0x371FD183, 0x2474C0E0, 0x2C0052B0, 0x425452E9, 0xF40A0000,
    0x840F44A9, 0x0A25EA1C, 0x7E003500, 0x1E0E6DA1, 0x9FEDC97D, 0xB6CF0F0F, 0xADFC631B, 0xFF8B1BF7, 0x5833FF71, 0x832AC371, 0xE6AE415E, 0x902EBAF8, 0x13C8A1DE, 0xDEBAAE33, 0xA5827D4E, 0x5348C8DB, 0xAB060B6D, 0xBA94CD4F, 0x9728BE00, 0xE2B6781C, 0xD187E75D, 0x7001F933, 0x042F19C0, 0x01C1B405, 0x8A050000,
    0x7D66CD61, 0x9EE3C671, 0x103427DF, 0x11774B7F, 0xDFCB5FEE, 0x9EFF7359, 0xA1BFC877, 0x47B20FFC, 0x6BE22785, 0x5CF065EA, 0xB4032697, 0x907FBBB4, 0x50B846E5, 0x1630298F, 0xB001FED9, 0x000FE748, 0x0073EFA7, 0xD33740A5, 0x1FDAB5A1, 0xDF71D023, 0xEBDFC1FF, 0x6A91E441, 0xFEBC09DF, 0xF7BDCA94, 0x5D6C0000,
    0x9699FFCE, 0x440BF950, 0xD002F100, 0x80016861, 0x23398609, 0xA2778C94, 0xABFEE6C1, 0x7CFDC803, 0x1FF7BE2F, 0x7FF2F623, 0xE3120040, 0x70E90205, 0x27210009, 0xAC5F803F, 0x619977A4, 0x44FFFEC7, 0x07D6A0A8, 0xC8FE4CC7, 0x0EBCEF85, 0x1CAFD400, 0xBCB7802E, 0x8602F0CA, 0xB0937CC0, 0x3E17F7EA, 0x0E140000,
    0x58F4CE87, 0x1AC9F663, 0xF20768DE, 0x827F3FB8, 0x7141FDE0, 0xC0FA7F04, 0x07BBF045, 0x47FF642B, 0x27D515DF, 0xC3E19DF8, 0x72B8DC8E, 0x538589D4, 0x0B90F455, 0xF5B1AD6F, 0x68A6EF7D, 0xA052E699, 0x2D7D2872, 0x1973C63A, 0xA7FD07C0, 0xDAF6590E, 0xF319EFCA, 0x288271C3, 0x00DB0E0C, 0x257FF580, 0x13F00000,
