#ifndef WEIGHTS_H
#define WEIGHTS_H
#include <stdint.h>

const uint32_t weights_l1[16000] = {
    0xF9D037F2, 0xF7B3D466, 0xC6F00720, 0x7C998C07, 0x0F3E48F4, 0x1FA61F07, 0xFFF1F03B, 0xEE9E128E, 0xB0F34AF1, 0x1F3C3264, 0x628324BF, 0x620C0C64, 0x2230F58E, 0x033AA7B1, 0x06363B86, 0x07EDB9BC, 0xD3AE1E3F, 0xD346CEF5, 0x1E34E658, 0xD2263F7D, 0x46DF6687, 0x6185089D, 0x0F02B548, 0x28491811, 0xFDA10000,
    0xFDAEED30, 0xB12546AE, 0x5F0CE7E4, 0x64C7B1BC, 0xA3E3F650, 0x797BEB8B, 0x6BBE78FC, 0xDC6F1F4B, 0x80F1F281, 0x161F6742, 0xD3ADA4E8, 0x35523E20, 0x0376034E, 0x76EC1BA6, 0xF2052C7B, 0x885FF32E, 0xE5F10DCB, 0x2AB297E2, 0xBC184C1F, 0xF87C6837, 0x5BA21155, 0x0676D0EE, 0x7FC03817, 0x8820A7C6, 0xD0F70000,
    0x5890BED0, 0xEB340E11, 0x00263790, 0xA917D873, 0x5BCFD0D6, 0x6B6B8B4C, 0x0BA8DED1, 0x7E43AE12, 0xBD0E48E5, 0x506E633E, 0x83D742D0, 0x1E259FC3, 0xFC377837, 0xF87A876B, 0xCC007E2C, 0xB69FC30A, 0xE1E01F78, 0x13FFDE03, 0xD2A3217A, 0x5EC65527, 0x9480FB6F, 0xC7C78571, 0x449EC62E, 0xBABD1288, 0x88C10000,
    0x64DFF1B6, 0x1A2C5029, 0x7D41D878, 0x9D86EB94, 0x0C6025F8, 0x10119B5E, 0xC117EFF1, 0xDC4FF9D7, 0x407D3CF9, 0x236C6AEA, 0x1404F501, 0xA00A0034, 0x028003A0, 0x6220560A, 0x015DAFF6, 0x3DFFFF6F, 0xFF987B7F, 0x7BFC34D9, 0xA5BFE5F5, 0x246D54DA, 0xFDA20807, 0xC40600A1, 0xD1900FFC, 0x2D09EEF9, 0xFEE30000,
    0x8F45BF22, 0xBDF1CB33, 0xBEFF999E, 0xCE7F506F, 0xF669075E, 0xFF7C77EB, 0xD60E5B86, 0x79BA042A, 0x2D000492, 0xF80169AF, 0x9F8B61D8, 0xADFF7FA3, 0xE70976EF, 0x941B653D, 0x10F51EC0, 0x66C4C9D1, 0xA66DA58E, 0x9B18785E, 0x7EE2E85D, 0xAC9923B5, 0x3006563B, 0xE6133CBF, 0xCEF3FF41, 0x77BCA4D7, 0xAA2E0000,
    0xE93F9E24, 0x2ABCF77C, 0xDFBFC0C1, 0x71D03244, 0xDA2F10B6, 0x073B8FB3, 0x7B9EE533, 0xE84B422F, 0x140A01F4, 0x23DC1251, 0x70E2F00F, 0x5E9B8263, 0xED44FE7E, 0xAE17F32D, 0xACFC9B76, 0x9F872C60, 0xE5014327, 0x80047AF4, 0x0E9C09E5, 0x30462F97, 0x1927B807, 0x6C1F86FD, 0xC8AE905C, 0xE002E784, 0x7EA00000,
    0x3AAB7CB5, 0xE4041B4D, 0x1FA30AF9, 0x3BC30F8B, 0x1C2DEEEF, 0x23DDC7C8, 0x36A03CB6, 0x76A58FB1, 0x784743C2, 0xC0082720, 0x8181AA6C, 0x17194684, 0xCB1DCA5E, 0x1BEF87E2, 0x8EBAFEFB, 0x7FDFE05A, 0x55F0E4F0, 0x3BD01B23, 0xDBB7C8F2, 0x3A90171B, 0xE181F04F, 0x91551562, 0x23F0A14D, 0x6A496B92, 0x41BE0000,
    0xE26403A8, 0x27F17B41, 0x39B7EE7F, 0xC083E7DF, 0x10BF267D, 0x91023292, 0x782E197D, 0x99D68579, 0x74299057, 0x1B73B8D1, 0x71474AF2, 0x182A6E8C, 0x2820B7C0, 0x78193E07, 0xD00303FB, 0xDCE307D8, 0x057FF582, 0xD5F25426, 0xF7EFB7DB, 0xF9EFFB3F, 0xC7FF7CFB, 0x704FE775, 0x00025D28, 0x81A4CC37, 0x54020000,
    0xEB29B73B, 0x1B72ADBE, 0xA1FA8018, 0x53CF51A1, 0x9FCC740C, 0xFEEFA3EF, 0xF07E2DF6, 0x95E1D8BA, 0xBA20027D, 0xC180F3B4, 0x706A458F, 0xF90C3253, 0xB4AB010A, 0xDCCE90F9, 0xE2028F8F, 0xF648F8CC, 0x3B858618, 0x7CCCF2A3, 0xD5BC7758, 0x92DE5E8E, 0x22F6B306, 0xC6251827, 0x4C46A969, 0x757143BD, 0xF9020000,
    0x4FF3669A, 0x0FF3E6F5, 0xA7FE7BF3, 0xDBD577B6, 0x7805A08C, 0x26B71B44, 0xAE1A3C31, 0xE95FC6B3, 0x74706B60, 0x040A0B1D, 0x62D383AA, 0x7F946D67, 0xE0659FB0, 0x0E03E1E0, 0xA31ED008, 0x82CA4120, 0x3F3C2785, 0xE241793A, 0x006E2468, 0x2424E59A, 0xE69C8E03, 0xB7E783BD, 0x4F3C1C37, 0xFFEAD24B, 0xDB1A0000,
    0x8EACF0A0, 0x76524D4A, 0xFF627AFF, 0x12604B19, 0xD4276D15, 0x4076986D, 0x0B94B6C0, 0x085EEC4D, 0xAE5FA8FA, 0x11EA237D, 0x9FC03A8B, 0xA1C79375, 0x46BD8BF2, 0x4FA49CE1, 0xA8FFCD0D, 0x916BAB74, 0xD1042438, 0x10457907, 0x14C90250, 0x0C1F6700, 0x64DB7055, 0x358E0303, 0xC8929B0D, 0x260F7EA8, 0x91380000,
    0x15577198, 0x45C8F437, 0x0AFFD24A, 0x96B4DC73, 0xA08BE106, 0x113F0425, 0x71D0000F, 0x517F9EDC, 0x97FFBFDB, 0xFFFBF6FF, 0xF7BEBFF6, 0x14712700, 0x4BF0001B, 0x6A201156, 0x508C7EDA, 0x1240F6E7, 0xFD578B9F, 0xA736AC9F, 0x3FF7F818, 0x3456CF6A, 0xC8F9FC3C, 0x1C0151D7, 0x98BF4FB0, 0xB77F538F, 0x23620000,
    0x1B611CBA, 0xD7EE50D6, 0x2536D3B7, 0xDE9C797F, 0xAE3225C0, 0x662D18F0, 0x9CAB001B, 0x3EF0008E, 0x8F080CE4, 0x707F8A7F, 0x937FB7FD, 0xF6B672A3, 0xFF43972A, 0x6BA6E33C, 0x9E8C00CE, 0x89E9FCA4, 0x2628E648, 0xC570B4BD, 0xC72689F6, 0x0ABF64E0, 0x1B94EC51, 0x981F0034, 0x03581ED0, 0xFC08C736, 0x8E7A0000,
    0x278B5D01, 0xF68E3C91, 0xFBEF061E, 0xA6647042, 0x72D92E09, 0x377EFFDD, 0xFEBEFB5F, 0x4BBDC817, 0x7FFF23CD, 0x00107E00, 0x19264000, 0x245B027E, 0xA0004C07, 0x6E5FB39E, 0xBFEC4D0F, 0x53F0CAA6, 0xC9E0D810, 0x3F963815, 0x1CEC7B2C, 0x8332FC93, 0x9296B228, 0x967EDF08, 0x5FBFE999, 0x75B67AFE, 0x7D030000,
    0xFC18F9CC, 0x20210B1D, 0x897D57C0, 0x00977003, 0xE01E806F, 0xD619EBED, 0xBD47E79A, 0x00D03C76, 0x2E0FE440, 0xCB5E76F4, 0x93EC0E9E, 0x1D26B367, 0xA740B6D8, 0x481C5EB9, 0x3144C897, 0xD0EE36BF, 0x14D071C7, 0x77A62464, 0xC0726C2C, 0x0C8EAE40, 0x6F391B48, 0xAD83AF03, 0xF63AFD9F, 0xF374151F, 0xEBFF0000,
    0x7AB358C3, 0x6327971A, 0x2A1C6006, 0xB268C845, 0xAFE01822, 0x8D462913, 0x4E7BC027, 0xA53825E6, 0xB1C296D1, 0x2C74FEB1, 0x83F56ADC, 0xE6B214C1, 0xCC07E91E, 0x9191B410, 0x9A4D4181, 0x418C07C5, 0x3DD1C38F, 0xA2F9B0F1, 0x1E221FFC, 0x47C01C14, 0x069FF04D, 0x167E02BF, 0xABD90C62, 0x59119352, 0x5ED00000,
    0xE1EE5B11, 0x99DE64DB, 0xA9E3FC95, 0xD44AC97E, 0xC03A3AFD, 0x024C6CA0, 0x773B402E, 0xF4F88AC6, 0x278086EC, 0xF1FF921B, 0x0FDEC3E2, 0x95897221, 0x580765A7, 0x863FB275, 0xBCEE1BC3, 0xCEE28FE0, 0xF245C1AB, 0x37945CDD, 0xA85B23E0, 0x26390FC1, 0x6B9F7D56, 0x6B64032B, 0x0FC192B0, 0xFE3870A1, 0x63970000,
    0xF22DC77A, 0x3BC729EB, 0x7F6BD03B, 0xAC7947E5, 0xC46FDC71, 0x9F8BBF42, 0xAA25F048, 0x52BC3438, 0x7F2E0C9E, 0xA1C63D88, 0x60AA5D0E, 0x55D1F41A, 0x3ADB9281, 0x0C9155AC, 0xF9B7CFC7, 0x435C4213, 0x7C28C84B, 0xD9D38AB0, 0x6E53DE99, 0xE8814527, 0xB5C1795B, 0x381AFF12, 0x033FFFA3, 0x37FF289E, 0xF9790000,
    0x9939E21F, 0x1CEF249D, 0xFEE3571F, 0xFB364FD4, 0xE45926A9, 0x21E51E0A, 0xFE63DC0E, 0xBCF0C068, 0x0E17C293, 0xC23A0295, 0x2EA12094, 0x530D9971, 0x7D01B929, 0x183158F5, 0xB4353651, 0xB3CF67BB, 0x38E47FD3, 0xAEE0DE0F, 0xC067F83E, 0xA0B74640, 0x9B0F81F1, 0x3D256CB4, 0xE2FF8DA3, 0xDF7ECEB8, 0xA1320000,
    0x271D942C, 0x7CCFEA2E, 0xFAFFF17F, 0xB498EFDF, 0x5C5D73C8, 0x183825A4, 0x7430C4A7, 0xC5D32859, 0xEFF5079F, 0xFB1477FE, 0xA02D1E83, 0x59BE003F, 0xE9800E37, 0xAE01EDF1, 0x30FE2C5D, 0xB37832AF, 0xBCE98C76, 0xFD0A9F72, 0x036F9B42, 0xC7B17C68, 0x677DB3AE, 0x9A2984E8, 0x78773A23, 0xD9F83933, 0xFE4D0000,
    0xABDFE2EA, 0x6D6017D9, 0x368F2881, 0xBEAA2763, 0xE635682F, 0x9C84427E, 0x1BE687F8, 0xFC083F15, 0xD841F31D, 0x783F0F7C, 0x07F02280, 0x3F16B80E, 0xEE51C3F8, 0xABFE69ED, 0xFF0169AF, 0xF1D7FCFB, 0x4B70F5B5, 0x2577EF5E, 0xEC73D1A8, 0xE294ACCB, 0x6DB356BA, 0x5FF483A2, 0xFF00E2FE, 0xA6A728E3, 0xDDC50000,
    0xEF5C5CC9, 0x9D150A51, 0x8F3AA973, 0x8D702EFD, 0x0B6593B0, 0x1BD9DC43, 0x28833404, 0xDDE7B074, 0xE43C8245, 0x8CF01C1A, 0xF782205B, 0x6084777F, 0x09431E80, 0x8605C017, 0x625A8175, 0x8FAE05F2, 0x6E74938B, 0x22393862, 0xF151631E, 0xA81E3CAF, 0xC5046BBA, 0xE53018BC, 0x9425812D, 0xAEEDD5BC, 0x1BBF0000,
    0xA991159B, 0xFC739E37, 0x5FFBA398, 0x497637C4, 0xD76F2A70, 0xCDF11B24, 0xFDBB3292, 0xBD231A39, 0x6461E21B, 0x9DF81BF0, 0x7BC7F69F, 0x8BAB6878, 0x40748722, 0x6B2DFDB6, 0x33CDF9AB, 0x4B6DE319, 0x81762726, 0x03A49B18, 0x5D138413, 0x10B702DF, 0x73DE9D60, 0x7CB89E06, 0x2D002A76, 0xF41ADF73, 0xE69F0000,
    0xEED62426, 0x4E7F5B16, 0x0B977982, 0x0D8841FA, 0xC9D60CFD, 0x0FC7C8BF, 0xE7FC1FFA, 0xE7D8F276, 0xFEB207A9, 0xFA247FB7, 0xB84AC809, 0xBC1F10F0, 0x248B0BF4, 0x77C460B9, 0xBAAD7B3F, 0x673EC7CF, 0x493A1150, 0x5F182EB1, 0xA83AE63C, 0x606E21D2, 0x32C49860, 0xD3873823, 0x1F77B501, 0x7075EA6F, 0xDF1B0000,
    0xE662EEA7, 0x3035CA89, 0x01103B26, 0x00257A1E, 0x01814639, 0x565002C6, 0x0C4264DD, 0xE0AD11FE, 0x42B07A41, 0x8BAF741C, 0x783EF076, 0x9BEB9559, 0x0F56EF3B, 0xEB1DEAEB, 0x1F3E05F8, 0xEF8267AC, 0xF99B5E9E, 0x520ED7D0, 0x492A7D3B, 0x9DF75C79, 0x522BED15, 0x051B0024, 0x20007270, 0x40420F20, 0xC0010000,
    0x190699D0, 0xE6AE5300, 0xFFBBE1BF, 0xF57F3FFF, 0xC8841FDB, 0xF7D083E1, 0x28F03EE6, 0xD1D49CDF, 0x0107E7FA, 0xA0F22828, 0x07E78820, 0x3C338755, 0xFAF74591, 0x7270B243, 0xFA66244B, 0x8AE843F9, 0xA9C865D8, 0x2D9FD5D8, 0xA0DB877C, 0x8631BFFB, 0xEF2EE7FD, 0xFA0FFFE2, 0xBF45F979, 0xCD3963FA, 0x7F9F0000,
    0x839E941F, 0x59F5FD2D, 0xDD90EEDB, 0xE1CEB7FC, 0x83F861F8, 0x869616B8, 0x7D0B2855, 0xEB7F1242, 0x39B91D4F, 0xAFC523B1, 0xE74E7C78, 0x6C29BC4A, 0x12A9F608, 0x722C5807, 0x800621F9, 0x801BA7E8, 0x0BFFE290, 0xF556F42F, 0xBF2BD7F3, 0xFDFFFB6F, 0xC4FFECFD, 0x1B4F706D, 0x501C2830, 0xA1D8ABE9, 0xF8290000,
    0x279301AE, 0x0FF2EE26, 0x11B65AC8, 0x47673912, 0x0A78464A, 0x3D2D1290, 0x5A9F8805, 0x3F487EC8, 0xCC46D5B4, 0x29FFFB62, 0xA03EF4E4, 0x0ED8BFF0, 0x08A9EB40, 0x167FFE73, 0xE2FFF79F, 0x00769370, 0x00563880, 0x2A2C2046, 0x3C33F21D, 0x86B7BC7F, 0x2AF4708E, 0x3FFE592C, 0xFFC1BDFE, 0x63CF5F1F, 0xBD450000,
    0x5DB4E24F, 0x454D56FC, 0x0D2F8B45, 0xEBFC49F7, 0x1D2778D4, 0x01BFAD60, 0x11F89172, 0xF7B9FBEB, 0x68FFD78B, 0xE6FEF316, 0x0D1AE090, 0x2AE14D05, 0x02A7BD07, 0xFA35307C, 0xAA920D45, 0xDABD5BE8, 0xAE4B3D28, 0x9A3877BB, 0xDD208B02, 0x11A39407, 0x28FCFD40, 0xB43E1707, 0x908BD960, 0xD03A176E, 0xC0100000,
    0x22160A7B, 0xB278A96F, 0xCFFBD87F, 0x027645F5, 0x0A1A83D3, 0x63719F82, 0x8807FA09, 0x20F6B471, 0x860FA593, 0x81F00F30, 0x7F809C07, 0xB82265B2, 0x71A14D69, 0x35D91485, 0x6848E626, 0xCC5543DD, 0xB2A82D96, 0x91128F6E, 0xEF81DB01, 0xEE3DCE53, 0xD97BF652, 0x4D303FE7, 0x6E5AF2F9, 0xFF5F5A7B, 0xF7F70000,
    0xB0935F81, 0x8C21C163, 0xA0C982E1, 0x0574C9BE, 0x5F8EFFC0, 0x9778BF5F, 0xDEA0F8AC, 0xE6005261, 0xD99CFC21, 0x499079BE, 0xAFAE25F0, 0x95F09300, 0x314DBF1F, 0xB427B631, 0x0C54E8A0, 0x2BDF328A, 0x2AC93980, 0x02C2C206, 0x11D69D12, 0xDE10BD17, 0x8672A1FD, 0xFB8EBF01, 0xF1DFE5EC, 0x9EC26606, 0x9A090000,
    0x72D12D36, 0xAFD2B898, 0x38543B99, 0x4B967280, 0xBD2E470C, 0x776771C5, 0xFD260F30, 0x0CE0AB02, 0x6D1E7F00, 0x63FFC6CF, 0xFEC01967, 0xD427FC47, 0xE2BE8013, 0x4EFCB9F1, 0xEA8A308D, 0xD82BBA44, 0xA5A0A67E, 0xA20B87FD, 0x42E063F4, 0x79F852C4, 0x0D670242, 0x39EF009B, 0xADA0F736, 0xFDBC0B02, 0x4E910000,
    0x7C684D3A, 0x00DBB40E, 0x76EAFDFF, 0x700D3DFB, 0xAC3BE3DA, 0x504BF404, 0x1FBF84EF, 0x2F40E871, 0xE8587F55, 0x0E3EA903, 0x9087D178, 0xC15210F2, 0x3F5ECFD6, 0xE8F109CD, 0xE4A03FF3, 0x3E871336, 0xD28B4DBF, 0xA2109F6B, 0x108F0F68, 0x746628EE, 0xAF0F86C1, 0x7211B05E, 0x40710649, 0x93C99BBF, 0x98DD0000,
    0xC4E6E912, 0xE1359414, 0x01C187A0, 0x1C14AFF8, 0x90F7868D, 0x4096A846, 0x6AEE3EE5, 0xACF755E2, 0x280E4B9E, 0xA856340F, 0xA695B2F4, 0x3A4BFDF7, 0xFFCF3FFD, 0xFBBFFFFF, 0x392F7ABA, 0x189E440D, 0x00103190, 0x001C0019, 0xA9224614, 0x0B833A03, 0xB71341AB, 0x8897AE4F, 0x85FBC67C, 0x0A05630B, 0x5F6F0000,
    0xFBEC4BD4, 0xD859CFBF, 0x7FC6B74A, 0xE401615E, 0xC831207C, 0x971A17C5, 0x77303E00, 0xBCC0F01C, 0x934E8051, 0xC1F82906, 0x1795F327, 0x1E9855D3, 0x80F1A93E, 0x6ED5828B, 0xE1AAD512, 0x2E5835B0, 0x7920DA03, 0x0ED2E27B, 0xBBB2ABB8, 0x9FBE7C2D, 0x8603EDFD, 0x590DDF7E, 0x92868459, 0x221D06DC, 0x276A0000,
    0x812D498B, 0x7EB6B693, 0x3FFB16FE, 0x4686A633, 0x1E4E30B8, 0x30EE6485, 0xCA8222E0, 0x4DF55CF7, 0xEB113C52, 0x8175FA00, 0x009EB026, 0x00230DA0, 0x41B7EBB8, 0x4F7F747B, 0x36FFF1CB, 0x10382770, 0x0076AC80, 0x1817F004, 0x3DEBFFFD, 0x26BFF78D, 0xD7F7D6FC, 0x5E9F8312, 0x7C455FC2, 0x0187C657, 0xFF680000,
    0x7F534DBE, 0x5D2C4EE4, 0x1D8D3900, 0x20063103, 0xC4E623C7, 0xCC7EAD9E, 0xEB8ED500, 0xCAABA3CD, 0x2CDA3ECF, 0x2E59ECAA, 0x03FE3AE4, 0x8E75CB81, 0x8368EA08, 0xB9EBE93F, 0xEBD82673, 0x3B7810D2, 0x7F323720, 0x75FEFE84, 0x49E1FC05, 0x3733E067, 0xC783687F, 0xB03FFFD9, 0x487FDA8B, 0xDEEBAFA7, 0x81550000,
    0x237B3A16, 0x35E79C5B, 0xFF88ED77, 0xF4A90BEE, 0x0A2813A4, 0x60C178E3, 0x9E5C386C, 0xBAA3A0A9, 0xEC608687, 0x8E700121, 0x478E0FB0, 0x988D5BF8, 0x131783F0, 0x688DC943, 0xD5EB0832, 0xDE8016C8, 0xE843B6EC, 0x48E29D61, 0xE02691F4, 0x36B932BE, 0xB7866FF0, 0x5616FDEA, 0x843D09B7, 0xEE05DC25, 0xF1690000,
    0x2E2C0304, 0x97F1D92B, 0x48CBEE13, 0xFA29899D, 0x5E11910D, 0x827F4608, 0x81195D82, 0xAA0980A7, 0x07780154, 0xD828340E, 0xC7826C32, 0x7F84D830, 0x68D2CFFF, 0x162E984D, 0x72632AA6, 0x3F80308B, 0xFA700407, 0x8EDC0163, 0xC09092FA, 0xCE602FF2, 0x8E81C206, 0x25D191C6, 0x8FB79764, 0xFEEE9ACF, 0xBFB20000,
    0x1621A17A, 0xBCDFE0DF, 0x5F9B823F, 0x7DA16D1E, 0x6062F6B0, 0x072962F2, 0x0B0A2F42, 0x8DA72EA3, 0x98F36E5B, 0xDC1F4909, 0x01DBFF11, 0x3F8AF03C, 0xF25B87FA, 0x0E2B72E0, 0x7A8ADA01, 0x8DEBC030, 0xD7A03633, 0xE28E1D06, 0xE0F008AB, 0x4B4ACB09, 0xC1CE416A, 0xBFE58F24, 0xFF6D66AF, 0xE39E0DDF, 0xB5EE0000,
    0x735D96D8, 0xFCEF2936, 0xD72FC65D, 0xC03D13DE, 0x00D163B0, 0x26125FC0, 0xDFCEFE28, 0xA887C0B3, 0x42DF1E7F, 0x05E13D02, 0x77651083, 0xF40F7A1F, 0x543423C5, 0x286E5C03, 0x03380470, 0xE99215BA, 0x2A13B140, 0xEBB4C03E, 0xEF7317DC, 0x55A05B2F, 0xF116F9DB, 0x085767FB, 0x493E46E7, 0xDFF7708B, 0x7FED0000,
    0x8BDD4F18, 0x036E7854, 0x737B95DC, 0x804E0366, 0x0484E9E2, 0x6CC1787D, 0xC2F57B51, 0xCD87FF84, 0x741F9A91, 0x501031BF, 0xC2299DF0, 0x4A978711, 0x59F0A00A, 0x7A04310E, 0x800CE7F4, 0xA1B89C18, 0x3DE5F907, 0x370C02FC, 0x4C763779, 0x06A9830D, 0x44B6F5FD, 0x54D93BD6, 0x9BBA65E9, 0x4E63767F, 0xEC010000,
    0x502070EA, 0x5EDBCA86, 0xC73FDADB, 0xFE8FBE74, 0x2F68EF0F, 0xBA7DEF55, 0x7DD8FFA7, 0x27FFE08C, 0xF0FBD500, 0x53A40620, 0x07CEE001, 0x308F640F, 0xD3FA294C, 0xF27A4D7B, 0xDA3057F1, 0x3D00C302, 0x200FF8AC, 0xD9BF1617, 0xB1CB9FFA, 0x0A2E2FF2, 0xF9BB9E4E, 0xED5C593D, 0xBE226310, 0xF7EF26A6, 0xF7B80000,
    0x2E089180, 0xDAF672FD, 0xE076FF9F, 0x305D79EF, 0xB8F08225, 0x4C09A001, 0xF20B392F, 0xF3421BD7, 0x3C8F6D21, 0xC81FF5FF, 0x01FE66F8, 0x011923F8, 0x86EFFFA1, 0xCF0BBC13, 0xF11DE0D0, 0x738511A2, 0xD8106369, 0xCC7AB0C4, 0xB5FD8847, 0x2054AC50, 0xC9857957, 0xD063E9F0, 0x18BE9F11, 0xD89C8A07, 0x3C070000,
    0xCA48D3D5, 0x872EC3E9, 0xC35EAB60, 0x71F820BF, 0xDFA25345, 0x6F68FF29, 0xC2218BB3, 0x20BC0ECA, 0xAF968F81, 0x300048FE, 0x3F6086D1, 0xFFB9FE0F, 0xE49DE0E3, 0x8FEF0274, 0xEBF85B06, 0x4C85A9DA, 0x3A392B57, 0x0EC83A58, 0xFB3B909B, 0xAD8422EB, 0xBB843D01, 0x7763FF4B, 0xFC3BFFFF, 0xFFFF081D, 0x31620000,
    0x75918387, 0x23E3ED93, 0x3E7A81F3, 0xCBE27194, 0xFF3B73D3, 0x8EE8E464, 0x3DFCA5B7, 0xFF786863, 0xDACD5D0C, 0x9E035A87, 0xD41FD5F0, 0x2791969B, 0xD40E2BFD, 0x0ED19C75, 0xBBCE078E, 0xB7C1F931, 0xCE1B0D5E, 0xB3E8A422, 0x7E551A4B, 0x01480ADC, 0x56C93F14, 0x57FFE41E, 0xF8D319C3, 0x74292354, 0x58170000,
    0xA9E64BE3, 0x7FDFF0AF, 0xFCF906F4, 0xEFD80DB5, 0xD2A32C2F, 0xF28D9417, 0x89100135, 0x7D6000BF, 0xB6B43F98, 0x7F61A6CB, 0xFBFBD9DF, 0xFFF7B717, 0xFCC6781F, 0xC673A15C, 0xEB621F00, 0xADDA9862, 0xF2C85926, 0x2746B43C, 0x4021CB9E, 0x0369BBE2, 0x3282E0C7, 0x1D161290, 0xD0A941EA, 0xB90B9C63, 0xB7EB0000,
    0xC346C4AE, 0xE73C01B4, 0x7F7FA340, 0x38F18C06, 0x77E86D0A, 0x0D27E0FF, 0x693A3C1D, 0x94DEE6EF, 0xB7C2A331, 0xE84F2BEC, 0x08E018C1, 0xED5DE168, 0x60B02F74, 0x2612FB10, 0x03F6EB14, 0xA5FF4548, 0x90A80654, 0x6F811542, 0x60D0E464, 0x2B25B5A1, 0x38965E1C, 0x3204C9AB, 0xE7F80D4F, 0xB57A16FC, 0x3BD00000,
    0x70688289, 0xF2DF708F, 0xAFDBD433, 0xDDF8DFF3, 0x30587EF1, 0x93B2140D, 0x0E93F101, 0xE12E0571, 0x717A2194, 0x4C49D690, 0xC32A6E78, 0x0E5AA505, 0xC373E65E, 0x9F0EA33C, 0x67C7848A, 0x70785E26, 0x065503C8, 0x7278FA6F, 0xF633967F, 0x94BFEF3C, 0x73E5B300, 0x2C200150, 0x2C000EF4, 0x110036E6, 0x4D3F0000,
    0x99981D7D, 0x60E534D3, 0x578DCC69, 0x189DD82E, 0x1EA59688, 0x0C31E744, 0x95387814, 0x2E87C463, 0xA1F86D00, 0x6E2C1127, 0x71C24C49, 0x7D10F67F, 0xF3968EF0, 0x281B5C25, 0x6C77031F, 0x073022B8, 0x6C316902, 0xCDC37930, 0x643ACD08, 0x88B005D3, 0x9D10C3EF, 0x6CCA9BF0, 0xE8D94DA7, 0x9E7B3B04, 0xB7FE0000,
    0x2D787E04, 0xC8A573D3, 0xC9AAAEE1, 0x701958F6, 0x9F3900B1, 0xDB581A92, 0xB7A50E78, 0x7120C507, 0x42088540, 0x64A62D2C, 0x983147BC, 0x0F891F82, 0x3F43D07E, 0xCE8FA6B5, 0x2DB9DC0A, 0x8FB6319D, 0xE3A11F4F, 0xD6225F25, 0x950947A9, 0x323F1EA0, 0xA37B49C9, 0x3880A8AE, 0x85183D5D, 0x80621F30, 0xDF840000,
    0x7DFE805F, 0x1FE7EA2D, 0xBBFF163A, 0x7FC5D1FF, 0xF726EEBE, 0x7E1FFFE7, 0x7D3FFF8F, 0xE0DC28EB, 0xDFC007BF, 0x40003E76, 0x1816E300, 0x0F09941C, 0xBA3880A7, 0xA69C04F9, 0xA8115784, 0x8E11C818, 0x00D7CBD2, 0x1FFCF8D3, 0xDF9CB05C, 0xC5C447BE, 0x121073EB, 0x7BFD2565, 0xBDF170E3, 0xFFFE1F7E, 0x99DF0000,
    0xBF5FB0D7, 0x7FE5D03F, 0xCDEDFC8D, 0xDDBD4B37, 0x727D274F, 0xBDA02BFD, 0xE85F6405, 0x010C001C, 0x798006F9, 0x3C00EA26, 0x3FFD0261, 0xF1D82207, 0xB04205BE, 0xCEDF34BC, 0x2E4B72DC, 0x20FCC54F, 0xF0374FCF, 0x60CF0DEC, 0x2914F38C, 0x5CCAC320, 0x2F49AC07, 0xB62D5826, 0x4151D6BB, 0xBD19D870, 0xFBF20000,
    0x388C8AF9, 0xCFB7D45F, 0x8F5F3659, 0x8B1B0FFC, 0x95A818C3, 0x736FBC3F, 0x706C43D7, 0x6E4C3C51, 0x64A78338, 0xD4FE09C6, 0x2D42F80B, 0x508312E6, 0x068917C9, 0x5EDD72D1, 0xA853FF0F, 0xBB4AE0F8, 0x4E0A18F2, 0xFFE27953, 0x9C3C5038, 0xA23E4948, 0x6D5DCB47, 0xB386E465, 0x06018EA7, 0x00080E3D, 0x7E5E0000,
    0x6E8D0C55, 0x7E739827, 0x8CF6723E, 0x85FA9DD1, 0xA9374A2A, 0x8E203991, 0xF50B323F, 0x17864AE4, 0x357C7E24, 0x9EBFF041, 0x7F0A0206, 0x89183CF8, 0x44A406D0, 0x72E0AFB0, 0xAA85790E, 0xA8078157, 0xE5B824BF, 0xD2483BFB, 0x34200F29, 0x01583DC2, 0x4A862A19, 0xA00A58FC, 0x38C90051, 0xF28F18DC, 0x02C70000,
    0xA3CB636C, 0x1FEE0020, 0x1849E363, 0xE2819EBA, 0xA2D90560, 0x33B03C1F, 0x6FC42D6D, 0x5002A6BD, 0xA02CB4FE, 0x5517F7FF, 0xE6AE3DF8, 0x62717D0E, 0x03760003, 0x76401F9A, 0x30005D3E, 0xD48E0D17, 0x85D2CB6E, 0xF4C65BFF, 0x0D43BFA0, 0x07F17752, 0x28034801, 0x200020D1, 0x5002CA60, 0x97DD05F2, 0xEF3B0000,
    0xB0AF6406, 0x4F878737, 0xF3DE9CB8, 0x1BF8A300, 0xE22FE02A, 0x181483C1, 0xC009A838, 0x4A94C612, 0x381A6D08, 0xA71A0812, 0xDEC0639D, 0x7F060FF7, 0xA0A42FD0, 0xA58BF11C, 0xB7D20802, 0x0401A324, 0x42E88311, 0xD6038741, 0x84624665, 0x1B64588D, 0x5E0C9F10, 0xE079DBE7, 0x8F254DF4, 0x5C793695, 0xAE360000,
    0x6881B645, 0x1FF7CE35, 0x42FCC4F7, 0xE8C39CF7, 0x93C29485, 0x8130F7A4, 0xAC00273D, 0xF1BD8A17, 0x0C66CC31, 0x6ECF7B16, 0x68968D26, 0x74256136, 0x628A1CC3, 0x17F4D0B9, 0xEB172519, 0xD08F5293, 0xB77A318A, 0x8F1881E0, 0xF80C855E, 0x07A10BC1, 0xEF0360CD, 0x7A3E427E, 0x7FF3F463, 0xA886DB4E, 0x017D0000,
    0x911E35A8, 0x9FDF97E1, 0xBFF35F3D, 0xFFEFC436, 0xBECF05BE, 0xE0826403, 0xE801EFEB, 0xE1B6587C, 0x01C0076C, 0x58000FCF, 0x8A033BBB, 0xA011F517, 0xF172303B, 0x06B737D4, 0x50F0AF83, 0x4DC5BDBC, 0x8A7ACB80, 0xF7A93C23, 0xBBC3DB8F, 0xB644AB02, 0x7FFFBB4F, 0xD67BEB63, 0x3BF70697, 0xFE327E6D, 0xFE580000,
    0x001D262B, 0xA0012DB4, 0x4F4804C9, 0x64183155, 0x2FFC092C, 0x7D3DA0B9, 0x00320AFA, 0x3C2AA7C2, 0xEE8F5EFE, 0xE8FE8A39, 0xC7D2E61C, 0x5E25FA81, 0x6D67FC3E, 0xA7DDC3F3, 0x8EA8F760, 0xA40F9489, 0xA0A82F80, 0x1A8DF812, 0xD2E15070, 0xFFE32D2F, 0xE026F0C0, 0xFBCFCC6D, 0x403E322D, 0x8BC05A70, 0x0AD90000,
    0x5B0E0E7C, 0xE22862AB, 0x0CA55F0D, 0xEF032268, 0x6807E6EE, 0x5C379A2C, 0x03B6B5FD, 0xE1459BE6, 0x0823B0A0, 0x007E0700, 0x83E180D8, 0x39DFDF43, 0x07FFF873, 0xB366860A, 0x7B316AB0, 0xDA1FCFC8, 0xE0F6DCA6, 0xBFF614A1, 0x3FB7D9A8, 0xFEB2ECEE, 0x81790043, 0x1F440069, 0x9FD04100, 0x61BB0EF6, 0xFE740000,
    0xE942C2C6, 0xFB8AEA6A, 0xB32FCE8F, 0xDC3A0AF1, 0x291FEBDC, 0x1280127B, 0x03A6D529, 0xB95DF399, 0xDD03C92E, 0x924F814F, 0x04D99560, 0x6AB71E0B, 0xE4A1ED42, 0xDBDC30E5, 0x17C60C15, 0x9C6DDCB7, 0x873715F8, 0xC8732F9C, 0x6E2F95C8, 0x32B7EC72, 0x2FBF4A20, 0xA5F4807C, 0xCEC80791, 0x6EE54823, 0x7EC50000,
    0x14BAF56F, 0x122401B4, 0x10F40149, 0x1A0EFBD7, 0xF8E30047, 0xC2866CF8, 0x7F434FC0, 0x8A68F851, 0x7D7D80B5, 0x20F39549, 0xBE34BD11, 0x53E94A48, 0xCE9C7E76, 0x1BCC1CC6, 0x21AD03F3, 0x94DF9A1A, 0x1AEAED45, 0x1C96B9C5, 0x8EE7468F, 0x1F16617F, 0x1918C3F7, 0x4B200E50, 0xC4B037E5, 0x600004B1, 0xC9FB0000,
    0x654BB539, 0x7EFF50D5, 0xFBFDCC84, 0xFF8C28B9, 0xAF8E6B1F, 0x9B1878FB, 0xF886FFFB, 0xC51FFFFF, 0x94000420, 0xA0001A4A, 0x20008042, 0x0008022E, 0x105F05F8, 0x78227B4F, 0x74DD806D, 0x5A7757BD, 0xC68FD8BE, 0x3FFCE89C, 0xBDD582BF, 0xFD8CCA2C, 0x6CE0ACBE, 0xA06904C6, 0x359ABFBF, 0xFF6BDB23, 0xFF1E0000,
    0xE5CA914F, 0x71FEAB9F, 0xAFFECB0E, 0xF9F42B2B, 0xA4553C61, 0xCC549C1D, 0x9C1F87F2, 0xD1F82D7F, 0x0EC3DAC8, 0xF835170C, 0xA1142192, 0x23963615, 0xDAE52328, 0x25B822E0, 0x444328C8, 0x187C08C6, 0xC76FEFC4, 0xB4C8588F, 0x7FBB0CEF, 0x432A4B48, 0x0C0E2920, 0x47C2022F, 0x1F18129D, 0xE8424338, 0xC7F10000,
    0x45A261D3, 0x07B68ABD, 0xC0FAE900, 0x7A446AC7, 0x8EED3D10, 0x7926C10F, 0x71F230FF, 0x7E442FC6, 0xE621DE00, 0xF43C3012, 0xF156A1E8, 0x401C6E94, 0x014FC63D, 0x33F8BD62, 0x6883A8A2, 0x000D4A68, 0x00D06FD5, 0x03E7E6F2, 0xDC29FE03, 0xE6700A4E, 0x437DCA4B, 0xB07642AC, 0x02809CB0, 0x00094DC4, 0x04A80000,
    0x732C6F45, 0x08048150, 0x81784098, 0x12955169, 0xB7D0C78D, 0xF41E80ED, 0xF37E9FE6, 0x2BF3C01E, 0xCC800F26, 0xF8006264, 0x8E034B60, 0xA82EF343, 0x9ABF88FE, 0x579A079B, 0xC8387B91, 0xBA0F45DD, 0x41ECE3C1, 0x0E6F66F3, 0xC1FD8879, 0x5CC00383, 0xB982FF5E, 0x9597CFC7, 0xFCEFFAB7, 0xFE837F6E, 0x9E260000,
    0x6BEF5135, 0x417C42CA, 0x3EEECD7F, 0xFFA61C70, 0x7AA268FB, 0xC77CFE27, 0x7FD3C7ED, 0x5FD83D34, 0xF8A7F3FB, 0xA070F615, 0x06A07001, 0xD8E2003E, 0x91200E00, 0x1B0174F9, 0xB87EE7A7, 0x9FB16C3B, 0xD37507B6, 0x7EE5BD05, 0x11171EC0, 0x6A2BBD2E, 0x06F46F29, 0x72178EA9, 0xEB71B219, 0xCEF70172, 0xDFAD0000,
    0x16E7E5B1, 0x262A708B, 0x80758DC8, 0x062728D8, 0x27147E21, 0x7CAF94FB, 0xC5976BD7, 0x81404C6F, 0x81202B40, 0x203CECD5, 0xFE02623C, 0xB0119AA6, 0x601FF3EA, 0x45FC4038, 0x7198A540, 0xB3FC331C, 0x8209DC28, 0x01DF7601, 0xCDD0F002, 0x3CE11B27, 0x5CA257BE, 0x6D741F0A, 0xCFE9B5EE, 0x49E5C76B, 0xD0750000,
    0xE4D20B25, 0x855CAFFD, 0x7F2FF7BF, 0x4604CBDC, 0x38D7F33F, 0xFFC607EF, 0xFA206FB2, 0xEB1BFFE4, 0xD74017EA, 0xE10863B1, 0x0004FF10, 0x007304BD, 0x01615E70, 0x6971F80F, 0x987F34F5, 0xDCF96E88, 0xAAFAF191, 0x5BEDE9E2, 0xEF67E3FF, 0xFEBD9BFF, 0x13ED8AFA, 0x92AE0ED6, 0x9FD479E0, 0x7407126A, 0xFF540000,
    0x6B182BBC, 0x881841C3, 0x7D016C57, 0xE806A0DE, 0x804699F4, 0x306E87D1, 0x0FB73502, 0x2A6FE1E4, 0xE27C18FE, 0x4FC51141, 0x70F2F0F7, 0x0E974CA8, 0x47E28B36, 0x587D0DBF, 0xA1492DE6, 0x1CA7F572, 0x245E876F, 0x62FEA0F6, 0x1CB3D158, 0x03764316, 0x0B8DDB0B, 0xAE5804DA, 0xEC240660, 0x0000B357, 0x160B0000,
    0x292FD6EE, 0x8ACF3BE0, 0xAB908AF0, 0x29992F07, 0x37A610E0, 0x7E8C1F27, 0xF6A0E07E, 0xB91E1CDB, 0xC1E19C4E, 0x1E36D230, 0xE39B618E, 0x2F1E9AC4, 0xA0E43A80, 0x9387B351, 0x50F3B5D3, 0x2F092A17, 0xA7EE4877, 0x1F987D63, 0xFBBF74F3, 0xF90FF03D, 0xEE2EE9DF, 0x33F1D7F6, 0x06801DD0, 0x9848B697, 0xC80A0000,
    0xAC530322, 0x55C7AF21, 0x3DBFC9E2, 0x03F925EA, 0x39A6E0DB, 0x9E1F043C, 0x43BE27E3, 0xF7006C16, 0xFD1781A9, 0xE1F81DE8, 0x3F0056BD, 0x2507852A, 0x984D6F4E, 0x8A81346F, 0x91DF79F6, 0x7AE5DAF0, 0x4FA20F10, 0xC8A98843, 0x1CA798EC, 0x06BCAC8D, 0x12EDF782, 0xDAF61C32, 0x4C8202BF, 0x8240926C, 0xFF8E0000,
    0x5BE5C644, 0x75C98831, 0x37E6A4AF, 0xEC692FFD, 0x931B2EA3, 0x209E20B4, 0x267A0066, 0x7300A12B, 0x160000E5, 0x2014450C, 0x31F951E2, 0xC7C80BC6, 0x3E567E3F, 0xBF5FF30E, 0xD3EE57FE, 0x2F3B5B15, 0xC26473FE, 0x5AC67EE1, 0x0233CD84, 0x96E34748, 0xC5040233, 0xE0400829, 0x0102A790, 0x000022C4, 0xFC610000,
    0x838A1887, 0x3276770B, 0xDD9871A8, 0x2027F20E, 0x4660C491, 0x01780E01, 0xC003B0F4, 0xC098FFBA, 0x61F7FCE2, 0xFEFBE684, 0xE77E5156, 0x006217AA, 0x87792772, 0x571A2600, 0xDA8ED402, 0x77B8F3C4, 0xD2213A25, 0xCC0E60B8, 0x5AF92E44, 0x0FE7B857, 0xA231C47C, 0xD4A4792F, 0x9D07F920, 0x19AE165E, 0xF9AE0000,
    0xC030A5E6, 0xE77FC82F, 0x691EC36C, 0x0173A302, 0x5DFCE611, 0x919793CA, 0xC9EA3311, 0x870BFE33, 0x6F28241C, 0xF0748887, 0x64FAE07E, 0x0B0003F6, 0x80847748, 0x16637900, 0x8A160411, 0x1110CBE8, 0x57906220, 0x181FCAE0, 0xC1706334, 0x869D931D, 0xB6DC418F, 0xAF938199, 0xDC99C75F, 0x4FF9E02F, 0xBD090000,
    0xE1CF9EAC, 0x36F35236, 0xEDEE7B27, 0x00FBBFE0, 0x7384BE19, 0x5F8840F4, 0xF04858F8, 0xF2E7B13F, 0x481FECA1, 0xCBBA827D, 0x085F0BEB, 0x67CB6FC4, 0x15F96383, 0xCDC7E52C, 0x45FC87C1, 0xE7814962, 0x782166E7, 0x463EE3B2, 0x9DFA9FC0, 0x3D4C7F0C, 0x3642F924, 0x205FF8C1, 0x0B6FDEFC, 0x49E037B7, 0xFDB80000,
    0x406E012F, 0x78D50CDE, 0xFFAFE9F6, 0xB7D6C586, 0x203BA1CF, 0x449F4221, 0x19E70001, 0x5E010041, 0xFD2C0FDF, 0x3FC0E689, 0xF1A4501E, 0x5D6F07C1, 0x7773EF1D, 0x741EC577, 0xFBCFD7FF, 0x3C7AFC32, 0x00CE7C02, 0xDF662845, 0xEB8306AE, 0x7B321016, 0x7D675807, 0x2B7B44D6, 0xBFE01631, 0xFF714E4E, 0x7DDD0000,
    0x79EA7805, 0xCF0D7E18, 0x005F5010, 0x00400089, 0x3BEA6166, 0xDE169903, 0xCAD2F023, 0xEF7127DB, 0x6832FE43, 0x823FB8AD, 0xE1EE9FE8, 0xBF8CCFE2, 0x832DF2C6, 0x2827D4E2, 0xE4BE0259, 0x40E8E320, 0x168F70CA, 0x267F0453, 0xA602659A, 0x526BB17F, 0x256EBF06, 0x52FF472F, 0x6FE5E6E6, 0x8D49EC38, 0x0DCF0000,
    0xA33D890D, 0x742D82C3, 0xFEF8534B, 0x1275600B, 0x4B70C0FC, 0x19A07AEB, 0x0BEF6F49, 0x8FC1F842, 0xB6478798, 0x83FD1E71, 0x1706555B, 0xA71FD2F0, 0x95617637, 0x628A3D8A, 0xB325E609, 0x11EF53B5, 0x31AB320B, 0x1D2E8060, 0x9C1B4A50, 0x017E0BC3, 0x1B919128, 0xFF121000, 0xDB79946C, 0xFFFDEE38, 0xB2710000,
    0xCDE9F72A, 0x7DF7E24F, 0xEDFDC6DE, 0x13C931FF, 0x49827862, 0xD1E8BA40, 0x84900003, 0x88A22FA8, 0xD8FFFE87, 0xABFFFFE9, 0x739F8BC0, 0x80248804, 0x87300298, 0x6701FD02, 0x700E7C2D, 0x2EE552E2, 0x1D3962FB, 0xF8265DDB, 0x7D11EE7E, 0x2AEF7CE8, 0xA4C78C06, 0x1812012E, 0x0FF8788A, 0xFFC833AB, 0xF3120000,
    0x82EB89E6, 0xB04F3A7E, 0x72C820FA, 0x6D683D6C, 0x1906B721, 0xFC9E5833, 0xB7F7036F, 0x5D7827FE, 0x00846030, 0x005C6400, 0x3B06709E, 0x87F927E4, 0x1CFFFFF9, 0x67FF75DA, 0xBFE5F6F3, 0xFD3173BC, 0x10C9FBDB, 0x1DEFCF51, 0xFD7E6A84, 0xD8A4971C, 0x0DE9900A, 0x704884B5, 0x01000AE1, 0x0002EAFD, 0xDC760000,
    0xBFD83942, 0xD7ED9309, 0x1D480340, 0x5016F04C, 0x08738200, 0x09B000F6, 0x0B907EF4, 0xB403F2B5, 0x59C7F3FF, 0xFFBB789B, 0xF0EA9B12, 0x2EB3B6D5, 0x5CB8341F, 0xFB2420FA, 0x9AE8D1A8, 0xE6145A8B, 0xF612D82A, 0xC434748C, 0x43FB5032, 0x1EBAC502, 0xF57B6008, 0x16084202, 0x5979FDDE, 0xAE9F9A2A, 0x33E90000,
    0x75E5B253, 0x5FF78D87, 0x77FF8C06, 0x88CFC9F2, 0x37B871EC, 0xAF011EFE, 0x5DA6BF40, 0x07CB9083, 0x5F81103F, 0x080039E4, 0x4000CFFE, 0xF76AC5FE, 0x668EAB3D, 0x160DA0BA, 0xA03FD387, 0x007EFB72, 0x007C4DC8, 0x0B6DBEBD, 0x6E1552B8, 0xA9991BD8, 0xD23F30A0, 0x2BFA117C, 0xFFC5B886, 0xFF1EDC7D, 0x7E760000,
    0xCBB812E5, 0x3DF65093, 0x7FCAF631, 0xF849ABEF, 0x01BBF6E0, 0x39215E01, 0xC9A1E1F6, 0x182E0F53, 0xF7A1F7BC, 0xB83D0840, 0x07E96761, 0x6F88FC77, 0x72C54FFA, 0xE848FC87, 0x62DE27C4, 0x13321560, 0x805C4C10, 0x387CEF43, 0x5D445411, 0xC3E701AB, 0x63BA1620, 0xED059120, 0xD5EB7E63, 0xFBF6A41B, 0x53F50000,
    0x14AAD626, 0x69A2FFDC, 0x01F55480, 0x0FC7EA01, 0xA4DD02BC, 0x7130BADF, 0x41DB01F1, 0x2321285E, 0xEE924F20, 0xB4FE6F3F, 0xAF21D974, 0x7C23BA4E, 0x03EA2EEA, 0x26C41E00, 0x1D44851E, 0xF8FE030E, 0x845C71C3, 0x8E7B2680, 0xF0D2C48A, 0x1FA1F8A1, 0xFA5E0E92, 0x23F0BD05, 0x5F04CB5E, 0x7E8F5182, 0xA6500000,
    0x1E9B08BC, 0x8FF3E5D1, 0xFDFEDB67, 0xFE3BA62F, 0xFB35E61E, 0x4AFC08FC, 0x158007C7, 0x58017E06, 0x5011E0FF, 0xEFAF871F, 0x22D4A3EA, 0x87B5FE26, 0xFC941540, 0xCA58F3CE, 0xADC58164, 0x62652E63, 0xE331652C, 0xA4DB5EED, 0x61B53A42, 0x0932F8A0, 0x161FDC05, 0xF7FD071A, 0x1FE9C553, 0xE7E6C1BB, 0xFFEF0000,
    0xC5AABBD2, 0xBB8FC931, 0x7A5E3A27, 0xCED74A53, 0x70B11450, 0xDC444060, 0x46867ABF, 0xF2C29ECF, 0x0B185FB1, 0x70E2F80F, 0x2082A2F8, 0xA5900BD2, 0xE1413E56, 0x554704D6, 0x20BF10CC, 0x1EA491D3, 0xCA5A261C, 0x389314F7, 0x0E2D5255, 0xC72534FB, 0xD9CF3018, 0x73418A1D, 0x39BFB830, 0x94634BBC, 0xDF060000,
    0xBBF724FB, 0xEC4DBF4A, 0x7FFF2416, 0xDFBCA43B, 0xA983D5B8, 0x3BDDBD92, 0x77BFE027, 0xCF6F542F, 0x8CD96968, 0x05387E00, 0x3119D00F, 0x06EC00FD, 0x3FE0FEBF, 0xEB3FE1F9, 0xDFF720B7, 0xFFCA66ED, 0xC12FF0B2, 0x94221334, 0x25A64650, 0x70E57CCC, 0x31447526, 0x42588064, 0xAE04B60F, 0x68101E47, 0xF9360000,
    0xA1360C30, 0x3EFCF173, 0x87357FD5, 0xB885A027, 0xC87D403E, 0x2F7E23D8, 0xEFFA3FD3, 0xBFE3C16A, 0x3F1B231C, 0x8BE07F30, 0x1C4DF67B, 0xF5ED0B2C, 0x7FB333E5, 0xA4E03582, 0x400776B3, 0x0004461C, 0x0006EDF1, 0xDE1007FA, 0x3686FBDF, 0xFF39F277, 0xD9DCAB5F, 0x9A166586, 0x6E01A7EE, 0x0182FCC1, 0xFBC20000,
    0x7BB47118, 0x4FB20701, 0x0B506DC3, 0xFD83E5FE, 0xE1726AFA, 0x4342EA6C, 0x1E92D783, 0xE9976853, 0xFCAF03BA, 0x9F650C81, 0xFCA0F80F, 0x2845809E, 0x0788E9C4, 0x5E9D39BC, 0xABE7E7D8, 0x373F1B7C, 0x03ADEB34, 0x3F587963, 0xFCADA86B, 0xA59A1BFC, 0x3DD47C83, 0xBBC2583A, 0xEF42139D, 0xC8087D70, 0x9C4B0000,
    0x0BB15928, 0xE6750246, 0x087CBC80, 0xDFE7FFD2, 0x56035F03, 0xF823601E, 0x34300793, 0x86107C39, 0x0C8FD288, 0x10704B02, 0x0E09A180, 0xA3A1C64C, 0x4C27DF55, 0xC1965CB4, 0x2E53B0DF, 0x26EA9274, 0x1BF359B8, 0x1FC58FC0, 0x6F6CFFAE, 0x445688EE, 0xE1B5378F, 0x123729C6, 0x0EE03AA8, 0x20013AE6, 0x5C200000,
    0x35CE78EC, 0xE7FC13BB, 0xDFD2D7C3, 0xAE013106, 0xD06E4A3E, 0x4C7E11E0, 0x43F71E74, 0x3FA8E170, 0x7FBC77E5, 0x438C2A82, 0x3987F017, 0xF9CE0A7A, 0x3ED03FCC, 0x804F7BE9, 0xCBDF577E, 0x9FCC9DF7, 0x3D2AFEF4, 0x00327DAC, 0xC107FD59, 0x21F7B1D6, 0x8CF5E8C6, 0xF35504AC, 0x9C440208, 0xFB002D3F, 0x77C90000,
    0x4331D7CA, 0xC4EAAD38, 0x3041F1CC, 0x802E6B7D, 0x3FE60FEB, 0xA42FF7DE, 0xE1BFFA05, 0x3ABB1127, 0xC0060566, 0x20117EB0, 0x041DB001, 0xDD16D9BD, 0x50EB226B, 0x738F2C23, 0x91D1AC75, 0x62828782, 0xCDEA5AB3, 0x420FB657, 0x8C546BF8, 0xD597B6FF, 0xB5FE69F6, 0x4F8FFBCA, 0xADF6F42D, 0x6F3F9AFF, 0xDD6C0000,
    0x1A83E7FC, 0x7164F2AB, 0x61FD9FDB, 0x02D6F1D0, 0x239E6C03, 0xAF5AFE09, 0xBFFFF050, 0x78FF16AB, 0xFFFC0BBF, 0xFF52F934, 0x0EB20201, 0xF027206E, 0x83F821AD, 0xE715C5AC, 0x4B582FB2, 0xF3C1FEBF, 0x0877E663, 0x3F732B52, 0x15EE4ECC, 0x545755F0, 0x93D3AA0F, 0xDC0F2CE0, 0xDEBD4A23, 0xFFFFD981, 0xA38D0000,
    0x924F0EBC, 0xD3F3FDF7, 0x7FCF8186, 0x94FEFC6B, 0xCFB6237F, 0xFD704FDE, 0x9A0BBC43, 0xF178003E, 0x2F8004CD, 0xF81230C5, 0xCBA7FD9E, 0x489398C2, 0x12325AC0, 0x613D6ACF, 0x18EF1174, 0x82F8268F, 0x06B6DEB5, 0xD5AF838D, 0x4BCF7D37, 0xFF6F98CF, 0x21C08038, 0xAC4838E2, 0x117FF67B, 0xFFA23DB7, 0xAE990000,
    0x42BC182B, 0x4FBA339E, 0x9FCC3FC6, 0x7C30D2AB, 0x71CE59DF, 0xC7B22A39, 0x2F07D3A7, 0xB3A6C8AF, 0xB379EE76, 0x436FB10C, 0x907D707C, 0xB6B7B90E, 0xF687AFC3, 0x2444B1D3, 0x03744779, 0xFE0303A8, 0xC2D29B3E, 0x68F17F87, 0x259F2C42, 0x63FBE084, 0x076F8953, 0x85F002B0, 0x55A80E84, 0x9FD41A7C, 0xFF160000,
    0x43ED975B, 0xFEF3BE37, 0x9CBA06D0, 0x97046404, 0xDB16FB0A, 0xDD3D8C24, 0x77F678D3, 0xCEA2EEE7, 0xC029EAB8, 0x038FFC83, 0x621041DE, 0x02197FA0, 0x15CCF207, 0x06C0A7B1, 0xB0008D87, 0x40098872, 0x83D3677C, 0xAA6B5AFE, 0xC7733B48, 0x0518D352, 0x3E17F883, 0xC408416C, 0x4421ACD2, 0x052AE6F3, 0xFFDB0000,
    0x2FE36D35, 0xDFEB6AB7, 0xAFE30196, 0xFBFBF1CF, 0x700E277E, 0x07613F40, 0x3619D80D, 0x526C0063, 0x7C87408F, 0xC2F9B5D6, 0x6FDF7DD2, 0x65936D23, 0x599D711C, 0x718D3A8C, 0x1F179B42, 0xF979FEE8, 0xAE06D311, 0x9CB8542F, 0xA561E9CC, 0x8E2EEE71, 0x48C01C99, 0xF0003CDE, 0x4011D415, 0xB778D55F, 0xE5E10000,
    0x3F36DC4D, 0x26E4A3E5, 0xFFAFFB17, 0xFD3BD7CF, 0x2BEC7440, 0x0B959D22, 0x059383A3, 0x181E63BB, 0xE00F790D, 0xC3CB0ABC, 0xDDF3CAC3, 0x76575C8F, 0xA852F058, 0x31200E41, 0xA5946A04, 0x8A0F6581, 0x41682409, 0x8B050099, 0x9068108B, 0x0A59F199, 0x9F220911, 0x9FA4CD33, 0xCF4BC44F, 0xFEFFAFEF, 0xE67E0000,
    0x6FE6D054, 0x865B50DA, 0xDFFDB8EF, 0x7FBA7FFF, 0xE45B9F5F, 0x23BEC923, 0x8DB82FD6, 0x140C5FE0, 0x41F72F40, 0x67FDAC84, 0x3B03D183, 0xDD780012, 0xA3380A5A, 0x56DC6123, 0xDEE86271, 0x9A41261E, 0x1BC1C2F8, 0x7A12EF01, 0xE7736E7B, 0x4B2C3F11, 0x0A17CDE1, 0x03F27DD8, 0x3E0DBEFB, 0x37318B41, 0xF5E80000,
    0xAF58630C, 0x81240F38, 0x8CA62520, 0x38723588, 0x8829F431, 0x0C17F8A8, 0x3F5F08DD, 0x8E4AE00E, 0xD2C5A866, 0x7CB00703, 0x0D80E0E3, 0xDD23BC7F, 0xCA4F83FC, 0x0F88DB83, 0xDF93556F, 0xE1D27C98, 0xAF7E63B8, 0x7DC10D88, 0x40C30421, 0x7113E002, 0x0338860B, 0xFFB832E6, 0xE2A4A5BE, 0xA9D2C012, 0x5CEA0000,
    0x4FE80FD3, 0xF3D86F41, 0x03F08980, 0xBE131264, 0xEE347DAC, 0x81B974F6, 0x0C793F91, 0xC02BEA16, 0xB41F8121, 0x88F81D04, 0x0580D150, 0xA91F0A4B, 0xA0F14370, 0x2C1E5C10, 0xC4888014, 0xA1117D40, 0xFC7F543E, 0x8EBC5B7C, 0x37358B84, 0x9AB43017, 0x9845830F, 0x0878125D, 0xC9C0F6E1, 0xBBBA4002, 0x7ED00000,
    0x53D4D085, 0x4FDBD65D, 0xF3FFFDD0, 0x7399E0EA, 0xEF470ADB, 0xA58F56F6, 0xF07BEFF2, 0x48C81D74, 0xEED036F4, 0x0C0057C7, 0x0000EECC, 0x2C56D501, 0x4A098A9E, 0xC64700F1, 0x24143E8B, 0x801D69B1, 0x8073E190, 0x5BA4BFF5, 0x8BFCFFFD, 0x2457FFBC, 0xD1BFFDD7, 0xAFC9DB21, 0x4901E8F0, 0x86135917, 0x7CAE0000,
    0x168CE6D2, 0x1E3F186E, 0x84DF52C2, 0x745D4700, 0x3E4A0109, 0x7AC82033, 0x72511F53, 0x5D787204, 0xFF8FE11F, 0xE1646DF8, 0x19A4E603, 0xFB54002E, 0x73908F7E, 0x0F40F9F3, 0xABFF7E37, 0x837711A1, 0x02687194, 0x0040FD03, 0xD0A9BE48, 0x94B4C4D0, 0x3DDD4201, 0xFBD64956, 0x4A4C022B, 0xEF491966, 0x7E8C0000,
    0x62933BFC, 0xC24E0AC7, 0x694DB640, 0x3801D37C, 0xE0BEA7D5, 0xE1A0731A, 0x47425AD9, 0x71F7268B, 0x1A39D6AB, 0xDB66B1F1, 0x905C398A, 0x4DC7D4B8, 0x7E0FB516, 0xF9259DE7, 0x1968F276, 0xDD77FB0E, 0xC41EB66E, 0xB4B077C4, 0x01A1A851, 0x17FBE2EF, 0xC5AE1BA8, 0x84B82886, 0x970246C4, 0x3A1432CF, 0xFF6A0000,
    0xB004AB9E, 0xBFDE70EF, 0xCFFE517F, 0xFEF2EF87, 0xC00EC7BC, 0x03384000, 0x4BCB7002, 0xAED4029C, 0x85E5FFCB, 0x88FF93E6, 0x6FFF37BB, 0xFBFC5CED, 0x9D6BAB0D, 0x022D0450, 0xA0DCBB06, 0x88332CC8, 0x0D407F11, 0x418C1449, 0x40C7FBC4, 0x5F9D9070, 0x925F009C, 0xBFF0D7BB, 0xFF1EFFE9, 0x7FFEDE9F, 0x0D340000,
    0xF3B12CAE, 0xF4424354, 0xBDDFAE8F, 0x1E78578F, 0xD6A39633, 0x8FB18E0D, 0x74318A17, 0x805096F1, 0x066D80CA, 0xF2142401, 0xDFC62FB6, 0xE0123CFA, 0x03426F00, 0x400DE444, 0xF9DD23D4, 0x5D03537C, 0xE2055410, 0x37B23B66, 0x7BCFB875, 0xBD17B3A8, 0x523F89C6, 0x2064F62E, 0x0E08190B, 0xEAAF43CD, 0xEF670000,
    0x54CCB8BC, 0x3FFF791B, 0xECFE975E, 0x72DEF4CD, 0xEFE17D3F, 0xF83E01CE, 0x1B51080F, 0x554004F8, 0xD4014C31, 0xF71FF2FE, 0xF7FBCFF4, 0x3D66FE43, 0x49588208, 0x1F5043F2, 0xA007100C, 0x005D3908, 0x1CB11A80, 0x01C7B1AC, 0x2174E76B, 0xDA71FF7E, 0x124A9643, 0x1637C2BA, 0x9DFEC43B, 0xDFDAF62F, 0x89E10000,
    0xCC53DB35, 0x01D38F74, 0xA8AA6D20, 0x2B47607F, 0xD3CC0604, 0xA6FC6513, 0x604E69CA, 0xBCE329DF, 0x1E97FEE8, 0xF1FFDA4F, 0x823FF5FC, 0x52CC1BA8, 0xC06E6672, 0x67270643, 0xFEED006C, 0xD522A061, 0x52B44A88, 0xE1096566, 0xE4E64AA2, 0x1D6006B0, 0xB8E58F1C, 0xE691A307, 0x223DFC70, 0x0D592F77, 0x4DFD0000,
    0xD8BFD1B5, 0x38B57BFE, 0xFEA23CF7, 0xF52770FF, 0x80702FFA, 0x003E7D78, 0x67B8EDA1, 0xB2A3F24B, 0x805F06C0, 0x02FCDF00, 0x160550B9, 0xA1A33ECC, 0x84F773B4, 0x06D51C52, 0x1B4003EB, 0x58107F56, 0x06BDFD41, 0xF3B5B0FA, 0x28230748, 0x0627C341, 0x431A4C38, 0x5DED6EAF, 0x7FA0A62F, 0xBEEFE25F, 0xE82C0000,
    0x3704B439, 0xA2F6E5DB, 0xE9F43C50, 0xDE0CBF2E, 0x07C76078, 0x9E732FC8, 0xEC9FFCE4, 0x690B00BF, 0x93717B11, 0x961BE849, 0xC02921BC, 0x08442798, 0x82C0FD13, 0x0A07D351, 0x6C19EC0A, 0x80244430, 0x03E005E0, 0x7A989ED2, 0xB165FE18, 0x12327A91, 0x36A64C0B, 0xF88687CC, 0xCDBFFE6C, 0x7FB3147F, 0x3D2A0000,
    0xCFB37166, 0x59B0AFB1, 0x3FDE9453, 0xECF7A7DB, 0x4337F8B8, 0x25522ED8, 0x0E803B45, 0x1043FD3B, 0xBC0DC2CF, 0x00CE1707, 0x1594B0A0, 0xCC221F15, 0x17E101D2, 0x3D611801, 0x8068843C, 0x44CB1745, 0xA85AF6E7, 0x1BEE6B7B, 0xBFFBDE9D, 0xBB7C6C4B, 0xF8F7C0B8, 0xD86F408A, 0x17E80C98, 0xFD339419, 0xE5D40000,
    0xB80FC78C, 0x494BB1B2, 0xFECF10BE, 0x968C00F8, 0xB069906D, 0xE2FECA91, 0xB7CB638E, 0xDD52DFFB, 0x884106E2, 0x0033FF80, 0x0026700F, 0x801783F8, 0x5657FFF0, 0xF87E7F7C, 0x7E87FFFA, 0xBC1FBFFD, 0x00FD5E0F, 0x27FF4A18, 0x0D7EB651, 0xF6A5F707, 0xFAC0709E, 0x5A7A0046, 0xBA0E3F40, 0xE0893577, 0x7EE70000,
    0x0727DCC9, 0x6BFFE22B, 0xEDFEF8A9, 0xFFF99CC3, 0xD87E2EEE, 0x6128C890, 0x58DA2000, 0x276E4589, 0xEFF9745C, 0xDF6786D3, 0xC37274FC, 0x00F2BF01, 0xCDF7E1A3, 0xEF7800DA, 0x3483440C, 0x100A78E0, 0x844C2A84, 0x3FB6B3FA, 0x7B24E77E, 0x3FFFF98A, 0x6D6A9582, 0x19F6F698, 0xFBAD89D3, 0x71D26266, 0x4B4A0000,
    0xAE50A163, 0x37DBDC89, 0xFA7BB8FF, 0xD4384FBE, 0x009FC618, 0x223DC4AA, 0x9BD2079F, 0xFD16D43C, 0x11B4B057, 0x6201B2C2, 0x32CEE17C, 0xD1EA1D7F, 0x1CA359D5, 0xC4268FCC, 0x1CE277EB, 0xB687755B, 0x29176E73, 0x82BF3EB7, 0x0D01B77E, 0x04F11FE0, 0x59D02025, 0x8A20006A, 0x568007D8, 0x7EAED8A6, 0xFC3C0000,
    0x7BAF175B, 0x7234E683, 0xFFC6B845, 0x646A0C86, 0xFFB92041, 0xF3640262, 0x120069C7, 0xE03B5F95, 0x02745040, 0x77A38E87, 0xD0416EB7, 0x300CFDBE, 0x0777C1E0, 0xCD4F7805, 0x1E6602E5, 0x7FE06FDD, 0x522BD126, 0xCAFED339, 0xFEE6DC87, 0xEE1CA7BC, 0x470094F2, 0xE9E082F5, 0x1C16C54F, 0xCFCEDBDF, 0xBDFE0000,
    0xFBB95937, 0xE9DFCC59, 0xFED4E039, 0xB79AAC60, 0x60A8E2C7, 0x566D0E48, 0xC7906BFA, 0x7ECB4AF7, 0xD0082D60, 0x0110EE40, 0x42A1E0BE, 0x006E02C0, 0x0E06FC28, 0xE55F217E, 0x78BC6FE3, 0x3706E32A, 0x01F7CB80, 0x6BFDD03F, 0xFE959BFB, 0xB43DFF57, 0xE3FBB23F, 0xFBFC50FB, 0xE51FFDE5, 0x9DEB8D35, 0xFC950000,
    0xFE797AA0, 0x3E0D2727, 0x0030C0D1, 0x815A86A0, 0x0051BBCC, 0x48D1FD2F, 0x43FF24DD, 0x7A8FC19D, 0xE7FC76DE, 0x3187F1C5, 0xE1BCAD38, 0x2DD62907, 0xFD41E0F0, 0x237C3D17, 0xB38FBFBD, 0x30D12D64, 0x1C4C3E4B, 0xCFD741E1, 0x55863128, 0x7039CCF1, 0x9B76363E, 0x0E1C8E14, 0x74DE1683, 0xE2336F5A, 0x975E0000,
    0x85CCFB0F, 0x93BFF5C2, 0xF1FE8338, 0x000A435A, 0x585586B2, 0xC788E057, 0xEF5F5FEC, 0xFF97DE85, 0xAEC024F9, 0x380019F4, 0x0707FDFE, 0x276E7FFF, 0xC482BFFD, 0x8233EB73, 0x6047536F, 0x800B3F7C, 0x000A6D40, 0x0163941F, 0x45879A60, 0x585CD143, 0xCAFF1812, 0xBFC30B2D, 0x7AA2FF27, 0x7D8318B2, 0x38150000,
    0x81163421, 0xF824D179, 0x025F0A40, 0x3B6E7801, 0x7B933E7B, 0x029A92D8, 0xEAF1E9AC, 0x66E85242, 0xE3C6B185, 0x7C7C4603, 0x8D4A79F0, 0xF03E520E, 0x871980FB, 0x10700E42, 0xDFC1E45C, 0xEE1F44DC, 0xA7ED34DF, 0x7FDC2042, 0xF6FA8208, 0x75F12403, 0x8EB1820A, 0x94B0421E, 0x24EEC4A0, 0x5DD406C3, 0xCAF00000,
    0x83B3A4AF, 0xA2B08E50, 0x020AFC41, 0x28202A64, 0xBF7C7EA1, 0xF08DEC1E, 0x8A25E3D8, 0x315D3F03, 0xD9C3CB74, 0x887E8A1A, 0x87C8D2A0, 0x70025246, 0x5E21C093, 0xC43F0BD0, 0xC79A9FDD, 0x540DA169, 0x8E84A13B, 0x9CDE7C39, 0x3028E5F1, 0xB965B297, 0x8A2B365F, 0x3EB8802A, 0xC08C0306, 0x0006CD70, 0x5C010000,
    0x80498BA6, 0x17FDF331, 0x242DF05C, 0x30BFDA9F, 0x002DA1FB, 0x3A4A1FC2, 0xC2C73F06, 0xC1C1F876, 0xA84783E2, 0x44782B77, 0x27A7A685, 0x7A6EB716, 0xA44F03EA, 0x7FADD226, 0x2D08C005, 0xA70B254A, 0x3DE9F96F, 0x20990452, 0x764377FC, 0x8E545807, 0xA345E12A, 0x086D8309, 0x96237208, 0xA5BCEFBF, 0xBFF20000,
    0xB728B658, 0x2F8FD9BB, 0x9FFC817D, 0xAFF89FFB, 0xFCA1F3FC, 0x0F402317, 0xFC40BD8C, 0xB624C2CC, 0x63830318, 0x9F802CA2, 0x7E03CCF3, 0xF834F0F7, 0x69631F13, 0xBE2C545C, 0x000AFF8B, 0x980FD3FB, 0x81DE3D96, 0x29BB846E, 0x5CBF3DBB, 0xF1E4DF75, 0xBB5FC3EB, 0x2FEC6115, 0xFFBCCE01, 0xF7CE6B6C, 0x7B5E0000,
    0xBB7D9DE0, 0x30775DF3, 0x84221B50, 0x881EE213, 0x9B846049, 0xC95D03DA, 0xD020ED11, 0x802EA5FB, 0x4307BE60, 0xBB9B8415, 0x47FF6527, 0x4DB22DFC, 0x7C8A1C00, 0xE4C228B0, 0xCE16AB01, 0x7008131B, 0xB2A8B36C, 0x4C1CCBF5, 0x404DE138, 0x24A95701, 0xC29FD25C, 0xFCD909F6, 0x1449C40F, 0xE2EAD74C, 0x97DD0000,
    0x3235E867, 0x9EA7D8BD, 0x86FFC457, 0x43FF79D4, 0xFFE35C95, 0xE66CF995, 0x90831ADA, 0x070BA1F0, 0xFDC80789, 0x46402A97, 0xBC93873F, 0xF908D0C7, 0x05EE26FD, 0x96D003F5, 0xBDC069A4, 0xEE279BFB, 0xF47E014F, 0xB7C40301, 0x5A42001B, 0xC04051DF, 0xF8053FE1, 0xB1E3FD7D, 0xFFEFBBC7, 0xDE8C4D3D, 0x098F0000,
    0x2D1A4041, 0x845F3A13, 0xADFA18CF, 0xDBF16647, 0x338DF4CE, 0x2B614C03, 0x329D1050, 0x5CA65EFE, 0xEA7FF9A9, 0xD3F3FCD2, 0x5CBA9803, 0x28E0084A, 0x8064C37E, 0x37FBC4F8, 0x7D062812, 0xE56E8267, 0xDFC032FB, 0x6905A7FF, 0x00F008EA, 0x0D984380, 0xFCD9E800, 0xFFA2002B, 0xEED11169, 0x5CD475F0, 0xDE450000,
    0x03954ECB, 0x23FFC1D9, 0xBBFF82A1, 0x8F7A5004, 0x7589D18B, 0xE70780FF, 0xFC1A7FAE, 0xCB3DB7DF, 0xE0904DF9, 0x3A0026A6, 0x40027854, 0x002C05E4, 0xF8C47638, 0x18056968, 0xF15A24B8, 0x2273638E, 0x76A26C13, 0x2F5AA7BD, 0xA7F91ECA, 0x1F50FFAB, 0xB1122EBF, 0x68369BBF, 0x03879F53, 0xFFBF40FF, 0xFE490000,
    0xFB8573C3, 0x33CFB5AC, 0xFD3A90F9, 0xE6AEF3FD, 0xC0597EE4, 0xF41FAF64, 0xC7FF2A11, 0x801DCD05, 0x401FA5B0, 0x078F9E01, 0xC2A1F8F8, 0x43E5FFC6, 0xC497E14F, 0x3F7C401E, 0x4DC0323E, 0x082AEE74, 0x821E37C6, 0xC61A2337, 0x9245BF00, 0xE620EB61, 0x0E31B7AD, 0xDEA406B7, 0xD7EF0D8F, 0x86F67DFD, 0x68E10000,
    0xB6556BC6, 0x977F3C7B, 0x8F620592, 0x70EAC81C, 0x139881F0, 0x77803C1D, 0xED83E3B7, 0xFC1C2EE7, 0x47C2CE64, 0x14628103, 0xEF5BE39C, 0xCB9081E4, 0x7EA3FC7F, 0x9012AE90, 0x165E7A0E, 0x53B1C21C, 0xBE1834D6, 0xF541C07E, 0x582BED7C, 0x41B83F70, 0x2601D90B, 0x7C06C2BA, 0x2608BDE4, 0x28418F89, 0xFFAC0000,
    0x17173E56, 0x20F8D311, 0xFFFEF363, 0xFF48CA15, 0x4A61EA26, 0x9CD9776F, 0xE507F987, 0xAAF7EC6C, 0x0A7F4D41, 0x94AD48FC, 0x108340A3, 0x001211F8, 0x04EA0AC4, 0xCE646E39, 0xB9DFA16D, 0xC20E166F, 0x23600BB8, 0x7E1F9441, 0xA2D07B70, 0x06937F03, 0xDF8A8000, 0x7DBC011D, 0x9FD760A9, 0xFFFEFE87, 0x3F780000,
    0x20BC87C9, 0x40749C03, 0xDBCC801D, 0x73C3D718, 0xC742FE13, 0x387C4081, 0xF77A0783, 0x3CE87009, 0x938E0395, 0xE0F0FE04, 0x14A07801, 0xE7EEA88C, 0x7BB8E1CA, 0x5792F52A, 0x16FD6BFF, 0xBFFD6E95, 0xFDB78DFE, 0x05B79EC1, 0xA2C3280B, 0x4EB4024E, 0x8FD0000F, 0xAE02C757, 0xF3FC603D, 0xFB0FF5ED, 0x39BC0000,
    0xDFABB956, 0x8438535D, 0x00090CF4, 0x000631C0, 0x12F58CE0, 0xA3C1695C, 0xA1E13DFD, 0xA3F1E5CF, 0x67CE7BB9, 0x3DE7C12B, 0xD87F7879, 0xB72B30E9, 0xFE039035, 0xD15C3395, 0x62F4E910, 0xEECD1B80, 0x00DEB82D, 0xEA99200C, 0x4F9012D0, 0x3D224C97, 0xBD5EE070, 0xC02F0921, 0x0A39CF41, 0x479FEDBD, 0xE34C0000,
    0x95A9EF83, 0xDBEF3C83, 0xB795B639, 0x28F16D3D, 0x60A88FF7, 0xB794E71E, 0x7FFB3C7C, 0x2A3FDCEF, 0xFFE93D23, 0xC75A9E40, 0x2FBE2044, 0x2AF0007A, 0x57E02685, 0xD10F1FEE, 0x7BF0597F, 0xC725F66D, 0xE01368EE, 0x00366D43, 0x021C1D34, 0x22EC1A56, 0x99A7CD05, 0x8760007B, 0x389096A1, 0x0181D356, 0xC6360000,
    0x0E3D7172, 0xCE3B477C, 0xFBFF67EC, 0x3F7EE848, 0xF9E823DF, 0x617AFFA0, 0x967F908E, 0x90FEB7F9, 0xBE06C4EB, 0x00E937C1, 0xF567583E, 0x80693CC2, 0x9E020FA0, 0x003ED18B, 0x29462B79, 0xA4716393, 0xBCE672F8, 0x5D7C9384, 0x7D673065, 0xB069D1A6, 0xC7B7B9A8, 0x43579DCB, 0xB0FD1E97, 0xEDFFEEF5, 0x93E60000,
    0x6BEA0A24, 0xD0410B87, 0xBE4669FB, 0xB0232F3F, 0x4133FBEA, 0x055FC920, 0x87206805, 0x5D2780D1, 0xC0B08050, 0x0F000D07, 0xE0A1E1F8, 0x201E3F49, 0x8B5FC30F, 0x37F9DFDE, 0xF7F799F2, 0x59DF76FB, 0xDA7F7436, 0x276B7CD1, 0x399F44C0, 0x22FE0920, 0x1B1B4320, 0x8E521900, 0x997C8663, 0x2B8CB002, 0x1F970000,
    0x756BA460, 0x5FFA66F3, 0x7F20CEDD, 0xCCE772BF, 0xDA7DB0FC, 0x311857E7, 0x1BA39F45, 0xA02CF2BD, 0x090FB31B, 0x4F5B116D, 0x61EE98C2, 0x7EE5621B, 0x937507E6, 0xB00D3409, 0x89716623, 0xEF0809A4, 0xACA321CE, 0x4000A8B3, 0xB8AF8F97, 0xED511B3F, 0x8101C27C, 0xF813B54B, 0x33EFD289, 0x97BEC50F, 0xFEEC0000,
    0xF856F9B5, 0x4C848857, 0x6B2D1819, 0x7BA8E37C, 0x3F29BD98, 0xF19A6307, 0x572C72D3, 0x3B6E330B, 0x07C54270, 0xDE7E0EA0, 0xE429711C, 0x6D9E2F46, 0x3704C854, 0x058FE52B, 0x9E690CFA, 0xFF148E03, 0xE063599E, 0x06FA17C6, 0x7F2F3E20, 0xB2D7A036, 0x023D9082, 0x03F20259, 0x7888012C, 0x12006824, 0x5ED80000,
    0x2FE0871C, 0xFE7C1F22, 0xFC08ED6F, 0xFA0797FF, 0x80513783, 0x827FC0FB, 0xE5903DD1, 0xBC87B2F1, 0x11C3E518, 0x385B8D1B, 0x99AD6083, 0x46916878, 0x73105F17, 0x05E24FA9, 0x27B85BFD, 0x3039A57F, 0x8353597E, 0xF9B4D579, 0xE33705AD, 0x83593451, 0x47181548, 0x47062AE5, 0x8A1D6994, 0xE7FA1BE9, 0xFFC60000,
    0xCD084C9F, 0xC6DFCBAF, 0x3BE73132, 0x77987C05, 0xD7F2892B, 0xF11B3CF3, 0x965B35F4, 0x0608C4A5, 0xA9001D0B, 0x58073890, 0x400F8AF9, 0xF864FDC6, 0x0740B100, 0xE893E25C, 0x153F15C1, 0x4380BA21, 0x3A8D6A4E, 0xAA7D6DC8, 0x7D0FD9FD, 0xBB30FFFE, 0x657FBFE4, 0xCBCBB31F, 0x35FFCB93, 0x7FEFB4FF, 0xFC3D0000,
    0x2396BA24, 0x7BE360EA, 0x2BDAB3E6, 0x6F9722ED, 0xC8E457AF, 0xFA070769, 0x1D1057DD, 0xB4410A67, 0x7937B692, 0xEAB80FB2, 0x3E05BF07, 0xE101FE60, 0x65AB6AC9, 0xBE9C7CBE, 0xE6636BAB, 0x41C4CBB7, 0x0734A84A, 0x3E94CC77, 0xE347007C, 0x00491FE0, 0xF7DEE000, 0xFFF402EA, 0xFF00EBAB, 0xF00E1255, 0x59EF0000,
    0x0F047801, 0xC3DC0FBB, 0xC5EF1C33, 0x277E34BF, 0xEE22FAFC, 0x031C1D77, 0x83026228, 0x3003BEEE, 0x4053E047, 0x986F1E3F, 0x47B0ADC8, 0xE6F7BC14, 0xF56742D0, 0x0E7819C3, 0xB583AD0C, 0xB442B4DC, 0x821C1F74, 0x82C695E6, 0x51E4728C, 0x006AE961, 0xBDBA926D, 0x5FB0C64D, 0xDA9D212F, 0xFEFD443A, 0x72A80000,
    0x29402B36, 0xC6274C80, 0x382D934B, 0xE09EA7EF, 0x906D0F2E, 0xB67B55F7, 0xC5D1F33F, 0xDBDC8BE8, 0xC74DFEA1, 0xF345F00B, 0xE6A3A01E, 0x6C7081A3, 0x113841E9, 0x0FF8DC99, 0xA98C27B2, 0xA6C2B1B6, 0x191F1AE8, 0xB4D717A8, 0xED443C16, 0x0538B621, 0xDE84FDB1, 0x9BFFCC55, 0x3FF3F773, 0x205F50F9, 0x85B70000,
    0x4A74B9C4, 0xD3F3D948, 0xF4FF6A6E, 0xFB8FEFFF, 0xBDE76E9F, 0x7365BBDE, 0x293DC38B, 0x53DC0070, 0x7D000FEA, 0xC0004452, 0x4487C240, 0x7B6B8003, 0xEB916317, 0xE84012CB, 0xB003FF14, 0x2215CDC4, 0x01E2D688, 0x7E44D417, 0xFFD07FF8, 0xFF78F8F7, 0xDEEFB4F7, 0x3E3438E8, 0x3DA7FD82, 0xF30913C7, 0x5E510000,
    0xF3B4905B, 0x846CD77D, 0xFFF22196, 0x41366FBD, 0x50A576F8, 0x095D3C18, 0xDB9381F5, 0x8F1186AB, 0x57058129, 0xD0BD1BE4, 0xC75C95A4, 0x6380BC8E, 0x6AC6E6FE, 0x1E28EF62, 0x4B70EC2C, 0x0C9E8AFB, 0x61CB70BD, 0x1909AF23, 0xE3D2745F, 0x6B0EB999, 0x08940F91, 0x4174FA72, 0xC54681B3, 0x6E852D23, 0x09520000,
    0xD2F02640, 0xE5B5FD3C, 0x507EA940, 0x0535E252, 0x509F07A8, 0x280C7A97, 0x61AEC87F, 0x31503FFD, 0x95EFE57F, 0x850830C9, 0x00070C62, 0x0D7BD25D, 0x5C6273F6, 0x86FFE4D3, 0xA2FEF5AE, 0x4AA26D68, 0x004E7A40, 0x1B18F800, 0x0A7C82B6, 0x0E35F42C, 0x0AFFE81F, 0x1FFB4F9A, 0xBC17FFB5, 0xDFFFE8C5, 0x3EB10000,
    0x1C925410, 0xDD7D61BF, 0x80F26C95, 0x728414BF, 0x30F38217, 0xA21A0FF1, 0xE98421AC, 0x483C2469, 0x8EA400BE, 0x32402555, 0x38000A5A, 0x37807AFE, 0x60EA1BBF, 0xADF467EC, 0x27827DE7, 0xB81F4E7B, 0xEFD2E95F, 0xF21D5FFF, 0xE5E49F83, 0x4C90AC40, 0xCB40102D, 0x300039B5, 0x0002F87A, 0x89498398, 0xFF470000,
    0xC2711DE9, 0x08D281B9, 0x906873A3, 0x005B2A18, 0xC0680201, 0xC620122C, 0x63431726, 0xAC53B9E2, 0x07009EA5, 0x38CB1807, 0xA21CA4FE, 0xBD8833BA, 0xB2F047A0, 0xA13E7921, 0xD70CC9DE, 0x73B84B35, 0x169BAA0B, 0xC8AEC048, 0xFAFE1BE8, 0x7E58D788, 0x8F9CCD94, 0x613DB5E5, 0xAB68650F, 0x68FBD4B6, 0x5F0E0000,
    0x05E92CF3, 0x863F46A5, 0x947B4AB8, 0x267C6805, 0xBFC2C037, 0x8C8407CC, 0xE802FF76, 0x970E10DA, 0x71E84D63, 0x50417251, 0x9005A69D, 0xF904B3BA, 0xC84996AB, 0xC6BD36CA, 0x5FE5148A, 0xBC7B3B9F, 0x4E98A6FC, 0x7B3C8E85, 0x34E60057, 0xB9D15D21, 0xF441FF4F, 0xC01ADB65, 0x017C941F, 0xCD0CB21D, 0x320F0000,
    0x885D1F51, 0x19FAF3E5, 0x7FFE94FE, 0xDB24FBAE, 0x190BDF04, 0x074FCA68, 0x2BDA0968, 0x7DD181B3, 0xFB056BA0, 0xF1278EDE, 0xAFE1FCF5, 0xAF8D0113, 0x3EDD306F, 0x2D6747E1, 0xBBC55E78, 0xA49A46D8, 0xC1F06988, 0x383A33A7, 0x408FA37D, 0x02422380, 0xE5C07E00, 0xF0C1FAFF, 0x102F6C4B, 0x477723EA, 0x357A0000,
    0xEA2A729B, 0xB9FFC723, 0xF79FF149, 0xEC1BB486, 0xF8230237, 0x6223BEFC, 0x352BF6E3, 0x181BEC7D, 0x0C6DC3AF, 0x60FE0635, 0x0B007D80, 0xE215DB05, 0x11761932, 0x7C73D25C, 0x026AC1B4, 0x478837C8, 0x7103480F, 0x8AF290F8, 0x7AE983EB, 0x3B892F06, 0x9E1EE020, 0x4819067B, 0x8E300BE1, 0xC1837C7A, 0xDF020000,
    0xB1CB1712, 0x9ACF20B1, 0x0A668631, 0x9F77C683, 0xE6AFBAD8, 0x12960692, 0xF9FF5413, 0x6F86C4E2, 0x30607852, 0x8C1E1107, 0x43C26254, 0xFC0E26FE, 0x32420FC0, 0x0B2EE830, 0x737F271D, 0x894B51F1, 0x91762272, 0x20AB7F69, 0x3C3151E4, 0xF8F827DC, 0x39540F40, 0xFF7F5A84, 0x5EA067ED, 0x055C9EDD, 0x7F0D0000,
    0x0970A40D, 0xF35EF0B9, 0x2AB626C5, 0xD17D09C1, 0x58393B3A, 0x0780A981, 0x91914F25, 0x62CEA417, 0x31C16967, 0xB23131FF, 0x0BBA3F26, 0x438FBAC1, 0xFA5DE10F, 0x51DEF7A5, 0x7DD8AF6F, 0x99E26F21, 0x73818D1B, 0x1994F8F1, 0x87358E40, 0x009AA751, 0x070BF012, 0xE0740036, 0x008B0B38, 0x879702F9, 0x6EFD0000,
    0xC6E02299, 0x71DCF890, 0xA97A6FB8, 0xBFD90C01, 0xF73B0015, 0xC89017FC, 0xAB407FF8, 0xA214041E, 0x8B00041C, 0x7C011E57, 0x40812574, 0x6ED73350, 0x68297BBA, 0xA0E6E2EA, 0xD321ABCD, 0x4CDA3C03, 0xD1C312FF, 0x13762AF8, 0x2B0AF7A2, 0x54657FCB, 0x8EF47DA4, 0xE4DF2DB3, 0x941CFA47, 0xFEF934FB, 0xFF140000,
    0x7D403E2A, 0xEBFEDF6C, 0x9DFDDBE0, 0xF696B73B, 0x6457E0B8, 0x651467B6, 0x11B6FFE3, 0xC582E176, 0x1E3E1DFA, 0x41CDE428, 0x06B48061, 0xC76E2024, 0xCB5211CF, 0xA65F5911, 0x00E04454, 0x3A300666, 0xC17E9601, 0x5777203F, 0xFE545E5B, 0xFCBEAE4E, 0xE7BF58F4, 0x4BF164E8, 0x20B20777, 0x7E6731DC, 0xDB3C0000,
    0x9CEE851F, 0x6CC1ECBC, 0xE05FE0FF, 0x27B9E1E1, 0x77FDD20F, 0x601BE1EE, 0x14F01E96, 0x0FE1C1C8, 0x4C3C0A3C, 0xA19035E8, 0x780356B5, 0x10BC7BBB, 0x420FCADA, 0x4AC8F4FD, 0xC9301687, 0x45227826, 0xCBD38BF4, 0x0E72FB33, 0xF6A5B886, 0x7074BBCE, 0x31BFBBFE, 0x2B724C40, 0xEDE10119, 0xC400D87D, 0x5C2D0000,
    0x69B4E022, 0x363E4B71, 0x97FE643F, 0xDC5715BF, 0x364D7F6C, 0x8A140FE1, 0x2D80FF4B, 0xC0B75C74, 0xD60F93FD, 0x80F8253C, 0x16875041, 0xDC2E803F, 0xAD34028C, 0x6E813AA4, 0x9CDAE382, 0xC1C4803D, 0xF59305EA, 0x19B9B5EC, 0x81573938, 0x476F7F66, 0x7B19ABD9, 0xC84BF1F5, 0x41FADF19, 0xC76B8F73, 0xAF1C0000,
    0xE6A2BD3A, 0xE77D5B44, 0x1E10C9A4, 0xC06FB112, 0xC5EA5A3E, 0xEB878185, 0xC0981877, 0xE7870D7E, 0x7A32DEE3, 0xC70F513D, 0x7AC397E8, 0x9019FE2A, 0x029FE408, 0xB7B91021, 0xD19FACB3, 0x00A923D8, 0x6706DA17, 0x7C8AE0FF, 0xC5B7743A, 0xC73BA7F4, 0xCC0E8FCE, 0xE0D85484, 0x38622C81, 0xE008DFE0, 0x4C920000,
    0x95158784, 0x810F8140, 0x428D69E8, 0x64C34131, 0xD19788CD, 0xFE9F4909, 0xB7F4000E, 0xFD000042, 0x8802F3B9, 0x83DEF691, 0xE5F18DFF, 0x10E36FC2, 0x84FFFDEB, 0xC3E63F32, 0xD909EF7B, 0xB21EC3DF, 0xD2D353DC, 0xF725371D, 0x210D4E4C, 0xF3733907, 0x270A40D3, 0x3E100EC4, 0x02118320, 0x0C010E66, 0x688D0000,
    0x8BF0B68D, 0x4322E817, 0x7F37A99D, 0xE7FB4F8C, 0xF9C47E0F, 0x0E8DA4CB, 0x597D9864, 0xA581540B, 0xDA01407D, 0xA074073A, 0xAEDD2AE0, 0xC53CE706, 0x6BE6B0CF, 0xAAAF0EE4, 0xC3F0B864, 0xFC3E4F7D, 0x43FDFABE, 0x5EFAA913, 0xE8228CFD, 0x3BA401AF, 0xD5447E87, 0xB6898086, 0x8C9CDA7E, 0xFAD8EC65, 0xF5E30000,
    0x87C757C1, 0x85800593, 0x8323EB68, 0x29D48C0E, 0xCDD141D8, 0x197D1C9E, 0x20BCD519, 0x32D1CDEC, 0xA226CF3F, 0x95FBC5B6, 0x03E43612, 0x173CFA86, 0xD74F783B, 0x185407C0, 0x89C87316, 0xD387028C, 0x50F0A966, 0xCF80DD10, 0xF0CCE01F, 0xDBE586B9, 0xFDB97C47, 0x9EA79F29, 0xE4013D46, 0x42559FD8, 0x034B0000,
    0xCF3F065D, 0xC876ABB4, 0x035CEAC1, 0x3FA22023, 0xFF473007, 0xB2B0587F, 0x6798D3FE, 0x3F343E55, 0x3E03F5F7, 0xE03E07E0, 0x83F13F08, 0x7E149003, 0xA3FA2EB8, 0x47C49F27, 0xF8E876B1, 0xC1DF80B5, 0x9707E541, 0x78532D5F, 0xFCA28CFA, 0x0F6F53C3, 0xE01E9E6C, 0x9E1A67E8, 0x22DB210E, 0x435CB726, 0x7FDC0000,
    0xB368D5EF, 0xB35BA13A, 0x40EBD7CF, 0x003C67BC, 0x09F1BB00, 0xAD98E400, 0xFB5AF817, 0x2D3F8469, 0x97F0377F, 0xF603E7FC, 0x0E354C03, 0x6BEF6068, 0x3D900F27, 0x7A09F4FB, 0x71622F37, 0x0D4E6A7F, 0xC69A1722, 0x5E8C5F3A, 0x6A0FF399, 0xABA4655F, 0xAB3B578A, 0x781000C4, 0x78BBCAB9, 0xBEFFF686, 0x9BD10000,
    0xBE053EDB, 0xFFFB2C4B, 0xB78E623C, 0x8FE5A71B, 0x6FDC2B30, 0xCD0E75B4, 0x66CBFC2C, 0x2E675F7F, 0xFEBBFF6E, 0xB75076F6, 0x30BAE9E1, 0x10FA5426, 0x13E50600, 0xE782C2EB, 0x901C34FE, 0x07DC1600, 0xFC06A52F, 0x800B37FB, 0xFE7F4F64, 0x386F5469, 0xD0D7D9B7, 0x6B763247, 0x1DC001B7, 0xF3834131, 0xFF3D0000,
    0xE051DA3E, 0xD7F8BD6F, 0x2BFDBEBB, 0xFE7D98A3, 0x8D799A93, 0x455F942C, 0x1AE26C5B, 0x804F4E44, 0x2FFE1C24, 0xD7BA9F9B, 0x57E9FAB3, 0xF683ED70, 0x04915D2E, 0x57D3C218, 0x16787901, 0xEAA59B01, 0xE11569E3, 0x37F0F499, 0xD4C011F2, 0x94BF7FFF, 0xB278543D, 0x1FE88FCC, 0x3FCD6A33, 0xDEEE6BF8, 0x417B0000,
    0xBFF463AF, 0x8F00855E, 0x7FB360CB, 0xFD8E9131, 0xF0073FAC, 0x9AD147BE, 0xABB94329, 0x5301F987, 0x4057EBD0, 0x007F7E80, 0xD5819FBE, 0x7A17EF82, 0xCCFEC015, 0x37441A1B, 0xE897E589, 0xA013C37D, 0xFAAA46F4, 0xB48ED4BC, 0x8069CFC4, 0x015BDBF1, 0x23113413, 0xFE07003B, 0x98447441, 0x0F79D9C2, 0x1ED70000,
    0x885B0648, 0x0F454373, 0xE16E7F7C, 0x24031810, 0x03F20000, 0x0DBC370F, 0xF10333D6, 0x5022DCFE, 0x062A7E28, 0x5B03D407, 0x17FE2077, 0x819C0F59, 0x40A867C6, 0x0782B063, 0x5A2AC008, 0x51284C4B, 0xC7A99E6D, 0x18392ABF, 0xCA4A6E94, 0x0CE9D485, 0x28C79204, 0x6CE5C048, 0xD616E51F, 0xAEE03C87, 0xBD860000,
    0x982757E1, 0x06E5F7C0, 0x97F44BE9, 0xFB447FF6, 0xFA5F57DF, 0xA01BE535, 0x2F300970, 0xD206BFFD, 0x008F7752, 0x01BBF389, 0x0FE4FBAA, 0x3A71CFB1, 0x85C907EA, 0x39E04209, 0xA101B222, 0xE81002AB, 0x77147A7F, 0xD006C7FD, 0x25F4DE2F, 0x148397F3, 0xA540367D, 0xB0069F21, 0x842B8B68, 0xDFCFCDCB, 0xAF8A0000,
    0x3B3DBDF9, 0x1BFBFA47, 0xDEEEE47A, 0xEB893953, 0x753423DE, 0xC08FBFE9, 0x2CF80E50, 0x455A19AC, 0x0BC00778, 0xE00094C8, 0x89078AC0, 0x00723537, 0x1392E9AE, 0xDCA3BE7E, 0x611A7F4B, 0x12C1FC9B, 0x8C3F55C0, 0x8AFD6C41, 0xBDECCD76, 0xFFB417FF, 0xE53FE6DE, 0x13DBC139, 0x07D09AB7, 0xFCADC9D5, 0x58ED0000,
    0x85EE5DD5, 0xF12D6CE3, 0xFA2CD1FF, 0x47331364, 0x7B4479FA, 0x8F23FF91, 0xB00EFAC8, 0xD7B0705E, 0xF1333675, 0x0277B340, 0x40504000, 0xB328045E, 0x5D95EA9F, 0x323FA286, 0x3FF8CEEC, 0xE1453E36, 0x0DB8F07B, 0xCF068444, 0x40BB38CC, 0x30B17097, 0xBD7ABBE8, 0xC5EAFE3A, 0xFE7EEB4B, 0xFFFC83CF, 0xA2E90000,
    0x8F55EA37, 0xA1CAD1B7, 0xFAEFC0BF, 0xD7ED8DE2, 0x80B283D0, 0x0146D601, 0x247F814C, 0x74C28003, 0x7236A915, 0x09D4A021, 0x1FE99062, 0xBF731001, 0xDC439207, 0xF59D99FD, 0x7F0C3CDF, 0x7C2544F3, 0x6A606FF5, 0xCEA647FA, 0xB043F87A, 0xC4B47FA6, 0x6B0FF973, 0xA9D0F05C, 0x26009725, 0xAC4E619B, 0xDBDA0000,
    0xACBAE859, 0x9FF5CD54, 0xFFFE90EB, 0xFFADFDFF, 0xD8342E2E, 0xB867FCA6, 0xBC136FF2, 0x00FF6BFA, 0xDE22BEF2, 0x7011F7BC, 0x00664B50, 0x057EB620, 0x08720160, 0xB580A04A, 0x4FAE07F4, 0xE2408786, 0x0457F089, 0x07EEEF3F, 0xDDFFCDFF, 0xBFF7CF5F, 0xC1B6FF7C, 0xEFFB63B6, 0x1F690E87, 0x179711DB, 0xFF980000,
    0x83AAFE74, 0x35CB257A, 0x66FBA136, 0x97D9D400, 0x1011F798, 0xBCCBFD85, 0xE459B8AF, 0x7FEA8447, 0xDA180B60, 0x05DAD60C, 0x7DE0F00F, 0x9E0F43FF, 0xF9F0FEBF, 0xCA19FDF8, 0xB75FFF56, 0xF3EAEBB8, 0xFFD2FED1, 0xF5020F57, 0xC801D200, 0x000D6000, 0x6991B012, 0x1E0484E2, 0x94003270, 0x28010420, 0x3F360000,
    0x54FD19A8, 0x6CEC9F3E, 0x18429D08, 0x604771DB, 0x46E70058, 0x7E4BFBEF, 0x73DC6FB6, 0xA139F97B, 0x73CEBF8E, 0xE00DB37B, 0xEAE37FF8, 0xD663DFD3, 0xC80C0C04, 0x3EC07561, 0x81839B6C, 0x24D2BDC0, 0x3183B938, 0x5E5FD99B, 0x5BD9850C, 0x9FA61547, 0xCDF4E05C, 0x331F3C82, 0xBA3FC930, 0xF6FE543E, 0x4B410000,
    0xB88D1243, 0x17CCF097, 0xFC2B933F, 0xC7FC176D, 0x39E31BF2, 0xD79FF77C, 0xE5C03FFF, 0x5809D55D, 0x40C5F751, 0x242AE688, 0x27A741F7, 0xD64AF630, 0x685F0A03, 0x04C5F07C, 0xFC388BBD, 0x8E0E312E, 0x61E6A3FC, 0x4E29040E, 0xE01463D1, 0x02529F14, 0xA3E67870, 0xFFCA7D15, 0xF7D7EAED, 0xDBDEC677, 0xFFCB0000,
    0x5215E236, 0xD01797C0, 0x1D7BD372, 0x13F7B034, 0x1B395387, 0x550AC63A, 0x2B62C3E0, 0x768C2F12, 0xE24FEB2F, 0xE87C6E0A, 0x8FA13D05, 0xFB16F35F, 0xE12D97BA, 0x1709FDB1, 0x647F6D1E, 0x15F10104, 0x040857A0, 0x10238053, 0x2E0797E0, 0x04AEDB14, 0xBA297027, 0xD4F20B6D, 0xDE9084DF, 0xDFD5C0EE, 0x5D550000,
    0x9577923C, 0xA4200A2D, 0x1810D940, 0x00293804, 0x60600000, 0x1402E0B9, 0x4D2AFB62, 0xBC3A9BF5, 0x2FFFFDD0, 0xBC39EECA, 0x347F5A05, 0x1C3B04B6, 0x8FC8A65B, 0xB4FFD3C6, 0x6FFC303B, 0xEFF4F107, 0xFC9F2280, 0x043EA041, 0x69D38002, 0x4C9934CE, 0xE3ECA07C, 0xB812BF50, 0xCFC7E39E, 0x3FFD866B, 0x12F80000,
    0x1FD09672, 0x3E7D58E2, 0x3A656EFE, 0xA87F5FE0, 0x1A68104D, 0x19A01FF4, 0x4E01F14D, 0x02BE4C1D, 0xFE9EA699, 0xE2BCD5F8, 0x5E393F89, 0x031B0865, 0xB300864E, 0x24027AA1, 0x3037D4EF, 0x127EA738, 0xB75802B6, 0x6FA20095, 0x3EDC15D1, 0x4FAF9056, 0xFE395ED8, 0xF15CADD2, 0x9C7F5B09, 0xF4FFE497, 0x8BE60000,
    0x859E86C4, 0x1BA882D7, 0xFFC97277, 0xB585D684, 0x2643A359, 0x10BDE9FE, 0x1776DD53, 0xFDFFE723, 0xFF7D24EA, 0xC1D04220, 0x0400E001, 0xE5060038, 0xAB600DCB, 0x6C01427B, 0xC07EE829, 0x3FA06F37, 0xFCDB99FA, 0x6FCFFE9B, 0x00A72776, 0x062E1ED4, 0xC6351003, 0x5CCB0C25, 0xD0800611, 0xE6462ECA, 0xF98C0000,
    0xA84EE147, 0x48E961EA, 0xBFF915FF, 0xFB48FDFF, 0xACA17FFC, 0x8CBE0035, 0xA0C002CF, 0xCEC0CD28, 0xF5BA85BF, 0x7F9E33DF, 0xF311DDFC, 0x024DBF40, 0x6FBDB0FA, 0xFA02896F, 0x31657764, 0x1047F500, 0xB65BC680, 0x8867F0A4, 0xCA12C137, 0x23B1F2AC, 0x0F43DD1F, 0xA4FE1289, 0x7FFF7B83, 0xFA7A9AE2, 0x2EC60000,
    0x98EBA3D2, 0x27BD089B, 0xA7ECD747, 0x020220EC, 0x363EB5D2, 0x0820BE04, 0x65B6492B, 0x69C6611D, 0xC09E119F, 0x22C65441, 0x7BC4644F, 0x9DE7036D, 0xDB306E6B, 0x5E9FFE95, 0xBCAFC6F7, 0x18710C3C, 0x00112A54, 0x0AD71A20, 0xA4A7E6C3, 0x0035F551, 0xF7B1E041, 0x5FD43BDE, 0xFBC3D1BF, 0x7EBDD708, 0xBBE90000,
    0x69FB9402, 0xF49D9407, 0xB7DBE7FC, 0x7CA427D6, 0x003CFBBC, 0x0BBFF164, 0x1DBF7414, 0x58BBB62B, 0x5BF0836B, 0x7F006C83, 0x46E7EDE2, 0x03C10408, 0x62D383F4, 0x172220CA, 0x38E3C119, 0x143A499F, 0x87F00030, 0xFDD8317F, 0x6ADF8A7B, 0xE75EDD7C, 0xD1A551FD, 0xDCDF4566, 0xDD7D93BD, 0x07FC57AA, 0xFFEA0000,
    0xD8A60E45, 0x8FF0DA39, 0x7C589253, 0x3EE4AB35, 0xC5C7C899, 0x972A877A, 0x3D9E91DF, 0xA6F6AC46, 0xC37D0EE1, 0x2F2D63B0, 0x2C6E81A7, 0x28373C10, 0x0269EBC8, 0xF7FB3E3A, 0xCBFFE903, 0x346C1325, 0x8184AA40, 0x7C002103, 0x40C6ECFC, 0x07C02E40, 0xBE00EC12, 0xE01D8345, 0x05EDF1D2, 0xB7FEA887, 0x26F50000,
    0x7DAE851E, 0x3DC7F0B0, 0xCE12B3AF, 0x804BC87C, 0x4CC4182F, 0xE6F04100, 0x2F4A0537, 0xE0C08D62, 0xF987FE08, 0x78BFA589, 0x8E1F44B0, 0x002171B0, 0x11ED1F05, 0xBEBAEC01, 0x21CFD0F3, 0x4456A002, 0x19787BA7, 0x8F23E0BB, 0x5E268C1E, 0xB690BF0E, 0xE301E9B7, 0x70FBF2BE, 0x861F8262, 0x0802A74C, 0xD40A0000,
    0x72ED9CF5, 0x28D3FD3F, 0xBFCFFFD6, 0xF6FDC7AC, 0x5A2E9BD0, 0x16C5F180, 0x233C742B, 0xBA868211, 0xF22C2304, 0xE2261DE9, 0x2AE1641C, 0xBF9A6C7F, 0xF92527FF, 0xAC45F98C, 0x365198E6, 0xC3E7CD69, 0x267A76D0, 0xBE009696, 0xE49398C5, 0x10A26235, 0x580101FE, 0x91EEAEFC, 0x2319085F, 0x449C0487, 0x7FC50000,
    0x655C8B2C, 0xFADF63FB, 0x7FFFA6BB, 0x947D6E3C, 0x319283B0, 0xF1A85682, 0x368AA6EE, 0x53F2C71F, 0xF99C386F, 0x430FBAE6, 0xE17DB800, 0x3F9F3607, 0xFDD5F9FF, 0x6878FFE7, 0x338EE5F3, 0x31B9ADB2, 0x1F81E40E, 0x1D397149, 0x26A7FB20, 0x21F89548, 0x17598203, 0xE0DEF0CE, 0xFB425607, 0x271F6111, 0x2B900000,
    0xC2CB92CB, 0xF6959078, 0x7079C364, 0x13475968, 0x1F14E302, 0x4982D46F, 0xE84747D1, 0xAE32FD4E, 0xB84DA003, 0xF800442E, 0x8E0043DD, 0xC5846FF7, 0xA84DBFF5, 0x044F5559, 0x1A0F775A, 0x00C21C5C, 0x00101469, 0x8100803E, 0x29324743, 0xBEECAC3C, 0x0A5FA717, 0xCBDA2F5E, 0x451837C6, 0x0803ACC0, 0xD9A80000,
    0x5E8EE3AE, 0x91238AB4, 0x810C01C2, 0x0EE75801, 0xB598F9CC, 0x01EF5A7F, 0x8336F7F9, 0xA52ABFC0, 0xAA5F1F2B, 0xE132D3F9, 0x140E71F1, 0x803D9F20, 0x0029E24A, 0x312B1AB2, 0xC3BCE904, 0x1FBF2180, 0xBFC83C13, 0x3601D406, 0x665B1024, 0x8BB02883, 0xEC8BD805, 0x511757AF, 0x9C887CFD, 0x46EE034E, 0x7E350000,
    0x04A002EA, 0xC524193C, 0x97022549, 0x382A4308, 0xFAC001EE, 0x13A0C8BF, 0xDC549B34, 0xF0C31602, 0x7047CB27, 0x28D96162, 0x0D151C52, 0x129CE320, 0x7D5CC017, 0xC4D813EB, 0x4FFE7DB9, 0x5FF5A2DB, 0xFEEC257F, 0x7B81D6F3, 0xDC5B51F7, 0xEAE09FD6, 0xDD023FFB, 0x7C330FC0, 0xE715626B, 0x6ADE52BA, 0x03120000,
    0x54985D92, 0x4FDBE8FF, 0xF5FE02E6, 0x07FB3B02, 0xFC7A5007, 0x473821F6, 0x79003FF3, 0xF406D33F, 0xE1F8C4EA, 0xBF23863E, 0x625323D6, 0xA6933EBA, 0x31E0DD91, 0x145E7B45, 0xD65CC434, 0x5FAADD30, 0x7C2564B6, 0xC5772170, 0x77EA0B01, 0xFF4ACF96, 0x2D52FC33, 0x971781B0, 0x886D634D, 0xEFFF79F7, 0xFF940000,
    0xAEDF2958, 0xA1A86DFE, 0x287B93E0, 0x00F6B3E8, 0x0DCC06A4, 0x39C1FF6E, 0x673132CC, 0x6DD8499E, 0x85F7A560, 0xA4855FAD, 0x9B0C5098, 0x202B0477, 0x6B77E3C3, 0xE19C3AFA, 0x5295FF78, 0x2F71D90F, 0x87028259, 0x3307BC3F, 0x087786F0, 0x5BC0F205, 0x9806E043, 0x48EF05AD, 0x9FF811C6, 0xCE738032, 0xEF430000,
    0x86A7A7D5, 0x60CAA074, 0xF821F33B, 0xD98AC479, 0x60172C09, 0x7051E0D2, 0xE698814A, 0x60360520, 0x46E54A46, 0xFD47955F, 0x033309A0, 0xDA4681B4, 0xCBF2A7FF, 0xEA489B6F, 0xD5FC30B7, 0x52C4CEF9, 0x7B42F3F7, 0xF3268FFE, 0xBA014D6B, 0x94317A30, 0xCF80160E, 0x0049C38E, 0x60FE4C33, 0xFB0799BC, 0x28BE0000,
    0x593EBC98, 0xAFF77AB0, 0xA5FC8E3A, 0xDA58A6FB, 0x19FBF3C6, 0xDBFBDE89, 0xE599DC26, 0xC7F62E74, 0x7F34CCD1, 0xA502619F, 0xF6D605FE, 0x143807DE, 0x05011B55, 0x76E0F966, 0xA002C7E3, 0x00045A22, 0x01FA7744, 0x1F765FB0, 0x7801FF13, 0xC79F3AAC, 0x30A0D482, 0xD02005E0, 0x4D80B9C9, 0xA917F719, 0x04660000,
    0x5C4F8518, 0x88EEBBD9, 0xFFEF6E3F, 0xFD71EFFE, 0xA83FBE57, 0x866303F8, 0x3540DA98, 0x603F76A1, 0x0BE59F02, 0xC03B488F, 0xC97E6D04, 0x3F8F887E, 0x705DC148, 0x64667DB7, 0xE55A0255, 0x863043AF, 0xF6B48CF3, 0x066352C2, 0x4E865469, 0x6E787DF5, 0x720A8A33, 0xAE448F9E, 0xF7C5DD39, 0xEE7DA503, 0xAEB50000,
    0xBE103F3B, 0x1AF70304, 0x34029EE2, 0xFADF73F7, 0xFC82DC11, 0xF5EFE107, 0xC9F70302, 0x43BEFDB9, 0x3FFCFFEA, 0xFE0BEFC5, 0xD79A5748, 0xB877830E, 0x0420610B, 0x967702BC, 0x90E26792, 0x8D03F93C, 0xA89785EC, 0xF9B87F2F, 0x192D3E96, 0x034364B1, 0xA9D59F10, 0x3937A22A, 0x89DF7240, 0x0E471562, 0x62B60000,
    0x6FD23C8A, 0x4C4FAF76, 0xF70ED52B, 0xDB6F864D, 0xE8C1D1D9, 0x95FC7F0F, 0xC5CBC007, 0x03931A34, 0xFE1E7DC7, 0x8365FFD1, 0x063A1015, 0xD3EF2128, 0x98830417, 0xB085826B, 0xD23816F7, 0x30454712, 0x80F8E011, 0xDEF7852C, 0x43D4BFAF, 0x383FE732, 0xC37BF7DA, 0xFCFF6B93, 0x00628698, 0x926D93E0, 0x03AA0000,
    0x6E547337, 0xBE33F65D, 0xC8FF6102, 0x9FBEC4D5, 0xE799E0A4, 0xFE78E035, 0xF31E3C7A, 0xE8376EDF, 0x907FFCB2, 0xC5FB4CCD, 0x7753FD8F, 0x8067F767, 0x47689848, 0x0E8871C0, 0xDFC8F029, 0xF5AF0011, 0x67402608, 0x9C0F882F, 0x00DC1270, 0x01A7AA80, 0xA353C019, 0xFFF500B0, 0xFE81E4C5, 0xF7FB4A5D, 0x2E940000,
    0x1A1FD3D5, 0x9FF9085F, 0xFE3D91BB, 0x0DF83F6B, 0xF987B8F8, 0x89505F4A, 0xE10FE5C5, 0x80785374, 0x6F1F1ECF, 0x8AEB01E8, 0xFCACCFCF, 0x119B19EE, 0xB982C442, 0x1C3A749D, 0xE942FB41, 0x264F443A, 0x2CF807FA, 0x41939EC0, 0x3E089EF4, 0x92FAFC09, 0xA7D8585B, 0x2923A093, 0xBEBBD4B3, 0x6B9DDAB9, 0x0A3C0000,
    0x19DFD37F, 0x5C17EBFC, 0x5FA74B27, 0x327B6778, 0x93E4D805, 0x42E70193, 0x30B309B3, 0x2F890742, 0xCA909409, 0x9162D11F, 0x04E20498, 0xFB1A1BDC, 0xFEC52BE8, 0x1202E904, 0x47E780D2, 0x185512C2, 0xABFC3611, 0xDA28B489, 0xF2DE0EFF, 0x076F7019, 0x362A0E47, 0x013EFD97, 0x8FF4B965, 0x822CBB20, 0x17380000,
    0x2B606BD0, 0x0FDB3C1B, 0x7FD1D65F, 0xEC05291B, 0x4242876A, 0xD090C1F5, 0x3BB7CFBD, 0xD15BBFAD, 0x2E415433, 0xF813667F, 0xE04609C7, 0x90A20CC9, 0x36D9340B, 0xF49B84CD, 0x81F983D5, 0x2F47CA36, 0x5025D8FE, 0x4D7FEBC2, 0x46357E00, 0x07EBE001, 0xE2DF4D29, 0x407DAA6E, 0x05F3FCB0, 0x5EE80A6D, 0xC9200000,
    0x6279788E, 0x793F7502, 0x4269C90D, 0xF88BF7FC, 0x2977FFE2, 0x2A1A7C18, 0x5FFBFEA9, 0x4707FC4D, 0x201EA430, 0x016E2F00, 0x01A40058, 0x09173FA1, 0x033AC518, 0x397C2A08, 0x52002171, 0x08620634, 0x8287E574, 0x13B6356F, 0xA67391DD, 0x9EFE7F2F, 0xF7EED5FE, 0x035B6EE5, 0xEEEE2300, 0xC7F69C67, 0xAFF10000,
    0xD6EEF2DE, 0xF647557B, 0xEFE96DC0, 0xB74925FF, 0xAA9A9AFF, 0x7901B491, 0xF722399D, 0xE7E1DE75, 0x41865A67, 0x11EFEC2A, 0x178E220E, 0x0F3EA780, 0x13D3100D, 0x23B1812B, 0x7480CAB6, 0xA0428254, 0x01807F55, 0xD68E77FD, 0x7DC15FE8, 0x177FFBFB, 0xD91F6B6E, 0xB6D7FCF2, 0x93C70301, 0x8818FB85, 0x3F9A0000,
    0xA593EE9B, 0x8E6E774E, 0x1CF01A40, 0x2A813103, 0x402D84F9, 0x8211F85D, 0x140ECBAE, 0xF177BBAF, 0x01BC7AE6, 0x3FE58CC0, 0xE3FE1F55, 0xFE0BF81A, 0x22EEC330, 0x2AFF5A8A, 0xF2E0F4B8, 0x86CD0BBD, 0x8CFA0518, 0xC5A8360C, 0xFEC471B8, 0xCEDF08C6, 0xFFE05BDA, 0x2701B81B, 0x1A0A4F8C, 0xE006AF39, 0x6F540000,
    0xADC75836, 0xFFD2D03D, 0x2F6FAD33, 0x82FD4E20, 0x9FB885E4, 0x0FAFD1C1, 0x5BDD7605, 0x3C5AB472, 0x2B09C4C0, 0x4D7E001E, 0x7B81A17F, 0x6B0913FA, 0x00005F90, 0x0C018833, 0x721DC84C, 0x2124C0EB, 0xA0CC74B0, 0x0C901A8A, 0xD05BF008, 0x845FE702, 0xEB9CCC02, 0x56F190FC, 0x5E7C4B91, 0xFBA8637D, 0x8DAD0000,
    0x882F95DF, 0x83E02285, 0xF7A5567A, 0xFAE6663E, 0x80E176B7, 0x02BF35B0, 0x7DEA3C03, 0x380F1059, 0x03701653, 0x1F107E09, 0x6989E1EE, 0x53B03FE0, 0x2F00FA02, 0x300FEE7F, 0xE038EEFF, 0x005D5EE0, 0x0D4FFD20, 0x7AB69ADF, 0xFBDB1753, 0xBEF8F807, 0xF6FD90F3, 0x97FADFF4, 0xF131B528, 0x67E9B60F, 0x9B2C0000,
    0xE79ACCC0, 0xB6BB6111, 0xC03DCED5, 0x22D7A91C, 0x2DEED190, 0x283B12F1, 0xD13863DC, 0xEDC617FF, 0xB4C42F08, 0xA03F4916, 0xAECFB4F5, 0x281A077E, 0xE0A91BF6, 0x8F0260B1, 0x4B0ED141, 0x9A78334B, 0x93803F44, 0x3A1C228D, 0x85247370, 0x3E2EF706, 0xBBD8C074, 0x9DBF01C3, 0xCE22D88D, 0x8D7CDE8D, 0x3D630000,
    0x48F9A4CA, 0xD3EEF9BE, 0x9FFAD830, 0x7F0C24A3, 0xE7536C6E, 0xA4E88954, 0x3BDE06B6, 0x54FB47FF, 0xFFB7EDFC, 0x7EE67E5F, 0x828267F0, 0x28703A02, 0x768A80C3, 0xABC01048, 0x8101BB1C, 0x801EF6AC, 0x02BFDA98, 0x3CCEAFEE, 0x854B7F34, 0x3D8775F6, 0xB9777799, 0x9EA39E0B, 0x3D1EDE35, 0x173C0366, 0xF36E0000,
    0xD6034292, 0x067036E9, 0x8401D484, 0x2126C20C, 0xB0560900, 0x1171CEB4, 0xAF446DF9, 0x5026E82F, 0x4DBEBD01, 0x6FFAF60F, 0x77B28085, 0x1CA0BE26, 0x92B8803A, 0x083CA900, 0x5FE02735, 0x7FC4634A, 0x9E2AAA18, 0xC1D7E400, 0x1CE0C042, 0xEDB9550D, 0xF8D0403C, 0x34F27B05, 0xCD77FDAF, 0xF7BF9C9B, 0x2BED0000,
    0x90C46FA8, 0x98140671, 0xF68E3387, 0xAAE91AFF, 0x38F047AB, 0xFEB48717, 0x9A9770EF, 0x3F4C39F7, 0xC0E31BF4, 0x147A1501, 0xE67240D8, 0x6BB02EDB, 0x37B69B6C, 0x3F361057, 0x9FC717EB, 0x2CDFBB7F, 0xF8C7717E, 0x21D7BFAC, 0x96023E36, 0x7A69F4FE, 0x398FF5D7, 0x90FE8A10, 0x08EA0238, 0x34289034, 0xD9B80000,
    0xB6BBFC83, 0x26D82C0C, 0xC6ED6D4B, 0xDFEE3F6F, 0x0BF6301C, 0x6C3B41FD, 0x4F4A033E, 0xB0BFEB2D, 0x7FDCA71F, 0xF8177DFE, 0x1B503801, 0xBC14202F, 0x03600BC0, 0x3E016ACF, 0xB02D125F, 0x9EE705BF, 0xAB581BEE, 0x3902DAFB, 0xC1C9980F, 0xAD9F9C70, 0x03653B5B, 0x9B145F34, 0x7EF80CD0, 0x59329376, 0xDE1D0000,
    0x7833719E, 0xB901C77D, 0x66FAEAC6, 0x3F0CE7EF, 0x88069BF1, 0xDAD1DD06, 0xD6038E0A, 0xC6E2C831, 0xC67D80E3, 0xE3BC16BE, 0x7FC04746, 0x7040AD28, 0x07821CA4, 0xC7314656, 0x94F0E84B, 0x6E2ED1EE, 0x1E67ACF5, 0x9707ED33, 0x2A8BF295, 0x78FB0784, 0x7B8827F5, 0xA838BD33, 0xD6254DBD, 0xFED06B99, 0x1B6F0000,
    0x008A35D6, 0x8206DB3E, 0xED333E1F, 0xC690178E, 0x0DC807C3, 0xE843C851, 0xE64B2931, 0xE6948424, 0xFD033C0E, 0x2856FCE4, 0x862F7B78, 0x1D8CFDA1, 0x210CFA50, 0x895DEE01, 0x5BFF0827, 0xDF7290E0, 0x3E089A25, 0xB819A29E, 0xAB7B147A, 0xBC919F3C, 0xEE8C26F6, 0x7C6B77D7, 0x20051161, 0x44B48B6B, 0x6A9F0000,
    0x471A4E8D, 0xBDE72119, 0xFFFD087C, 0xEF067863, 0x0274CAB6, 0x2DC529FB, 0xFCDA0D9A, 0xF8BE92F5, 0x7410FFF1, 0x6C48E008, 0x7207999D, 0x106B0FC2, 0x2F814126, 0x8E1BA45D, 0xE01F978D, 0x000EC4F8, 0x00F4C3C0, 0x1EC33C05, 0xFDE3FFDD, 0xC77EFAB9, 0x6F7FFB86, 0xFFFD83E2, 0xF7C8B998, 0x21A1C75D, 0x2F950000,
    0xEC8CA6A5, 0x8FAD900D, 0x7FEB98E7, 0xB6C75FEF, 0x62B202F1, 0xF4207E73, 0x94A92E8E, 0xBA63ECC5, 0x48E7E613, 0x922E0C30, 0x1F86C883, 0xF83219EA, 0x83416F02, 0x786EA8BE, 0x5EA1CB9D, 0xFB3CC07B, 0x84F48D68, 0x035B3F18, 0x74A2A887, 0xA1109F10, 0xE34C7C07, 0x54A7AEED, 0x255FC20B, 0x7E1B9BA7, 0xABEF0000,
    0xB43378F1, 0x23375989, 0x1A4EF849, 0x20E54887, 0x9F17EA30, 0xE837ECCC, 0x22721A41, 0x9D2B4512, 0xCC6F492E, 0x92DA193B, 0x971041DC, 0xFD1FFF9F, 0x99D0FAF4, 0x070F4FA0, 0x80E9E038, 0x6EBE1400, 0xB4B04D3E, 0x1B4DC077, 0xD0B83810, 0xA92395BA, 0x3410B5C7, 0x0811CE53, 0xE434545F, 0x58B3D0E4, 0xB7F80000,
    0xCB7EE55C, 0x47DB9F27, 0xDEEE8E35, 0x02B90E18, 0x77B70102, 0x2EF8331F, 0x50C192BD, 0xF7EF8680, 0x935A3FE0, 0x5A725A45, 0x868320FD, 0xC78507CB, 0x88F04630, 0x04658730, 0x46C77A0A, 0x0E7A106B, 0xF6500E56, 0x630160D3, 0x30EC0188, 0x09C5FE04, 0x61DB8188, 0xCFC899C1, 0xCB8B59D6, 0x38085CE4, 0x7A0F0000,
    0xE685DE0E, 0x8BD3B486, 0x001E8416, 0xC803D3D5, 0x400CDE10, 0x23254843, 0x6C1E0A64, 0x26E89EFA, 0x4F1FEF49, 0xF15CAEE7, 0x0C43B9F8, 0x39724F58, 0xE66FE153, 0x8F8F2026, 0x1BE10309, 0xBE081C62, 0x8434888D, 0xBF6C4764, 0xA3D571F2, 0xF4F5F465, 0xD4D3628A, 0x8D268937, 0x90DF7C90, 0xC8D0CDE5, 0x089D0000,
    0xF9E13C7F, 0x82FC157F, 0x17C14C19, 0xF83C9C1B, 0xE278F43F, 0x00C100F0, 0x06041F13, 0xDBC1C219, 0x701F1958, 0x13C8B73B, 0x185432F1, 0x87C02E2C, 0x5EB1D3CE, 0xE5BC993F, 0xF3EBEDAF, 0x6031C275, 0xE8E87718, 0x185772E1, 0x303FEEAC, 0x2BDEFA52, 0x333ACFEB, 0x295EEFD0, 0x00009134, 0xC0008755, 0x59870000,
    0xA36A2096, 0xABFF3D28, 0xFFFFCAE3, 0xB3CE547B, 0xB30037EF, 0xB546FFE6, 0x4011FFE2, 0x544FE4A6, 0x12020B73, 0x50007FEC, 0x0030CEAC, 0x5D80640E, 0x10952117, 0xDC1A2ADC, 0xA13E0684, 0x03C6CA29, 0xF8A28508, 0x0B8D1601, 0xBEDD4378, 0xBBFE8EFA, 0xEAB6E676, 0xF79F39D3, 0x0DFFF3AE, 0x7FFECCE5, 0xDB300000,
    0xB8CC00ED, 0x3BF6139B, 0xB41034E0, 0x2026AD03, 0x050C2052, 0xBE4C425F, 0x480EF3A2, 0xA08E00DA, 0x4B2B3EF4, 0xC2041C7E, 0xF208E3F5, 0xAD8AFF39, 0xF26B93AB, 0xA18FF3EE, 0x8F3584D2, 0x80200CDE, 0x010478D8, 0x7865618B, 0xA0252652, 0xDC41899F, 0x8C25BE7A, 0xC08ABF03, 0x9627BAD1, 0x491BDDC5, 0x3C910000,
    0xACB1C77C, 0xEE948C47, 0x2237A2C2, 0x48FA616F, 0xDFDC5554, 0x0DE1D820, 0xEA1B4DF2, 0x38E2205B, 0xCF308F0B, 0xE2FFE656, 0x3F7B7BF0, 0x3AA5FE1E, 0x00BFF804, 0xAB1F0322, 0x2AF40FA8, 0x0D8EC17F, 0x70ED8731, 0x6E8B9C2B, 0x8441C71E, 0x1D0D63C3, 0xA5041E9F, 0xF6E1FBCC, 0x340FFCC7, 0xFCFEC57B, 0x7B520000,
    0xEE3CA277, 0xC63E3BD9, 0xBBEDD57F, 0xEB163BB1, 0x94775FC1, 0xC196877E, 0xAFF801CA, 0x71088166, 0xCC23E41E, 0x6FF873E7, 0x379FD782, 0x023BDE6A, 0x0010C7C0, 0x0280774C, 0x38097726, 0x8385A778, 0x2F54315E, 0x7D539F51, 0xE3AE7A63, 0x216506F5, 0x4F3158DC, 0x1A7AC4F8, 0x2C00A8DF, 0xC1F37CFD, 0x6AD00000,
    0x8C72BA6F, 0x8FCFED1F, 0xC9F7E29C, 0x775F5C31, 0x7FE5077F, 0xB578937C, 0xE803FF95, 0x129F4001, 0x2B000497, 0x90003A78, 0x00019816, 0xE02175BF, 0x0209D1BD, 0xC4E877CB, 0x030CDE8C, 0x3C541C19, 0xF1FDF66E, 0xB35DEDFE, 0xDBD5C068, 0x84A80E98, 0x42091AB4, 0x49B9C105, 0x3EF7AE07, 0xFFFF8C7B, 0xEE2E0000,
    0x515C22D7, 0x1FFF4ADC, 0xACFBBCBA, 0x81048191, 0x79ED03F5, 0xB288BE43, 0xE01F602F, 0xD367FCA0, 0x702B205E, 0x21A7893A, 0x0E122721, 0x1F77E628, 0x72B067AE, 0xB9C7E14A, 0x8E381E19, 0x31472793, 0x2A9B7106, 0x8FB6BC6E, 0xC3CFC334, 0x4E7F3FF9, 0x81E3FB7D, 0x2CBAACDD, 0x4C1DCDB2, 0xFA6731BB, 0xF9090000,
    0xE115D493, 0x618EE74B, 0x3B079424, 0x20277B1C, 0x0A2CA5E2, 0x00132C42, 0x8E4B8A00, 0xFA583C15, 0xE74E05BF, 0x38B863E6, 0x9D80FC11, 0x1394FC00, 0xF6D74073, 0x85FC58EF, 0x1DFEF6D9, 0x7ACE2489, 0xF276C5AB, 0xCFDF8EE6, 0xBAA1E2F8, 0xDA6EF702, 0xF5B8D4DB, 0x705D9F61, 0x0211E9CE, 0xBA190FBA, 0x41D80000,
    0xAB5EAA23, 0x3EFEE7DA, 0xFEFBC27F, 0xFF47FAC0, 0x3469A77B, 0x15FBFDEF, 0xE77FFFE3, 0x5BFFFAFF, 0xDF7320CA, 0x00003E00, 0x04016001, 0x803B007C, 0x15680FD4, 0x0727D3A2, 0xE3A787DD, 0xB9328BBF, 0xE0D917FF, 0x1E6DF67F, 0x40801F8B, 0x14064D40, 0xC1B508A4, 0x9D2906FF, 0x64CE3499, 0x57F71B7E, 0xFF320000,
    0x4AAC74DC, 0x82B00FE4, 0x44B02EFB, 0x2662D4FE, 0xF9D11FF3, 0xF177BF0E, 0xC7E86DBC, 0x70039B23, 0x00037F78, 0x01AC7E00, 0x8227F02A, 0xF9A5164A, 0x2C7FCA1B, 0x7FFBA45F, 0x3F57FD3B, 0xFDDDF7B5, 0x09E6F240, 0x0E13B408, 0x91FECA31, 0x5D389F88, 0xAF5BF4CA, 0x179A65D1, 0xBF555B08, 0xA20DA597, 0xFE950000,
    0xB9AD509A, 0x25573269, 0x7CB0304E, 0xDC9EA215, 0x096092FB, 0xFC921CFF, 0xE763B7FC, 0xD068FB5E, 0x4E701EE6, 0x4F092752, 0x204E2974, 0xFC2FD2BD, 0xF7881E8C, 0x8473D125, 0x40B07263, 0xBC2FA2AE, 0xC5969BEC, 0x0E48CEA8, 0xE11E750C, 0x65D96107, 0x9DEFF021, 0x36DE18DF, 0x2387FF8C, 0x40D5811C, 0xE42E0000,
    0x14A50186, 0xB9CCF4E5, 0xFFFEA733, 0xB9DE15EA, 0x40FDC408, 0x101BCF44, 0x19012623, 0x9FD410B7, 0xB68295BE, 0x9A0426E7, 0x8B85BB88, 0xEDC5033F, 0x580061CB, 0x550870AF, 0xB68FDCD2, 0xA1EECED5, 0x1EDAF611, 0xF86E809C, 0x4A905FCC, 0x7A9061A1, 0x670605C0, 0x102E61A7, 0x9B280681, 0x7D73DF9F, 0xFFFC0000,
    0xE6AA3681, 0x8A7CA0FC, 0x3E9F91B7, 0xD5FB07A3, 0x5754FC1A, 0x7E7AC3D3, 0xF9C205F0, 0x5FE1D229, 0xFFFB62DF, 0xF451F4FF, 0x1670FF41, 0xA8270019, 0x01E80340, 0x3700E35F, 0x300FFFF2, 0x01ECB535, 0xB778818F, 0xEE83F9F5, 0x5F27F33F, 0xB6AF5E87, 0xD29F6A7E, 0x9A4E540B, 0x321F2073, 0xBA1A3FED, 0x561B0000,
    0x114035BF, 0x9FB8B804, 0x7B7F87A0, 0x6F7F4136, 0xCCF9F3F7, 0xFD0B33FF, 0xF879FE86, 0xD7E40447, 0x2480066E, 0x50000AF3, 0x02033F19, 0x3D14B1A9, 0xA0B1B4B9, 0x4839BB5E, 0xD1DCD2C8, 0x133E9C52, 0xEFEEEA63, 0xF55FC646, 0x6458A6AA, 0x58CC6D15, 0xF082AC1B, 0x20173972, 0x99D1FC9D, 0xFFFC3C1F, 0x9E430000,
    0xE0F23169, 0xD8840864, 0x5DADC463, 0xE03E2C6B, 0x928280DF, 0x8F5F1260, 0x16F56700, 0x4C51600A, 0xD00E8124, 0x02E21A83, 0x8D25470C, 0x4D980747, 0x082DEC5A, 0x3EAFB43E, 0xB3E36FFB, 0xCAD3F3BF, 0xE4E00516, 0x3FFBF18F, 0xEF2EA4A7, 0x3AF8A96F, 0x433B4179, 0x05C3048F, 0x32C0051A, 0x81003894, 0x5C3F0000,
    0x1F04AAFD, 0xA3E3B6E8, 0xEEF36070, 0xF0DD2896, 0x884F84F8, 0x0AF43A8A, 0xAB22F038, 0x7E170E16, 0x46E02824, 0x944D9E06, 0xC2A221CE, 0x7B083789, 0xE184FBD9, 0x1E1DA911, 0x20BF8B44, 0x17C14068, 0x47C40E13, 0x52501907, 0xE07EC05C, 0x462507DC, 0x737D710E, 0x7F34E12E, 0x4EE758BD, 0x1C69FFE0, 0x5FB30000,
    0x44888C36, 0x123D8AF7, 0xFA2F42ED, 0xBAFC4BF4, 0x70F99E8F, 0xFDEB9313, 0xD83C8026, 0x7D878C6B, 0x440DCEA1, 0x4030A566, 0x010A3170, 0x328A1987, 0x1B4FBD8C, 0xF1F9F45F, 0xFC2F805F, 0xB2EC2261, 0x1E19B247, 0x6F89AD26, 0xAC3C98BF, 0xDBE02D73, 0xDBA73FBE, 0x3802E7CB, 0x28D4ADD5, 0x0DD0AC18, 0x55DF0000,
    0xA0F9FDD6, 0xC67BCB92, 0x60FE5704, 0x02042099, 0xCB56540F, 0x8342E09E, 0x04320FEA, 0xE711D6EA, 0x474FED51, 0xB3F47C0E, 0x0613F200, 0x20670004, 0x293DF700, 0x0BFEF8B2, 0xBE6D3E72, 0x5F4797F2, 0x1F857440, 0x93CF0405, 0x39C3F801, 0xEF493306, 0xD3FC5EDF, 0xB23B6C23, 0x6CFEB0B6, 0x201881AA, 0x759A0000,
    0x26E89B11, 0x694FA3E6, 0xFDEEC7E7, 0xBDD5610F, 0xF700A57F, 0x417C0BF8, 0x18D10F6D, 0x10381F3E, 0xBF6DBF64, 0x362EC3AC, 0xA2F8E5C4, 0x97BAAA3A, 0x73FFE756, 0xB467E96D, 0x8CC19210, 0x7E4AE149, 0xC2A0F78C, 0x317A33E5, 0x858F2E32, 0x26C4F0A0, 0x7BCB8C20, 0xA2FC03C8, 0x9A59C5F7, 0x9C3B1B6F, 0xFFCF0000,
    0xBC07D897, 0x57DEC237, 0xBFD636A4, 0xFFEB942F, 0x5E4579FF, 0xC733D990, 0xF277F8DF, 0x813F37FB, 0xBBE1773C, 0x750058B3, 0x8802C141, 0x203A1804, 0x12F8F3FF, 0x6AED3E2D, 0xB2CBB2FD, 0x283E19FC, 0x43F593A4, 0x3D387063, 0xFBE17C5F, 0x4F1A8BCA, 0xF8825681, 0xE005D8D2, 0x0D9750B9, 0xDFFE88BB, 0xF3D10000,
    0xB5857C8F, 0xBB46F847, 0xFBDDB53C, 0xA6F15BBC, 0xD8377A6A, 0x85DFF6E4, 0x0F66DCA2, 0x0EB7E936, 0x0B0D66A6, 0xC021E302, 0x058C3560, 0x501666CD, 0x09EBA9A1, 0x1ACC7BFE, 0xEFE1DFDC, 0x343FDF52, 0x47F4500C, 0x6AB75584, 0xB3F803C1, 0xFA98C010, 0x95934048, 0x46FB4259, 0x8DF4474D, 0x67E7BB67, 0x375F0000,
    0xE265E435, 0x0CFEEFE1, 0xCE3F91D1, 0x87F8CC80, 0x988E8523, 0xE6B830FB, 0xD0061FFF, 0x920FFF9C, 0xA0FBAEE4, 0xA400A6BF, 0x60198A67, 0x402EF5F0, 0xCB00BFC9, 0x3E27C288, 0x87501A89, 0xBE2B0568, 0x92F06A7A, 0xBA8D8C3B, 0x5B6977EC, 0xBFF47EF5, 0xA0533DDC, 0xFEB9EF1F, 0x9CC7CEAB, 0x7FFFCEB7, 0xFF770000,
    0xCE0B0121, 0xA6CA4032, 0x58BF2A59, 0x00322058, 0x617587D2, 0x1810DE67, 0x618DCCFE, 0x8359E84A, 0x2F894CCB, 0x62348C9E, 0x89DB0F9C, 0x15F69FD4, 0x7DAD3FF3, 0xE91BEC6B, 0x82DF43EA, 0x87CE29F0, 0x0776B965, 0x871CF3C0, 0x5C982902, 0xB87D07C1, 0x607E4F6D, 0x3BFFAF15, 0xB6D5FEF6, 0xFE79E8DF, 0x7D810000,
    0xB40EED98, 0x3FEC2242, 0x7BFD49C4, 0x4095A0FF, 0x7CD85000, 0x4B7E100A, 0xF29EFE12, 0x42FFFFCC, 0x5FFFF7D2, 0xBEB77340, 0x4937C406, 0x2368A56C, 0x266C2F6A, 0x51DCC7DC, 0xED549CC8, 0xA835EAEF, 0xB47A835F, 0xA045E230, 0xF300E06B, 0x0F4B85E3, 0x8E765A2E, 0x3C1C856F, 0xDFBD9A4F, 0x7FDB84DA, 0x03040000,
    0x74784396, 0x9E75B001, 0xEEDE347B, 0x1E3F25F6, 0xEC2A24DF, 0x0F293451, 0xE83F5DC7, 0xDD11C43F, 0x8D7D0F99, 0x37445FCA, 0xD7A03CBB, 0x582CD238, 0x69C81EB5, 0x0F807179, 0xF80261AE, 0x90199BEF, 0x02ECB7DC, 0x2018DB37, 0xB8D0FE6E, 0x29EA6AA2, 0xC3C0731A, 0xA40E0668, 0xFBE3FC87, 0xEFFFF012, 0xBBEE0000,
    0x944F5241, 0xFBDFE87D, 0x77EFE6AF, 0x9E55CC7F, 0xB4DC034E, 0x8F8678A5, 0xF02E33BE, 0xC1848624, 0x55E00247, 0x10F0E903, 0x1E0E0147, 0xEF3617C1, 0xEA15B52B, 0x660A59BF, 0x001A36DA, 0x4D45D80D, 0x8EB0D7C4, 0xFA3A366F, 0x01BB9722, 0xDBFFF6F8, 0x8F7F4FFF, 0xB007F379, 0x0835B0E1, 0x9E266B91, 0xB0BD0000,
    0x075FDBC3, 0x0184DE56, 0xB9C1CDF5, 0xA7CB5310, 0x1F526166, 0xBD8C0FD6, 0xE940EE6E, 0xB24F186F, 0x0073CF10, 0x2F024A28, 0xC001F1AE, 0x604711C3, 0x00374882, 0xCBFF895C, 0xDF5EEFC6, 0xC97FFE95, 0x0BDCFBB2, 0xFB9F18D9, 0x703FEE46, 0xF578F42C, 0x60ACB75F, 0x6BB558B2, 0x6985BC66, 0x05292066, 0xF8930000,
    0xE9C14A63, 0xE2356FD7, 0x3FFBE437, 0x3AF0F7A8, 0x682382AF, 0x020498C4, 0x01A31803, 0xC9E6C410, 0x3560A042, 0x8D0C06F3, 0x385B3141, 0xCF9A1BD9, 0xF367C6FE, 0x05197A15, 0xB673051A, 0xD2F001F5, 0x0F3CB3C0, 0xCE5B831B, 0xE92389F1, 0x942482B3, 0xE70C1FCF, 0x82456AD8, 0x0000F434, 0x005C37A3, 0xDD910000,
    0x41A7C622, 0x5174F44B, 0xFFCE9DBF, 0xD74883EA, 0xDA06E701, 0xDB9B3CC2, 0x09A522C1, 0xDE57003E, 0x08C620C3, 0x1124811C, 0x0381A943, 0xECF05DFD, 0x25B6BEA3, 0x3D1DC17F, 0x33F421E2, 0x23A08F3E, 0x4E095F35, 0x23773E6F, 0x92BB292D, 0x883E4225, 0x910012FE, 0x7E2176E2, 0x704E671B, 0xDF7E734D, 0xADBD0000,
    0xC8EDA1AE, 0xAB82D007, 0x39FA1721, 0x47DBF978, 0x47EF2F87, 0xFE21583E, 0xB2558747, 0xD5706846, 0x0F140372, 0xB070C247, 0x1F40D9A1, 0x7FC6821D, 0x726B231E, 0xD8A8E16A, 0x998B46EA, 0x644B65BF, 0x0A261B90, 0x29CFC93A, 0xD5211F82, 0x6E5C377D, 0xE9BFC013, 0xAE54DE69, 0x25DD81F2, 0x47D07267, 0xF41D0000,
    0x6973F9A7, 0x116A0DF6, 0x3265177E, 0xF836E8FB, 0xB072230E, 0x4243CFF0, 0x6A033FAE, 0x32A23BCE, 0x13E3C3F2, 0x0C00E51D, 0x81E8C818, 0x2C4B3BD8, 0x8FA99AE2, 0x4CBF7F36, 0x491FFF74, 0x7E7BE4A3, 0xC45FBF9B, 0x5FF45502, 0x00A7D700, 0x8D3D8880, 0x13B04000, 0xCC943084, 0xF5CDE1CB, 0xFFFCD69B, 0xFFEF0000,
    0xF584243A, 0x480840C8, 0x282616F0, 0x01049B84, 0xA1E08BB4, 0xEE73F49B, 0xE77B9257, 0x597459EE, 0xFB4EA07D, 0xFAC0E0E4, 0x8F3D2FF8, 0x15DE4FC3, 0xF2B0175C, 0xE100FDDF, 0x50778DFC, 0x856767E2, 0x4396BFFF, 0x31165EF7, 0x16570C20, 0xF9FD9F01, 0xFDCF98BC, 0x05F6E64F, 0x600C0653, 0xDD213E80, 0xC91C0000,
    0xDB7B3FBE, 0xCFAEF6D2, 0x195D78C0, 0x10409100, 0xEEF4408C, 0x6EFCBD08, 0x4F04FD46, 0x87E5C2EA, 0xF49C5FE9, 0xC86BA0CE, 0xCCFABFE7, 0x0F0BFF41, 0x8D6BEA55, 0x96EFB540, 0xE0FF5402, 0x40E40920, 0x02193200, 0x74126082, 0x664A4281, 0x8A817677, 0xF217111F, 0xD4F1BF98, 0x0F7FF8B3, 0x47FCA197, 0x1BA00000,
    0xEAEB3369, 0x5ECD5599, 0xFCFFC1DF, 0xE6565C7F, 0x8279B7AF, 0xE6B883EA, 0xD558FF98, 0xDA5C6CAC, 0x4E00B6FB, 0xE2BDEDDB, 0xC25BAFEF, 0x8C62E502, 0x2308284F, 0xC088CA85, 0x619F1F81, 0x07E0DCD2, 0x30BFDF48, 0x0F721DA1, 0xF740E07A, 0x20F9AB8E, 0x637794FF, 0x7EFF2C04, 0x7FF976CB, 0xE90E467B, 0x9D110000,
    0xBD2E2105, 0x96EACDBE, 0xEBFF1675, 0xC03EDC27, 0x6AD3E03F, 0xF669BFDF, 0xC76F7752, 0xDBA983F9, 0xE947D3C8, 0x00B71100, 0x1670900B, 0x8801BFE2, 0x8115BF01, 0x96767705, 0xBE8EDD93, 0xACDD6460, 0x279D4646, 0x2F6D10A4, 0x14AD2B0D, 0xE15D0F41, 0xE63F0B34, 0xB9C59682, 0xFFF33C72, 0xF471B89F, 0xFFD20000,
    0xC936A297, 0x9E77FE2C, 0x5FFFB817, 0xA469CF7E, 0xF0FF99DF, 0xADA85BA0, 0x3A436A57, 0xDFA68E69, 0x3C510CD1, 0xA27C7825, 0x7F88A3AF, 0xE7981C7E, 0x19A9A704, 0xD63BE413, 0x40597AD1, 0x00175730, 0x007CFF68, 0x06251E00, 0xEA79BCD4, 0x31E2E924, 0x4B1BE095, 0xFAFECF59, 0xF7D2F52D, 0x6727A2DC, 0x09430000,
    0x1B72A30E, 0xB89E2AA7, 0x3A35ED6D, 0xBF86B7FB, 0xFF6FFBFE, 0xF9368C5D, 0xF76FFFCC, 0xEABCF86E, 0x90004BC0, 0x00627300, 0x18305002, 0x80730363, 0x6CE85F23, 0xC1FFE1FF, 0x4FFC7C7F, 0x7F6897A1, 0x9A0379E1, 0xEB2F34DD, 0xC8318BE1, 0x05AB40EC, 0xD5FEF7E2, 0x5D06E0B6, 0x5FEC98B1, 0x3207D522, 0xFAFD0000,
    0x8278FF2F, 0xF53F7B11, 0xFBFF31AE, 0x9E7B1D85, 0xF825803E, 0x3182E1F7, 0xDAA17791, 0x68CB1A02, 0x90EAB0F4, 0xDD74957D, 0x22643F4E, 0x7786FA64, 0x7013FCF6, 0x0545DA2F, 0x1CF8C4F0, 0xCF004EE8, 0xF9017C9F, 0x827762EB, 0x0C764304, 0xDD457DA2, 0x3B4FF852, 0x6747BA75, 0x2CFEC792, 0x57EE0F57, 0x6F900000,
    0xB05F39AA, 0x7DEF3F77, 0x32FFFC73, 0x451A3BA3, 0x5811928D, 0x83D30C4B, 0x7FA3B166, 0x9FF64CE5, 0xAB70FA17, 0xF661930A, 0x11FFBC01, 0x50DBA026, 0x2FC10C24, 0x7C61E09F, 0xE00EC7FC, 0x09EB3F68, 0x3D69C2A9, 0xFC77693F, 0xFC5793F5, 0xFD27947A, 0xDCB87FB9, 0x429BA7C9, 0x38694B01, 0xE88A10F3, 0xBCB40000,
    0x864514E7, 0xFC56359F, 0xEFEE7B7B, 0x7EA026BF, 0x31466572, 0x1A4440E4, 0x0A0C7248, 0x5E4782C9, 0xF1F105DD, 0xDE0A1ECB, 0xE284F6FC, 0x7014760B, 0xC05945FF, 0x172C0DF8, 0x6BFABC8F, 0x1BFEAB39, 0xFBE70364, 0x6C0CD143, 0xE1A2907E, 0x22B34B80, 0x372BB41A, 0xD98F5CD6, 0xD6F0CE82, 0xB5D65044, 0x0A950000,
    0x3DDBDB2E, 0x8FA125D2, 0x941EBB47, 0x81E03078, 0x7F77C703, 0xA88F7467, 0x68360FF5, 0x4158FF72, 0xDF0E9CF1, 0xB0D44E0F, 0x085AD069, 0x84E6FF1E, 0x0329E35D, 0x311663C1, 0x80829484, 0x5651CC6E, 0xEF393483, 0xD7C382D9, 0x120983C5, 0x9287A424, 0x1CE3B20F, 0x351C0019, 0x48D953B3, 0x06631862, 0x5E9C0000,
    0xD791D08C, 0xD2163257, 0xD3A059E6, 0x7814B40A, 0xEC9FC68C, 0x575E71F5, 0x53F50E1F, 0xDAE16163, 0x870C636D, 0x01CAEE04, 0x3024F00E, 0xEA670279, 0x6E25FFD5, 0xE3B7F7FB, 0x599F7FF6, 0xE6EFFDBE, 0x8A7E8A38, 0x686AAB07, 0x49880BA8, 0x16DC1B00, 0x0595C833, 0xB84F21BD, 0xB504B081, 0xF7804BEA, 0xDC3C0000,
    0xABFF6634, 0x6F1FE13B, 0xCD717EF3, 0x068D07A9, 0x36E1F3E2, 0x0DEE3552, 0xE2F92F7F, 0x76FD32E3, 0xD380AE19, 0xC90FFD4F, 0xBF7EA09F, 0x40767FF8, 0xB738FF63, 0x1401FC31, 0x4008D482, 0x80140F7E, 0x020C61FA, 0x98853FE9, 0x0196A962, 0x0FBFEA04, 0xABD9A334, 0xBFA605B8, 0xCB1C5B2F, 0x63B5D90C, 0xDFBF0000,
    0xB5E329AE, 0x83CD055F, 0x6BAD6FA9, 0xBA9897FF, 0xF0275F1A, 0xA76000F3, 0x26405F33, 0x604A3B3C, 0xFB1F82B2, 0xC1EB9800, 0x3AECA1EC, 0x47ACB724, 0xF876011D, 0x5CCD6573, 0x24464A71, 0x280BF223, 0x40D0B604, 0xF9B7E3EF, 0xE140BF75, 0x2C787FA8, 0xEFBDFFD5, 0xEFCACF3F, 0x00099B30, 0x193013A9, 0x94130000,
    0xD923E2F4, 0x20F2B945, 0x8B43B621, 0xE5DA021C, 0x030AC1D8, 0x7584361B, 0xFC20626C, 0x711402CB, 0x01E1D368, 0x1C13A428, 0xC202417C, 0xB018179E, 0xC003FBF8, 0x13BEEF33, 0x51F5FC12, 0xCBBF30DE, 0xA3446A80, 0x3940F601, 0xD0D7A017, 0x2E80D84E, 0xE0C1265D, 0xF3E7B97E, 0x092BB497, 0xF36167C0, 0x1FAA0000,
    0xFAF649B3, 0x9D8BA580, 0xFFCFBD2F, 0x53BB530A, 0xB11D168F, 0xFD619200, 0xFE807A13, 0x8399101C, 0xF8002C8E, 0xC214A477, 0x13577D38, 0x40DB19BE, 0x0E97B308, 0x9B357985, 0xD0D6ADF5, 0x00E2F9D0, 0xEEF27C9A, 0xBB78A5E7, 0x9F6B1FFF, 0xB64D6C78, 0x46DD3860, 0x2C70741B, 0x23EF4544, 0x598C2215, 0xBDAE0000,
    0x3AE9EE4F, 0xEE20198C, 0x4C402D00, 0x00001808, 0x247F0200, 0x20D65F1E, 0x61096E37, 0x309BE199, 0x495F8733, 0x1FEAFC8D, 0x7FF669C1, 0x327B168A, 0x0002C079, 0x6D6D0F18, 0x57FC6018, 0x7FE16A4B, 0xF5282700, 0xD224E000, 0xEBF86884, 0xCCD9A10B, 0xE7DD2E3D, 0xB4655351, 0x1C0BF2AE, 0x5AFF422F, 0x016B0000,
    0xBB72ECBF, 0x9C3B83CC, 0x117E4F41, 0x01599D12, 0xFBE125B5, 0x0128BC89, 0x87507359, 0xECC22461, 0x7516FC31, 0xA82A0D4E, 0x091BC0C5, 0xBF523BFE, 0xABA7FE20, 0x7E0FE833, 0xE03F14A6, 0x03F05362, 0x01FE2D40, 0x1B663101, 0xBC030C8D, 0xD11E9526, 0x55FFFAB3, 0xB3ABFE02, 0xE6C7C7DD, 0x3AA925F9, 0xDC280000,
    0xD5C6D637, 0x3FCF50A1, 0xFFFEAFFC, 0xFFAF65F4, 0xFF5EFA89, 0xF07F18BA, 0x41F10F5A, 0xA499BFD6, 0xFF4F4C57, 0xF059572E, 0x0202F1C0, 0x40D23C10, 0x2EEF0381, 0xF17C1039, 0x10818CCB, 0xF013EC75, 0x40176369, 0x01FF797A, 0xB9B5FED4, 0x77AFF67E, 0x41E43FC0, 0x6BEA0480, 0xB4DFFDF6, 0xFC2ADFED, 0x47930000,
    0x042CB035, 0x7B810DD8, 0xD5708600, 0x01262B36, 0x204A9880, 0xA99120FA, 0xC328FB30, 0x25C7BC05, 0x70685C4F, 0xE7A32AF0, 0x4A3B3B84, 0xAD83FF14, 0xE2DFEFE6, 0x047FCDA3, 0x84ACC288, 0x1FE2B046, 0x56192808, 0xC4D96784, 0x05FF03A1, 0x3C41AE4B, 0xF50DCE3F, 0x04A443C9, 0x0DE3D74E, 0x7FFF9777, 0xF5FD0000,
    0xD9D80469, 0xF413AFF8, 0x29DFF09B, 0x2FBBC617, 0x7F239B5D, 0x6E314241, 0x8E08F65D, 0xFA8D13F8, 0x132C8E50, 0x3B7A3E33, 0xFBD3A446, 0xC50C989B, 0x29D98E41, 0x40D265AC, 0x5E431982, 0x7A91480D, 0xE198506E, 0x0D46FA8C, 0xF45331D0, 0x07863FC3, 0xA294D491, 0x093C099E, 0x2C0DF4B3, 0x0355B735, 0x5E2D0000,
    0x19606FD0, 0x5D5EDBC3, 0xBEBF577F, 0xC97BDFDC, 0x093D7B90, 0x1782F681, 0x3AB0FC45, 0x9083906A, 0x07B6875D, 0xBEAE01D0, 0x63C438C3, 0x7A2954DF, 0xE7DC076F, 0x080D6FE1, 0x3865A13B, 0x2F44A3D4, 0x67D2F9C6, 0x69D9197B, 0x551A0064, 0x351C5F09, 0x350076E6, 0xEE1810F9, 0xF0EC1579, 0x36BA3218, 0xFF0D0000,
    0x9B887322, 0x7FD4A585, 0xFBE7CCDE, 0x77FF2A32, 0x39F4ABAF, 0xFFC37FFF, 0xFD0DF68E, 0x5814006E, 0x1C0004FA, 0x80002B40, 0x0800D20F, 0xFCAA00BF, 0x7D8D52FE, 0xE5665FBA, 0xBE839DD5, 0x607EEEB2, 0x657D4699, 0xF14A96FB, 0xC5BBA34F, 0x74990B91, 0xA1DB90D2, 0x27520837, 0x5F89E14F, 0xAF75ACEF, 0xFD830000,
    0x19DD4BA0, 0xA7523587, 0xBEEEB027, 0x87FFA992, 0x2099BB8A, 0x3FF6CBA0, 0xED7EE807, 0xC4240061, 0xD583A697, 0x67FDF9E6, 0xDE5B0A87, 0x4A526278, 0xB054710E, 0xE5D1CB9F, 0x5E01DFC3, 0xC80BB2B7, 0x80961EFC, 0xD420D1F6, 0x1EC9B7E5, 0x19316658, 0xB75C966B, 0x3750FFCB, 0x7B33DCCD, 0x7E9D6861, 0xCE5F0000,
    0x3DAAED43, 0x4687008E, 0x7FEB2CD4, 0xF1D5648C, 0xB25FE848, 0x14D3C4C6, 0xB23E2864, 0xE6324887, 0xCAFA0B74, 0x8FEC1E01, 0xF7F870BF, 0x2E531BFE, 0xF4E1FDAB, 0xFF13FEFB, 0x4FB7FCFF, 0xC3BFFDEE, 0x87FCEDC8, 0x7A7FF302, 0x01678188, 0x03602400, 0x4407A00A, 0x08D44C95, 0x47F98369, 0xD70F87E2, 0x5A7B0000,
    0xC33FEE72, 0x3DFA712D, 0xFFEF5AF7, 0xE25FE02E, 0xEB05AFFD, 0x0FB587EA, 0x4FDB0FA8, 0xD361BF87, 0x28079746, 0x007F0D04, 0x41F5E020, 0x0B3FEE21, 0xD171D77E, 0xF87DD3E2, 0x92456A10, 0x384E4545, 0xE9E2683F, 0x34972D32, 0xDCDDFFC1, 0x59747FD7, 0x5634DCA1, 0xD7FF2352, 0xFF853929, 0xFBE8ADDF, 0xF7500000,
    0xD2674FD5, 0xB84F2082, 0x4EEBFDBE, 0xF30ACBFF, 0xCD3C7F9E, 0x12B501E1, 0x63E14F6F, 0x180FFBE9, 0x090BBCD1, 0x5A3F9028, 0x01B252A0, 0x3D003EE3, 0x82810780, 0xA972700B, 0xF9CF44DD, 0x98E005E7, 0x30EEF397, 0x1F80BE25, 0xF48FE077, 0xF5F62F7D, 0x91EFDE70, 0xADFF8AE2, 0x3E80C7F0, 0x30607B7C, 0xB3160000,
    0x8770FADE, 0x27F3D85F, 0xE634DB50, 0x0001F281, 0xD143F408, 0x00F582AA, 0x47D0F471, 0xAC0FFEB3, 0x5E97EEBC, 0x83BF58B9, 0xEAFA9397, 0x8F05F6B0, 0x729DC207, 0x98AFB060, 0x06E20CC9, 0x1DC05861, 0x9527020B, 0x207F4350, 0x87C411E2, 0x7713220D, 0xC6EFC0B9, 0xC0E70075, 0x8E35FC2D, 0x3FFD49D6, 0x3CE40000,
    0xFC01FA54, 0xA3CFBFDE, 0xFAFD3AF7, 0x5B87CEDE, 0x600FB62E, 0x014BE780, 0x386B904E, 0x2E342408, 0xDA2026CA, 0x8057ACFB, 0xEFBF4D6E, 0xFFE46679, 0xD98FB1E3, 0xCC0C1D49, 0x70BC19C8, 0x13214D6E, 0x04485CCD, 0xB017B10F, 0xD2CF30E4, 0x4C717832, 0x9B9F067E, 0xBBB0E78E, 0xFFFFFE97, 0xFFFE947F, 0xB2B10000,
    0xB3561E52, 0x7BBE18BD, 0xEFEBB131, 0x8F3987CD, 0x00387E30, 0x0E406140, 0x8968E104, 0x82074415, 0x2CC7C167, 0xDC464617, 0x0FE50FF0, 0xF63F8C1C, 0x55D582FF, 0x5FFD3FC3, 0xC763EE62, 0xA21B66D9, 0xF3C76059, 0x34407906, 0xF832806A, 0x0E28404D, 0x9514505B, 0xD5023CD9, 0x85F1C1CC, 0xFE7C151F, 0xFFA70000,
    0x177C2088, 0xC1A57F8C, 0x547F629B, 0x390258E0, 0xBF4CB00F, 0x433FE8FD, 0x35721FBE, 0x79D0E723, 0xB61DE2FF, 0xE1EE5E60, 0x3B51F5A3, 0xC5D39056, 0x86E5C7F6, 0x56814BE2, 0x76CF7E40, 0x515B41C5, 0x05300F26, 0x04027A07, 0x18185D28, 0x621AD686, 0x2EE83984, 0x7D13144C, 0xE0058F3D, 0xA040DAB6, 0x9E070000,
    0x23C7FC76, 0x12C028D9, 0xFF7FC370, 0x5BCDCC84, 0x6820F900, 0x037FE828, 0x3F44B00F, 0xDCBA245D, 0x03E0D315, 0x463256ED, 0xEDD909A1, 0x6EEBFB3E, 0x5ED665FF, 0x7BF177FF, 0x3B43D6FB, 0x80B7E70C, 0x07BDC0F1, 0x2913681A, 0x00AC6129, 0x13890800, 0xC1525405, 0x41C6B016, 0xB3BE00A8, 0x777B27C2, 0x671C0000,
    0x019E577E, 0xFECBF6A7, 0xA17784DD, 0x768C1E07, 0x351FEF1E, 0x0A8F2086, 0x7DF18011, 0xDC8005D4, 0xC1C07BD2, 0xFFCFE6F7, 0xFF1B7BFF, 0xFC77FFAB, 0x91E5695F, 0xF837C3F1, 0xF4452E8B, 0x614D51DA, 0xDDB6577F, 0xFE5C057E, 0x803F1DBC, 0x30C04BB2, 0x8A134041, 0xA4068125, 0xF1507DC2, 0x10550551, 0xE6ED0000,
    0x18014FEC, 0xD8010CA0, 0x4F28FF99, 0xF624797D, 0x3633358B, 0x0F328CF4, 0x1585D9C0, 0x995BB1A9, 0x78B5207C, 0x82621782, 0x6ED6786E, 0xC4C210A4, 0x8FE7FB11, 0xC05784FB, 0x6D7BCDB7, 0x2F2BF6F5, 0xE2DF15EC, 0x6B7FFAC7, 0x8E17BC34, 0x61FBF413, 0x6B7E4801, 0x4F500308, 0x080015E8, 0x6001CEF1, 0x770D0000,
    0xE44D3C73, 0x3FB889EB, 0xF4C434E7, 0x77BD477B, 0xDFDDBFFF, 0x7FD4CBFB, 0x64809FF6, 0xDE97FB14, 0x802FB250, 0x00BA4222, 0x47E282A2, 0x3D32A213, 0xA3B30378, 0xDCF81B4B, 0x7DECB273, 0x6784855D, 0xB8C06806, 0x6D0DC643, 0xC8EB806D, 0x70B12CB8, 0xE131CC3C, 0x3CDBFFA4, 0xFF6CE9FD, 0xFF7FD91D, 0xB7E00000,
    0x15E0A8F0, 0x080F05ED, 0x32C8B055, 0xBD59FF4A, 0xCAA09C64, 0x18DA85E3, 0x2FF0C427, 0x760C16BF, 0x8281C1FA, 0x36460A78, 0x08A1C144, 0xD796B20C, 0x7709E447, 0x41BDE875, 0xFCB8AC9D, 0x0D5DA4D3, 0x794E1F0B, 0x15EAB0DD, 0xB0E306F0, 0x39A0EFAA, 0x9203C48A, 0x60659391, 0xB919CEFD, 0x7F54CD1D, 0xF79B0000,
    0x0950C5AA, 0x9AF29AD4, 0x7BD5AF7F, 0xF907ABDD, 0xE136A8FB, 0x1E5A36EA, 0xDD660F73, 0x2E93C076, 0xF1386FF4, 0x4BC0D600, 0xF3A239B9, 0x50745F44, 0x2EA0C24F, 0x6C2C083F, 0x08281FBF, 0x0814CED0, 0x2773F981, 0xF1FEA2EE, 0xA3FB9DD7, 0x4F60FE5B, 0xF26F885F, 0x1FF9F7F4, 0xFD99F8AB, 0xB7DB9D9C, 0xDF510000,
    0x9C4C3E66, 0x3E7CB655, 0x219BC3C2, 0xE0F2B85F, 0x17E538B5, 0x0916AE53, 0xC041E114, 0x371E03E3, 0xBCE27E03, 0x0E1D7E05, 0xE5C9038D, 0x9F886DCD, 0x32B01262, 0x57A5B1B9, 0x6FBC01AF, 0x147B1BE4, 0x8DC37FF8, 0xAE196FF9, 0xA1B2C5C5, 0x42CB6960, 0x6E06FC06, 0x501E9E70, 0x8FF1FFA0, 0xB800A3A5, 0x6FD80000,
    0x0FE9A556, 0xFF63F882, 0x0BE87AC0, 0x1F11F401, 0xFB477C0F, 0xA0D5E0DD, 0x7D4607C4, 0xD870F83E, 0xAE8F81F4, 0x21F06346, 0x0E98F1E0, 0xE2E59934, 0x66E72B7F, 0xFB547FEB, 0x3A0B5596, 0x7B504CC4, 0x02F75D3D, 0x427D162F, 0xDFE79AD4, 0x9B9EAD7F, 0xFB3352CA, 0xCB87614D, 0xC98404C5, 0x0B80BBEC, 0x7EC00000,
    0x6C6DB7FC, 0xF8D738CF, 0xBEFFEC78, 0xFBF88B4E, 0xFB5EA396, 0xD07C8C2F, 0x1CD01A01, 0x7CA4A0BD, 0xF4C18EC6, 0x7CA9D6D2, 0xE7F9DDF4, 0x5FEFFF42, 0x7C232003, 0x833E105D, 0x2FC01700, 0x8C242801, 0xC05530A8, 0xC3090BC9, 0x443E4F33, 0x2510EA20, 0x242B5515, 0xCDB99211, 0x0EF8EF51, 0xDEFF977F, 0xE2430000,
    0xF3D7133C, 0xDA539896, 0x39F78A92, 0x8E7FF9E1, 0xF5293F1C, 0x8564B1CD, 0x1E8C1C3A, 0x9FD3B796, 0xDE1889EF, 0xE09797FF, 0x10B9F4F3, 0xAEAD1E14, 0x105FC306, 0xE75C3218, 0x47C31F67, 0x3833BD9B, 0x87AED558, 0x6CE8BB2E, 0x6B77F9DA, 0x30EAA676, 0x21E4B644, 0x44372C7B, 0x394EDE5D, 0x607869A1, 0xFFDC0000,
    0x11BAD41C, 0x0ADFFEC3, 0xFFBBE03B, 0x13123FD4, 0x2101F6A3, 0x251DC811, 0x8BDF12C3, 0xCDFC279E, 0xCC26D3F4, 0xA8699415, 0x8EA89010, 0x37DF7C12, 0xBF33E294, 0x6D203B9F, 0x9E07DF5F, 0x007F2C04, 0x0FD9DE01, 0xFF5F123F, 0x1CD58275, 0x51E83603, 0xEA3718B4, 0x44BFA2CE, 0x8B780DD4, 0x1AE46F4E, 0x4E9F0000,
    0x4E8DC4D5, 0x01A05E9C, 0xC076ADC0, 0x25E13018, 0x9FC78A8C, 0xBD70191D, 0x6A270FA4, 0x347169C2, 0xBF98DDE8, 0xE088D69F, 0x8C58D1F8, 0xD9CA13AB, 0xB1C130EB, 0x5BCAAE49, 0xC6D0920C, 0xCE5887B3, 0x833024A0, 0xE502058E, 0x487446E5, 0x1B8096E0, 0xEE31EE91, 0x601C4627, 0x3274F216, 0x061D8F85, 0x0EE60000,
    0x9BDF0FC8, 0xD5ED9938, 0xBFEC6ED7, 0xFFD94544, 0xF2390037, 0xD26BBD9F, 0x49B6F3F7, 0x57FB5EE5, 0x9473B7D8, 0x057FFC00, 0x60BF3014, 0x91EE0540, 0xDE54EE0F, 0xA2F8D01C, 0x9DE3F7FC, 0xF81DF7AE, 0xE0F23AD8, 0x4AB35D9C, 0x1D27B592, 0x776FC0E5, 0x9B8AEF07, 0xD67BD852, 0x7A71BD10, 0x29898F3B, 0xFE480000,
    0x5D4B4F4E, 0xFF2853F9, 0x9DFCDE51, 0xE50A60D6, 0x9EDCFE05, 0xBDE77C3B, 0x6005871F, 0x11D8B0C8, 0x5FC62330, 0xFC004CED, 0x800302B0, 0x4F6C7364, 0xF41BED97, 0x879FD439, 0xB46401CE, 0x00A45918, 0x0097C980, 0x3A78F980, 0x6797ED73, 0xFB7D688A, 0x8FDDFD7C, 0xBBB08F38, 0x33E0BA00, 0x0840E591, 0x40380000,
    0xDF4A468A, 0xAF7F6FA8, 0xBFFE287C, 0x7C079C00, 0x0F8DC5F4, 0xEFA4252F, 0xCA614BB6, 0xB439FDFC, 0xC3BE9CF9, 0x74DADE17, 0x8127783C, 0x107F27F3, 0x79A32507, 0xBA0B60C0, 0x22A25508, 0x47733AD7, 0x05D02EE0, 0xE795CCD3, 0x5A2F0BC0, 0x07003620, 0x000BF458, 0x7424C09A, 0xB195A0B2, 0x5EFF8D96, 0x2E880000,
    0x68144644, 0xF7B70105, 0xD6FF735B, 0x8FFFCC01, 0x7BD4B037, 0x0AA23F51, 0xE129EC04, 0x11D8F2DC, 0xDF1F2CF9, 0xC7F8862C, 0xF3ECD310, 0x850C7CE0, 0xC5D9E074, 0x0D1A9112, 0xF6E5B01C, 0x17F40120, 0x3EE02F80, 0x0741B001, 0x865FFC20, 0xE2F580EA, 0x1F39AA25, 0x5F61CB0F, 0xFFF3A56F, 0xBFED1F98, 0x316B0000,
    0xB2597D9B, 0x12DABCAE, 0x5EEB8EEB, 0x7C504663, 0xFAFC3287, 0xADD840F2, 0x57F8E79A, 0xB0547E35, 0xDF87C1B6, 0x807A07F2, 0x0FA0A50A, 0xF2001268, 0x47047A6A, 0xA98F7232, 0x79E45223, 0xC5212979, 0x07A0E1D2, 0x5F80996E, 0xFCF3A947, 0xB5FBF346, 0x77707833, 0x97408CBA, 0x28BD05E9, 0x0F80DA5E, 0xFE9E0000,
    0xE306FB4D, 0x91E6D6C1, 0xD6F5067F, 0x43BBA365, 0x6A59A93F, 0x4923E1E7, 0x73EFBE27, 0x77D3CA86, 0xAE38B878, 0xC7C35602, 0xF8E1E289, 0x07967F8B, 0x2895BED6, 0x9A3B1578, 0xAFBBC52F, 0xE179DDE7, 0xC688F75C, 0xF04DBA8B, 0x9CFC46F8, 0xE3B99E12, 0x2403F883, 0x2D0F0334, 0x0260C45B, 0x6727D462, 0x9FED0000,
    0x0673C544, 0xBDFE185F, 0xEED8EF7F, 0xD8B9F73E, 0x00FFF2C0, 0x059C1200, 0x95BF7C05, 0x0F6FC00F, 0xB27C0114, 0xC78427F0, 0x6A90540A, 0x38ADA518, 0x9E54161D, 0x7227E2F8, 0x23C03DB7, 0x02237FE0, 0x16BEC404, 0xA4A7F12F, 0x20C301D4, 0x4F343123, 0xB506D416, 0xA7A42826, 0x1DFA4C4D, 0xBF67728B, 0xF6E90000,
    0xD38278C4, 0xA653A067, 0x81FE2AC1, 0x04F37E78, 0x5D23CBC7, 0xC27F8C29, 0x43118EED, 0x3CF23592, 0xE3CD023A, 0xB4775731, 0xE873B79E, 0xEF937AF1, 0xAEFB8FD0, 0x2C3F7CD1, 0x334F99DA, 0x66AC402C, 0x57107082, 0x3E239D13, 0x8231C79C, 0x388E37C0, 0x8F5F7657, 0x837D878C, 0x61A0D748, 0x808DA365, 0x9DF90000,
    0xFC2E2550, 0x9A552C76, 0xED5FD579, 0x87E8FCBE, 0x88C963EA, 0x0D7E56A0, 0x7D123F41, 0x1403C027, 0x41B8A974, 0x87846E17, 0xF64063FC, 0xA8037FAE, 0x6E17A1AD, 0x38BD9DD0, 0xA9B1A7BA, 0x7F3D28E3, 0x024BA200, 0x7B9BB087, 0x9587487C, 0x40564D09, 0x0E05E40B, 0xF5FE8AE9, 0x7FE10C1B, 0xD9F50BC8, 0x3FCB0000,
    0xAC9549D3, 0xE9FFC7E6, 0xE8ABDCBF, 0x74DB3B72, 0x742F20B9, 0x9FA71013, 0x7CCC164C, 0x6EAAE03D, 0xE809AE84, 0x085FA744, 0xC19F80FF, 0xEAF0ACF1, 0x1F972527, 0xE50B0CE5, 0xF9257EEF, 0x371EB9B7, 0x01B3ABF4, 0xB1188C6D, 0x4603BBE4, 0x46DBF818, 0xF6AC9819, 0xA807E1A9, 0x00215A50, 0x0017B165, 0xFF5B0000,
    0x87202551, 0x8B5FB882, 0x3EFBE97F, 0xF4FAB685, 0xCC21D3C7, 0xC61D3B7D, 0xCC339A6D, 0x2067CAF9, 0x2E739EED, 0x5C2FB29B, 0x34DE9145, 0xE35850FF, 0x35F44180, 0xFE1EE1C0, 0x85EE380D, 0x4E0BC3C7, 0x6054427C, 0x1CBA64A3, 0x43324F60, 0xB3B37A51, 0xFA139979, 0x62FE35E0, 0x3FFE6733, 0xFFCF3EB1, 0xB5B80000,
    0x5BBBEA07, 0xC9485DC2, 0xF881D30D, 0xC511CB7F, 0x6CE4233B, 0xD6703383, 0xF604782F, 0x50871DE7, 0x0068BC31, 0xC02E0FA8, 0x33E561BF, 0x3AFA0DE6, 0x8F917B43, 0x7447F83E, 0xDBE1CF70, 0x1DBFFA8F, 0xB8F7DCFD, 0x1ECFE5A0, 0x9EE7FDC9, 0xF6BFBE5C, 0x2F988114, 0x21601054, 0x23020513, 0xAC01478C, 0xFC3A0000,
    0xD5752013, 0xFDF59DAD, 0xA0ADDDB8, 0x05FDFA1F, 0xB3FC3FE6, 0xFD80DAF6, 0xE82FA6F6, 0x42DA894C, 0x3D4A2087, 0xBE00A0F7, 0xEB8F643C, 0xEC18A8D6, 0xA54002DB, 0x73006C87, 0x502A9750, 0x86F27E50, 0x022FE8B3, 0x650F6DED, 0x00EBFB7B, 0x3FDBF1BF, 0xC3FF897E, 0x411AE747, 0xB5FFF538, 0xA8838CBD, 0x28910000,
    0x70EAE53F, 0x1635F867, 0x7DFEA7FE, 0xFDFE8FFF, 0xED6F65EA, 0x3E24FB74, 0x7A1FEF91, 0xC3E6266E, 0x7DC00EB5, 0xEF007DD5, 0xFA00FE07, 0x3C7351D7, 0xFD70AF7F, 0xE40029B6, 0x1007C3F9, 0x0030C4F8, 0x03B753A4, 0x1B8E6DFB, 0xC5A1AFD7, 0xC29FFADC, 0x2DAFB6A2, 0xF5D1202F, 0x5BEFA542, 0xFFF75CD8, 0xDC710000,
    0xCA97D24F, 0x4A80FAB2, 0x20BA4501, 0x21DBC821, 0x65856042, 0x4C1F8030, 0x6A75667A, 0xB870A598, 0xEA8CDD66, 0x59FE7673, 0xEF6276F8, 0xFA2DEF07, 0xE73760EB, 0xD32BC7FF, 0xC738FD08, 0xD40EAACB, 0x41D663C0, 0x3F479801, 0xB0AED078, 0xDB137746, 0xB5C2FF4F, 0xCCC7FE3E, 0x0473CA80, 0x9A742200, 0x17FC0000,
    0xE09F205D, 0xBDD8FFF2, 0xC2AF23FF, 0x8AF4981F, 0xFFD60FCB, 0xE7A0F5E8, 0xF50A383D, 0x31AE0764, 0x23C194D6, 0xBD37DC73, 0x7E124F37, 0x5000C03E, 0x12910DC0, 0x393D600C, 0xC43899F5, 0x0C804620, 0x46BE88DE, 0x64871A25, 0x5BB82B75, 0xF5F5D2FB, 0xFD5FDBFF, 0x32503BA7, 0x035C4129, 0x3F8DB5F3, 0x3DD50000,
    0xBA4750E2, 0xD3266C12, 0xFD25FEFF, 0xE10423FF, 0x9FF9EFFE, 0xBEEF7FFF, 0xF01DFFC8, 0x642BB81D, 0xF800A1BA, 0x800245C4, 0x0468F081, 0xBE4B0086, 0x70909E19, 0xF38D1DFF, 0x102994F0, 0x00360798, 0x04D44064, 0xA80CF57F, 0xAE4DBAAC, 0x1F73FAA3, 0x96A71698, 0x5FD47F36, 0xEDD4E7FF, 0x77FCC8DF, 0xF13F0000,
    0xF25A578D, 0xCEB099BB, 0xBFDF68FF, 0xDD787F37, 0x92B67830, 0x3FFE40B8, 0x7790FC4E, 0xBC184C12, 0x822A00B8, 0xF8FC151A, 0x730025EA, 0x915412FD, 0x23811FC0, 0x3851F603, 0x70D225FF, 0x0C385574, 0x354748EE, 0x0CFE9D50, 0x47E701A6, 0x823941DE, 0xC4F20E12, 0xFB356D6B, 0x44FC95ED, 0x94D1E69D, 0x16590000,
    0xB731FD79, 0x79F3C721, 0xE7DF34BC, 0x6622A887, 0xF33FC07A, 0x5B2B0770, 0x4700F2F5, 0xC71E04C3, 0x33614560, 0xC5141E4E, 0x28D1E1DE, 0xAC984E9B, 0xC2ADF980, 0x0F1F08D0, 0x20FD1B89, 0xE6727977, 0xC62C7F7A, 0xD9187D06, 0x60E474E2, 0xCF2A0FDC, 0x82C57C0E, 0x640DD542, 0x92DE8EB7, 0x22FC555A, 0xB7AE0000,
    0x5AFF3FA4, 0x38FE68DB, 0xD278B2E5, 0xFFD438FE, 0xE854FE2F, 0x80EAB91F, 0xE40F4F77, 0x445E9FE8, 0x80BFFDD6, 0x25B87ECC, 0x92021001, 0x407E807F, 0x01EA1BFF, 0xE7778038, 0xE805E806, 0xEC7F7FF7, 0x87B183F9, 0x1609B5E0, 0xB8E2ED4D, 0xA64003C0, 0x3ED16531, 0xE80F00B1, 0x1FFB9567, 0xB7F219BB, 0x0B680000,
    0x3E0EF655, 0x0528C9E8, 0x017D47C0, 0x9C229289, 0x4BCFDCBD, 0x2E9DF1D9, 0x39B80F2C, 0x9EE0EDC9, 0xD013471F, 0x38FE4BA9, 0x87A2B9A0, 0xFC1F3D0E, 0x80F9A0FA, 0x632B1FA1, 0x5131D4E6, 0xAC1F574B, 0x51BA1484, 0x7F9B9AE2, 0x227240DC, 0x1D6295B1, 0xAC5210F2, 0x99BA7B58, 0xD53978E6, 0xE3E143E5, 0x229D0000,
    0xB6BCF464, 0xC0B62902, 0x82175ACF, 0x38055078, 0xAAF1C7EA, 0x04B3C21F, 0xF4EB8FC5, 0x5E53EBAD, 0x20785CB2, 0x2B01FD7E, 0x01F2D994, 0x6FF98FC3, 0xB8D8F7F6, 0x710E726E, 0xBE3EE141, 0xD6CABBBB, 0x385A5B72, 0xE6FF164B, 0x3606EE6F, 0xEDEF504D, 0xB24F20FC, 0x64281FC9, 0x74A76FCC, 0xCEECAECB, 0x76C60000,
    0x9383FECB, 0x2F82C3E6, 0xB8D933C3, 0x063AB41B, 0xAAEDF444, 0x31EE296A, 0x5F532D67, 0x6C163682, 0xA805E378, 0xC89E2336, 0x07732FB2, 0xE5063E34, 0xF074D713, 0x4EAFE33B, 0x2337C9C8, 0x94E8A9E0, 0x2F843012, 0x7149A86F, 0x0478A860, 0x0E2F8704, 0x2DFDE02A, 0xF61F0B0F, 0xC7B0460F, 0x2CFC95B1, 0x5FA90000,
    0xD2B72A60, 0x59DEDF0B, 0xE985490E, 0x690243C4, 0xF5A0EA8C, 0x070F103B, 0xBAC08C04, 0xFC21680A, 0x8A094A7E, 0x4905052C, 0x06A8094C, 0x42C05FEF, 0x5857DC09, 0x251FE51F, 0x4F2BF1F9, 0xFDEE0682, 0xE3F736E4, 0x7B661963, 0xF5BB1B03, 0xE31B6005, 0x0A242056, 0xF8601003, 0x0318B011, 0x78006984, 0xC82B0000,
    0xFA4E2C62, 0xC229561E, 0x20157D67, 0x0D0570DD, 0xD8D22E82, 0xFC9BFC36, 0xCF75609C, 0x6FDE2ACA, 0x4983FEF0, 0x8E36D201, 0x938202BC, 0x2A2E1F02, 0x0D77C1C0, 0x83E8137F, 0xD5157AE3, 0xA8FFEE1E, 0x18DFD4F0, 0x66879081, 0x9E23AC14, 0xC3A37D23, 0xCEABAF46, 0xE66A0035, 0x982097A0, 0x801AB8E4, 0xFE960000,
    0x0EF55C9F, 0x63D7FE35, 0xEA5BE208, 0x7F1B9104, 0x9D63382E, 0xF89FE883, 0xB6D1BAFA, 0xF7FE839A, 0xFE35D231, 0x061A4600, 0xDBB1363C, 0x2B943720, 0x9060F003, 0xDF6F0E74, 0x73F9FF03, 0x3AAF69B9, 0xB84C395F, 0xDE02631E, 0xB834C8BC, 0xB328DF9A, 0x034B1CD2, 0x89D3DF60, 0x9D0806C0, 0xD400ABA2, 0xDDC60000,
    0x9455C826, 0x6DD34FE4, 0x0BF43D15, 0x75A732DC, 0x61EEFC0F, 0x673700E3, 0xC7FC0EF6, 0xFFE8E0EB, 0xFE9C9B5D, 0xA0E0427F, 0x496B2045, 0xCC021A2E, 0xF7D01B87, 0x6701D7EA, 0x101E7CB2, 0x13C5AC80, 0xFCF4FE33, 0x868D8BB4, 0x0855BAA1, 0x31662414, 0x287EF0D4, 0xC91E80C2, 0xA11A0370, 0x9E20D686, 0x76A30000,
    0xEFFDE350, 0x875C28DD, 0xBFE0171F, 0xFB4EDB2E, 0xC1A91036, 0x034297F2, 0x1B80FFF4, 0x9830FEA1, 0x042FFD51, 0xD61FB205, 0x40FFD3E9, 0x1B732ADA, 0xFF841946, 0xA4FD7927, 0x81E780F5, 0x7E3C96B0, 0xFE715134, 0x413356F8, 0x773D341E, 0x68770AA2, 0xA3D4D9F4, 0x641A56EA, 0x1E4FBCD9, 0xBDB9FA7D, 0xDB170000,
    0xFD62616B, 0x567F2037, 0x23DC63AD, 0xFE02370D, 0xA63C7A90, 0x916524EA, 0x60A33940, 0x3C89DA2B, 0x8F1D0150, 0x5DF24D5A, 0x1E0021E7, 0xF01B343D, 0x02925B00, 0x17C6DE23, 0xE6A384E3, 0x6034B4B5, 0x0008757C, 0x01FA56B8, 0xB7C5BE74, 0xEFF4501D, 0x566900B2, 0x30C20DAE, 0x253DC95F, 0x37C4E02D, 0xB84C0000,
    0x037C32CB, 0x3BFBDDFC, 0xFFFA2556, 0x5FF7B687, 0xF44E587E, 0x4B9C9C61, 0x5503F049, 0x63CE14BF, 0x3E000AAA, 0xE011D73A, 0x459175ED, 0x31D7A9A1, 0x553FB64C, 0xFEBCA285, 0xDB0727C2, 0xE4E4FA5C, 0x0F21FA24, 0xF569AB1F, 0x7465D1FF, 0xECDE26D0, 0x0511D8B3, 0x86007809, 0x102DC6B5, 0xFF5EBD1D, 0xF8530000,
    0x7CD99592, 0xF757DAC6, 0xD5FF1869, 0x7F9D2387, 0x920FF6AD, 0xD1FC3590, 0x0F8BDF93, 0x1AD3CB27, 0xDB0A69B7, 0xE1464D3A, 0x11937F40, 0x49262010, 0x66F00354, 0x06180007, 0xD1241A3C, 0x21403615, 0x201BFC3F, 0xCFA6A7BE, 0x77ABF55F, 0x83ECECBF, 0x6A72933F, 0xDE1475C9, 0x0D88D077, 0xF77B7AA7, 0xF7B00000,
    0xCA02EFA7, 0x264F2E6E, 0x83A00D20, 0x180532B2, 0xF23DFF8E, 0x04BF5072, 0x7BF90FAF, 0x55F0EB0B, 0xE30EC73B, 0x09D255CE, 0xADC4712C, 0xC617D087, 0xD9B67B5E, 0x882722EA, 0x41F3FE26, 0x7C1BA368, 0xC2440BFC, 0x640BF345, 0x2038F07E, 0x3F0A0698, 0x19384B6A, 0x1197455E, 0xD0980325, 0xC0420164, 0x7FEE0000,
    0x47047FB7, 0x4A045450, 0x502C8234, 0x3696EA15, 0x32FE01DC, 0x0D282919, 0x5E8F0AEC, 0xF0F0E369, 0xCF41B81D, 0x70629D55, 0xE75E00FD, 0x1E282DF6, 0x32E610C4, 0x99847CFE, 0x451A21F9, 0x89C0161E, 0x728B9755, 0xB3FFFDF1, 0x5563C570, 0x3D453622, 0x8BC7EB18, 0x327BFBEF, 0x37DFEF81, 0x8D2CC65C, 0x1F480000,
    0x465E9A37, 0x2FA7DFCA, 0xDF55E159, 0x77C47EAF, 0xFDE3FF83, 0xECF9FF58, 0xA7DFEE76, 0xE1BFAA67, 0x000BACA0, 0x08041200, 0x0B01401B, 0x5477D7C1, 0x6D7BFFB5, 0xE1FFCDB8, 0x3B81AD71, 0xC00FD928, 0x00E61B80, 0xD8ECA0B7, 0x000A8BE0, 0x330920C3, 0x6DBED00D, 0xDFDE0CEC, 0xDE091EE0, 0x3AC6CB62, 0x1FD00000,
    0x8B806B65, 0xFBD70AFA, 0xF69F0DBC, 0xC3DA85DC, 0x4CD85480, 0x6ECD4918, 0xF20D86B4, 0xCB51BFFA, 0x4D0FFEBD, 0xF01CE5F7, 0x001E8D3B, 0x04C463FC, 0x306F3AC0, 0x08FA3600, 0x93989000, 0xBF6B40A0, 0xEE142C01, 0xD90DA175, 0xAF3058E6, 0xBC82EF59, 0x022D8DCD, 0x2767B90F, 0x0E3FE2CF, 0x485E7D2C, 0xDD680000,
    0x4CB71EB5, 0x61A41DFE, 0x24007040, 0x44316216, 0x7CF685EA, 0xC8AA966F, 0x464DDA71, 0x38C5B3A5, 0xE37F3E86, 0x567A5330, 0x63DD9F05, 0x1F34FC05, 0xF64B5CFA, 0x20DFE3A2, 0x869638A0, 0x0DC347CC, 0x18642D52, 0xC28E7A0C, 0x1AFA6E81, 0xAB87DAB5, 0xB6490452, 0x85D42BF1, 0xAF014F1F, 0x21DF4FFF, 0xF17C0000,
    0x43DB8557, 0x28955876, 0xE168CEE5, 0x03A1C86A, 0x0464CF1D, 0xC6AA3C1C, 0x0A37C364, 0xC9F8138A, 0x69E69EF4, 0xFC76F434, 0xE5BD7354, 0x490AE15C, 0x99F818C6, 0xFB0393FF, 0x2078FFFC, 0x1F5C5B63, 0xF091C3AF, 0x1002A3F3, 0x007F1DD1, 0x304AB8DC, 0x846FDE20, 0x421DA0C8, 0x8C478600, 0x75036767, 0xDE800000,
    0x592997D8, 0x795A1C32, 0x53E98A2C, 0xACC2A03F, 0xB839C32E, 0xF5CEAB17, 0x57B49928, 0x66FF330F, 0x4874F4E0, 0xA08BA640, 0x6AA2B016, 0xB15A8450, 0x7EE24E5F, 0xE347FEF8, 0xF1E5421E, 0xAE4C0E0F, 0xC60074D8, 0x5E33DF02, 0x7DAFD855, 0x52FF83DF, 0x504F1BB5, 0xA19008DE, 0x364800D0, 0xF005AF04, 0xFEDC0000,
