0E
0D
0D
14
0D
0E
0B
0D
10
0E
0E
0F
10
10
0A
0E
0D
0F
0D
0F
0F
0E
0D
0D
0B
10
0E
0D
0C
0C
0D
0F
0B
0D
0F
0C
0B
0E
0C
0E
0E
0C
0A
0F
0C
10
0D
0B
0C
0E
0E
0F
0F
11
0C
0D
0C
0C
0E
0F
0D
11
0D
10
0C
0E
0C
0D
0E
0E
0E
0C
0D
0C
0D
0D
0C
10
0C
0D
0E
0E
0E
0C
10
10
10
0B
0D
0D
0E
0D
0E
11
0D
0D
0C
10
0E
0B
0F
0B
0C
0A
0E
0E
0F
0D
0D
0F
10
12
0C
0D
10
0F
11
0B
0F
10
0D
0D
0D
10
0B
10
12
0C
0E
0A
0F
0B
10
0F
0E
10
0B
10
11
10
0E
0F
11
0C
0E
11
10
0F
10
0A
0F
10
10
11
13
0D
0B
0D
11
10
11
12
0F
0E
10
0D
10
12
10
0D
10
12
0D
0D
10
0F
11
0E
0E
0E
0F
0D
0A
0F
0D
0E
10
0F
0C
0C
0F
0E
10
0D
10
0D
0F
0F
0F
10
0E
12
10
0F
0F
0E
0B
10
0D
10
0F
0B
11
0D
0C
0F
0F
0B
0C
12
12
13
0F
0F
10
0C
0D
0E
0F
0C
10
0E
12
11
10
11
0E
0C
0E
0F
0A
0F
0C
0B
0E
0E
0D
11
10
0E
11
12
0C
0E
0A
0F
0C
0D
0F
0B
0F
10
0B
0E
10
0D
0E
10
0F
0F
10
0F
0B
13
0D
0E
0D
0F
0E
10
0C
11
0D
0C
0E
0D
0D
0E
12
0E
0E
0F
0D
0D
11
0F
0D
0F
0D
11
10
0F
10
12
0F
0F
0F
0D
0B
0D
0F
0C
0E
11
11
0D
0E
0C
0C
10
0D
0D
0D
0F
0E
0E
11
0D
0C
0D
0E
0E
0D
10
0B
0D
0F
0E
12
0F
0C
0E
0D
0D
0B
0B
0B
0C
12
0F
0F
0C
0F
10
0E
0F
0B
0C
10
0F
0E
0A
11
0E
0B
0E
10
0E
0D
0B
0E
0D
0E
0E
0D
0D
0F
0C
0F
0C
10
10
0B
0C
12
0C
0E
0E
0C
0E
0D
12
0C
0C
0E
0E
0D
0E
10
0E
10
10
0F
10
0C
0C
10
0F
0D
0D
0F
0D
10
0C
0C
0E
0F
0C
0D
0F
0E
0C
0E
0B
0F
0E
0C
0E
0C
15
0D
0E
0E
10
0C
0B
10
0F
10
0E
0F
0B
0D
10
0D
0F
0B
0C
0C
0D
0B
10
0E
12
11
0F
0E
11
0F
0F
0B
0D
0E
0E
0E
0D
0E
12
10
0D
0F
0F
0C
0B
11
11
0E
0F
11
0E
0B
0F
10
0E
11
0B
10
10
10
12
0C
0E
0E
0D
0B
0D
0E
0E
0B
0C
10
11
10
0D
0E
11
0C
0B
0D
10
0A
0E
0C
11
0B
0E
10
10
0C
0D
0E
0C
0C
0B
11
0D
0D
0D
11
14
0C
11
0F
0D
0B
0C
0A
0F
0F
16
0B
0F
0D
0E
12
0C
0D
0E
0C
0E
0D
0B
0D
0D
0F
0F
11
0D
0E
0D
0D
11
0F
0D
13
0E
0C
0A
10
0C
10
0E
0F
0D
0B
11
0E
10
0C
0E
0B
10
0D
0E
0D
11
0F
0E
10
0E
0C
0E
10
0B
12
0E
0F
0E
12
0F
0B
0D
0E
0D
0E
12
0F
0E
11
0E
0A
0B
0C
0D
0C
0D
0C
0D
0E
10
0E
0B
0E
0E
0A
12
10
0F
0D
10
0F
0E
0F
0E
0C
0C
0E
0C
11
0F
