3CE7974A
BDCD639F
BD02F455
BD2FCEC4
BD84C1D8
3D0EDDD1
BC7096C9
3C4960C5
3D9F6F77
3CCE3AC2
BCA28558
3D8C9DF8
BD5EC378
BD1EC4D1
3DA4AD51
3CFFC0FF
3BC434DE
BD506618
3BF71869
BD29F593
BC4FA880
3B6C24A1
BB8C264D
3B649138
3C1A980E
BD5189AF
3B50A9F1
BD68F223
BC387D2D
3CB937FA
3CBD696B
BD51DFD3
BD0A3B67
BD6BD486
BDA38349
3CE33AE5
3CCD1BBA
BD0CAEF1
BAD5C241
BC1BF91E
BBC5D3F9
BC881251
3DD0216D
3CB4FE5E
3CDE4489
BCF69F2A
BD8ECFE3
3D014481
3CB3EE89
3D428203
BCAD99F8
3D437EA3
BCC81A84
3D0385F3
3DB5191F
3D89B676
BBADFD14
3B54B9C9
BD4EF2B8
BCC98A86
BDAB31D3
BABA809A
3D14CFC2
BD49792E
3B5DB93D
BD3A0F61
3DD6D581
BD5E1DEC
BD247B1A
BC27A854
BD5D54F3
3D473578
3D23C52B
BD7F64FE
3DA34EFC
BCFB036C
3BCB5AFF
BD87E87D
3CA21A95
3B4CDB61
3C6ADE6E
3CC4CDD9
3C7334D9
3C799D64
3D85217B
BD8C802A
BC8072D1
391C05CC
3D26C57A
BCB6AD6E
3CF3A4F2
BC97C73D
3C700DD6
399762AE
3C7CB716
BCAD5EA1
3C16395A
3D4FF4C9
3D1D6BD1
BD2C91F1
BCB11443
3D5FD885
BD261520
BB8F9199
BD7E6590
BC8B537C
3D0084D3
BC176AFD
BBFDBA41
3D8FF6BE
BD0473BC
BD3F674A
3D9497EE
3D175975
3BABCDBD
3D4702F6
BCA48F52
3D7FD761
3D7245B9
3CDDA24E
BD649CC8
BD81B9D6
BB0F1F1F
3C16997F
BD29C2F9
3CFDBC42
BC0BD067
3D7BB0F6
3D61043F
3CC0F260
BD58CEE1
BB24D36C
3D32564C
3D580A68
3DAB3A66
3D85DA1D
3BC1B808
BC910ABE
3D0A2BCD
BDBEA7F0
BDAC152D
BB1A0CBF
BC51D296
BD24D640
BD1F0E37
3CBD1DD3
3D23F0EC
BCABE0A5
BCF9712F
3D2E44C6
BC60B72E
3CBBB32C
BCF1C2F1
BA4FF49D
BC8B52E3
BB32B141
3C87BA65
BDA84769
BD339DA5
3B136CF2
3CFBC4E0
3D89C420
BD7D703E
BD93D776
3C8C35F0
BC85CE80
3C01476B
3C9C11FE
3C740A30
3D4C6B60
BC8066A2
3D02C4E5
BBDC5313
3BBEDC35
BD824CCE
3BF3CA54
3B5B4AFD
BB98E817
BCB817E6
BCB24C04
BC28DAAC
3C1C7998
3B2032F8
BD670772
BC8FD703
B92B9A6A
3D7A650D
3CF3F0F9
BC3FEA75
3C890191
BBD13E9B
BD5A7A6A
3B82C804
BD73248B
3CBF24A0
BD925DBF
3D57F025
3C677903
3C31F4D9
3BB51EFE
BCAB2A74
BD02F0AE
3D2C2EF4
BD364980
3BD6697A
BBEE469D
3C418A57
BD0D92A1
BC85D9EF
BB0C0CC7
BC68D9A1
3CA1A5C4
3CC9814F
3D1550A1
3D0BC7D8
BCC9C7A0
3B94A362
3CB5A4CD
3CA8AFFC
BD8E75D3
3BEF0A6C
3DD01955
BD06A9FB
BD4787A3
BD0693F2
BCBBA63B
3D9641A8
3AF4F2D5
BC8CE328
3D2A43BA
BCFFC4C6
3CD3306D
3C4BE937
BC973B05
3BAA2A34
3C0D7347
3D8C4462
3C5B2596
BB88E01A
3B4074B9
BB59E4EB
BCD7248F
3AB2E58D
BCB4011B
BCCC2341
3CCC671A
3D834718
BDA92062
BB9C0AE4
BD79DA96
3D640A46
3BA31AD7
3A112B43
3C1805AD
BDAF98CB
3D3DF242
BD08D66A
BD09B5EC
3AA23C14
BD0ECADB
3B66EE23
3D2785D3
3D5F70F7
3D6D5E65
BD78DD94
3AA0CA81
3D373B62
3BDA4891
BCBB575D
3AD9B097
BC1DB1F3
BDF150CC
BD90978B
BD248A1D
3D48A016
3C8725AB
3C675D52
3CE1E468
BCEE0C15
3C580B6D
3D092FA5
BD2A1EB3
3D0896C8
BC9C1BE3
BC675041
3C82BBB5
3C006F0F
BD717165
3C6515DA
3C2113FB
BC657070
B89A2E60
BB106090
3D92A297
3D16164A
BE18EE3F
3CBF85A0
BD4638C2
3C6DA842
3CA597B7
BC870F8F
BC623C79
3DA5527D
3D068D4C
3D7EEB5C
3D837B32
3D0C91E0
BC25A67E
BB6BC6DC
BD691A86
BBF58DD9
BD413990
3BEAEC3B
BD1BDEF9
BC63A799
3C05C6F0
BD03FB33
BC7F409B
3CA6DDBD
BC2EFA1B
3CDFBC9F
3CC8B87D
3DADB108
BC8C3EAD
3D9775A4
3896CBA2
3D52C673
3DAC4ED9
BDA15DD4
3DC48A59
BD40F18D
3CBE5D78
3CB2E7EE
BBEBF87E
3BF8A842
3C8D1E27
BD62A956
BC8EC200
3CDA73BF
BD5D64C6
BC978BA9
BA53C6FD
BD9BB8D9
BD38010F
BD84146C
BCFB7C94
3D244C63
BBD1F19F
BD20A7DE
3C235DA2
3CE51DDC
3D000536
3CC136D9
BC4B04A4
BB6D0B1A
3C362CB9
3BBA263C
3AA66280
3D75E2B8
BD3B3476
3D521156
BC5D36A1
3AF7174D
BD85D660
3DA668DC
BCD818C2
3D5993E6
BA543DE7
BCD1548C
3C771FAD
BCC7B961
BCAA8649
3CB317C3
BD3DFB66
BD8D6FA8
BC99BF83
3DC27FEC
BACF351A
3C86853B
BB9A3AF1
BC6D343C
BCD437A9
BC8FA2E8
3C9097DB
3D8BDCE0
3C93BBF3
BE56B4B3
3D93F18B
3CA82A90
BD19AA29
BC91F2B0
3D0D8B48
3C5F333B
BCC8D22D
3C08A568
BCAF413F
3D8ABEC3
3C8BA355
3CBABC8C
BB6C49D6
3D377C71
3D44372B
399EE11F
BD1EBC72
3D19C797
BD517046
3DAB7F41
BCBF5679
3D2FF410
3CCAB517
3D00514F
BD71F59D
3CDED2A9
BDA1B21C
BC2F665B
BC8D2B99
3C8F6219
BD0CF846
BD28F483
BC14E322
BC19B44B
3CC975D0
3BD5DBEA
3D742E28
3DBFB452
BC1FAC1C
BD4D1508
3CBC2723
BD251244
3D860058
BB331AEB
BD5D8B6B
3C410FF4
3CBE9D5D
BDAF7ADD
3C83D7B0
3D52BB44
3C911091
BDB546E6
BD444352
3A300C71
BD2B7B45
3D162C2D
3C867063
BD581D6F
3CA7AE98
BDAAE61A
3CD743C3
3D32E12E
3D031B44
BB858270
3CB45F8F
BD9AC2A9
3D3A4F3A
BC91E441
BBC9C003
BD019141
3D264247
BC03D6AE
3D51358C
BD2505F6
3D1A17C9
BA9AF037
3B5A2BCD
3C86DE19
3D33B0D4
BC960CBA
3C96BE10
BD050D32
3D367103
3C6BAF2E
3BCACDC5
3CB5822C
BC6AC870
BC83ACF5
3C1BCFE5
3BD33690
BD272155
3CA64A10
BDA1C6E5
BD207AA2
3D5996E6
3D88C49D
BD8298D1
3BB85B72
3DA2E733
3D194607
3BF5091E
BD3F6449
3D53225C
BDFEC4DD
BD13087B
BCE93FD0
3D03AA3C
BD19F500
BD234154
BC0D81DA
3D27A790
3D4DA33B
BD149856
3D142BC8
3BDA491F
BC2DE89B
BC58779B
BCF30560
BD30A9B3
3CDEF474
BD5E34FD
3D264218
BD1FC1C2
3C71D51A
3A414CCE
BCC087B3
BCE8A2FA
3D1D666F
3D141098
3CBE13E6
BCFAAB25
BD1EA806
3CDF04FA
3D666939
3C7854DB
BC93F0D9
BB1B33A0
3D5B53F0
3D9A4AB5
BD538B27
3D4F54C1
3D8B4606
BB8B2024
3DB43466
BD0F279B
BCE7A95D
BD1C37B0
3D4C36FF
BD9F86D3
3D811E6D
BDB0FF6F
BC9038EE
3DA984BC
3CA29AEA
3D63C424
BC6F9643
3BEBE5CF
3C579533
3CD0734C
BBDF5FB7
3D379316
3D590AA8
3C9192E4
BDAE0FCF
3D0B9DC1
BA712AC0
3D293038
3C49BFA5
3CCF784A
3CEA1940
3B8FC1B1
3C631EBA
BB3D25FB
3D01FADD
BD0E57E6
BC59D5F7
BBBAE64C
BD7581AC
BD23BE6F
3D13E1C1
BCDFA39F
3B87519B
BE1B67D9
3DB2674E
BD89D3C9
BCC8026F
BD275038
BC3C6D59
BD92D542
BC6683CA
BC885694
3D9B1ECD
BC3FFD9B
BC8B9D66
BD091D4B
BC84DEDF
BBF10EF8
BD513973
BD15C7A5
BC764A07
BD06BAC0
3D08E304
BCD52B8B
3C8E1955
BC695626
3D9C0465
BD92D2BC
BD277394
3D3C1325
3D4B80F0
BCE2DA81
BD9B7826
BD1388B9
BB57724B
BD0ED27D
BCCE0A74
3BF7BB23
3C5E4A73
BDDD96FF
BDA13F97
3CB6763A
3D88C4A9
BDB92C19
3D7B97BD
3CD34EB1
3D38A801
BD3B1DEC
BD097309
BCB3D31E
3D0052CC
3D2457DD
BD2B818E
BDD10DC1
3D1906D9
BD12EFB9
3B521AFD
BD406CCA
BD75E381
BC4F4A0D
3D22FCCA
3CFF5FF5
3D753862
BCCC4A86
BC7BD20A
BDECC68F
3D12C8C0
BDB2290B
3C12DF75
BCD90144
3CA9097C
3C4D42B8
3C836154
3D00C668
3CA0AC64
BD8C9B67
3A35A72B
3C91C3FB
3C65A1B4
3B3DCC81
BCEB1958
BD7728D6
3D4FB446
3CDCAB75
BCF62E4C
BCD17103
3CCF2730
3D86EDC1
BD3EC084
3E11271E
3CB2A7C3
BDE5EB08
BD57ACEA
BE243191
3C960E21
3CE10C0A
3D8DDD7D
BC229E72
3CADA7CF
BCB3A773
3BEE249B
3C5DD052
BD409EF6
3D0659A3
BD2DB0F1
BCE407F9
BD8138C9
38A52BE8
BC5CD07E
3C60F76E
3C471832
3DAA6D38
3C3FC57E
BB273876
3D28DCCF
BD094860
BD0D9C61
BD9E5E9E
BD81A788
BD938CBB
BCA9E482
BD5741C2
3C81AE35
BD3703D9
3D8066FF
BB68EBA3
3C84A568
BBB0BD2F
3D1F91FA
3CFA0226
3CFC2736
3D12697C
BBCE9B39
3D6CE75E
3CAF8CC0
3CEAAC2D
3D49B6B7
3C325502
3C894CC9
3C4C3FAE
BD7BC565
BD2DEFEB
BC4B56AC
BCBC9CC3
3CBEABE8
BD34A020
3DAFFAEC
3D1EA716
3AAFC1E6
3C5273BE
3D916E19
BC1FBFC9
3CB87A5D
3D6E6D01
3AFABD6B
3BF317E2
3C1861F7
BC6A883A
BD4A2527
3DD50053
BCD97266
BD14FCE0
BD4FB5A5
3DE3DEEE
3D2A920A
3DBD0E5D
3CB2C5F7
3D5C1079
3D11A7F7
3BCD09EC
3DE8F6C5
3CFD3306
BD0A85D4
3D953159
3C0CC395
3DA69FC4
BD3ECA50
BCFC5CF9
BBB21FEF
BD8F9433
3C37BAD0
BDA4263D
BD1DCF59
3CFB8506
BC916FC0
3DA9EBBB
3DBB2582
3D157D33
3D0760CB
3D1BC80B
3D833FB1
BD2EE977
BD1EC799
BD60563B
3CB1D141
3D3DA28F
BD04FEBF
BC79730E
BD1ECC6F
BE0C8797
BBC9B99B
BCA89CB8
3DA7CF73
3CB08B29
3CCAF218
BD37F08A
3D7E4525
3DB8DBF7
3D66F676
BD1FB9AF
BC5267BD
3B998F94
BC608955
BAC38C7C
3C0F9F5B
BB8176E8
3C9F6593
BD187A38
BD7F0A07
BC9BF9BF
BB952446
3D2D0E11
3C79B676
3C573013
3D2967E4
BCA4D10D
3D410D1F
3D9512FA
BCBD3707
3C627F02
BD027797
3D56AE2F
BCC294FB
BCF62D0F
BC00DB77
BB887B04
BC80DA8A
3D130660
3D810C89
3CB757F1
3C52F16A
BCA113CF
BD3C4FA3
BCB8B260
BDDCFC1E
BC9FC010
BAA9919C
BD4FBC5A
BD3190C9
3D1C704D
3D613B72
3D9E56E3
BD9D390A
37E58556
3D7D488F
3B9B29F8
3C9E3A84
BD22FD23
3C8F32CC
3C043FA2
BD2477B5
3D8DCDD0
BC774E5E
BD8DAA43
3AA9F862
BD2A6035
3945E612
BC38FBCA
BC13061A
3B7C89B1
BD36194C
BD41D529
BBA7C1DE
3D7D3CA7
3CF1829B
3D0B78D6
BCC417BF
3C878287
BB82CB98
BD159EFF
BD8ECD00
BD86F064
3D307E50
3B9D4ABF
BD18D0E5
3D1DAFE8
BD1C16B0
BCCC355B
3CD7E1FB
3D531A62
BD295700
3CD4039A
BCCED13F
BC3E7D52
BA6B8636
BCC7B1D2
3DB26EEE
3DBA3790
3CCFABEE
3D6CD00A
3C16B3FC
BD951684
3D92E998
3D81891C
3CEE73CF
BCBF7AF0
BD1B4317
BC01E4E1
B98B134A
BD322D3F
BB57D5F1
BAD51FE0
3D90BB24
3CCCDBA3
3CF4F2C1
3C8416BB
BC5C39D0
BB131258
BABC21B0
BD85846E
3BE95C05
BCA7C578
3B1B9533
3CCF3C64
BD3D3B5D
BD40146A
3C51C5E3
3C085232
3DC30333
BC22A97A
BC55AEB3
3D05B63D
BD1044A5
3C34E76F
BC7546E3
3CBF0F80
3ADB38AE
BC887E20
3B7EAC39
BC778E5C
3C910944
3D21680E
BE23BEDA
BC86BCA6
3C350309
3C8CC64C
BCCA1CA0
BC3540EB
BCE4474F
3CA407EB
3C9CF5CE
BD933A26
BCF63403
3C64F523
BCDF4AA4
BD917640
BDA79C69
3D090BCD
BCF9A09C
3A95AE3B
BB1017DB
3D5C8096
3C8F58CD
3CEF0E19
3D4E0CB9
BB853C99
3CFFBDBD
3C1C9683
3D8B1DA2
3CC9BFDA
3CF90AA6
BD26A89D
BCF2B5A6
3D338E4A
BD8218AA
BE08AE17
3CAA355B
3B05B4EF
BBAF521F
3CE46B16
3D310859
BBF3EC4A
3C60A0B1
3D0DCF6F
3D2B82D1
BE235223
3D01334F
BD0EA4CE
BC87ADA0
BD333F26
3D020D9A
BD7592EF
BD360E73
BCCCEFE0
BD0D251F
3D9E01F4
BD087E61
3C0B4A03
3D376631
BD26D451
3B9ED46A
3D9F9B0D
BD266775
3DAFE5C8
3D5F27B0
BC87C8E5
BCA66BB1
BC64E759
BC2606BB
3CA012D0
BD711D5E
BCFE50ED
BB525F55
3BECFCC6
BD02F063
BD24432D
3C81BB14
3D100BBB
3DA1BEA4
BCF6FA9D
3DA9A9B4
3D659FAE
3D261E2A
BD269349
3CE4C17F
3C7CF924
BC8CEEE0
3D134B9A
BD120BA6
3C8274F5
BC231C14
3CF18E62
3B55202A
BC6DE6CD
3D16F883
3C8FD5AC
BD07ACB8
3CB66389
3B05FA7B
3C4BA3C2
BD427C09
3C22AE59
BCDE2378
3D045E51
BB45D52F
BD42AC38
BDE22EF0
BC544CC7
3D5C8953
3C9BE417
BD3A2CAC
BCA4C535
3D54401D
BCCF56EB
BC9B515C
BD939174
BD58326D
BD34887D
BDA710DF
BD058918
3DA0CD0D
BD8C65E9
3CC61911
3D8B3151
BC092B9E
BBDEE196
BD4EA7D7
BC489FCD
BCA6D823
3C26919C
BC5DF0A1
BDE4F7C5
BDA86460
3A148DC5
3DB1256E
3D782BFE
3CA7CC1F
BD302F73
3D200A9F
3CAC99F6
BD906EDD
BC8A1543
3D1BA00B
BCBFAC81
BCA5ADA5
3D04E042
BD8529A9
3BEBDADB
3CFFCD19
BC296EBF
3D331DBE
3D52BECC
BCC0C33D
3CBF2473
BCFC8B8B
3BE35C2E
BCE15179
BC13994D
BCA87BB4
BCBDB4A8
3C5B6EA8
BDDCA914
BC63E8E5
3BDB4ED9
BA56DD19
3C8A120E
BD285704
3CCC21A5
3D1FD458
BC8E9897
BCAA7BC7
3C818966
3C4AE093
BC04F5A0
3CB76D23
BD031641
BCB5D4CA
3D3FB301
3D29697E
3C2C3404
3B8B1CA1
3CBE46B1
3CAF7342
3D4898C6
3D211824
BCAE2B8B
3D4FE901
BDC2FD3F
BC8F0CBB
3DB6A8CC
3D013027
BC75ECED
3CB526A7
3D6A3DB4
BD0690B2
BD16B85E
BD7D3167
3CCF9F28
BCA0E24A
BD42F846
3D23E3E8
3D0CFF63
3D49838B
BE0B0640
3C28BD7E
3CC0C7F0
BC196992
3D1C4B9F
3D3D6171
3CEEE4BD
3A94C63A
3D00A00C
3D0479E2
BC35383B
3C43AEF6
3D7C5E7D
3BAC9BA4
3B7C4BAF
BD00EE52
BB2808DD
3CB634B8
3D75637E
BA8793CD
BCFC4AC9
BD4F2CAE
3D21A5D6
3D8F4DBF
BC2D7CDB
3C6CF3D2
3D08DD1C
BC7315A4
BCBBB12D
3C601792
BD0C1B6F
BCACB980
BD9EB2E4
3D2838D8
BD513C08
3C185F2B
3C51DF8F
BC72AD04
3C83078C
BDABB4C6
BD007911
3C93ED1C
BBE19409
3D204068
BC3B0ECC
BD8F59D6
3D031318
BC699C1B
3AC4A36D
3C1E9123
3C672185
3C086955
BDCAB1AD
3CC42FA9
BCA47F34
3D3F5456
BE16ABE3
BC6AF9B4
BC0B7729
3AAC4A9E
BD468BCB
3D79BA88
3D83062C
3D1F7F59
BCD2FF3A
BC84AAC0
BD22586E
3C38CDE3
3D451123
3D7B3DF7
BD6CFF52
3CE52D39
BCB59087
3CA0A113
3CA8EFF8
BC017DF2
BD287DF3
BC3D1807
3C951B54
BD040508
BD8D2ECA
BD12E91A
BBF37F44
BDBC05ED
3C6CCAE3
3D49B680
3D358FE3
3C95D1B6
BD0FA6D4
3C042D5C
3CF81813
3CFBB4B7
3D7E9423
3CA5C776
BC8A6AAB
3CFF9836
3D042694
BC52BB0B
3D5AC43F
BD2BF221
3C507526
BC5F8547
3CA9B25E
BCA400AF
3D4321FC
3D2E2127
BD91FDF6
39C8E06C
3CA68817
BD837639
3CA18EBE
BCAFBF01
BBA218CB
BD0C2D1F
BD1D2D2F
BD69184C
BCA3746D
3D2BFB34
BD3BBE14
3DAE059E
3CC80DC2
3D2445AD
3DAD1F61
BD6779ED
3CFBD628
BD181553
3DF033FB
BD356850
BCE3ABF7
39D5B71C
BD3FA939
3CB64CDE
B99ED3D2
BCBF8304
BD06CA47
39927093
3CA76B70
BD8F85F7
3D602FC2
BB439E78
BBF131B5
3D19B9E2
3CEB15AE
BD10E472
BD22FCC5
3C5E5EE4
3D2382C2
BCF02869
BBEC0FE4
3D022DD1
BD38C613
3C07BE3C
3DA95CED
3CAE5DC6
3B3ABCF6
3CC00A30
BBED79D0
BD3877AF
BC594CE3
BD084CFA
3D8F513A
3D775CE5
BC6AF4A6
BD4FF072
BD878086
BC64B974
BBE688E1
3CE24F05
3CBFFA8F
3CF17811
3D1954DF
BDF91ADE
BE38C6D9
3D01A248
BE2A730E
3E4E4A38
BD37C30B
3CCBB469
BE1080E4
BDCDEBC1
BE11D260
BC05740F
BD0B0D27
BCCA26E8
3C764768
BCD89C08
3D1A1320
3C4A1F1A
BCE8B48F
3D4605B6
3C4FA7C5
3D9A5B3F
3D908230
BD7400BD
BD261ED7
BD7F64DC
3A6D1087
3C7FCE4A
BDBE211A
BD8F9AA5
BC95CF9A
3C82CE91
3E0F5B13
BD932F17
BE567D50
3D8558A5
BD5F37DC
3E24565B
3DC71695
3C33E9AA
BBAD3BF0
3AE942F1
3D2B05B9
BE05233A
3DA1B622
BD99D581
3B806733
BD59DFF8
3D4FD339
3CD97DDB
BD4EADE2
3DA6198E
3DC4F065
BDB0A25F
3CD5A043
3D29C587
BE3AF9BC
3CF88D24
BD4CB60F
3D91261D
3C0CF931
3B689BC0
BD2C9D65
BE755E3C
3D2873B0
BB9720CB
BD56B871
BDA7AC25
3BBED13A
BD9DEA2F
BE028DC8
3DE0E144
BE103E87
3B0541D7
3E42D706
BDF3993B
BBE43DE4
3D767FC8
BE1D9474
BD530FBD
BD56018D
3DA63713
3E01E2CD
BD432824
3D9E65BA
BC349BB3
BD86D2D0
3C1B5CD7
BCE3406A
BC992A39
BD80BE0B
BC753450
3D657CE5
BCBDEB1A
BD9F68FF
3B02A36A
3C184EB2
3CA225CF
BD39CA4B
3C92A8C6
BD16C722
3E3BA0D3
BE8EE907
BCB06C74
BC225548
BD0BAA96
3C016E9B
3C02313F
3DC0E94D
BCDE7AEB
BD9E5230
BB1AC463
BE3507D2
BDEAFBB6
BD53B572
BD2E2C1E
BD85D3FB
BD00AD16
BDDF4D60
BD0108E6
BD1980AB
BD6B2BAA
BE4F0D94
3C8E9273
BD86F754
3DCCC935
BCDDD10F
3B6E0151
3C92131D
3D913EC6
BC2101CD
BD5426FE
3D1E7FCE
BE106C44
BD6BCF58
BDD9C610
BC384461
BBCF6151
BBD9C22E
3D96DE65
BD9A5CA4
3DA0C122
3D66DE7A
3C9ABD2E
BCF6CAE8
3BF7D3CB
BC03BF9F
3DE92111
BD9F2606
3C969A9D
BDE0C468
BE110807
BE1A8A08
3C29C114
B9FB1FF2
BDC896A1
BC71EF3B
BDB71248
BE8B9D61
3BB6FB6E
3D06ED23
BCCB94EE
BD6623DB
3CA61DF9
BE101DC1
3D352004
3DA910B1
3D5CC826
3C9538DC
3CB7CC4B
BDA8D87B
BD195064
BD2EC416
3E207033
3D6DB582
BE2AE2A5
3C7D051D
3E0C0195
BD345D61
3DF4533A
BE6DCDC7
3B450C3C
BDB2AE14
BCCF6F3C
3CA4E5FA
3DE146E1
3CFEAA9A
BD9AC5E7
3CF4B5D1
3D4C1BDA
BE257B6E
3D3826AD
BD84054C
3C0DAE3C
BD316E93
BDADB97C
BDAA5364
BC2F4075
3DDF6B91
BAE92466
BDFA3D79
3D9A772F
3CD14B7F
BD863BEB
3C1355CA
3C9CB877
BD0A5BEC
3CA5C41C
3E1B8504
BDC90284
3DA3FB0E
3CD03AF8
BD25A6D5
BE6ABBDB
BDC717AB
3DA41760
3D61ADFD
BC976C4A
3C83B805
BC978B57
3D7AC01D
3D83B1FF
BE044596
BD4D59C3
BD3CEE43
3DDB9EF5
3D68FDF5
BDD836E4
3D868B7E
3BC8C566
3C59BD42
BCB8ECDA
BCB52C53
BD3CBF55
3D01E69C
BCD94F22
3AD9E1DA
BD90C250
BDEDD8CF
3CAFC927
3A9C0A76
3D75A1A3
3B122697
BCA63CBF
BD419F0C
BB8E173A
BCC0F844
BD65BDA5
BCF27F8A
BDBB5CB0
BC8A874F
BDF6CBF6
BCA2F1C8
3D8A3B73
BDD38123
3E9A05D2
BD5491A0
BCEFD030
BC79AE9E
BC318963
3CCDCDCF
BDEAAA3D
BE062E2D
BE71021C
BD3ED775
BE01EA51
BD150A3F
3D4D95B9
3CD944CA
BDF0C727
BD46BB1C
BD208505
BDEEEDB9
3CAB32C3
BD0BC9FE
BD7116B4
3DAA903D
3A8920B6
BD45CE21
3D191117
3C2C15E8
3CD0DD19
BD1C4C92
BD454CC7
BD6B5B12
BD294059
BD8EFBD8
BC877680
3D210E95
3D4D1B6F
BD9BA9E6
BC864B63
BDC160C3
BE160D27
3BCCF191
BE0F2733
3EB18D10
3D27EC47
3D14EBB4
3B5A5FED
3CC8A7CB
BD2A5FF8
BCF0F956
3D163FF2
3D13A7C9
BE036BE9
BDC23054
BD67078A
3D74F948
3D507112
3B41C2D1
3C7F2D27
BCC56B78
3E18FB5B
3D444C31
BC15968D
3CD44170
BD44F531
BB6746BC
BD928A93
3D962510
3DDD6F96
3CF5BC8C
BC1DCA24
BDC76CEF
BD8CAC0B
3CBDD62E
BD0FEC07
BCEC8EE1
3DA75050
BE354500
3DD24B99
3BF628C4
3C8BF981
BC29BFB5
BC0ED301
BC045C18
3C8B4943
3D82AE6B
BCDDD5D3
BD2BD78D
BD106855
BD4D1C6F
BD8D4481
3D4E7033
BE6DB9E0
BD5D7C7A
BE4DA77D
3DA83352
3D0F28E6
BC3BFF9E
BDB4CEA2
BCCC9E18
BDD93D51
3CF2848D
BD4E8335
3D5EB86A
BCF8F16C
3D14361B
BE36DD0E
BDC28B23
3A0F8C5B
3DF382E1
BCB41DD8
3D9DB658
BE08C491
3DC9DFDD
3DDF22DF
BD6BE5AB
BC4DB501
BC307F3D
3D775E52
3C09E73F
BD5A7411
3E3E7FF7
BD3C00C7
BCC2B169
BD9A65D4
BD43C2BC
BD094E46
BCD4D29E
BC72A352
3D37F5B5
BCE4FA7C
BC5413B0
BDC0F346
BC9E3A8C
3EBB57CA
BDAB13B6
3CF5732F
3CF5FC39
BE202FFD
BD45BD69
BD00BB84
BC1C839E
3CA301AE
3C751D31
3E353068
BDB5BE5A
3C5F0D54
3D69FAB3
BD7AAAC5
BDA4ED97
3CC94088
BD29B9FE
3C919F2E
3D9120D9
3D291321
3B561E7D
BD7D376B
3BD70E82
3C970DBA
BD45B74D
BCE89B8F
3D9C194B
3D37BFC6
3A849739
BCFA6DE1
3D3BC1D1
3D13DB7E
BCA0E3A5
BC48D79A
BE07198B
3D1E3726
3DCACF34
BD064241
BC319E96
BBCFD980
BD9453BE
3DC1FE97
BDAEDA13
3DAF40BE
BE1B3E26
BC735D73
3D7C0CAE
BE0CCC82
BC6DB89A
BCF5AA24
3D8B5E9A
BC0457B7
3A0760E5
3DC7FEE1
BDF90EB4
BD805C1D
BD0B44EB
BD26A124
BDC29E4D
3D832A7F
3DB988D9
BD70270B
BD573DD8
3B635DB4
BBA8DB44
BD375593
3CCC9D9A
3C897495
3B0F32B6
BB903DEB
3C6609BD
3DA931AA
BD93E160
3E7F8C3E
BC392A74
3D9F26D6
BD8AB2C5
3DB0B4D3
BDF5AE0D
3D3657CB
3E0803B7
3C4A22A1
BD93BB0A
BD8EFF68
BD915CE2
BE4EE381
BC88C264
3D846A15
BD79637F
BBCE5F91
BD46333F
BE94626E
3CD0222F
BDD88E07
BBF92646
BE0B577F
BC297544
3D071D59
BD0F171E
BD84C848
3D8108B0
3D42D359
BD98ECC7
3EA43D57
B8F59C11
3D20F093
BB7D726E
BDED4BCA
BDDB3FAF
3E1A7496
BD1B54AB
3D01F283
3DCD8A59
BD392113
BE8D8302
3D9A6CF4
3D406A0D
BBA70211
BD163B7D
3B31E8D5
BD47D573
3CA470C0
BDA76D6B
3CCE6591
BD30CA19
BCE8592D
BD02BE56
BD6FA519
3D88B41A
BE8FD57E
BE4D278B
3D10107C
BDA7998E
BAC9D4F4
BD8D659D
3E383F8E
BC6250EF
BD7DB7D1
BE32A51B
3CEB5C2D
3D444E3D
BD84CCC3
3D00BD49
BE09AF25
BCE0A2B1
3D6A969C
BC942673
3C3B95F2
BD36438C
BDC38FE4
3DA0033D
BD93C87D
BD2EE171
3DB3F70C
3D296540
3C4CA8F3
3DE9C77F
3D33895B
3D3FBD50
BCD8D027
3D1C0CEC
BDDDA13C
BDFEB6CD
BD79B0FD
BC39B800
3DF4AB30
3C1C192F
BCB2612B
BD31D484
3DE9F2C9
BE13265D
BCBD58F6
BD1AB18D
3CEB9A0C
BD9FBE87
BDCB58EA
BCF8D2C1
3BC12778
3E1D3597
BC27AC60
3CA88626
BCD0CCE9
BE3D14E6
BE0B08F8
3C00B515
BD3F06FE
B9F8B854
3D3FF33B
BDF0A6E2
BDC368EA
BD98BDD6
BE64E3E7
BA9EA0BB
3DE4349B
3E0507E8
3E02D237
BD9D8038
3DD0C0B2
BDB09D33
3D3D9D61
BD6E4314
BDD022DB
BD26D248
3D2E7C72
BD3FB935
BCB645D7
BD853379
BD52288A
BDE82219
3D9AAAE6
3C763825
3DF5068F
3CC1F8B7
3DEAF8DA
3C5BD013
BCD46BC6
BD563F00
BD4DBBDB
BC211E66
B8719527
3CE3CD6C
BDBD345A
BE5F2F60
BD1DF802
3BD7EED0
BDC62BBF
BD322549
3D598E25
BD1A8527
3C566C55
BD51DCF2
3E1CB5E7
3DAF3D36
BB40DA0B
BC2F2C68
3CDDA130
3DA84228
BE167044
3D2FE689
39C89C4A
3E118E1D
BD77D8C8
BDB69F89
3D185B00
BD2F24ED
BD9E78B3
3EA36E2C
BD996D60
3DE1D102
BD2D07E0
BC56D1A9
3DD1C1EB
3D1A4045
3C9DEC1B
3D6A1910
BDDB5F11
3BD07F1C
3D5831B4
BDE51432
3DB64BC3
BDAB1B18
3BDC916D
BE136C3F
3D16AA47
BDE070FE
3D542CFF
3D0B3681
3CFA2153
BEB8EF15
BD58BE3B
3EA71D5C
3CAC4D97
3EBA42C9
BC1C148D
3DA381D6
BD78EE96
3DBDA2B8
BE181927
3BEB2991
3C0C8AD3
3C9662C2
BD304F8D
BD88955A
3DA68175
3D9C5326
BDDB68FB
BDAF9602
BD5C8D16
BD958880
BC18B8E2
BDA8A636
3D10DA75
3D647E6A
BD6047B7
3DCEC781
3CC9348E
BDD66ED9
3D4BB1D6
3CEE8D1D
BDAC8AFB
3D0A3732
BD46BF2E
3D2A5503
BD95E3BC
3C899570
BD68ABC5
BDBD37EB
BDA719FB
BC7CB7AD
3D1A2DED
BD23081C
BD7949FF
3AFBA906
BDA54E3C
3D9D04CF
BDBF1E20
BD1A5DCE
BDB7527B
BCBA255E
BD2C69D1
3DADFE29
3D080F68
3D6104EB
3D05D6CF
BD455EB9
3D58ACCB
BC087772
3C039C25
3C45B573
BC6A4B21
3D50C992
3CD8EC6F
3CA7B45A
BCC3F058
BC9CEC90
BCABDB29
BDE1008D
3D966795
BDC57750
3C9FF62A
BCB572BC
3DC08B21
BDCC5D1E
BE22F071
BDB33882
3D494FCE
BD74D5C5
3D90A2D3
3B81D7DE
BE2F2C07
3CC6C84F
BDA4C24E
BDDB3505
3CD27115
BDABB058
BDA57443
BB2CD93F
3C7EF886
BB9D2372
3D2B4B8F
BE25357F
3D16EC23
BCAC5DD7
3DA7A29B
BD272A0D
3DDAD168
3CAD0DFB
3D8851E4
BD4EA1E2
BE2C3AD2
3D590B33
BD7B27C7
BE363F74
BDBEB15B
BCC2D1B7
BD1FE570
BAA38B70
BD358418
3E9FD232
3D962D1B
BCF25DB7
BE03DC78
BCE99496
3D7A6EC7
BDAEF8C6
BBC40CF9
BDAA84A0
BE4FD3FA
BDAFECDC
3C010ADA
3BA1725D
BD878B19
3D9A7C29
3E18FA6A
3DD3B2D3
BD4771A5
BD00AC79
BDE138B5
BE26FC11
3B43833B
3DCC43DA
3D972FAB
BD0D57B5
BDE9CA27
BCD160CE
BDF9FF34
BCFE6B34
3D29E73F
BD8E26B5
BCB66B8F
BD8BFEC8
BD914C2A
3D46F916
3DCDADE7
BC92BA71
3D2C1E6C
BD05F4DA
BC0513EC
BD18ADAA
BD67F2ED
BC8F6A6C
3E2E2F06
3E39E73D
BE31AC6F
3E23131D
BE1C81BB
3D9ABB7E
BCF9D257
BCAEA494
BD089631
BD6EA794
3CAC2F37
3CBD48C1
BD5C3E09
BDDEC1B4
3E1FF7CE
3BE9111A
3D066197
BD0C0139
3CCB4500
BD128E08
BB17C48F
3C9440A2
BCDAF31E
BC754D96
3D99FAD6
BDD83CF2
BD8FDDBD
3C8DAC95
BD672A82
BD97C621
BD19D773
BCEB91B2
BD653A0A
BD291F36
3D342AFD
BCA43BF6
3D31B012
BE213995
BD10AD5C
3DC0258E
3C12C6A2
3D96480D
3D163506
3C2FE11B
3BD1A142
BD807720
BD15F6E4
3D1A4257
BD3A8A83
3DB99AF7
BD0F601B
3D255CE2
3DBC69F0
BCF57117
BCF88DBA
BCD5EA97
BC6A1645
BDA2258F
3CF8C3D1
B96C623D
BD1A654F
BD49AE8C
BD26998B
BD7F217F
3C9EFA75
3E1B4005
BD887487
3CF753EC
3D2065D2
BDB5DB89
BDBDCAB3
3DEDE323
BC486B1E
BD62D250
BBC9F29A
3D31DBBF
BCCAC5A9
3A14B70C
BE26FBD2
BD11E7D2
3DAC86A4
BD6A7BB4
3E1C8153
3D3D57E4
BD4D7B82
3D9F92B4
BCEF226C
BD8B6FDB
3C605A8D
3AFD25AF
BD96F2B0
3D0CC71A
3D45B630
BC4B7D1F
BDBB6E25
3D4BC495
3C0566AE
BC6BD741
3CB0CCEE
BE259CCE
3EB31FC9
BDB866D5
BD016439
BD036B87
BD3EF6A3
BD2A4FA1
3D01F5FC
3CB749C1
3D133B2F
BE300BAC
3DCEBA07
3D2552EF
BD182B71
BC1AB05E
BE1960AD
BD252827
BD5135FE
BDB50A58
BD4D9B14
3DF71703
BCC41204
BD01500B
3D9540B5
3D98CA0D
3DA77B68
BDC0B9F1
BC86303C
BD3AA940
3DA00436
BD4F206F
3CC1629A
BB2B51B7
3E7F72B4
3EB04557
BD28CA57
3C34D2DE
BE91D453
3D1B2B35
BD68085E
BDAD23FB
3E3D276D
3D9EDA03
3C89239A
3EB2324D
BCB14737
3D42AC29
3E057DB9
BCA5472C
BD6C8AC9
3D7166B6
BE1F2FC1
3B6C2EB7
BD17D7E1
BDDE2C9E
3D02107A
3BC477AD
BE08EFF9
BCA15B1C
BE8127E6
3D92EE18
BD24380A
BD79CAD6
BDB7F76B
3E689AC6
BE09A9B7
BD4FEDE0
3C45C821
3D5011D2
BDA356F9
BD07C8AD
BC43D183
3C9640F3
3D93EBFC
BD82429F
BB11AD51
BCEE6301
BCD664E0
3C05B42E
BE172C9D
BC9E194F
3B2019DA
3E10ED0D
BB42EAE1
BC354CE9
3D0D5161
3DBE4F4A
BC73A443
BCE89E5D
3B4AF803
3CBAA533
BD8E1046
3D871030
BD91F02E
BDFC3F95
BC677BDE
BCBE20DC
3D844A54
BCEBFC56
BDA7300A
3CED2B84
BE0F0E60
B9EFE43B
BDB032E0
3D1F021C
BD409D71
3DAD36F0
BC0A5623
BD61C567
BD4B79B7
BDE9CA2E
BDDDD0BC
3D9E1A8D
BD2FBCD3
BD408CCD
BD28D486
3D01185D
BD956970
3DE0F8FD
BD897681
BDA9C3F4
3D68F4C7
BD2FEAA7
3DD92578
3C4B4035
BD9F0F0F
3D35989E
BD397EF1
3AD8E8BB
BD907B6E
BE09BF0C
BCDBE7DA
3CAB20B3
3D0C624D
BDA95678
BC940394
3D28A8F7
BDB80C28
BD20DEB0
3C7C96C6
BD519387
BD61355E
3CF2FFF8
BE045926
BDB16351
BDD4AC08
3D8A82A8
3E005045
3C13FD21
3CF14EC3
3CAFD4E0
3D83BCAB
BD4382B7
3D5959B9
3D398377
BE3F00C1
3DAFCB1F
3CF34B36
BDEB07EA
3E05671D
BE2C22F9
BCCAE9BA
3CD75C77
BDE6D238
BC40B3A1
BC3922FD
BD024FB8
BC2BB3DF
3CCAA47F
BCA2F383
3D7CB5E8
3C5A579A
BB809492
3D9DDB2F
3D67E295
3D158A0D
3CE84728
BB9117B5
38E56E95
3D61CCCC
BD6C6D39
3C3F73CD
BD8E6B33
BD003D58
BDB82A0C
3E7B773E
3CB53527
BD28D531
BDCA5872
BDAC15F7
3E2CE3B5
BD8BB05F
BE0A2D04
3DD031CE
BC56FAD9
BCFBA0D0
3B0E224F
3D54F9CD
BC84BE37
3C5233EE
3C3CD767
BD835D77
BE265D33
BE5AAC10
BD4C0143
BDC1DE69
3DFA327E
BDD122E7
3B0C4781
BD0A7E6E
BCF7B738
BC81A2D1
BD40BC73
3C956E1F
BD1DBEC7
BBDF537F
BDC99916
BD2D06B5
BD8BB877
BE635D20
BE099149
BE0D041D
3CC8671F
3D3BE143
3D07919B
BE05DDEB
3DA0F5F7
BD0339A3
BE0A70A0
3D683340
3DDD6406
BD792CDA
BE219251
BD3B773C
BD4D4F1A
BDCA998F
BE830A7D
3D35B994
3D8A6EA5
BD7123CF
3DA9EC43
BE34B05C
BDCD7A74
BD81C72D
BE81C9E0
BCB3C279
3C51C053
BCE7041B
3D924206
3D71129C
BBCBFD00
BD9EDA92
3BB9D49E
BCD00AF1
3DC18EE2
BD7F9B58
BC4F20B5
BD59448C
BE0AFDFA
BCB5EB36
3DF2E536
3E064AE3
3D343FB1
3C2F6C43
BD495D4B
BD9E53A9
3D43653D
BDB081CC
BE04B66E
3D2FA24D
3AF06BF4
BDB6113B
3E3359E5
3C811080
3C73FBA5
BD1B7065
3DA93BFF
BDAC5486
3CD5779B
BC7476C3
3DC42E7D
3DB5FA9F
BD1D9256
BD8C45A3
BC1CD3B0
BD714D3F
3CA14F88
3BECC89B
3D24374F
BD5EB73B
BD40044F
BDA0AB24
BDC41D01
3D88D4BA
BD8EDAD8
3DC8677B
3C29411F
BADD37E2
BC0D56D0
3D7334AC
3D5EB308
3D5E6F76
3D8B5419
BDA3C07E
3B509425
3E078CB9
BDC4BFBE
BDA08166
BDECF1C2
3D107B28
3D59A8A4
BC4D9FFD
3D0961B1
BD1077CA
3D0755AC
BD83B5E1
3D8C596C
3D6F5B16
BD21307E
3B22E681
BB642789
BDF77E09
3DAF5B60
3D5A2E90
BD687D77
3C946ECD
BD1B8271
BCA87DB5
BE6B0848
3CF40E4B
3DB15832
BD8286E4
3DB1282D
BB0D7DA7
BD0BA8FB
BE77E7D3
BD11F9A3
3D85B68F
3CA56DA4
3DE160BB
3D910F22
BC9CC0DB
3CE2E376
3D04AF3F
BD786BBC
BC6A14AB
3CDC6E0A
3D2671E1
3D15FFC6
3A558989
3E1051A0
BE098193
3D38AB40
BD6736B3
BDD5B044
BD49239F
BE1E60E2
BC959D68
BC47FDC8
3D84D585
BDE1CAA9
3E17BE66
BCDAD987
BC909E90
BDF09088
BD38754E
3CBAD9AB
3D26F0EE
BCC20497
BD751404
3D6F34F8
3D0C8EE0
BCD9BB0B
3CB8188E
3D586CE6
BD5E4DA8
BD83BB75
3D1177B4
3D809ED9
3C00255E
BC25FEF3
BCF39243
BDDC8647
BC4777B8
3A4491EA
BD193B1E
3C4300D7
3D92ABD0
BC2EA5DF
BD50FB26
3D3997EE
BCA766BB
BD91F124
3D0D6304
BD7C035D
BD1B708B
BD643ECA
BD7041F1
3CEE1410
3C4F2972
BC072942
3D356731
3C942251
BC633CFD
3D1C39B9
BD2B0D93
BD7FDE56
3B9B2B76
3D13E372
BCB8940A
BC936F5B
BC8693C8
BCB2F7EB
BC66729E
3D314838
BB4A87B1
BD114C1C
3B566FDA
BC92BC49
BCA8452A
BCC99AB7
3C0464AE
BB254614
BC59E930
3D0C6E2D
3B67597E
BC2AAC57
BB06DC23
3E0BB0AC
BCDB3A3F
BD84A9C7
3CBD6561
BCF64BB2
BD6A0927
BCB6B5D6
BCB6E0D1
BD7FE789
BCBC2E61
BD77D75B
BD680762
3B369007
BB475171
3D07D01B
3A6E921A
BCE4749C
3D3291B5
BBA7745C
3CF93CFF
BC03B8CD
BDBB26BE
BD8A6747
BCC430FC
BAAF2A29
3D4CEF23
B94E7388
BD280E6A
BB717885
3C8DD468
3D21D1C8
3AF69963
B9913EAC
3D4C48E2
BD741090
3D6B2BA3
BCABF608
3D68504D
3CE0E95E
BCE85689
3B44F889
BD05CEB0
BD661590
3D0787F4
BD424401
3CF46BAB
3D8B0375
BB335A71
3C83AC9B
BD4CAE84
3D0063E5
BD47989F
BC57D217
3DB6148E
BD1AEBDF
3D212CD7
3CBD99BC
3D1D8F60
BDA6C025
3A627887
BB61C104
BDEC78E2
BBBBB206
3C0D8DFE
BC031EE1
3D8B0097
3C8ABA27
BD17A74A
BCB7B6F7
3D2437B1
BCEA35D0
BD12E1AE
3C9A3FAC
3CDD06CC
3C9F8176
3CD845CA
3D64195B
3CDC4268
BBCBC4CA
3B9453DD
3C62EBAE
BD13594C
3BCEE1F6
3CB844C9
3D4D29FF
3CA632E1
3C8D6F2D
BDAF973D
BCFF3FEA
3C39CE01
3CEC693C
BD2256DE
3C16181E
3BFB3155
3CFF3F24
BD6FD065
3CB0408E
3C9944A8
3B9C4052
BD9C85AA
3B7B076C
3B8C9EBC
BC212E11
BA30D2B1
3CAACF47
BB5BC11B
BC0814CF
3D100C55
BD9CD4A6
BD232944
3B30C3CD
BC97CEFC
BBD359DD
3C95891E
3CB497BA
3DA5FC21
3A86D702
3D735345
BBC8B3D7
3D70895B
3CA7209F
3B659379
BC4EA926
3D87A0FF
3D8F7531
BDBE19AA
BD0F1A6C
BCF0F4F4
3C93E962
3CBF1A9B
3DDBCF80
3C5C2986
BC814771
3D2A0F7C
BDE82719
BBE3027B
3D1EFE08
3D6E25BA
3D1C347E
BD39EF69
3DBFBA28
3CCFA8EE
3CE1B9E3
3D63E4AA
3CCA06E3
3CDB42F5
BA2907B9
3D2F46D3
BCE64751
BCE25C94
3A4C5C15
BD571F15
3D089DBA
BD4CC007
3CFFDE6A
3D1805C8
3B77AFFF
3C6A5A1E
BBFB6F13
3CC60EBE
BB64B84E
3D3250E8
BC1B4F57
BD235215
3D5669B3
BCDC739D
BD482121
BB5D4405
3CB36010
BD903B66
3BC1F6A1
3D5F8EEF
BC34AA86
BB50CD59
BC90B5C8
3C9EC22B
BD268ABA
BC927A14
BDC3CD09
BB95585B
BD833952
BC7D832C
3CFC82CE
BAE97AD7
BCA7FFF4
3CEF2A55
BD62B7DC
3D5925F7
3D4D0F19
3CBB31F9
BD1A7039
BC727E0E
BB4B6FEE
BCA9D2A1
3C815662
3CF1EE46
3B28CF56
3CC38B55
3D1D7204
BCBEF99D
3D2672C2
BD5FE697
3A5853EF
BD10540E
3D0C55CA
BD9BECF2
3C80CE5A
BDBF5BAA
3AEAC72B
3D5B6480
3D282B3F
BC3A80D6
BC95CDD0
3C5BBB29
BDAA5173
3C1DD2D5
BCDB6E85
3CD47543
3D5FA061
BCC3D517
BB8308F3
BB94E012
BCC5B908
3CBFA365
BBC44E85
BB26E2F2
3D344EE6
BCC12B3E
3D7D8BF5
3E1FB06B
BC841491
3C976E4E
3BA9CAE2
BD004CA9
3D04A9CD
3D3CFE10
BC4FFE64
BA14A3D2
3C63D5CB
BD3F8B6C
3BA5965A
3D6E19BA
BCD4D061
3C811E1D
BCE46575
3C8F95A8
3D0C949F
BB4F6A1B
BCA6125B
3978710A
BD187A8D
BCD71C73
BA550888
BD5C3339
3D850445
3D02AAE0
BCF07904
3CEB53F4
BD0BBEB0
3BFC3239
3CBBD88C
3D3DEC6A
BC0AC38A
3CC93159
3C2257BF
BCDA8B37
BDB1E804
3CAF7242
BD19EB05
BD06D65B
BBB5BB0A
BD7BDC6B
3CE011AF
3D9862F5
BC8A8775
BD505A90
BC82A289
3CCF20D6
3D1C11C7
3C82F6C4
3D5BABF0
BCA2BA40
3D0A238C
3C6448B1
BDF4744E
3D6283A4
3D250895
BCD792D3
BB4C2773
BBB1C1D7
3DC88E13
3DA12EFA
3C022265
3CEEA23E
BD301D47
3D2903E8
3D41E4B0
BD2FD425
3B9A9BEE
BC7C5E97
3CED39E5
BD4CC72B
BD4E6FB9
BC526ABD
BD7C6EB2
BD7CF6D1
BD42C8BC
BDD8C2FE
3C14F556
BCD654CF
3C8ECBEA
BD01606C
BD404DB9
3CF77907
3CBFDDD3
BCA8B9EE
3D07468F
BD6B1D42
3C8F757F
3D0EB3E2
3D27EDF6
BCCDCDD8
BD8EF4AB
3CE9F327
BD6E9A6B
BD8E2C94
BCB2DB60
3D38335A
3CEF761B
3C0078A7
3D884A92
BB8EC223
BD8D695E
3D44C497
3D371563
3C913636
3C3334E3
BC9AF27C
BD4E830D
BCD0B706
3CDB578B
BD1A5694
BD538B9C
3CF13DA3
3D61C754
BD0D911F
BC954A6A
BD80C58B
BD84CB53
3DCA77AD
BC8C1120
BCB13D84
3B17DBEB
3D695677
3D7ED91C
3C82B524
3CF36B56
BDBECF4E
BC9FB2E0
3C3922FA
3C412054
BCCEF7F9
3D89BA6B
3B2978A7
BD9D63C6
BD15E0F9
3DD0B4DE
BCB55BF8
BC9B716E
BBAF2440
BCC783A3
3DADC68F
3CC83A9B
3B225F0D
3AF6063C
BD1A48E8
BA63A7F9
3B8BC2F9
3D6C5E21
BDCCCFB2
BDD32257
BDFC6BD3
BA20F6AA
3DC4CAE9
3D2E342E
BB42BA9E
3DA7CCF4
BC414F5B
3D1797CF
BC8967FF
3D056D92
3D4314BE
BC9AAEE3
BCB980FE
BD4C4D21
BD567E6E
3DE573F1
BD4B1EDB
3D21D220
BD172176
BD1C5C1A
BD88BED5
3C995CAF
BC931E22
BAE089E2
BDC84DAA
BC76A60A
BD15116B
BD687973
BD6F56F3
BD740E39
3DC680D7
BCCAEEC2
3CB37A7A
3D58DEBA
BE1EF5AB
3D86057E
3CB15FA5
BCC05144
BD004BE3
BD68FDA5
BCBA664F
3C12FC25
BDFBB1E0
BD735D05
BD446FB4
BD75655D
BD904C9F
BDBD59AC
BD15DC39
BD16C2AF
3C091399
3D0CB5CC
BBE53D40
BCA61B1B
3D32AFCC
BD4178AE
3BECAC88
BD5078AC
3D8DB00C
3DDEEA57
BD18B1C4
3C11067E
BD80788B
BD92D31D
BC718229
3C6F923F
BCB6796F
3CB4DB3A
BCBD2FDA
BCC2193A
BDB7377D
3DB497CA
BCC4BBE6
3DACD812
3D28B273
BD189E6C
BD0B3C19
BBA28FEC
BD463B47
BBD92F56
3D7FEF9B
3BC20C2B
BBEE68D4
3C5FF363
3CA456A1
BD0CD6EB
BD273511
BAADDD2B
3D46AC15
BC439241
3D1148AF
BAEF562A
3B237E29
3D8F21FD
BC47034A
3C46B878
BD5AB2B6
3D0EC53E
BD8792F5
BD15FF0E
BD1AAE4E
3CD93FA6
BCED80D1
BBAB8C17
3D2A53D7
3CD13EF5
3BF07480
BD84B405
BDE3C6F9
3D65306D
BD142B30
BD85686A
BA59FDB7
3DDEC597
BD741142
3BC764DA
3CDB0C9F
3C3E81EC
39C06296
3CE21BE2
3CBEDD3B
BD8D96A6
BD864E32
3C96CB05
3D0E41F3
BD6AE4B5
BD43EE5A
3A0F1CAF
BB80B291
BD7EC577
3D8F0652
3BFE323E
3C9D231B
BDCA73B9
BCA6870C
3CC878CB
BD75D3CF
BC4A4CE3
BD1BF857
3D85CA6E
3D10C914
BC956E07
3DA9417C
3BCE238A
BCA13A57
BC51478F
BC898444
BCA45E42
BCBC6930
3D38CF35
BD810D0A
3C0F9CCD
3CFF95BF
BCAF95A6
BD1A17B2
BD3BCDF9
3DE73D5E
BD7BCDDA
3D21ED6D
BE38811F
BC8439E1
3D98FB73
3CDB0EA4
BCA1D1AC
BCBB948E
3C289848
3C2AC8CA
BB1D27BD
BCA8EBB8
BD4BA1A1
BCC58353
3BF53915
3CC084C6
BC1B8CC9
BC3E8F65
3C0F794E
BD0C8F74
B8814FB7
BDA25DB4
3BD78E8E
3C83563C
3C44C9E6
BD18345A
3D315B15
BD1AE156
BC98E9BC
3D0ECD9E
3C93425B
3E046AEF
BD1DEC3E
3D6BD0AE
BBABA1BB
BDD82435
BD034C10
BCC8FAE5
3C5D5377
3D2677F6
B984320A
3CC65747
BC36B58B
BCA67267
BC138FBF
3C9DD7C7
3C70BBE1
BD487BDF
BB727D06
BDA1758C
BCB07C6D
BD1CCFF9
3CC8EDDF
3C5B36C6
3D15C431
BC555B6C
BDC62C45
BC7ED897
3DD301F1
3D12ED8C
3A5A31CF
3D83DC48
3C2186EA
3BA8A711
BD8E1D08
3C8F44D3
3DA062CA
3BDA268F
BC9C3510
BD5A27DC
BD78CF8E
BD931556
BBBB0CA2
BC8379E9
3D544F5F
BD5700FC
3D8EA32C
3CB81612
BC9136CF
BD931E0B
3CAE3DB2
BD0A250F
3D51E49C
BD2950CF
BBB83F15
BD470BEF
3CE3863C
3A35920C
3C9CF649
BC17B33D
BD8483E6
3D2360F4
BCF36B01
BD3F7668
BB638B67
BCCF3774
3CA7FF18
BCEFEACB
3D023F07
BBFF969A
3D04CFB7
3CE42E8F
3C01EA08
3CE50BFE
3B3F1AFE
BD3AC568
3C38F339
BC07ACA4
3DC89F55
3CFDE925
BD3F48D7
3D15A359
BCADCADF
3DD07751
BCA190C1
3D337914
BCF3E31A
BB396EDB
BDBEDBFC
BC5A7A4C
BD2BE4DF
BBA0CB96
3D037DF5
3BE35A59
BC933E38
BC1DD17C
3C6D4019
3CC8A68F
3D12155F
BC5339FF
BCAA61D8
BB6437A8
BD60C953
3B841F32
3D4BD207
BCA21524
3D14BC22
3DD5255C
BCC73200
3D1D394D
BD03D3F4
3B89711C
3C86D8AE
BD5B41F8
3D26C62B
BD176640
3DA21068
BB936AF5
BD38A233
3D9B4A48
BC7AB9DE
BBA1901A
3D3EEC81
3CF9894E
3C1CF9CE
BC6B8792
3D079CEA
BBB64406
3B04C4E9
BD3F68A3
3D463458
BD3CEAAB
3D439D16
3D777C62
BD7C388C
3CF93C2F
3DE0185D
BD3D4D3A
3C4B1741
BCF3A6A3
BD6E1CAC
BCD55322
3D355F62
3B6FAA86
BD818283
BD31FC53
BCE68BC4
BDA52330
BDCFE199
BC1D9FF9
3DA5A285
BDAEA02B
BBF8A3F1
3D7EE019
3C071AF0
3B739CE2
3B8FA9A1
BCA26C5E
BCB65736
3BA97145
3C5541FD
3D6E6720
3DC7BF37
3C61D736
BD3E9504
BD67A2A2
3C338DB9
BC72DCED
3D26016E
3D395B19
3DCCA558
BDB2BC71
BCA370D8
BD40D804
BCA920AA
BD9CB4C9
BC91ED4B
3D91B62C
BE06C792
3D03A1BC
BDADF9EA
BCECE9E3
B887D27E
3CA4FE3D
BCA9E793
BC4EE163
BD07CC43
3E0E591C
3AAD74F2
3CB7F925
3D1382DC
BD0C2013
3CA43F1E
3C672242
3D79D9C8
BB0A2A1C
BCF6AE5A
3A9F9F7D
BDFD93ED
BD13BA88
3AD2652F
3BEC1920
3C07A073
3D2A80B2
BD35B4B0
3C28B116
3AAE8AE8
BCB366FF
BCC12527
3C9454EE
3CC78598
BD033727
BCE9CEFE
BB75DD48
BD0FA749
BD3EFBC9
3D5C2E41
3D676F00
3D457347
3C1C1600
3CB2751D
BD1ECA7E
BD3C0056
3CB8B441
3CB0ECC9
3D6F1EC5
BAA9D38E
BCC1B339
3C44DDCD
BCB678F4
BC8ECBCA
3C3B4E1A
3C82277B
B85C46D9
BCB41470
BD4DA5DB
3CBB5268
BC85D292
3BA7F44A
3D045D2C
3D6A283D
3CD60091
BCD28DDD
3BC76018
BCF47371
BD818A28
3CDDF440
3DA0E9BB
3D9BAF34
3B73DDD3
3D32066F
3CAC2CCD
BD33F572
BD061DD6
BD105E48
BA1AFF7D
BD5F4B3D
BD7BDB88
3D77405D
3BC7823A
BC94BA65
BD889725
B962B916
3C1EF816
BD01F392
3C9A0FBF
3BA7505B
3D83B034
3C951D32
BD98CF10
3D6021A8
BD007B93
3D7B28F7
3BF0E488
3B087CA5
3D0306E0
BA5B97F4
BB55D5BD
3CD40D44
3D4DA833
BD28E149
BCE3B093
3D29750A
3D181DF4
BC69DF19
BD529C9E
BD14251F
3D28AAB0
BC4A8D2A
BC2B986A
3D53E6E0
BC0051E4
3CB9F234
BD8EF46D
BDAB718A
3B56DC8A
BBF49EFE
BCB8171C
BCEC0177
BDB522E7
3CF692AC
BD7E9AA3
3C8191E9
3D5337E5
BCDB073D
3D13069B
BD123F3C
BD37AEB3
3C39C997
BC6AA901
3D1609CD
BD22D0DD
BD135350
3BF62682
BC9C034C
BB891E60
BC9C9382
3D3BFB6F
BCB47629
BD569DC8
BD9F2761
BD06D3B5
BD17AE70
BD1D78BD
3C3C1001
3D17CF18
3CB2422F
BC64B0C4
BD1F0ECE
3CA8ACD4
3CA9BBF8
BC15E832
BE12AE2A
3D468B79
BD3296EA
BE02A57E
3CF5EF2D
3CAD5E59
3C167FDF
3C95E66B
BCAE3AE6
BD03E413
BD4975AF
3D0EFE22
BB6EEA64
3C48FD66
BDDA09DE
BD412B99
BD00AA41
3DBE05C2
3C7DE0C9
3C3659E9
BD460088
3D05F392
3DBAA734
3DBEF488
3C4FA7F0
BD28DC2C
BCA49424
3BF4E309
BB127D4C
3D9578F8
3CF464F2
BDFE21D8
BCB209AA
BB26335C
BCA8EA74
3DCCFDFC
BDEF5217
BC8F5E3A
3C41A84B
3D24D6C9
3BA4AE7B
3D50568D
3C95E142
BB7AEDC5
3D2517E8
BCDEF874
BB271C98
BD21892D
3CE58115
3CA6C95C
BCFAB264
BC8B81F4
3C8FFDC8
3CE0BF19
BD0DECB1
3D24B71C
BD9213EF
BDA7AA71
3BCF545E
3C4DC8D8
BDB2DC0F
BC5CA1A4
3D343BEE
BD8F89AF
BD5B1FD0
3C10C6DF
BD7C176D
3A14F304
BCBF7DBA
3E0307D9
BCD36C20
BE040D7D
3C7BA214
3BF1D375
BD85573C
BD78692A
3C59C770
3D6C5DEE
BDA7F2D3
BD85E986
3D317F22
BC2347C2
3CCB5BB5
BD43BD42
BBEDB884
3D9F42CE
3C9635C1
BA8E7323
BCB79D7A
3DA16729
BCB2EA14
3B626833
BD557896
3D40B140
3D6E4D06
BD976BFE
BC8C79F7
BD6087B0
3D427C08
BC58F44E
BD273AB7
BCD3E9A1
3D401D6C
3CB34407
BC8FD48B
BC19536F
BD123EA9
BC912D48
BD3A01CB
3D33539F
BB83DF7A
3D70AD75
3C3B200C
3DCA42BE
3D0E4726
BBA617EB
3C896234
BCB7F183
BD392BD2
BD9EBD4C
BD0F121B
BC970E4B
BD75D4B5
3C6AA876
BB9F848B
BD167347
BCA23604
3C99F78F
BCC8CC9B
3CED3590
BDAC5F6E
3C38F42E
3C74C6B4
3C3891EF
BDFDAD59
BD126988
3DB21DD3
3D190EF9
3C6B3A79
3D970281
BCE7F270
3CBCF25C
BD1E6FD8
3B86AC8F
3D813928
B99F7B3A
3CAE0453
BD379D0E
3D179D07
BB5F8563
3C90FBB9
BD65D5C5
3CF95148
BD189EAB
BD091CDF
BC8EFC20
3D5DD840
BD035C37
3D4DB922
3D893956
3D1DEF3B
3BA5C909
3CCF54B3
3D5E5089
3D19CD93
BD7667B9
3D1CD112
BC3F9E98
3C0F8157
3C0275AE
3CA37952
3E11105D
3D99B3F9
3CC0EB5C
BD174DDA
3B4BCE64
BCB26419
BE32457B
BD03E102
3D9F4F54
BDE0DF8C
3CA383D6
3C00D515
BC63A78C
3D24A3A9
3D21FCBD
3CC009D8
3C528949
3D0FFD01
3CFB251A
3CCF3E85
BCD2442A
3C277A61
BD2DC352
3E031614
BCFBFB4F
3DEF18B7
3AFE9B08
BA0C9CA1
3D03F18E
3AEE77A3
3D52E2B7
BD00DCF3
BCAA869E
3B96C255
BDE16139
3C19A6F4
BCA02253
BD85F796
BCDAA338
BD7D6F59
3D371051
BD038033
BD4573B1
3D6BC984
3D038463
BC3155EF
BD21DB1F
3CF6C6CF
BDA32AAB
BCF9DFFA
BC8CA94E
BC4061B7
BD23A676
BD6A9A48
BD8EEEF1
BC510518
3CF973EE
BC31CFCB
3D26F17B
3D4BEAE5
BC47B180
BBC1E812
3C85222D
BD18D3B7
3CF1B710
3D6D4A68
3C7D735B
3C7FBE0D
3D301B02
3D0BC13D
BBB82483
BC943E63
3D50DC27
3D2B6D59
BD103F1E
BC9156CD
3D20CA0A
BCD3987D
BCCBC245
BCD86BBE
3CB82BF8
BD89C9B0
3D5A1BB5
3D4FF3CF
3D2334AD
BDF649BA
BBC73349
3C2E5E6F
BCD3FF6A
3D3B72F5
3CC8E2FC
BD8ADD03
3DA0B3C8
BCC56A6A
3CE55C47
3D338E56
3D2B1BCB
BDA43662
3DDB9D04
3D150795
3CAD5C09
BC40CC21
BD388936
3C75B3B7
BD3A07AC
BD951204
3D281FFA
3D8EE870
3CE3D9B9
BBBEF6C1
3D697B40
BD04DA90
3D570931
BC8D1794
3D445BE8
3C85BC7F
3E1678DB
3D8803E9
BD12F5F7
BD64660E
3C8EB5C1
BD80AF9A
3C9DC82C
BB265458
BB6A4970
BCFE49A2
3D5559E9
3C181222
BD81A034
BCCDF031
3C2A9A30
BD06F30C
3C0931D2
3DBA087C
BD8FA468
BD2BDA59
BD35F864
3DADC1E0
3E05CC60
3CE9EF06
BCC34165
3D23EB83
BCE38C3D
BB4CA30C
BCF3149F
3CC473BA
3BDB2EA3
BC76F603
3D99A1B9
BCAE1311
3D14E8DD
BC1B1A6C
3D0D5780
3DD64248
3CEAC594
BD6E0925
BD4648A3
BD0F44FF
3CB39FAF
BC2D05B0
BC03A43C
3CDFD73C
BDEA3F69
BD8D0B5D
BD59DD32
BDA593CA
BD4689FF
BC453815
BC73F7C1
3C7D6EB7
BD1E052D
3C26E41D
BC869E9D
3DA86AC1
3BE0700A
BD0C9580
BD3C057A
BB0D3FBB
3C427BE9
BCAD23CE
BCCDE79E
BAC5EE0F
3D893272
BCF43F15
3D4189A7
3D4CC9C1
BC1D5C11
BD22210B
BD41F45B
BD6F6B78
BD674F71
BC96F71D
3C4E9711
3D3EE7B4
3C332DAB
BC890D55
BCA4C600
BD8D2AF7
BD081C2F
3A49D129
3BFB75FD
BD23AC55
BD686079
BC1FE0C4
3CF5A09D
BDD88189
BAE10C63
BB932A91
BC3C8BFF
BD4A67A8
3D320077
BD165FD8
3D5EB8D9
3D98E723
3CEF5F6B
BCE6BABD
BD6A22E8
BCD38CBE
BCC5E475
BA76C80A
BD81238F
3C04ED7A
3D2E6A31
3D1808D7
BCD740CE
BB1BD86C
BD63FD2E
BCC0F156
3BB3B38A
BD832EF5
BD3E4546
BD7C0799
BC54A67D
BC749008
3C3C316B
3C79912D
3D9ACE12
3C8182C2
BD05DF35
BBC042BC
BC8852FE
BD7AAD2E
3D1953AB
3CDDFDB4
3D230AF0
BB870F58
BD1F7260
BD1A2C6E
3CF967DD
3C48BAA5
3BA1C7C2
3B372A16
BD246CBF
BD861642
BC4F21AF
3DA77C80
3C960CAC
BC8938B0
3C3D10A4
BCDD99ED
3D19494D
BD66AF93
BD4162C1
BD5DBFD1
3CE61E01
3DF1B5D1
BC1BD736
BDEBDDCF
BD00A478
BCE1DA23
3C945AEA
BCC43BB0
BBC71FC5
3BBEDE79
3DC2FC41
3DD18393
3C57CAF9
3C862425
3D825F5E
3D47A341
3B9EDCA3
BDADD2E4
BCB8C898
3D36AD23
3BBD3124
BB46E62B
BC985AB9
3C5B3DB0
3C484185
BD8EB3F9
3C4E5DE3
3CA5E6B2
3C204034
3E07F251
3CB025C2
BD07F7AE
3BC66977
BBA7B2AB
BD073253
3C5A53B0
BD4FE0A9
3CE12CB8
BB9B2A14
BB39595C
BD49B963
3B46B2AD
BD41D4AF
BC6CE487
BDB3E79C
3C6F637B
3D35A5A3
BD984545
3DFB06A4
BD057A1F
BD021C2A
3AEA7399
3D0E671A
BD159E4C
3D06E3BB
3CE3E942
3D15D7EC
3D42235B
BD429FB4
BD439569
BCC3862E
B8FF5E61
3D4617B7
BD3AB132
3DC299FD
3C25B238
3D573E90
BD4CD0EE
BDBDFEE4
BD31D2BB
3CB40159
3D5D7E90
BD432770
3B879FA4
3DAC47C8
BD4D3A64
BC4070AB
3D784B15
3CBBBC5D
3D0FFE77
BD3BF5ED
BB3C3AEC
3D5DB883
3D6F6CF3
BCC44572
BC084337
BD2AA58E
BD2FFBD1
BD0A4F8F
BD89A3F6
3D063C26
3C975228
3CBA3C85
BCA433FD
BBE70BE2
BD8DA4E8
BC6D99CC
3DB0FA67
3B8E9C21
BBAA46F1
BCFB8D77
BBFD5AD4
BE08D502
3C96A9D0
BC83FD8F
3C6D9A43
BD480F7F
BD96D7CE
BC972C8E
BBECCA29
BD0D418A
BD2FCDAC
3D7BC558
3CB8BECB
3D24FF52
BB3ED779
3CD8FD47
BCAC8DD9
BD6E0796
BCB54B54
BA86B23D
3D1BD041
3C400D6A
BDBA2236
3C9FEEAF
3D6D687D
3CB48183
3B9AFAF6
3D9CE453
BD4EFDA3
BC7A706A
BDA109D7
3D3F6710
BD0F4271
3D037149
BCF2ACFE
BB8C69E6
3DA53CB6
3CC0FAC9
BC1C5E75
BD7132A0
BD31A8CC
BC2029E9
BD8B0ED1
3D0D8C18
BD6E857D
BBADE758
3DBF84FB
BCBDE902
3C81DC9E
3C5FDFBC
3D78D169
BC944540
BCC85334
3DFD2C00
BC8D5663
BD1C889A
3C8894F7
BC42DE9F
BD773142
BD92A73E
3D8B0869
3D6C3DF8
BCD83E87
BCB64422
BD10D938
BBDBE928
BC057926
3CD7269D
3DA0B55D
3BF6437A
3D3E798D
3B2BC992
3D52E152
3CF119F4
3DAF81EB
BC300B50
3D2B14C3
BD026327
3B9CE959
3DB82567
3C8B9504
3D8B4EFD
BA6D25F8
3C8891D0
BC4DE443
BD484B8C
3D4064D8
BCE363E6
BC48DE93
BCB05635
BD3FC78A
BDA6BC9A
3D5456CB
3C526675
BCFBC6B0
3D674C35
3A2B50D0
3C11378F
3D061D44
BC81410F
B975B971
BC52401B
BCE84616
BC8CFE73
BD241B03
3D175777
BC789FDE
BDA1C7DF
3D1F2272
3BEE6C3C
3D3ABF95
3CBC36B6
BBA489DA
BD69CE36
BD0EE1B2
BDDF8DD2
BBFE2AE0
BDA874E3
BD6BFC82
BC3F8864
BC00F539
BCF4903A
BC518DAF
3C6E7D0B
BCB07B03
3CCD96F6
BB8A170D
3BEF5603
BD51D664
BB921A46
3C459C1F
BC8E0471
BAEFA1E2
BDC0CEF1
BD0FD6D5
3BACBF92
3CC0C42C
BD0A25F1
3DD567FD
BD0C1AB7
3CA70A18
BD0D571E
3C831C3A
BC509A83
BAB02E8A
BDA7ED76
B99E97B1
3BCC017E
3D89BCD8
3C96A1BC
3CDBF51C
BCE61E18
3BB1E6CA
BD33EEE3
3B2C563C
BCD8BCA0
BCF152C4
3B466E7A
3D83FC04
3C6B1D15
3CC59992
BC51ED2A
3BC35FDF
BD7DEB04
3D0E5271
BD25482D
BD66E4E2
3B6047EC
3D5BA60B
BC989842
3D948C4F
BC2391C1
3D563CB2
3CC33A87
3D0A835D
3B2D1060
BD51DADB
BCD27D92
BD6CD3E4
3BD0797E
BC5C537B
BD76D30D
BC2A61E6
BDA6CE67
3CFB8881
BC1EB4C6
BD2E8F33
3D1668EA
3D186393
BD8589F0
3C684F6C
B9F264D8
BD058988
BCB0412C
3C44C60D
BD37D9AD
BC10E08C
3C455A3D
BBB28E06
BC1B3E93
3DFDB6E6
3D821F9F
BC4DD651
BC3F571A
3C3CC8BB
BC1E8143
3D8115A5
3CB2ED0D
BD11991C
3C5B15F7
BD0A43AD
3D9D142A
BCFAEEFE
BDB1E81C
BD6FF5C2
3D2499CB
3D4EF216
BCE35671
3B4492C6
BD1DE101
3E0B5516
BBF7216D
BBB94292
BDA537CA
3CF41672
BD086B68
BCF2DCB9
BBC81C79
3C9E69A1
3C25972D
BB9552C5
3B41180D
BD15A772
BD262AF8
BD0C2846
3D286350
3CD9D6F0
BD00C078
BC42F551
3D0CB839
BCCFC19D
3DA7DD74
BC97E4BD
3CE4907E
3C2FBEFF
3C10BD82
3CABC1B9
3D25A67B
3CF0FFBB
B91D6152
BDB549AA
3C46019F
BD8EAA4B
3C80F3DA
3CCAEC7A
BCFB24ED
B90E4E8F
3CE17077
BD273809
BC39E38A
3D038760
3DE6954A
BD8C1E7D
BD3D1A19
BD8A8321
3D0B5BF4
3C1D1E45
BE043996
3CE92E9F
BD1B08ED
BD95F9FF
BDBBA541
3D678511
BC1AB6B0
BCFC41ED
BD84368A
3CD637B2
BD22A5CF
BD326133
BDAEBC32
BD7CE3D2
3D807EE4
3CA4E6B9
3DA4F38A
BD202AFC
3D233E04
3CB9DAE1
3CD4DA31
BB868C7C
BC27D4AC
BDE851D6
BC9F9035
BCB006CF
BAFE28EF
BD24C400
3C84BC10
3E14323E
BBB00500
3BCC43C8
3D41A7AE
BD0BB8CB
3D83B5EF
BD26D168
BD109D41
BB5A49A7
BCBC20B7
BD5CBEE4
BD1A41F2
BC98CDF2
BC213735
BD782C91
BC5D19E0
BC99632D
BD5BB81D
3B884569
3DB028C4
BD14D530
3C5B008C
BC99B49D
3B852673
BCAD2554
3C3831DB
3C9165AE
BA995A64
3D180113
BD170EFF
3C98AC05
3C84CF3E
BC222142
BCAF60F1
BD2BDBFE
3D676A5C
3D5DD848
3DB4CE31
3C1F6E81
BD4AA95F
BD24D3EC
BC0F3BE0
3D7875D6
BBD235B5
3C9A70D6
3D01CCD9
BB4E90F2
BDC560E8
BD228389
3B26C79D
BCB7D393
BCDCD504
3A6A165E
3D5EEC43
BD45DCC5
3D01B7F2
BD1A656D
BD030E2E
BCB4A428
39A1F0BC
BCE463B0
3B13FEFC
BD969A96
BD51CFA5
3BBF1731
3D151FF8
BBF0A609
BD3A3372
BB4C2CF5
BDB12018
3D0A91A3
3DC02A34
BD3C7337
BD16527E
3DBDB491
BD0377BF
3BF36DCB
3D6A7084
3DDC6570
BD1B34EB
3BB17C3E
BD267C10
BD59E66C
3C56F330
3DD42532
3CA4704A
BD82C30B
3DC051E2
3D7F2E05
3D0198D3
3CB8F268
3C870784
3D681263
BC606496
3D8C2E1B
3C5F64FD
BD3AB7F7
BCFB5650
3B9AD47B
3D51AFE3
3B1C3764
B8DC0D4B
3DE565C8
BD4F4BD8
BAD35CD8
BC67CE15
3C80E4B4
3D0B8A5C
BCDFA294
3B242FDA
3B9ED41D
3DAFE209
BCA31F25
3B53F1D8
3CE4EA69
3D04890A
BCAC55DD
3C939CC7
3BB8953B
3BF378E3
3D54AE89
BDB64CF3
BA52253E
BD5F70D6
BCAE2427
3D001E53
BDB447EA
3C00E6EC
BB575610
BD719309
BBBD2026
BB8011CE
BD8BB7D8
BD44BA1B
BB80FC28
BDA9D75A
3CCC5A8A
BD3C998E
3D6E8E4E
3CA8279E
BD72394D
3D0A433D
BB235879
BC62DD6C
BCC119E1
BD5C7CE1
BD72B261
3D723C42
3D42FA78
BDCBC71D
3CA43824
3D7D7691
BD8128BE
3B5301FD
BD61BFEC
3A9F0992
3C96DCD8
BC1A8BF6
BC848E03
BD4FFA1D
3CE56D68
3C5AF444
BD0E55FC
BCBD69F1
BD0EB9E6
3BF34F75
BCD0A66A
3CA11D1A
BD28C016
3D07301B
BCF5957C
BD8785C4
3D7A2500
3CCF3BFB
3CDEF7AF
BC1772A3
3C90F3F2
3D0E4065
3CD90519
BCE69812
BBA975E8
BA4883EF
BBD82C55
BCB663AD
3B26FC3D
3C46EB21
BBA148A8
3CB4BBF1
BD97AC60
3CBCCC21
3BDA822B
BCA81A39
3C59C0EE
3CB8D48A
3D38A81C
BBD01D15
3C99C31D
BD11630F
3CDBB99C
3BA95234
3D0A2596
3BA0E319
BC3C76F7
BD877E55
3D109D81
3CC80907
BCA53DEE
3C499171
BC7E8FBA
3B29A7A8
3BFC073B
3C66D1F7
BD3173EC
BBA1C897
3D016122
BC12663D
3C2DEA4D
BD52559A
BD2BD1E7
3D186496
3D6B7AED
3C5470EF
3C16346B
3D1824DF
BD87E0F3
3CD3E3A1
BD566D2D
BD0C2D5D
3D3F43D8
3C4373FD
BD96141D
3C109ADB
3D089DAD
3D5E01CB
3D3A5993
BCE0A727
3D101A29
BD0E6108
3D55881C
BA3FBEDE
BC4634C3
3D057A8D
3D8D4A57
BDC7A64A
3BDD366E
BD2817E2
3CD3EF2D
BBE47085
BD0FC3B4
BB7488D6
3D3DA122
BD294E8B
BC95E3F2
3D8192FD
BD16BF11
BCBF9C18
3B11F883
BBEDC602
3B85D45A
3D63DF17
BC9ABC94
BD1ADB0E
3C8F2B1C
3E004BE5
3D155882
BD0860FC
3C8C690F
BD9ED1BB
BC50FA26
3C83CED7
3D76F78A
3BAE0317
BD1A6DE5
3C7CE4CC
3D922633
3BE9BA2A
3C2334E2
3C4571BC
3D6004B9
3D4FF941
BAAE9372
BC9BD5EE
3CB27730
3CC224E4
BD5A0441
3D1A7EDE
BD186643
3D6FAB19
BD0F3B97
BCC0839F
BD3DFFCF
BC21BE2E
BB966474
BCFDDE7C
3D25E6B0
BBD2E822
3BC695B0
BCEDD0DA
BD8ADA2E
BC824793
B8C21A8E
BB839C58
3C45FE10
BDACDA3E
BCE89B3D
3CA2075E
BB3916AE
BC200340
BD707DCF
BD86FCCA
BD0E9E31
3CA22299
3D87F138
3C783CF3
BD838C94
BD06FC24
3C129514
3D9E4860
BCE2642B
3DAAAF73
BAF7099B
3D015186
3DA27C5E
BD723EAE
3D7CA417
BBE30179
BD9DF9DF
3D10724D
3B0FC44F
3C470D0C
3D94206A
3CD075F6
3B8260CD
BBE5CF96
3DD7F1B1
BCBA6CC3
BD3C88A9
3A6932C3
3D209834
3DCA5B59
BCC8CC84
BDB36D08
3B9F8206
BBD48503
3CE58D85
3CBBCCB5
BC07F5F1
BCEE15E4
BCA6CA7A
3D0B478E
3CD030A7
3D75BA92
3B236166
BD65DEB1
BB613508
3CBC1AC4
BD1522C3
3CB03EEA
BD371F28
BD2FFE8C
3CF8B338
3B586ACC
BD135C15
BD954507
3D4EB9C5
3DC42D8C
BC7D3BA7
3DB747C3
3DD19BC6
BD05452F
3CF33C08
BD0FFCA9
BBAD30AA
BBE508E2
BD1F367A
3C7EE04D
BC50A54F
BB699854
3CBBCE58
3CD55F03
BD304274
BBA2DA61
BBEB8D9D
BC7B9703
3BF55136
BBC44A98
3D4FDBEB
BD0D6860
3DA5E5F0
3CB41F5C
BD42A0A0
BC074CC9
3C9FB83A
3C2D5D4D
BC40D718
3BF0BAEF
3C63E7A9
BD992435
3D580650
3DA803F4
3A0F31BF
BD17FB56
BD53F143
BB0E8024
3ACC4384
3DCC6B34
3BE91DC5
3D1E7C21
BC2867CB
BD92F9D4
BDFBFFF3
BCCDA7E4
3C36E2E6
3D672B3E
3C863783
BDC07D56
BD90FC14
BBAC9836
BDC2A1FC
BD17F4A3
3D6F06A0
3C9D7BA5
BC31D4FF
3C1F797B
BBBFED30
3C0DB91B
3C0896DF
3BF5AD22
B89CF2A0
BCB344FC
3C7A6F70
3D541A65
BD459EE8
3A5B1446
3D16F1CA
BB9C5035
3DFAFC68
3D4CEB27
BCB0DEBB
BC9E8613
3C80CB3B
3D9808CD
BD54B592
BD0F5D7F
BDF17041
3D146E57
3DA68CB0
3D0C9BFB
3D337C09
BC4BC3BE
3CD995F1
3C56B2B6
BCEFC39B
BCAB2056
3C726957
BC846BE4
BC9EEF77
BD66549C
3C7EBDBC
BCBDE5C8
BD8C1770
3B441146
BD94D56F
BDD3E9ED
BC436BA9
3AA3E0EA
3C740543
3BAFB920
3D4103E7
BB35A4DC
3CB631B3
3C46D97A
BD647FB1
3C8B1299
3D2013DC
BBCF503C
BCEB01EE
BA8FB661
BD15E289
BD6B29B0
3D3E4536
BD0FAAB8
BB9DB7A0
3BAFA292
3D667460
BBD27102
BC7201ED
3CAACD53
BBDF7052
BC82D9BB
3C94C8ED
3B58E99A
BBFB12AB
3A980F21
BBD77A98
3DB81169
3D08932F
3D03B2DA
3C09AECE
3C603E05
BCBE92AD
3DDB1CC7
BA27C253
3C8B5E4C
395D0BC0
BD0A0DCB
3D55D6C7
BC84D330
BBF42AE8
BD83C0F8
BAC44A87
BCB396BE
BC40DFFF
BD967B67
3D967712
BB5B9362
3A9D7AFC
3C3C3923
BD4C6D89
BD2C301E
3D83C3B2
BD1C7F8B
BB137A1B
3D3E2CCC
3B01E51B
3D6423CD
3CA004B3
BD5B733B
BC8F0BA9
3E16237A
3E00E165
3D9BEBBB
BD2AE1A6
BAD189C9
3D0B1EFC
BCBF02D1
BCFDAE82
3DFB6FEB
3C80B9C5
BD1F3540
3DC22C7B
BB3E961B
3C07ADDB
BE18A25E
BD05A698
3DB68BD2
3D052B20
BD077B79
BBF6A193
BC35DD45
BC88C18B
BCB1D792
3C445547
3DFC841C
3BD15A00
3D491AA5
BD553F90
3D251011
BC485A96
BD44E201
BB42BAB8
BA537832
BD44E148
39AFB958
BC51E5C4
3CCB9274
3BA11839
BD3B4D2F
3D5ED178
BC89EE7B
BC4538D8
BCC80E04
BD303F1A
3B22C70D
3BC90AC4
3D212BCE
BD191F7E
BD9EA1BC
BCE5B608
BD073CB2
3D6C3F3F
3CAD15A5
BC82942E
BD763355
BD8B179B
B9AB8A9F
BD26143D
3CF272F0
BD3E7822
BD6BEF8F
3B98F05D
BAAF0140
BD13961B
BD5DE06B
3D0D1658
3C9DE78E
BC8A3BC5
BB6C9CD2
BC038EF5
BB887D42
3D49EFB0
3B1DA62B
BD8BC8E8
3D81D10F
3D09389D
BB3286A5
BBDBEDC0
3C1966E6
BCC057AC
BD00D6D6
3CD2987D
3C65DB46
3D0BDCB4
BDD3A3B0
BC901501
3D8E067B
3D89B0F0
BD9298AE
3CC6DB65
BD0DB71F
BD48E5CA
3DC09C92
3D845167
3CD5695E
BDB421B9
BD096E61
3C9334E5
BCCC64BC
B9EE1395
BDAA58FC
3BC38B5B
BB85D70F
BC027055
39B96485
3D5CEB6E
3D4412C6
3E048E13
BB1F2A83
3B846DEF
3C3AF557
3CC72D86
BCF6CEAD
BCA999E4
3CF9F5AA
3DAE788B
3C0DF121
BD8E3B65
3D330D1C
3D30C547
BD65ABBF
BCD7874E
3D832178
BD0683C4
3D0378CD
3D6779DB
BCBFFE33
BC834EA7
BCAB9390
BC575EFC
BD242E4F
BD141947
BDE67977
3D3CD98F
B9370B85
BDBBAC1E
3C8FBA45
BC52AEFB
BD078EB9
BCABA2F0
BCE407F0
3CB0EBDF
BC6489D0
BD9EED3E
3BDE7F75
BCCA71F6
BB6C99C6
BCF7A1D6
3D1704C9
3B0657A8
3C111BF0
3CF4A97F
3C00AFF1
3D6424F1
3D084809
3DA4A75E
3D8512B5
BCD7BCB8
BD19E866
BCAA8E15
BC3A1D4A
3DC04203
BD950D7D
3CAFDEE0
3D151A4D
BD3DC725
BB4BD5C5
3D5ED938
BCC6F811
BD02E72E
BA14DE9C
BDAB794C
3D26A7E5
3D0122A9
BB53523C
3DB06C2E
3D0944F9
3C60DED8
3C9019B6
3D8FB170
BB50A4C0
BD84C56F
3D5C3F1F
3DA3B9B8
BD085ABE
3CDA9891
3C0C56F4
BD35C4D6
BC32C372
3D3177C8
3CCEFBD5
BD3B78DD
BC5562CD
3C1F8E8F
BD0DEA1B
BCCE3F99
3CE50F70
3D39B0CA
BD208F9A
3D7B11E9
3D8A9D31
BD3B12DB
3C90AEAC
3D234E89
3D430D0C
BC8DCE30
BC9C9917
3D5DE10B
BD0CDD49
BCDEB666
BC7B6E48
3C8E01FA
3BEDD7AC
BD04D70B
3C2FE351
BD1C5F1F
3CE9196D
3C9C0A68
BB4918E1
BCADFA27
3C9DA8AB
BBD14417
BD1533BB
3C299F0B
BD33FA94
BBD556E7
BC139479
BD4E857E
3D56FB82
BD6EF2F0
BD0755E6
3D5CC03E
BD5F8AE7
BC91D0FF
BDA517D5
3C7DEAA7
3D71871C
BD0D6768
3D1234CA
BCD17826
BBE5497E
3CB5B34A
BC91E531
BC6405F1
BD97DDCF
3E1F3DFA
3D57FAFB
3E2568D1
BCB288D8
BC1D08B2
3C7B1F40
BD53F4AE
BD567537
3D1E55F9
3DCB8671
3D512B92
BB3A708A
3D4F2876
3BF27B2C
3CEDA683
3C7A8ECD
BC105B56
3CBB7DDF
3D07F24D
BCBB32C1
3DD7E389
BD7523DC
3CE69317
3D248958
BC4F997B
BB8FD8BC
BBAB3934
BC68764A
3D2C1ECD
BD39EB82
BD4DB9A0
BD98D876
3D6ACCC1
BCF84839
3D03693A
BCB27401
3D3C28FF
3D937E79
3D403D2A
3D44A0C6
BD117BE5
BD5DCE0C
3BE3381A
BD12B07B
BB88E553
3C365D12
BD4EF4C2
BCCF8CFC
BE0F588F
BD810B12
BD55D89A
BD6A83B8
3D892A7C
3C0B24B1
BB43EC5B
BD7BC8E5
BD5F0F7F
3C440FA6
BD00BCB4
BC98AA65
3D3C2EE3
BD063AC4
BD062205
BD0E56E0
3E01F0A2
BD860CCA
3D605791
3CB466A5
3C76556C
3CC451F4
BD00DF8B
3B0D061D
BCAD28CD
3B90E9B8
3DB0AC9B
3E256AE2
3E53BA71
3C41205A
3CC5A450
BDBBE30C
BC36A80E
BD752D48
3D360AC4
BA80A64A
BD3DB442
3D5CD160
BC091831
BD1BE8D8
3CF582B5
BD176729
3C89F653
3C9D2C9E
3CB869AA
BCE7B0E0
BBB770A9
3C198BC8
3CBE2C19
BC503F75
3B9E9513
3C87F25D
BE8AD22A
3C3D9C08
3B2D209C
BD90BF35
BE02B425
BC6B9AAA
BD807936
BD94A703
BC8E9253
BCD84CCF
BE08C171
BD16938B
3D13CE9E
B9F989A0
3D12FCC9
3D11E0CD
BD501782
BC5C81C3
3D6149D7
BDECD373
BD9D6B74
3D680BEA
BDA0442A
BDECC170
BD086D21
BD1ECE35
BB757DC6
BBE708E5
BD4BDC47
BD207B65
BD920D71
BCDE4AC3
3BC9191C
BD83CD25
3C0F52F4
3CE4DDED
BCEC9C2A
BC8BF8FB
BE00A591
3CC8EDA4
BDB33D03
BC69C13E
BD8ECF3B
BB39EFAD
BCF177AB
BD030353
3B873C05
3C26ED88
3CEC7134
BDD92773
BD4260DE
3D0DAFED
3C1B9F8D
BD425780
3C891E3E
3C93A3BF
3D984523
3CAB2258
3D1EAE98
BB8F0382
3CAC9B2E
BD01905D
3E350577
3B066786
BC821E5E
BD07A06E
3D29FCC3
BC9E864A
3CB8FB36
BD0265A3
BD5F98D3
BD5DEBCF
3C9F5982
BDE0196E
BB9F2C60
3D84A0F4
3C6ABE0A
BD0B11D7
3DE48431
BD89E988
BDDB4360
3D896408
3D5B0DB7
3CF51102
BDBB3201
3CF0A9CD
BD0506E1
BDC9C7B9
BE0B43C3
3C0E525A
BC9D1770
BD870EE7
BD6D0A89
BCCC318E
BDCE33FB
BCF8B6AF
3D69212A
BD92F6DD
3CC7BE9E
BBA002E4
BBEE7120
BD908E5B
BC582FBA
3D1D1931
3E04E4F8
3D806B99
3CAD5BC1
BD22A966
BCADE98E
3C1651EA
3CED5F07
3E101956
3C8DFCA7
3DD140B5
BD784428
BD2D4154
BB6A7E6E
BC3F0605
BD3D4677
B8819B2C
BE14035D
BDB8B307
3CA87878
3CBE741B
3C329DF1
BD2E7EEA
3D141846
3D9D13FE
BD376D24
3C6D4002
BD0AC493
3B7D2FCE
BD6C2C6D
BDA2D279
BDA3BD7E
3B4503EC
3DC511AF
3D6EBC79
B8CA248C
BC4BB03B
3CC620A1
BD6DDF59
3CA988C1
3C3B59C5
BB3D4FB5
3C96B6A5
BC99A3F5
3C473455
BD55C458
3D1FDDF2
BBBB0450
BCE0B474
3CF52238
3D40B787
BCCDA783
BCDAB482
BE010F6B
BA3BF153
3CD9E0AF
BCB29E48
BDDD940D
BE052971
3D3D53B2
BDE98A8B
BCBD034C
BCE4163D
BCEED7CD
3D19EBE2
3C46A2F3
3D48A8B6
BCEA6617
3DAD79E6
3E1D0E5D
BB5A8F59
BDA12CBA
3C920E1E
BCAB1F54
3D9E2BDF
3C63854A
BC80ACCE
BC83C8D3
BCF1A3D5
3C21F74E
BB490003
BE2557B1
3C9FFA49
BD0CF699
3C913EF3
BC39687C
BC4D28EE
3D2841D1
BE5356AB
3D121A00
3D056802
3D13F6FD
3DBF4EF9
3D426801
3D31F8D8
BCA80C1E
BD2B3E40
3D394EB7
3B8F20BF
3BC5958D
BD56D237
3CB223DD
3D3D107F
BDA37E04
B941C03B
BD191E55
BD167F61
3D9DE140
BD5448E7
3D2790B9
BBBE31D8
BD60D6EC
BD471108
BCFC429E
3D7F2379
BCA87523
3D59D5CE
BC463D7D
BDEFACBB
BCA8D098
3D92332F
3C87D589
3D92DACD
3C1CEF63
BD61FF26
BD98A8C9
3D84286E
3C56B292
BD15A059
3B35EA50
BD00F004
BC37C0A8
3D1AE696
3D50EB3A
3C5EFA43
3DDE85C0
BD15F986
BD70CBE3
3DA48D73
BB98376A
3E5B8F95
3CD84B70
BE22F84F
BD46B387
3D4384F4
BCD5F825
3B5B8148
BD069749
3DF98BC7
BD02B26F
3C60CC25
3DB29D8A
3E0E6444
BD5A5A32
BBA923B2
BD9984E6
3D4F78DB
3D03762F
BD0DD46C
3D2B5093
3B747756
3D947DC1
3D1926FF
BCF0CFDD
BDA6BEE6
BE06D391
3D1F4E2C
3D1E8204
3C054700
BCC55207
3DA26F66
BCCCB6AD
BCAA3926
3C98580F
3C890D87
BD2F83E2
BD4B5135
BD3539B7
3CF9D865
BCD3319C
BD80B1A1
BCFBDE05
BD93D523
3CD94859
BDCB0586
BD23AD1C
BE1254C4
BC01EDC4
3DABF106
3E162014
BC64D9B2
3C9830A1
BB8C02F4
BD2326F0
3CF78936
BD502F0F
BE11BE94
BE064322
39829FC7
3D7FBB01
BCD71881
BA1330D7
BD3797F1
BC973E48
3D07BD55
BC6AE57B
BBF376FE
BE115626
BD3E5033
3D4D3E9B
3D1B58EA
BC31EF46
BD060338
BCBBE436
3AE858AA
BCEC1CC2
BD8E735D
BDFA6E82
BD8A2D92
3C101398
BE001E1D
3D50BD22
BDEFFB68
BC7B0435
3CFFA984
BD704684
BB498041
BE4056E0
BB0968B7
BD5F4953
3E01D7F3
BD7F3CCC
3CC89928
BD1A6B91
BD99D64F
3BC17258
3C4F2B70
3D2C8ABE
3D23B845
BC7B5E10
BBF4E658
BD940967
BC9BAE74
BCED92C2
BBBABF8D
BD106FEA
BCF56692
BD9D1005
BD62CD74
3D7459E0
3DFFC580
BD0D6072
3D4AE783
BCAF603D
3DB053F1
BD4A9822
3CCD3B96
3D4CC3D9
3D3DA033
3C7E373D
3C8D4DF2
BD9D63C7
BDCB05D6
3D30D610
BCDA6D78
BCFD12B3
3BDE6AAE
BCE6EDA2
BE2008BF
3BFE733A
BD00F2F7
BCDE3092
BDA21CE6
BCDBC947
3DF6BE60
3D2AC014
3D3131AB
3C6CB2D7
BD80964F
3D34DA19
3D24D1EB
BD1531FC
3C1877CD
3D1A1CBD
3D2C9FD3
BCEB4C9F
3C972358
3D87D6A8
BD31D1AF
3D5021FE
BD3EC37C
BE063346
BCCF46E3
3CBB9E14
3D765821
3D4C2058
BD53D1B5
3E318047
3D2D9B7D
3BBFF286
BD6631EF
3DC2A960
BC076F0B
BC85900B
BCD5FD52
BE0317A0
3C0FA4F4
3C6CF4CD
BDBB6552
BD480490
3D18EE2A
BB649890
3CD88537
BD3D2FBB
3CDB8AB0
3C862923
BC40603F
3CFE6808
3D63892B
BC74BA12
BD092A75
3B1BBE61
3BF8E52E
3D26FAC4
BC2C8074
BC62ABEE
BCB73629
3CF8AE5C
3D178857
BD9438CB
BC5E6EF1
BD8BA9F0
BC22A23A
3C717EF9
BD407D28
BD98AB0C
BD6B71FF
BB51569F
BCD9F30A
3E17B3D3
3CA66CC5
BCF3C4B6
BD54A91A
3D2EB651
3D8043FC
BE2E5C51
BDAC52F0
BBDA5E96
3D130DB6
3B1DE9C2
3C8EF02E
BD559FF8
BD8B5D86
3E00ACA7
3D84C407
3D245207
BD07DD41
3DBCDA45
BD3D96C8
3D2801A6
3DBA8E8C
3D4E40E6
BC4B3B5C
BD54844F
BDB629AB
3E3C2F1F
3E0ED83C
BD5EB926
3CEC8B70
3D6CAF5C
3B5C5EDD
BD8CC07F
3C85B5F7
BD558A17
BDE66B6C
BD303CE0
BA95B10E
BCBEE4E9
3DB6CB2F
BDA9DFB7
BD4F21B0
BE0929A5
3D4BCF4D
BB8857BA
BD62AF9B
3DAFFDBB
3DD9BD87
BD27D02E
BDEB1754
BC32C23F
BDCE3B16
3CE6349B
3D82948B
BC541E09
3C0B9E09
3CAEEE64
3D98CFF0
BC807DBA
3D5EAD0D
3D2B4FF5
3D1A4D95
BE26BDB9
BD69C0BD
3D4A4864
3D699344
BB9F8201
BD6C5FF6
3CF305D1
BC011016
BD194838
3D805E1D
3D84E399
BCA0AE11
BCAB0860
BD830BCF
BCF3B397
3D4D1C77
B95330AE
3CA77C89
BB0F5D8A
BD1DD2E3
BCFD29AA
3C04AB06
BC8F533E
3C289F82
BA34114B
3D46FF2C
3E385552
BD16D271
3C545482
BD415EE0
3CC3C192
BD8C6C01
BCEFF3B5
BD96C91E
BD4C292F
3CAF33D9
3CC18B3D
BE0D8B55
BAA30101
BD079D85
BD4E4698
BB340B8A
3D62E7F2
BD0AD6CC
BCB6FDC5
3D0C7FC7
3D9F57A5
BD224164
3C7D2C8A
3C62AE1F
BE4D1BAF
3DCD2DAE
3C271540
BD95AA5A
BD9F130B
3D9AD609
3D2371CC
BDB039B0
3DBF25A4
BDC3E23A
BD1B3274
BCE8F890
BD880626
BD1EDA18
BBCD0391
3CF74A49
BD40396D
3E2BB537
BC755168
3C77239F
3D7DA9FD
3BF2FD29
3CC4ED0B
3D8F2B73
BDDD7D2B
BD29C5EA
3C1D601C
3D5ACFE5
3E1D0282
3ABB8C6E
3CF52145
3CFE5CA2
BDED1367
3D09F1A3
3D63D0F8
3CC1E857
3BD26547
3D85CF2F
3CF12A8F
BCD5B093
3E07BAA0
3D03B160
3CB23A02
BD299273
3CD39291
BD9E062D
BDAD70F9
BC8A2A1F
BD969DC1
3C9D0BEF
BB7178A5
BD3B96E6
3D08A2F6
3D5AFBFA
3B8A5A9C
3D56115E
3D5F61ED
BCCE691A
BD31AD7A
3C32A9D1
BDA258D3
BD56D4A4
BDB77491
3D5015B3
BD1BC713
BB942F27
BCA690BA
3C4A4718
3D453348
3D36E0D0
BD05C941
BD4DC37A
BC43BC09
3BCF36E8
BDA5348E
BDA1C296
BB239F1E
BD49D5A8
BD9ABB99
3C7F5B6F
3B5C4F85
BD6E428A
BCA9A4B9
3D1E58C8
BCE24202
BC0A835F
BDFC41CD
3D67A207
BD1D23C6
3C82B28E
BC518FF2
3D7F97F9
BCA7F155
BD24D4D7
BD539DF6
BC85200D
BCEB7149
BC423D02
3C52954D
3CCBF13E
3CF58739
BDE7E460
3D3947A4
3C33F701
BD75F63E
BDB1A4FC
BCB11707
3DD355FB
BB6913F9
3B86C7F7
3D27AA05
BD4303ED
BCFE12D2
BD12D3C2
3D2322D2
BDC83E51
3D3614DD
BBF93F30
BD8D4BEC
BD5992BE
3CF59591
BDB01AB0
3BC1484D
BC6B63DB
3D350FF1
3DA33AFE
BDD7B52F
3B8A153E
3E3A41D3
3D823847
BE119208
BDE368EB
3CC2F43A
BC816F52
BD8A7A34
BCCE6016
3D80D946
BDE8C6B8
BDBFC441
3C9D5703
3CBD67C7
BC21C14B
BCBCBD03
3C9DF8AF
BC768471
3D79E0DF
BC66E603
3C3DE230
3C97C9CB
BC631874
BD864606
BD899AB3
BCC3EA15
BC4C53FC
3D2B3C70
BDC683EA
BD944D41
BC4536F7
BBC9E6A0
3A09A8C0
3D643958
B9BCE05E
3CE8DD4E
BDAFBD25
3BFC7E56
3D5B79BE
BD27A9A6
3BF18444
BBA62A28
BD03CF95
3D362B5F
3CC0BB5E
3D1BB83A
3CEB8466
BC1FEC87
BA58EAD2
BB0FC889
BCAF1AFA
3D9D63C2
3D294B99
3D95D419
3CF3163F
3C0BA3D8
BD2D85A1
3CB3F05E
3CE02BBC
BD1D1FE3
BC8A9539
BBC619A9
3DB55BA4
BDFE69A4
BD948119
3D3D8FC8
3C826466
3CFFF91D
BC6516DE
3D880AC2
BD3936C0
3CF90349
BB1F8F3D
3B9CEE91
BDA322D2
3D72AAFC
BD51FA9A
3D35922A
BD5214A8
3C3BABF7
BB7FE567
BCEA1EE2
3C0B21F7
3BF9ED6B
BC76DE88
BDBF67F3
BE1C0312
3D378AF2
3DA935C3
BD977708
3C7526F0
3D298C5A
BDB2A0A4
3C10AF45
3D40152E
BD86D3A1
3CE23CEE
BD0C7075
BBFC2D72
BCB5A1CF
3CEEFAE6
3D03E7AF
3D707DD0
BD1CBF55
BD20330C
3D12536C
3B6CB54C
BC978F45
3BC9C5F9
BD129528
3D4C06E4
3C72E6D8
BD5BB2F1
BE026E21
3C07B6AC
BBF01D95
3DD14AB1
3D9633DF
BC844AEA
BC36055B
BE106439
3C6C9F4C
BCA3F85A
BCFDB8C2
3D7FEF1F
3D78C259
3CC56817
BDA3D550
BD97979E
3BD6D793
BDBB84C0
3C0AA900
BCF954CF
3D693312
BCA5CC4D
3E2B4799
3D937DAC
BC92E253
3CB4E6AF
BD07CAC8
3E0F8944
3D525BCA
3D9E392B
BCAB8F53
3DBB6B1B
3D09BE28
BD316D3E
BD4A71E7
BA95E0AF
BD706876
BCF417A8
3D09E26B
BD08A083
3DB2C82B
BD2542C8
BCD2ABBC
3C9BFFF7
3CA0EAA3
BD3A95BE
BD207453
3C3B6CE0
BDBFCE53
BE2B42A2
3D5BCC8D
3C644F2B
3D309B17
BDC7B8EC
3C33D181
3CD9EB10
BD8C75EE
BC9BE413
BD077B35
3D1BFD44
3CB7F562
BCB0DBBD
3E18C332
3CD0D03F
3C8A3BED
3C692378
BD317B7B
3DE410B5
BC91756E
BC0B3B33
BD407ED7
BDF38CB8
BC3248F9
BD36692D
3CB0F6EF
3C9BD2E2
3C4437C9
BDA6259C
BD3C2816
3D5C0A5D
BCB06520
3B42FBB0
BDCA1D7D
BCF66177
BD1E2546
3D5F006C
BCBCC993
3CA3EB71
BD7EB6C7
BD7EAF02
3D51A598
3D1FC20B
BB6FBC61
3D96A6B1
BDCC8574
BD46E488
3C073BD7
3BAFDAD7
BD4DC412
3AF0E924
BC948802
BA73F4A7
BCE0D2A8
BBB7977E
BDA7E1DA
3D308FE7
3D48E97C
BC4CA9DC
BDA5173A
BD232F97
3D8DF430
3D020970
BD5FDB2D
3D4401AF
BBCBB77B
3B4A19B7
3C04E7EF
BD90EE33
BBC6B7E3
BD48A616
3D85F27B
3D9B0582
3C011FE8
BDD03178
3D82669E
3CAD4F0D
3C9F016D
BD696C63
BD0D2582
3ADA46FE
3C13D76B
3D1B5883
BDA980C6
BD047927
BCF9E432
BC2AE40C
BD80B46A
3CF5D863
3D7224CC
3D6A821F
3D095188
BDB883D4
BDD859F0
3D2BA113
3B47CC51
BC52AEDB
BD497EE0
BC683EB9
3D0AE585
BE0B4EFF
3D41BE5F
3D5CB9B2
BD33130F
BCE32BAC
BC1C5364
3E2AFF37
3DA25B40
BD9BD6B5
BD68E6C8
B85F1427
3CE8EB05
3D7D331E
3D4C4CD2
BD38AABF
BBBD9C1F
BE1353F7
3AE5CBCE
BDD17ED5
3C163FB6
BDA9D7BD
BD0A760F
3ABA3D3B
3CB45AB8
BE4DC9F1
3D278767
BD8249C5
BC771062
3D71156B
3D238B4E
3CAB9D00
BCB01580
BC86D021
3D7027F0
BD43D37C
BD2B0456
BD4BA684
3B51D2D9
3C821FF3
3D81BE25
BE0685C1
BDA281FC
3B8E1EFF
BD8C91B9
3C484664
3D2BA922
BD8471A8
BDAA763D
BD32E7D7
BD9572A9
BC97516E
BD579DAE
3C1DAC89
3BDFA01D
3DF20F02
BC95485F
3D9F8BAE
BD6A4323
3BB1DE15
3D1D6958
3DAFFAA0
BD70F23B
BCB0B358
3B7BA27E
BD9B6E60
3E31627F
BE35C0D6
BC1C68D5
3C256C15
BD08F4BA
BE07ECFD
BD014B34
3D3EAF7B
BD829319
BCB2DAAB
3D65DDFB
3D3C8297
3C9A61AF
BD29CEB8
BE00A1CF
BCB38DF3
3D37FAA7
BE0BD672
BD19B2F7
BE4553FC
3CD31D9F
BCB328B9
3CF3D2D9
BB22BEFB
BC26B93F
3D3C1320
3CEBA55C
BC85F0DD
3C8BAFCD
3D2EB270
BD0A9C41
3D3B1FDC
BDF873F6
BDAA6B02
BD9FFE46
BD9A17EA
3D134C26
BD2E6999
3CFD8435
3E0931E6
3D3D2072
3CA1DCE5
BE59FB7F
BDD59ED7
BCBFFB1B
3CF42543
BCE0B755
3C9256B7
BDB1F69E
BD0BAF31
BCCE64B3
BDA3A7E6
3C5AB1DB
BDC8D2F0
3D027BCF
BD0721F4
3E178F2A
3D9B3414
3CABD071
3DED1B64
BAC5D5CB
BD436337
3DBCEFB1
BCBA06CC
3D557777
BE1725F4
BC981133
BAEB7DEB
3D59077C
BCA57B9E
BC4CF908
BCB1A268
BC9568E6
BC7CF478
BD9A682E
BDC24166
3C81C572
BD085725
BAA25503
3D81172B
BD170D62
3D1A6E66
BD1FE0A3
BD81A3AC
3CF8FA54
BD078DF1
BD88C43A
3B9AA5A6
BD30C55D
BD55C4D9
BBAE81EB
BACF39D6
3D101A08
3C546465
BD06F2E6
3C14CB6D
3D1C28E5
BC1ECA64
3DDB6F91
BDD349B8
BBABE8C2
3D5CC1AB
3CB1D5DC
BCF85156
BDB33882
3D259512
3D42CF27
3C354122
3D8029B8
3B8880EB
3C339F96
3C710B50
BB4906DF
3AE2E7A4
BCD55DA8
BCB6ABFC
BD9811FB
BD4B8572
3DC87080
BC5F6D15
BD169EC1
BD2C7628
3CBD3EF1
BD64FCA4
BD672BA3
3C81624B
BE2294D2
3CAFE6E1
3BC047BE
BCB9C403
BD31C185
3D12DAD0
BCEB920A
3CF731DB
BBA50002
3CA9F8CE
B93D4F80
BC821C97
BD70C050
3B63E2DB
BBD09F08
BCB0313E
3D1B6208
BDEF8B49
3CA21994
3D16D4FC
BD1EE9D0
BB95592B
BD0ED412
3CA60637
3DEA3316
BD12B9B8
BD229B97
3CE39420
BD8315E7
3AFBFA74
BCD18FED
3DBD40E3
BD236443
3D6FE756
3CF6B03A
BD7A5442
BD899E6B
BCD20628
BCFA8DD3
3C1793CD
3C748595
BDA15183
3D5C5C0F
BD968C2F
BC0511B0
3D7A7E61
BD09194E
3C10718D
BCA0219D
3C1B0CE2
BD46E0AC
3D5606C9
3CC597E8
BC3167EA
BD081786
3CC4213D
BD794ECE
3D278BD2
BCF95A71
BE121BA6
BC391711
3CA5E3F3
BD9C5A14
3D341665
3C956CA4
BDA118C4
BC2A291C
3C93FDB3
3D126AC5
3CF675E3
3D7D1A1F
3D7B0F2E
3DC98F1C
BCC622B3
BC9B5148
3C642333
BBD662D4
BC9C7B7D
3DE42705
3D08FB6A
BCFB58B7
BCEB220F
3C003955
3C2BAC53
3D07B5BE
BBDAF3EB
BCD35663
BD9732F9
3CA59DA0
BC7FC8ED
3BC67434
3DA54AB1
BC2A682F
BCFB6E63
3DAC3527
393F71ED
BDC2BFB9
BC52B5DF
BD4E3F3B
BD87D82E
3D0C6608
3CA55D3F
3C3CF0C6
BD5B6103
BDAC0AB9
3D991A0C
3D100DCB
3E19FB60
3DE60ABC
3D87E496
BCEE8ACA
3D509595
3D27F4AD
BCE734B1
BD5B264E
BCD751EC
BD256EE2
BDA2F4F4
3D24A5E4
BD546592
3D76BB50
BDBBA1A9
BC8962F1
BCADED43
BCB89446
BC6F929C
BD144342
3CF01EFA
3D59F254
BCF9268D
BC63C015
BB97ABDD
BC2E4B42
3CA02211
3BBDB3CB
BD37E799
3CAA02A1
BB4F153B
3D481E0B
BC8AC5D3
BD5BE1D4
3CB9628E
BD08B6F1
BBB2493B
3C0ECF48
BB81490E
3DCB8168
BD521024
BCDAD66D
3DBC3161
3E2995A0
BD66CD33
3E0E47CE
3AEB29C7
3C0B953F
3BD493D0
3D640BA8
3DB8A497
3D87CF4A
3D0EC9FA
B99FDABA
BD20C129
3D8085C9
BC63BB4D
3CFC1D40
BD436C78
BD055747
3A47A885
3D636C53
BD7CE293
BD40D7E8
3BE30F66
BDD0E7F3
BC973C14
BB6E59E6
3C996F03
3D901E0D
BDC2C102
BCEAFF1D
BDE3CA10
BD228B77
3DB62831
BCE1F1F2
BC80AEE2
3C0AB571
BD270597
BCE4B2DC
BC945CF6
3D6F3D72
3CAA8B38
3C2A1C0E
BCF40EDE
BC84CB5E
3D41232D
BDB2FDD3
3E10A278
3C5D01F7
BC8A3A70
BD2798D6
3E8499D3
BD321A19
BCEDECBE
BE1B313D
3B4DA36F
3D02F6BC
BB4BFA59
BC049633
3D39410E
BE2A979E
3D808997
BC42934A
BCE007F2
39ED6630
BDA789BC
BAE8470B
BCC298E7
3BD3A50B
3B965D9C
BCC4A6D6
3D20FB67
3C2EEF91
BD49FBF3
3D0D0420
BC9814E9
3C7C7C81
3DABEABA
3DD35A1D
3D25BEE8
3CC6D44F
3D9E3DE4
BD976D4E
3CDB1602
BD9B53AA
3CDD23DC
3E587CB3
3BD30B11
BD277E8E
BCA378BA
BD486BD9
3DA3DC78
3D58E8FE
3CCB45E0
BC2A6FD2
BD1E5B83
BD3F1D45
BDC2BDBE
BD104310
BC9EC9AE
3DCF6029
BB962C5F
BDA71423
3CD25EC1
BC4567FD
BD817C5A
3D614626
3C6FC8B8
BCF2240A
BD95A444
BD448AFC
BD87F205
3C08A1C4
3CD5DE92
BD4CCB08
BCCA5B7A
3D4184E8
3CD34354
3E1124DE
3CCD8C20
3D1CA718
3D9A4333
BD23F3BD
3CBB46E2
3C81EB90
3D2AD5DF
BCB3E355
3CB5A90E
3D3E6E2A
3C47D4D7
3BD0FC95
3D29F9F5
3DAF9DE9
3CA06782
3B445425
BD8CB004
3CDCD3AE
3D138EF4
BC302CE8
BD08B717
3CF1953A
3CCE8B21
3C76FAC5
BD1E6A6D
3CCC418C
3A7FA6A0
3D95520D
BCE57C4D
BD22FEE8
3D8F60B3
BC8D011A
BD5693D5
3D0E9F2B
3D4E5594
3D58B5D2
BD7AC02D
BC449D03
3CD503FE
3E444E6D
3E0B058B
BC21FAD5
BCD56E17
3DC3E001
BC602B23
3D660AEB
3D618F5A
3CA98D1B
BC8CFC28
3BAD9964
3D6290BC
BDAB4D77
3D4AFE02
BC2DF024
BD3B7396
3CFC44C1
3D270FE2
BD48F705
BD142562
BBDB96BA
3B6079F5
BD10567F
BCDA8182
3D60229F
3C5BB7C0
BD75F291
BBA1E4FD
3BABED72
3D7A4335
BD8F448A
BDD6B568
BC1F11F1
BD669B19
BE4FA772
BDCFC9E3
BD7A7D1D
3BCC8D51
BD7F6DBD
3D8467B5
BCABDE7F
BD8E2B5A
BD16DFF1
3D11625C
BC6227F9
BC2F0994
3BC1F6B5
BCE035C8
3CFE9DF8
BB0912DE
3DE2BC85
BD5B55D6
3C0E0F9C
BC8EAA61
3D429A50
BD9B4DFB
3D371D57
BC6BBD9C
BB6B83A5
BD065824
3D37FDF5
3B84E98F
3D0B49A5
BD2079A6
3D98506C
BD756F00
BD2B98AA
BD986426
BD0F83BF
3D6A05FA
BDA20F98
3C432954
B954C69B
BD134969
BCA785B2
3A1CAD1B
B9815A7B
3C88710E
3DC46F8F
3D52D5E9
BD5333FE
3D8774AD
BCBD7545
BD472592
3D11874E
BCBEAE9F
BD4D9E2B
BD86941C
BCD10FF0
BD14EC96
BC71B744
3991564F
BD4E080B
BC274052
BBFA8268
3D28F30E
3C8E37C7
BDAD7D87
3DAD0C0B
BDA19E91
BD4DF93A
BCAC0CA2
3CCE3820
3CD779EE
BBC6F894
3C1DAED5
3DB2F4BC
3D306FAE
BCE45217
BC25ED65
3D0F329C
3CD29938
3C94D815
3CB38F6F
BD20F312
BC2D8B6A
3C5E6D4E
3D551CEB
BD8B12B0
3CD8E372
3D89A4F2
3C91A77D
BD00613A
BD9EC309
BDA06DE8
BE576695
BD2AC378
3DA21932
BD898B14
3DA1BA75
3D8D3009
3D3E965A
BD1A2D1B
3C559142
3D89E55C
BD93D6FD
BC83666E
3D0EE460
BC9EB596
3E14B459
BD2C9DBB
3D1B5414
3D99AE22
3CC198B6
3D49227A
3B8D5798
3C18D3DC
BDC0943E
3DB16D45
BD2EF433
3D8C806F
BD00E98F
BC38F528
3B0CB37E
BD34F587
BB19B9AA
3CB43A0B
3D4E7752
3DB67024
3D273A73
BCDE5582
BC121D94
3B88204E
3D91F922
3E027B8C
BDA80D10
BD464504
BD54CE2E
3C0C8D80
3D6B7E84
3E375640
BCCC2268
BD6EF654
3CFAFCDB
3D9436AF
3C864513
3B14019A
BC488BCC
3D4D9F7A
3D04CEA0
BCFA65A3
BD6B23AC
BD7AE9FA
3D742018
BC9C5EF2
3C88E407
BD931719
3B637629
3B2BB969
BCA69C9E
3D27A1FF
BBDA551F
BD924AE5
BDB1B687
BD316615
BD03E6BC
BC407993
3CD4B78B
BC88BFDE
BCBE3662
3D70C0DC
BCD30095
3D6695A1
3D2CCE85
3DC56EF6
3CBF02ED
3803527E
3CB891DE
BC687C28
BCA55332
BD510775
3DA07A8E
BDBC3B72
3C842799
3D223371
3D8651EA
BCB756CB
BD89A297
3D003F87
3DB3D355
BC53C7AD
BD2FB60B
BD65AA5B
BCFCA996
3C7BB186
BC83D8EE
BD246260
3D54CB7B
3CF49EA8
BE10F65A
BC8C03A0
3D0128F0
BD5DCCBD
BD5EBEC9
3D8E0FF3
BD5FF8B9
BC40C574
3D20110F
3D7C3572
3D7E06BB
BDFD21CE
BC562B53
3C7E0CB9
3C0203D4
3CA7AF87
3CD5539D
BDA33369
BB8C8001
BDA7D617
BCAF0457
3C55751B
3C87A427
BCF78F62
BB922878
BD06D315
BD49189C
BCA1BE29
3A1BA097
BD00D8A6
BD42B3D6
3C0EE6D1
BBE74A84
BC41B9EE
BCC4B3ED
BD93142A
3B39FE3D
BD317899
BD17DF31
3CFDFD46
BC362026
BCFD3F21
BC2A2D99
BD1498B1
BCD033D0
3DB71230
BC7FF4E1
BA15A8C7
3DC7B50B
BCA1D0D4
3D187C4B
BDB29042
BD996C67
BD734CDD
3C9DF6D5
BD782C0A
BD8765B2
3B5D9F69
BC9CEA85
3D04815A
3D9194F5
BCC3B5DB
BC08F041
3BB5795D
BD530545
BC5C71AB
BB0979E1
BC8F504A
3CE8DD71
BD9DC4A2
BCC318ED
3D27E5DB
3C500FA4
BD3C0ED7
BD43F013
BD53784E
3CE73854
3DB0A85C
3D6038BD
3D81F51A
BDD4B095
BCD361A8
3AAEA89F
3CB8BDB5
3BC7CE57
3C578703
3C9A08A0
3B80D72D
BD80F40C
3CE2D8DA
BD05EAD3
3CD30CB0
BDA4E76F
3DBB68A5
3BFFF142
3D67FDF1
397285E2
3CA7F3DE
3B510DF7
BD3B6CBB
BC830104
3CB055B8
BC50C12D
3BAC0CD3
3D35BEB3
BC2F28B8
BDCD5108
BD07C259
BDEF3E36
3D5B6CBF
3C9234D7
BA152A89
BD8A166A
BD6C0BEE
BD812A75
3DC1D007
3D02A8B9
BD3CE87A
BD7F6320
3DB283B9
3CFFC3AB
BD7A614F
BD7EBB6A
BCBEAC5F
3D30F256
3C5F19FF
BCD985B5
BA8D0456
BD95EE5D
BD873BA6
BD703B26
3D84B297
3B35706C
BD5D8DDB
3DDC89FF
3CBF2DA6
BDCAC7A6
3D0DD2CE
3D0DDF61
3CCDFEC7
BD879D8E
BCD961D6
BD877B82
3D260CF7
BD2060EE
3C3D7141
BC34E836
3D82EFD1
BCDEADD4
3D89D643
3C4642DB
3D0CD668
3E3CC620
3C9A4D91
BACB8D4F
BD8E7645
BBD143FE
BD7DC24A
3B65FE01
3E89F32C
3C9E7B41
BC1364FF
BC8FC4EC
BD88C0F5
BD9D4CAA
3DDC0716
3D73AE90
BDBD9C9B
3D27373E
BE3B6273
3C538EEA
BCA803C3
3DA8FAF8
BC452E8B
3DF49691
3D73D3F5
3C1AA232
BD058D7A
3510755B
BD7125BC
3D9251EC
3BD934D9
BE07F784
3E191D1C
3CEECC18
BD5E4643
BC0E6571
3B32FCCE
BCC7EEFF
3D4DD992
3CC76FAD
3D3BFB05
3B8E17DB
BDB069B3
3B58CE89
3C475390
3B436055
3D8EE15C
3AEFC744
BB742CA6
3CB5D240
BCB3F91B
3B46EBCD
3D814D00
3C39FE8D
BD11B4EF
BCB5EAF1
BCF16C75
3B0379C3
3CC0CE2F
3DC4D6D3
BD9C61ED
BD98B159
BCEC79A7
BC630BA2
BC90B045
3D6BDB6D
3D364D7F
BCD3027F
BACF7AA0
BCDC53F7
3DA97D3A
BD2AB9DB
BD781E28
BCC4B32C
3D35DC7E
3CC4FE05
3CDBDA58
3D6C0381
3D9ADEC2
BE093866
BC973C9A
BD6E6B87
3CEB6A3C
BCBEE678
BCD28659
3D81B500
3D81FBD2
BC1EDB32
BC84190C
3D06A0D1
BD5C5B38
BCF5619A
3C7932E1
BD0E188F
BD8DE8D2
3D0083F2
3C21DEF0
BD704C00
BD84FBBE
BC278ED7
3D0AA7A4
BDE5F549
3D175D9C
BC9E30C3
BC9FD85D
BD3F2B69
BB951AC4
3CDD6A4C
BD0CA813
3CD5DEE4
BCA991A9
BD274243
BD1FCDA4
BB2E0507
BDA37A05
BCD27B16
BCC87A9F
BC1FEFA8
BD752D3F
3DAD54BE
3D0811F0
BCA262D9
BC992274
BBD89C34
BDD9561A
3D45C539
BC282EA2
BD17CE1E
BCF792D3
BD16390D
3D4CAE32
3DB5DB9C
BD864947
3E65FF65
3D90158E
3DA6A23C
BCCEC7D6
BCE0BCD8
3C004F53
BBC1AEB7
3C800A9F
BC8C74D0
BD39CA56
BCD30DD4
3DB2D09F
3D5E1330
BCFC527C
BD0B0878
BCA6CCB4
BD404B5D
BDBDDA96
BDA1C3BC
3B96F269
BC9B6A66
BC23DF06
BD541F9E
3D0B9225
3D5E4C47
3D7E7299
BDD2F048
3DAFF403
BD00ABD7
BC0AD0E6
3C8C18C3
BCF521C7
BC4BCFCC
3D545F1D
3D30B578
BD8DD1E9
3C0C34B0
3D4AA150
BD95CFCD
BCB6393B
BB5E6979
BC16B5BD
BD025999
BE1955AD
3D549C07
BD2DB2FA
BCD50989
3DAE2B09
BD4CBB43
3D20ABA2
BC2EE0DD
BC19DE6B
39D2E032
BD0E94BF
BD61A98C
BCB152D5
3B746A58
BCD45AC6
BCF11A75
BDA28621
BB33EC3C
3B991D19
3BA7EE5C
BCCDFBA1
3D1F0697
BD2C48D2
3A605E65
BC732A48
BA102FE4
3C5AECE9
BD3522FF
BDA39203
3D808221
3CDC918E
BD9714DA
3D14CB95
BD32427C
BD07DFEA
3CCA7636
3D513210
3C0A0C85
3BA4FB89
BD591297
BB48F1D7
BB2735D6
3C8C8B62
BD186B44
BC904147
3CD1796B
BD909820
BD9ABB34
3CCDE1B7
3D0FB0CC
3C855C0A
3DEA6385
BD37679C
BDAB2016
BE01C2D7
BD932DC4
BE102E4B
BD2EC7D3
3CEC60BB
BC2F8D4E
3D05FCDB
BA27A134
3CE47924
3C94C666
BD6331C3
3D8946D3
3C5A2ADA
BC8C87F3
BCE3F220
3D8DC3E7
3D88282A
BCD9E213
BC971CAF
3D0DA341
BCCD5FF8
BC0A0227
BBCDBD06
3D643AB4
3D9C5237
BD01FD44
BC1FF669
BD4B58F6
3CBD9A02
3D14FE43
3D12635D
BC93C9C2
3B4AF53F
3CAFD8CB
BD8517F1
BD648E94
3D799F0C
BD86A197
3C4BF991
3D6C6974
3BD6583C
BCF7BDEB
BC58485E
3D021B47
BCB428BD
3D8B181F
BD3A4256
3D993BBC
BC9D112C
3D1CAABC
BC1AF6D2
BD3BCA77
BD96579B
3D6EEE28
3C0AE390
BD207A7F
3B81B7FD
BBB52D26
3D22BD1E
3CB321DE
BD9EA6FC
BD58420F
3CB9A825
3A8E5527
3C5EB050
3CBA92D8
BCB9F830
BCE32EEF
BC5CE80F
BD75BE9A
3C68E74B
BB99FD56
BC9A859B
3DE4DD41
3D0B0220
BD21DFE5
3C40D656
3DDBE657
BCF41AEE
3C972145
BD0D43EE
3CA138E8
BD5F1241
BD9819F2
3DD1A9E6
BC6FDB66
3CC151C9
3B493DAB
BD880C1B
3D616ADF
3CF7B8B8
BD77973D
3BD25261
BCF0F2CE
BB235991
3D092117
BCF5FA6C
3D753970
3DB636F1
3D8F6E4D
BCF24578
3D9FA874
3C91C15E
3C83E4C8
BD1683B0
BCA9DE65
BC4C28F5
BDC126B8
3BEBEB07
BC1C9142
3C9642F6
BD64FA48
3D68BCF9
BC83755B
BDA2291D
BD2E24AA
BCA00446
BC52E637
3D44D2B0
BBD6E0C2
BC6A60B1
3DC7FAFF
BB57B164
3B8587E3
3CBC3642
BC970FD2
3CFD4E84
BC7AF85C
BD0E9CE6
BD30CABB
3C035B7D
3DB34DB3
BDA50B24
BD819FB4
3D00A99E
3D25ACB7
3CC1DEB1
BD194F19
3D2C7924
BD1C8336
BC5FD8D4
3D2D70B6
BD344A9B
3D14825E
BCF2CB49
BB9F65AF
3D4A69D2
3D9052B3
3C08741B
BD197E5D
3D9A7D43
BD4122E1
3D3EA0FF
3C7AD6AD
3D7E73E6
BC69783C
BD8DA4DE
BD475F02
3C3BFCF2
BC32145E
3DA95EC1
BCE74652
BCB362D3
3C63BE81
3C6BF578
3D8E3F95
3CD7AD5F
3CFEFC7D
3C3C5762
BBFF5496
BD599C2F
3D3B2ABC
BC3411A6
3D82778D
BD03A5DC
BD4354EF
3D6BB911
BD0454CF
BD1FBD4F
BBE8C429
3AC812E3
3DB6FDCB
3C675229
BD704EB7
3CA67FA0
3C483BE8
BD8D6C3A
3D32D10E
BD840576
BC8FDB36
3D10E266
BD3CCBCC
3D491880
BD07AA0C
3C38BE0A
3A096D7C
BE1415B4
3D87F859
BD42D687
BC968919
3D5A93B2
3D781234
BC9732AA
3CD605CA
BD2A3AF7
3D100E8F
3C5E869A
3D5225DF
3CC8E6A2
3C932344
3D0AC92C
BCFC5D0C
BD62333F
3DB25F13
BCC1F5C7
3D304290
BCA15F0A
BCBDB9BB
3D99F9B5
3CA18F13
BC74D555
BDFAB477
3E039C87
3CBB7A87
BD1E7819
BD5AF31B
BBAC68C5
3C54908E
BD1A9082
BC188940
BC92E231
3D202CAD
BBC16AA6
3D1B7B54
3D487A47
BC6E3353
BD9E0828
BC4A7596
BCB67DC0
3DB89BFC
3BC9F03C
3CD63050
BDC9B67A
3DD4DF0B
BC995C27
3C45A589
3D187F40
3D4692DA
BD1D5DC2
3D4942B5
3CBAD4D8
BCFD191F
3DD8654D
3C27E781
3D53B5CF
BD668BEC
BDA09D9A
3D761134
3D743DB0
3D7774D0
BD289B88
3DCCC77F
BD41FBD5
BD3F85AF
BD0F781E
BBD89B24
BD5C0DA0
BD76B313
BDD042A5
3C99BC24
3DCAA0AA
BD23401A
BD12C62A
3CAC65DC
BD30F7D4
3D85D76E
BDCCC059
BDD0AD7B
3C1538DB
BD2DDA36
3C5A8493
BCF37BA7
3CBE23E8
BC3EA9BE
3D077475
3CE5C28B
3D82D5D5
BCA397D0
3C923C99
3D304FCC
3D265D13
3DC7FD01
BD75FFDC
BD58A495
3D13CE74
BCB1A6F2
BB6761C6
BD3A90EF
3D20AE3E
BC4B7396
BD0EC5C0
BD0FF275
BD3A3615
3E5A548F
BD86938A
BD105DB6
BC3AA5C0
3D064B19
3CD7CF04
BCDF2773
3BFA327B
BD0C0F03
3CE1FD3F
BD89B8C4
BC41FE8A
3D172DCA
3C7632E9
BDACF4E7
3D8D5592
3D156E48
BCD8B26C
BDB8AD51
BB138D4E
BCD4A23A
BBC022CB
3D3E9A74
BCBC4FB5
BD38983B
BD5AB0ED
3B69714B
BD954606
3D8834D3
BC131B99
BC33B7A5
BD545710
3BDEE92C
3CE157B4
3C07B817
3C72950F
BB32C476
3C3EE438
BDB4318A
BCAE99A1
BC4045B8
BD9E20D9
3D7D7F68
BC600139
BD1F5D8E
3C8F868C
BD7473A8
3A8AD76A
BCA6325A
3DB34E61
BCCE1783
3D9798A0
BB9FA2E1
3CE347FA
3D9C36B7
3D856379
3D8995C1
BC34002F
3D0CA6B8
3B8B0E87
3C5C7E5E
3CAF7D41
BA9DE0A6
BB9FF7BB
BE03C4F8
3D6C1206
3C29DEE1
BC532498
BD2E8281
3C6D20C8
3BEC835A
3B8B5B7C
3D4244FB
3BCC3C79
BD1B3578
BD176B35
3CD161F1
3CDF0367
BCF3BB58
3D46D4B4
3D68CD5E
3CCDCCA1
BD06A6DA
3DAFF24F
BA5A6ED3
BDAC2034
BD1AED94
3CC3AFD3
BC5A256D
BD44CBBA
BD0467DE
3D28B713
BBCAA85A
BDC66715
BD6C579A
BD31F483
BC670BCE
BE30360D
BC02EDC9
3B79C5DA
BC0E29A9
3D2E42CA
3BB8070B
BD76CF05
3CFFA2EA
BE01FCB2
3D04A8AF
39AEDDEA
BBD93BAC
BDC2D5D4
BC3E3A2C
BD0C8708
BD305589
BC3E76DE
3E2E1747
3DA9463E
BCD52A93
3CE7434D
BAC9CC45
BB0D6E17
BD65A476
3C66859B
BD145F4F
3D997922
3C0166C8
BD89A80D
3D652561
BCD17027
3D2636D5
BD8EAB9C
3D41776E
BD1C30BD
BCC42256
BD0B3950
BB5C13CD
BD213819
3D38B857
3C05C234
3B62EE0A
BCC22227
BBAE3C18
3C86940F
BD860BA2
3C453629
BC221DDD
3AE8BC88
BC8295F1
BCF04AAE
3C87E854
3D80AFB3
3C0FD66B
3D7B2B30
3D6BC530
3CBFF7D8
3D7B11EB
3D59758C
BC0DCE3D
3D42A898
BCB38E01
BCDAAE19
3CBBAADF
3C83CA68
BD6B8FE0
BD9A623E
3CB50E7F
3DB17E6A
3C5D8DC7
3D5C0975
BD2EC5CB
3D0D4F50
BD52C208
BB066EC1
3CEB3A49
3C3F61B5
3C225BFD
BD546A41
BC681FDC
3E4F8F1C
3C1F2D09
3D20B443
BB59D9A5
3C3E1033
BD2AFB93
BCB1B87C
3CF83D45
BC238640
3DCF7ECB
BD46C08E
3D8C7B35
3CD07CB8
3CCADD8A
3CEF184E
3CFA5E22
BC9CED14
3C316A3B
3CB58CB8
BC558C96
BD1A48E4
BD2D90F9
BCCD4472
3C361933
BC1139B8
3CF923B5
3D46E0BC
BC8FBBFE
BCC6BCEA
BD2748AB
BE1BD524
3BBFE7B7
BDB42692
BBEEB522
BD3DAE32
BD38E942
BC9F7345
BCF835D4
3D6C3C58
BDA05406
BD7844B9
BD5A6310
3DBD56D0
3D404DE2
3BEAF71E
3CABE143
3D1FDF7D
BD5D9D0A
BCEC6327
3C38966C
BE210EFB
BD27C7DA
BCBE1BCA
3A8434F5
3D2E731F
BB4154C8
3C1DF3B5
BCC70752
3CDC71DC
BD4599DA
BC8DB6EC
BCF4FF39
BCE14FA3
BCB13136
BC985FCA
BC99C007
BC1EFD96
BC0390FD
BE090985
BD589BAC
3D2AABBB
3BB55D7B
3CC338D9
BD97BAED
3D068CD7
BD1482E6
3D124020
3CAA7007
3C78D981
3CB1AFBD
3D9159B2
3D217BD0
3CC6A6C8
BD9CD32D
3CDB7EBA
3CCCAD71
BE3D9A04
BD69AE59
3B703B41
3C1EBE7C
3CD5D6E6
BD5E22AD
BD7035DE
BCFD018B
3D7E125E
3B48E1D0
BD7708C8
BD2AD5B3
3CC11B6F
BC8D7506
BC8CA572
BD305017
3C0FCDA4
BDFE7985
BD373948
BD65C3C3
3CA61FF7
3D92D3BE
3DBB318A
3B1B41B4
BD9C0B30
BD205817
BD1C1A9C
BD54DCBE
BCB19269
BD2C828A
BD3E384C
BCFC8A01
BCF26483
3DBCA87B
3A67B1D9
BCC539B5
3CD11DE9
3D1F21EE
3D9B8C07
BCBB7792
BC25192C
BCBB5C28
3DAF5FE4
BD1A5680
BB13A49B
BC355C0A
BD0F2E49
BCB65A97
BD1A69F5
BCEEEA32
BD0D2090
BB1F6341
BD22769D
3C0A0ADF
3B97AB7F
BB6C1912
BC20B66D
3D42066E
BD026C1C
3D8D3BE7
3D37E650
3C86702F
BCC6CC4E
3D5DF64C
3CA9B3E5
BCE56F15
BC4B0640
BC4214F1
BD1CD5A9
3BCBB1EC
BADCFF23
BC907280
3CAE099C
3CF73A4E
BBC08AC3
3D84375F
3D234043
3D6745B5
BCB3D60B
B9B73BEF
BC5E1319
BD62BF83
BAB1001C
BD122DA2
3D5CFC67
BA87EAA5
3CBA82B8
BCC53624
3D89BA56
3D93A1F9
BD94F52E
3D1C1368
BD808D2E
BD0450D6
BC973067
BC1CC0DD
BC6409A7
BD882340
3C93DAA6
3D96349C
BC52DA9F
3C048404
BCC7595D
3D2BAAB0
BE003EEB
BD2353A6
3BE40EB7
BE0D3701
3C2357FB
BD2B1696
3B06640E
BB4809D3
3DC4C882
3CD5BDB8
BD9053BF
BD011E3D
3C339274
BD3A0E46
BB436E4E
3ADF3F2F
3CB0D086
BB54F6D6
BD30BA83
BCCC45A8
3CA2F6FB
BD010201
BD87DEB1
3D05C716
BC4F75FB
BC6E9708
BA92C746
3D0A05AA
3CE1AB21
BD3F4030
3CB151EE
BE86B74F
BD502C8D
BC593F20
BDA463BD
BD1183CD
BD025C9D
BCEE2513
3CCBFB5B
3C91826A
3D362D71
BD21FFD7
3D5E8B24
3D40B89C
3D61583A
BC4D1F0B
3CEF342C
3D3F28FC
BD7AFAE4
3DA8B289
BCD326B1
3D912A29
BCD941AB
BC9C0B27
3D059D6C
BD519BC1
BB1CBB35
3D3BFA72
3CC0979E
3D076891
3D06FB47
BD6DCC68
BD08E46B
3D7F8780
BCA67C68
3E1DCC51
BC497113
BD18C61E
3E152E40
3C6C1108
BD32E5F5
BC06B62B
BD585AEB
3CC3E691
3CBCD2B8
3D4A6F60
BC911BA1
3CB1A07D
BCF7D440
BD189673
3CA877B7
3CCB8104
BB73A860
3D7DB407
BCC61D87
BC820987
BC9D1617
3C097BB2
BD887268
3D4BCCE0
3CF075A0
BD067BD0
3D18013B
BB158C2B
3D37F044
BD9CEC06
3CE64C94
BCBDA0F6
BCF7887B
BD04444F
BC968DE6
3AF50B64
3CC07ED5
3DC33600
BCDF533B
BC5F2B6A
3D64EC3E
BDB267D6
BDF4099F
3C746A63
BD73AF5E
3C4E500D
B8F3D334
BD03F3A3
3CF9EAC1
3D23C9FD
3BB7F2AD
3C6B045A
3D6D82DC
3D228612
BC929D21
BCA07083
3C428D74
BCDC7470
BCC5631F
BDE66480
BCD85D88
BD5B91BA
3DF7E1D7
BE2DFAA8
3CB01926
3C4C6CAF
BC89FA89
3D8A4AB7
BD3D76F1
3D1F2869
BCC2B674
3BD20E9A
3B979839
BCF1FDDA
BD15F344
3D0212AA
3D81575B
BD2D01CE
BD3F4B2B
3C0CD3D1
BA141883
BD08F87A
BD0A4142
3C1A5D97
BDE71876
BCACD873
3D33AD32
3CE52107
3B1A2DE7
BCD1922E
3B85187D
BBCED768
BC0DBBA5
BCB9ED15
3E18529E
BD00AC54
3C758021
3D965A9B
BD630C60
3C14DFE1
BC8701BC
3D52B13D
BCE06CF8
3D9D4A3D
3D86B5BF
3D0525E5
3C67E880
BD418445
3CAFED24
BD06A278
3CF5FC89
3D295C06
3C17272C
3CA70733
3CF53675
BD5D8368
BB3A472A
BD82D8A2
3DC6736F
BD895582
BC2FDC5F
BCA816A8
3BDEA09B
3BBCA71D
BD8ED388
BC96724B
3C905D6A
BC76111D
BC6ABBF6
BCACE8D7
BD16B15A
BD874768
B8BD0799
BB675CBA
3C17B3F8
3C364B60
3C9FF057
BB20A92A
BDA3B8E1
3CF5746F
3BAB7C7E
3C06B7F4
3B50E4CF
3CA6C1D2
BB91D90F
BDD0E390
3D161B54
3D8BF664
3C3C7A7F
3D890464
3C1CB6A0
BC9EAB88
BD5F2E26
3CEBAAB4
3BC3492E
3D91893A
3CE61C61
3D34A85A
3D6E7834
BCF06354
3CD666CA
BD26ABAF
3D6DF1B8
BD390230
3DA9C005
BCCFFCF0
3D4C34A3
BC8BCEA4
3B937156
3D8163A2
BC884391
3D4038B0
3BB935E6
BD613860
3C712366
3D47D12B
BDC4A22E
3D511D2F
BBABD427
3C9AA5C7
BD20B3C8
BC5E9787
BC992208
3CA3E176
3CCFF5E5
BE01EF6C
3DABC6AD
3CE02A81
BCC68F3E
3DE84E28
BE5F1A04
BAF25F7F
BD17F723
3C95F50C
3CD27F1E
3D2B0F51
BB1A00BA
3C29D786
3C1437EE
BDE7E638
BD67367B
3C66BD59
BCA16BFB
BCA972AA
3D5BC5AC
BD2B1BC8
BC51B8C4
3CBD8C48
3D59B408
3C03CF12
BB48E399
3CF125EC
BCBD8634
399BB01C
BCB84A43
BCF9FCB6
3BA3E718
BBA648DE
3CDB60DA
BDE34563
3D3D9520
BD6A6FFC
BE004302
BCA2B1F1
BBB5266E
BCCA0E32
BC2AD798
3D367B94
3D69DF22
BDDA8C47
BCB74C4A
3BE05EC7
BC3A9959
BD012BC6
BDBDB1D1
3CA9B6A4
3C77EC9A
3D027B4D
BD25828D
BD1D9C3E
3D7991C5
3C406E0A
BD023A1A
BCE14593
BC409CE9
BB8F2190
BC9FD07D
3D88A345
BC9E3A62
BAA79D28
BD430679
BD891034
3CB1C8BA
3BE8AC9C
BD20B877
BD0211BE
3C847FBF
3CC42F41
BC31665D
3C4F6534
3CA5CCA0
3E073B3C
BAB9A093
3CC03382
BD860457
BDD8B9E9
3DA34EB0
3C9D8E9D
3D5C7A32
3BCD270B
BD988229
BD0BB471
3AA3274B
BBF4C87B
3C8071DF
3CF22882
BD011967
BB11E4EE
BC2844C9
3D32EEFF
3D7E0557
3CB9D0D1
BDC3A574
BC96744C
3CD7222B
BD294E68
3D3C8E64
BC829B8E
BDB7397F
3B1FE1ED
BCAE5F32
BDC28B27
BCADBFD8
3D6E76FB
3D3A38D4
BD850BE8
3CB08073
BCE35AF9
3D699501
BD5C9733
BD6A4F12
3E2E6D66
BD00FA31
3D90589A
BC3F8C33
3C6A8B16
BA20FA64
B947431E
3D900971
3DA9ADEE
BD448AA8
BCE82849
3BC27A0F
3CB7276D
BCBC1510
BD97D1F5
3D480CB1
3D96EC1E
BDA7F0AF
3BF14DC7
3D4C8ECF
BD461CAF
BD26A72E
3D5B843F
BC17416F
3CDF1C1A
BC9D95D0
3C70A3BD
BDE23972
BD49E4D0
BC08113A
BB7DC90C
BDA00663
BCD47DE2
3B252574
3CCE9EA4
BD32EE7A
3CC522DC
3CCE92E9
3D486A85
BD53725A
3C8D5490
39C61EF8
3CE90BCB
3D142253
BDBF339A
3C7CE1C7
3D0511BE
BBC3889D
BD70A41B
BCF6F33B
3D3DB857
BC74A5AD
BCC8D5B9
3C93EF2D
3CD559C8
BCC0EA4B
BD748E76
BBD43763
3CF4B5F7
BC5A34A5
39F957C2
BCA40D84
3D43941F
3C7124E1
3BF7B08C
BD680EA2
BD0653F1
BD9A86A9
3D2836BC
3CE01F33
3D99AEB9
BDAF181C
B935AD55
BB85A1B4
BD155A80
3CBEF705
3D096C6F
3CCC6C87
BDB2132C
BC149A06
BD077794
3D5729B1
3C8895D7
3CEAE28C
3C111859
3C60CE8B
B9FA122A
3C0DC725
BD6C98D1
3D90088F
3C9098C4
BD94ED62
BD34D278
BCDD2819
BC68D1E9
3CCD72F6
3A44D93D
BD9D9674
BBC85592
3C828C0D
3C491638
BBDFCE04
BD46E241
3CA296BD
3ABAF9FF
3C497203
3AAB7014
BD244CD3
3E36FE51
BD7DCB87
3D04DF1C
BD6D2F5E
BD1BD790
BD48732C
BBB904F4
BCBD7BBD
BC8D798D
BD528795
BD4C0DD2
BDA87396
3D8211BC
3CDE845D
3D1A3327
BC5BC816
BD0FBB04
BDAAE8F0
BD33E40C
BCCB18D6
BD4F509C
3C24EEF9
3ADA4A13
3DEC750B
BCCDCFC7
3C67B4BA
BCFAD510
3C06ABF0
3D808184
BD3CEA40
BC79EC85
3C0E9C06
3D5DD9B2
3D4CA535
3C86DD8D
BCD9FC26
3CB7BF02
BD8FA2C5
BDD03594
3C7AE454
BD5B67AC
BBE6668B
3C62AFA8
3C926029
BD1B8EC1
BD4D14BF
BD9FB889
BD092E46
BCC312CE
BDA15A36
BD92D8F2
3D939CB1
3C8CDF66
3BE5C147
BD5C1E34
3D25B670
BE5827D0
3C14BC94
3CD06EB5
BC77B6ED
3D23B49D
3D2E13A5
BCADAAC1
BD1D8BBA
BD6E80B4
3E064935
3D086789
3D8AE2B7
BC185367
BD609127
3D1D9677
3C4C3BF8
3BE19DA3
3B0770DB
3DBAD546
3D221058
BCFC077E
3C262C4D
3C63BA97
3D192BB9
BBB4E0D8
BCCA77B4
3BDBCD6F
BC312A0B
BD1AA915
3C65F08A
BD40B807
3D8CA025
BD53E07E
BCB09A3B
BC4667D9
BC1E8E8A
BDD44397
BB853489
3DA746DD
BD2C9AC6
BAB1B3CC
3CFA1A31
BD0DCE4E
3D7B404E
3C58F761
3C73C3E5
BBD6D3A4
BCE4CFB7
3CFC7B92
BD996255
BC42D2AE
3CF5BCF7
3A9D05B2
BE4F1086
3B78FB10
BC9B106C
BBC11E71
3CC960FF
3C5F4395
3C1F2355
3D006573
BD1E950C
3C9980FE
3D3F3ABB
3DC9FA14
BCE8FF05
BB7135EA
BC9EB2AA
3CD571DD
3CDD83C0
BC774D90
BD70CF14
BCC73CD0
3DAB2C7D
3B8EE8EC
3D14D132
BD28458E
BD14B70E
3C2E4729
BE10F408
BD2D8D8A
BDCA18BC
BD770092
BD100F9B
BC79761D
BD5F57D7
3D005816
BB345127
3DAC4A89
BC9BB4B3
BD46A52B
3D07C2F0
BA0C1DCF
3BC24AD7
BD5862E0
BD52DC74
3BA5C8D8
3C9DAD90
BCE59776
3CAC9F9D
3C7B64E7
BD93FBEC
BC2B3027
BDEFE956
BC01E32D
BBDEAA0A
BD218F14
BD13B5C7
3ADA68B6
BC27B0E5
BDEFDFCC
3D2A2B80
3D252E08
BD24335B
BD80DDC5
BD544900
3CCBE1BB
3CD1E12D
BD3B910C
3C9FE8BF
BD8044C8
3D70AEE9
3C81BEA1
BD117F74
BD3C02C8
BD7B0FE0
BCC8983F
BC3DC45B
3C32D0F7
BC02151C
BDA312FC
BD0D480D
BD3B6768
BBFDC991
3D0F8FD1
BD38912A
3B898A9C
3C0EEB7F
3CFB62C1
BD2C6A00
BD827EA4
BD883557
BD103A0F
BBF88D2C
3C0046E3
3C8504AC
BBA613A2
3D0C1C2A
BDB0514A
BD5D5351
3D04DF59
BCC7C8D7
3C2BC3A7
3CE60FDB
3DA10AEA
3C19F2E7
BD925FF2
3C451460
3CFB6DAA
3CA419A0
3C3882A7
BC7BCDD7
BB851A27
3D3F1B97
BB830CF1
BCBF4CBC
BCF8417A
3A2DDBFB
3D96721F
3DA1626F
BCDD3981
3D72886F
3D587312
3DC511A7
BE7DFB0C
3CB76A46
3D4E831F
3C1EA08D
3D55F70E
3DD605A8
BDD45F4C
3C4610AB
BBEFE19F
BB9A713E
3D4E3F68
3CF57B0D
3B1E7777
3D075D04
BABD16C0
3CD4C1F0
394BED23
3C184C91
BC4071BD
BBE04F58
3D8C5208
3D831A54
3CF30144
BD07A183
BC969FFD
3C8C3490
3B82CA63
3CDD5282
3BD36CFE
BC4E4D38
BD1BF32D
BCA318FA
BBF787B1
BBF47D75
3D627740
BD5A4161
3D041627
BBFFEA10
3C3137F3
B9FAAEDC
BD9FD364
BAC5F03B
BE1B92B8
BBDC82AA
3DD19706
3D02C5E0
3DAFB6BA
3D0B3CB3
3CB4B3DD
3D90A4E3
3D1B8322
BBA2F121
3BD119F3
3C28FE36
3D2AB388
3CAF8D98
BD157694
3D694376
BBAFBE08
BCE8C994
3DA0EAB9
BD17D75F
BD09F45B
3CC1438F
3D14C228
3C0DB896
3C88AEFC
3D282A27
BC06CB16
BD5C5171
BD7FB9BF
BD36F1F1
3C71474E
3DAD06A8
BD754436
BCFC4D58
3CC8B5D8
BCCB8E42
BE15949A
3C863A65
3D1E3697
3D063F84
BD03E4B4
3CFD03AD
BCC9DD64
BD4E82AD
BDC017D3
3C8E98BC
3C13626A
3B8AFECB
BC67FF7C
BC8CA099
3CC0817D
BD089EEA
BD897442
3D36127E
BE1B15AA
BA6CF9EA
BD3AE711
3CE54760
BC234DF7
BE2D00A5
BCEDF21C
BCB8D546
BC59ACBD
3D20D7D7
3C19D981
BD7923FF
3D95D6DE
BD3C29AE
BBDE0360
3D15CAE7
BC4CC67A
3B2830FC
3CDEA7CD
3C22E42C
BD707AF7
BC7F2DBC
3CCABC42
BC609E00
3D162D75
BDA3DF33
BC604BB7
3C6451FE
3BF51906
BBED6791
BC0B76FB
3D4EEB93
3D2F122B
3D1BB3E1
BD59EE27
3C2D6198
BCD85124
3E3CB73F
3CDABC7B
BCCE5540
3DD6CD3D
BCED8833
BD8D4D48
3D28667E
BD066299
BCCD52A3
BB8AD4B1
BD54158A
BDB4C3A5
3BAEC785
3D655BDE
3C48E0E3
3C8CF738
BB3424FB
BCE126C4
BCC065F5
BD64D8CB
BC8F46F0
3D2FC465
BD1FAF4D
BBDCB130
BD2E7D1D
3DDDD282
BC877688
3E425BC4
3DBAC19A
BD506E93
3974945B
3C6E67EF
3CAF14D8
3D5562C8
3D00069A
BBD2294A
3D1DE6E9
3D45852D
BD4B09A6
3D03F7A9
3D0A20FD
3C151372
BD891B4C
BD424611
BE1C8B42
BCB3A4CC
BDA50824
3D4C09AE
BCBB25C3
BAC71EA1
3D114623
BCCB4ED1
BE4E376F
3B1CEB9C
3C7902F8
3CC173F9
BC0EEFA6
BCB96D26
3D41D75F
BCD4AB9A
BBF5D45C
BD27B198
3BCC2EAD
BE0106D9
BC2C2245
BC675CD0
BDAB8669
3BE353E4
3CC7DE76
3B322273
3B8F1520
3D2866B9
3D260E4D
3DDFDA08
3D1B23F1
BCB973CB
3D46DA06
3CC1DD16
3C967EF3
3D6B3C18
3D8665A8
3BD89103
BBD76384
3D63C199
3C94D013
BE422B79
BCDD91EC
3C1DD451
BCDCE77E
3C43A1AF
BCCC8BEF
BC848D9D
BDBA8E07
BE47B9CF
3D0E9D3A
3C4C0BCD
BD41F445
BD5AE2C8
BDABC747
3E04FD9C
3C33B54B
BC60A423
3D537EDA
BD12B420
3D9E722F
BD017D3E
BD4724C7
BC8AF2CD
3C387807
BCEF4A07
BCEE8849
3BE84C7C
3BC476C2
3D3439F2
BD129E46
BD99801E
BDF12941
BD123A1F
3D0FDAE4
BDB8CED1
BD40120B
3CE0335A
3C8312CF
BD2256D7
3D3E5B13
BD5A4C83
BD542B96
BD35C331
3BF17130
3DDE4B87
BBA264D1
3CB71811
3D153EF7
BC2C4D15
BDB23375
BB4DE363
BDD892C0
BD518F33
3CB7EE6F
BD7D0001
BCCC9BAA
BD8F2D04
3D2B2844
3D60AF5F
BCC54052
3CA70A5D
3B370255
3D435443
3D1E8E28
3C16BE3B
3CDE70F0
BC4FBE51
BC8985F7
BC93450F
3C29A335
3D034241
BC9A815E
399E1AB7
3C46A6F0
BD94B7D2
BD8DC5D1
3D63368F
BCA3CB04
BC7D5B75
3E358226
BE0A9572
BD5571ED
BB9BF6C3
3E0BD316
3BB9E0F0
3D69DC5C
3D7037C5
BE25921F
BC835F7B
B9D399EC
BB503A70
3C509439
BD33EA44
3D6AB565
BD10D27D
BD7CC663
BE0FC772
BCBE5A76
BC12B412
BD4FAB18
BCCE1666
BD301497
B9EC37D4
BDE272D5
BE0137F3
BC2B16AB
3C980281
BD9EC71F
3CECE371
BCD6730D
3BCF7609
BBF52A09
3D9400DA
BD38689C
BC3E5912
BD51D61E
BC0CE476
3D410F29
BD198017
3C7DA9DE
BC8666B5
BD0A7CCF
BD37DA45
BDD17581
3BA5E9B1
3D47BA82
BD0F19D9
BD8E2978
BD6BC7DB
BDF3748B
3DA1774D
BDFE90EA
3C10A3A9
3D0899F2
BD4AEB4B
BD320F2B
3C138D8A
3CB03694
3D29F46F
BCF00C2E
3D48125E
BD8664F5
3C8CDA9E
B96DDDCE
BDA30A05
BC9B0277
3C7B9DF5
BD71F19F
3E264834
BD1EED5C
BC54951A
BE73E460
3B9A43B8
BC8BB140
BD6271BB
BBEB8A2B
BD08373D
BE0A9D8C
BD0578E1
BE024591
BC52A43F
3D469332
BD78A3C5
3DA8C74B
3DC6C402
BBCF6A8F
3CE67F39
BC66F4DD
3D6D425B
BDAACB92
BD82BAA0
BDB944D0
BC83A927
BDBCB086
3B933E77
3DAAF534
BDABB4C5
BC370FB1
3D5C9165
BCEA4F9C
BCCA7A2C
3E368D4B
BCF54F82
3CA4D7C9
BD85EB7D
3D3D4618
3DC7ECD5
3A41E2BA
BD0C8AE7
BB437C1B
3D873249
BCA9B60E
3CCAE047
3D7ED0D9
BB3D5362
3D60DA08
3C16C87E
BD66947D
3D6A5B0E
3D561861
BCF9B926
BE05364A
BC959798
3A517C9E
3D6770AA
BD0A2BE5
3C6FCFB3
BE01C110
BD4BCAD9
BCAFB0D0
BCE1BDB6
BC868018
3E1B4B92
3C8D433E
BCF8E3C1
3D2822D0
3DE81D94
BD8A55A9
BC9E2170
BC078353
BD5C3D84
BCE3371E
BC614B8C
BBF8FF88
BD1396CC
3C94CF7C
3E0BA8E2
BDD1BF14
BC26BC21
3D122C34
3AD61113
BC699BE0
3C076F36
BBD523F5
3C03B2FC
BD76C4E2
3C59D855
BD6D45A1
3CE87BA8
3DA0E8EE
3DD47D10
BC9D16F7
3C532AD9
3C9BA8CE
BD921E87
BDAA4633
BDAAB605
BD5ABE5E
BBB1B515
3B122EBF
3D0726D5
3BAB0948
BD236AD0
3E4EE8EA
BD58D5B3
BD008E57
3CCCCF25
BC6329AA
3B7FA69D
3DE2A602
BBCB3F37
BC0A83A8
BCF1FE76
3D9077CC
BD24E9B8
BDC24692
BB34F069
3C92C338
BD2058AF
3D3674F5
BD5CAA72
BD3FBCC4
3D29F7CE
BD3ED268
BD58E764
BC7CC2C8
3D408A11
BDE0974E
BD28DD21
3B55F9F4
BD2F3B25
3DEFD0DB
BDAA1608
3CA68C16
BD85F7B1
BD61C27E
BD21C2C6
BD3AD87E
3C39D29E
3DA92B3B
3A850590
BD899E4E
3CD6250A
3DC3BD7B
3DAB9EB2
3D88887F
BD28B44E
3D971C1B
BD1DC1D6
BD1EA41E
3D2A7508
3C80B495
3D28F2E4
BC229422
3C5FBE8D
BDBE9318
BD5415C2
BD3D72C2
3D5EAE53
3D5DC6F4
BD245152
3D4EDE8C
BD3373EE
BD01B13B
3D2FE318
BD444CCB
3CCD27CF
BDB97364
BB1D07B5
3D838083
BD515FBF
BD2E549C
3D750C12
BCEF5417
BC9C31D9
3D61C08D
BD60D8AC
BC5F4EA4
BB33EE8A
3CEE8061
BDAB1D4E
3CBEA7BB
3C4BD49B
3CE24E04
3D8CBA7E
BC68236B
BD074231
BD3C59FB
BCD9A617
BDBE0962
3CC19670
3D282786
3D80E88A
3DA9016F
3C9CE0DB
3DA147A9
3CE17869
BCF808A7
BC31C0D4
3BD543CC
3DAC922C
BD16E8B7
3D85F3A9
BDCE474B
3C3363FC
3D13D9B2
3C323DB0
BDE39887
BD9BD7E4
3BE32EC6
BA363CDF
3C9B2BE1
3CD37C83
BCDABE3B
BD101343
BD86A15D
3D5F1FB5
3D1E6891
BC7156A1
BC09C512
BB754AFD
3C03E676
BC86AAE9
3D302552
BD9FC438
BDA55E0D
BD79CBF3
BD2396B0
3D711426
3D55E8B9
BD8A3981
BDCA714E
BDD1B0ED
BD108958
BC4F981A
3C84F8F9
BDB741A8
3D9CAE19
3E2B0556
3BFBA5BF
3DA8325F
3D43BC3C
3D1B4520
3D2AA284
BC8F0CAC
3D52B3AD
BD226803
BD3D6AAD
BC8AEC51
BD83630A
BDE8710E
BCEC1465
3CB8A01B
3CA8147A
3D38B32A
BCA336EA
BD340DC0
BD6B787B
3DB1399C
3D31BB4B
BA96399D
BD8AF9D6
3D2931FC
BD115AA4
3DAC032A
BD2FABEF
BD31C400
3B1B5B10
3D2F137C
BD99E87A
3D39B6D8
3D031866
BD589044
3D039289
3DF5AE5A
BDC62334
BC991F7C
BD18AB24
3C4B3130
3B014D09
BC61D4B2
BE256E28
3CCFAB6A
BD922B0A
BC2F7ED9
BDB773BB
BD422DDE
BCA1F21A
3D286769
3C72DDB2
BD51A54E
BDD5C54F
BD3DA05D
3C7934D6
BD435051
BC793AAA
BD95FE0F
3C885840
3C64AD02
3B3D054E
3BB0FA31
BC8ECFCD
3AF2CE02
BC10CEBD
BB901825
BD531EEE
3CC4CD7A
3DBDFAB6
3E1F21DB
3B95BF1F
BD2477EA
3C5A4360
3D0A6980
BD8A81B0
3C9343AF
3E0536C1
BC5426AC
BD11060F
3C780A07
3CFD59FD
BB76C995
BDBE60B4
3D03CA14
BCCC5883
BB72862C
3C981082
3CB95F92
BD14927F
BCFCA243
3D405BF2
3D30BE6C
BC15974A
BB4D26C6
BCC73708
3D8E4E0F
BE2CD8B8
3E1F81F9
3C819A44
BBFB90E1
BC97C7DE
3D4C2CFA
3C167B9D
3CEE2EF2
3DD71ED6
BB0CAE49
3DA0F0F9
BD4D775C
BD25A5A5
3CFFB944
BDCA3124
BDA9249B
3B93B405
BD874B5A
3DCF9504
3D3C82E9
3DBB46B0
3C72B571
BE56398D
3DBC96B5
3CCA53E1
BDA7DEFD
BC7FD665
3C92C9AF
BD2502DF
BD3726A3
BC42EDE3
3B34EFDB
BDA1D01B
3A772C8A
BD5415C4
BD916A30
3E0FBD35
BD49670A
BCEA5CFD
3CC5124D
BCAC4BEC
BC788F30
BEA5E3DB
BD2DB0FB
BD13F76D
BE258AA1
BD164597
3DF07013
BCE2B1C7
BD0C7F83
BB682624
BD83F589
BD776001
3D2B9B19
3C996E97
3D910495
BDF0CCE0
BAADEA89
3A76A765
3CAD3824
3D460E6B
3D8C5446
BD5C7E7F
3AC04AEE
BD20DBE3
BBE222BE
BA6631FD
BD11CD14
BD6ECF23
3D6EC2FF
BD05A2C3
3DA02B21
BDF807D0
3C9C43AB
3D976F37
3BBAA63A
3DEECF8C
3CFB8613
BD383C92
3DD372D0
3D17BC48
3D27F4E1
BD21A7C7
BDA92CF0
3C8672F0
3CB96DF0
3C44095D
3D4D7BF2
3B209BA7
3DAB345C
BDDD3F0B
BD7DC38E
BCCE1A67
3D266CEA
BDAF0EF7
3CA348BC
BC594B5E
3DF2BF2B
BD143140
3D4FCAF1
BC98E8B7
3DA7000E
3BA53B89
BD894C9A
BD2CF1EF
3CAD2BE5
BE1DF75B
BD0204FF
BAE66F53
BC417C1F
3D2613EB
3D5A7029
BC9CB9A5
3CDA9E9A
3D2DB434
3D19A563
BC8272E0
3D79A6ED
BC8D86DD
3C39BB05
3D3EAAEB
3BB3BD21
3DBEB5DE
BD12F8A2
3D18D745
3CD1CDB7
3AC2A13E
BD8FAAC5
3E1F17B5
3C9A0598
3DA1A72A
BDA316B4
3CBC5688
BD82A6E5
BCB4BE73
BD1FE567
BD43D3E1
BDC1A8F2
3D338A58
BD7BF726
BD8178CD
BD1A7A65
BDA209D1
3DBD1A14
3E0329F2
3D37D2C5
3CE7A343
3C2F076C
3D96C629
3D9AFB2E
BD4F65FB
BDB0C88E
3BE6908B
BCDB3C14
3CCAA270
3C7E598E
3CAFFC0C
3E44A4F1
3D10CECE
BB8B1145
BE0C71BD
BDA8A7DB
3BC63A5D
BC1A8DDA
3B6B5AF0
BD588CC1
BDAAE74A
3E2F3BD5
BC861106
3E11B61D
3DE7CE76
BC8881A1
3CD76282
3D515D6F
3D410770
3CC09351
3CE7921A
BBEFCD26
BD89CEED
BD773658
BD17FF31
BAE33D76
BC9460AC
3B681424
3C1FC2F3
BD79BC02
3CD315E8
BD497B99
3D3B3E1B
3D1405E2
BC6E0336
3D038821
BD13CA1D
BD9A1E6B
3CF43621
BD8D2BDA
BCD5B2C9
3D00CB82
3BA720A4
BD480C0E
BC8594C6
BD256B7D
BD2A7358
BD889F87
BC9F1C67
BE17C1FD
3DC4CCBB
3B1F5BEA
BD7CA7D7
BC20720A
BD57FC3C
3DBDF00D
BD87CFEF
39B30F48
BC992AD4
3D839C2D
BD8A466C
3D1F6B3D
BDA24F34
3CFC5B46
BE220742
3BC778FC
3D26AA29
3DB321B6
3D1E06DF
BBB50614
BD237D63
3BB873E3
BD6E70A2
3D5B1BA9
3E1D5BA3
BD24519A
BCDF69C4
3D3DD4F5
BC5E9369
BCC13EA5
3D058851
BD8EB43F
BCC72C13
BE40E4B4
3D54D916
BB93ACC4
BCFFC7F4
3C04D424
BE3C5DCF
BD4A911A
BD23C018
3C7E2DD8
3DB84781
BBCD8715
BD1780A0
3D85233C
3D5F29CF
3D173337
3BF50B12
3D656375
3D0CC4C4
3BC61376
3CBDD7AF
BC1EDC77
BDA9843C
BD264A70
BDE6088B
BDBD6432
BD21CB21
BD3812F3
BE4B5F31
3C1AFA8E
BCBC9C3A
BD447F1C
3D8668B6
BCB64F9E
BB91F71F
BBB7307F
3CAF78AB
BE0A2A90
3D6D37FD
BCC8C745
3D4BEE16
3D26B832
BB408471
BD696EC7
3BE74BD5
BD476947
BDFEFC2B
BB5A2739
3D042904
3D6AF9A8
BD04F277
3C98E9EA
BD05EF05
3C0BC3E4
BC1798E6
BA31A338
BDA64DDC
3D7D282A
3D755D84
3D6A1AAF
BDDAF41A
3D9EAB3A
3CB65A08
BD8CC8B8
BA3FC75D
3CD15889
BC60EBB1
BD8B4A16
BB9281E6
BD1D2F42
3B91E633
BBDAAE39
3CA1542E
3D33B0D7
BE288DB8
3D37C2F1
BD210E33
BD3C0A73
3CC922B4
BD68663C
BD18BDBD
BBA0C96D
BD730FEB
3D682B77
BD824E12
BCD3F1B1
BD1EEDEF
3D0B0CF9
BD07B0AF
3C1F0F9F
BD323E1F
BD02C895
BDAE557B
3CB3857F
BD1FD28A
BD8F44B1
3C2E97C0
BCED429C
3C812224
BD9D3543
BB4FB551
BCFC3190
BD7C0E82
3D03818E
3CC94D65
3DF0707D
3BC0A80E
BD12BF5C
BD22C372
BE0595EB
BDAFF4FC
BC034CF6
BD1C53DE
3BEC2089
3D18BB02
3C098B7F
3D3988D6
BC4B98AD
BC23FC75
3D894977
3DFF4459
B9C1F86A
3D181B35
BD205CD4
BC944F25
BC438D32
3BE008D1
3D5C7B6C
BC270811
3D083FB4
3D7358FB
3D0C900A
3C50DE09
BCDED209
BD3C1A47
BD1A78CB
3D1A2557
BBCC2ED7
3D4B5D9F
3D033244
3DA465B6
BCB999BC
BD87F652
3AE0B863
BDB1F637
BD125E88
BD054C26
BCB125AC
BB120311
BDFEBD10
3BE17384
BCC4B412
3CB88297
3D98B97C
3B2D40B6
3CBEF027
3D408DF4
BE036B80
BE7229B2
3D05D594
3C88F4F6
3C9E9EA9
BB73D27B
3CCCB249
BC6457CC
3E209A8D
BCDFE3F9
BD858B12
3C5B7B34
BC9553E7
BD406765
BD4D612E
3CF182A7
3D28A84B
BE0EEB5A
3D8FD7E8
3C8F66D7
BCAE3C0D
3D7E4D32
BD87BF43
BC9AE114
3D247B1C
3DFAC72E
BDDB7E35
BDB6C2FF
3D5FDC33
BD62F26A
BD5E94A4
BCCFD08D
3CA5E918
3BF466EF
BD7BC61A
3C17702F
BCF3EC7D
BDFB9791
3D170226
BDAD4A61
3B6D47FC
3D5C6FEA
3CE6E692
BD06F13D
3D5FEC34
3D7C220D
BDD03400
3D86A435
3DB6EB44
3CB606BE
3C32CE90
BD04D7B8
BD9C4C8F
3D181E1E
3CC46C02
B92C5DD6
BDA6B342
BE07B991
BCEF083E
3D9F0D21
BBB29FB1
3E44B226
BCB7D6EA
BDADF123
3D2A39FF
BCC1C598
BC8890EA
3CFE8878
BC2300B0
3CD039F3
3BD69C97
BE041C36
3C1F3DB7
3D1CCA5F
3D88B4A8
BBBAD195
3D8FB68F
BCC51F4D
BCB7471F
BD659D0E
BCB6146F
BDC5B847
3CB34DEF
3C5620BA
BD2CEBCF
BCA6D985
BD2B79C5
3E3B0BDC
BDDDC644
3DE64B25
BD8B65CC
3D419710
3B6C0D50
3C80F463
3D62E8DB
3C59CC18
3D367E35
3CE83850
3B55E441
BDA0399E
BDEDE494
BCD2D6C3
BC83BF28
3D88D4CB
B801596A
3D982004
3D98FDF4
BC9B7CB1
3DA687EB
BCE63C01
3CF1B086
3DB79961
BC2FF9A6
BD07A819
3CAE24B9
BD4CEE13
BCF41E61
BDDA2949
3DF73694
3D05E262
BD0C8378
BD635685
BBE31923
3D0EF899
BCFEC1F7
BC913980
3D6074A6
3CB8ED15
BDF39A19
3CBA0D83
3D482B0E
3C9B1FFA
3C84048E
3D40C136
3CF3A951
3CA0BC08
3C61B5FE
BD620337
3DAC641F
3C2966BE
3B9A3A4D
3C3E94D8
3CCA7D30
BDA07C5E
3D09C649
BD41150B
3C8D3CB0
3B48C868
3D6918C6
3D3EFF63
BCA599D6
BCFE3BE0
BD03DD35
3DBBED8A
3D4AC6EB
BCED934B
3DA2A1F7
3D7588D4
38CD688E
BDCB9B61
BE14DABB
B7D43D9E
BCFD6BC0
BCC5DB13
BD39537F
3CF56DF2
BD3332EE
BD47ABAC
BD1C3160
BC539AD9
3DC92ED7
BDB2C5D5
3CFDDCE2
BDC1E7D1
BDFAB31B
BD800A3C
3CF15E9D
BDB744E2
BCABF946
BC6E010B
3D499C6C
3CAE5E2B
3E0C474F
BC93F398
BD930AF2
3C9E7A0F
BE056321
BD5AB143
BD325FD3
3E087111
3D333733
3CF62327
BC6396FE
BE0266EE
3E04C9F8
BD2C5539
3C5B58DA
3C401CAD
3C6C6575
BD965421
BE0BFB83
BD817303
B7588791
BD250634
BC4B27BD
3DEC20A7
BDC4E973
3DEF544C
3DD5A8DB
BC7042E2
BBFC19ED
3BF904B1
3D932893
BDB05F31
3DDCD299
BDA5F18F
3CCB6703
BD01FFB8
BC3400DB
3DC19F12
3D1DAD06
BCC0BCE2
3CD84DD7
BCE57208
BDC74BEC
3D350A33
BD26740A
3C52E4AB
BD6EADAA
BD7B65EF
BDC8A1C0
3C9BE29C
3C92F416
BC8DE8EF
3CB93018
3CE10101
3D6129EC
BDEFD0C7
3DAD6F1C
BCD5BC08
3D90DB3A
3C787317
BD3CC7B7
3C91BD35
BCAA996E
3D02D462
3C62D57B
BE08AEC6
BC109236
3DA7461D
3C9ECDED
BC30C402
BDE430EB
BD81664D
3D26F96B
BD550092
BC3C707F
3BDD8834
BD780D0A
3D02D8C3
BDDBC010
BD14F9E1
BD0935E9
3DD3B92A
3D10E71C
BD86E3AE
BCA5A139
3B015FC5
BE26FEF0
BC04A6B4
3BC571C0
3D295207
3D45B057
BD08AE13
BC8B675E
3DADDD9F
BD689DEB
BCFC90A8
3E1E5D09
3CC7CD76
BD916707
BDFE3D57
3D2603E5
3E36AFDD
BD276264
BD09E325
BDDDAC6F
BDBBA9BD
BCF5674A
3D0C4E74
3D1641DA
3CF046BC
BD17AB1C
BCF37EAA
3D8C4669
3C852A71
3D9B1278
3D1A7941
3D29AB33
3CE4CF79
BD82F227
3D2DD1C0
3DEE8A78
3D784D38
3DA5D1A3
BD0B471D
BC6CC26F
3D0F82C0
3D48992F
BDE344A0
BC33F3A0
BD702D8F
3E0BE225
3D7CA812
BC06AF1C
BE413D6D
BD427D1C
3CEEB76B
BD82E58A
3D73B10B
BBE8F371
BD5C19E9
3D0E7E12
3D59EAD2
BCDFC780
BD2AC22E
BDCBA45E
BD861885
BC7F5ADE
3C71407D
BDBAF735
BD921AE8
3CE0B4C1
BDD652AA
BD1A51D4
BCBD5765
BD45D1B4
BC95D882
3C8CC2F3
BE3AEF25
BDB9AFBA
BC710BC4
BE0F35BE
BDED87F0
BDD4229B
BD50EC99
BC9DB319
BCDBF8D4
3D820F92
3D90EE34
BD7A42E9
BC64808C
BCDDE012
BD75B119
3D89866C
3CA4F956
BD5E8FC1
BDF6C694
3DDFAA06
3E1BF13D
BCE48F98
3D8283DB
BCA273F1
BB648140
BDA32CBA
BC9D7038
3C4109DB
3E2BA001
3DD82D5E
3B53342A
BD644DE9
3CB28DB7
3E0EB5A5
3C05DFE2
3D079ADE
BD5EE6B2
3DB60CAC
3BA65052
3D80A193
3D2FDA2C
3C8C233C
BD8A0EAB
3D5DBF42
3C86CFF0
3DB72000
3D936847
BD8E838B
BC8FF350
3DB44ACA
BC2A97CE
BBC68845
39BE847E
3C835CCC
BDAE83B1
3B7427F9
BC86BE5B
3CAC6589
3CBC7E33
3D1C6209
BD1460B6
3E1E4EC1
3CD75D9D
3D0580B2
BC124427
BD1E2144
BCD5680F
3C6A9DA5
BD540958
3DE5A330
3C384586
BDB3B1A6
3D3C829C
3CCB744F
BCA97F8C
BC943F95
3C729805
3CE278AF
BCCB249C
3DA5ED8E
BD67F9BB
3C507701
3D977752
3DF73DD4
3CAEABF6
3C94F152
BBCFCBB0
BD0F3729
3D9D5EAF
3B649688
BD408C23
3CE484FB
3E55C4F0
3CF5F20C
3DD7C5A5
BD80F315
BD8C4A12
3D28F3A9
BC8F5106
BB54A52D
3D881254
BDA1591F
BD5DCA41
3C96140E
3CE35C8A
BCF47E01
BC830B9F
BCAC419E
BCC64572
3AA12D97
BD6373F0
BD416E89
BCE726CA
BCAC31AE
3DD978C2
3CCDB9DC
3CA205C2
3D0974B9
BD62B54B
BE06A878
BD13C601
3D2FC544
3D559381
3C5142B8
3D980356
BC1FCA68
BB36572A
BC503A8F
38A89423
3DCC57FE
BD8C4D30
BBBB7DC9
3DB66D62
3C72CD81
BD8E0E00
3C830625
BDFCCF14
BC345A05
BD4F6C5B
3CBC6264
BE1E64C2
BDAED361
BD532750
BD9EBE96
BD1D26FE
BA8CA7F7
BD6AEDF4
BD17F9B5
3E3A4164
3D6C311D
3B08BA39
BCED05FA
3C30FBFF
3D165453
3D977E75
3D02B0AF
BD677B34
BC82F52C
3C2EA8CD
3CC8D907
3BBE1EB1
3CE738E4
BD08B547
BA73D696
BC4AD291
BCBABF7A
BC88AEF2
BBD7450F
3CAD3CF1
3C34A1C9
3BEEBF3D
3D16B846
BC202FAA
3CBB860A
3D2DEDAC
BBF051A3
BD219BF2
3C6D447D
3CDC5D9C
3D6A3C40
3D73E574
3C0AF926
3D166018
3C5D9536
3D2981DE
3C9C13CB
BD0BFE54
3CA53E85
BCEF30DF
3DC39600
3D81957F
BC9C8411
3D62DF1E
3BBACCF0
3C2B2A29
BC16B691
3D000BF3
3CD5ADE0
BBFEE533
3CCCEC9C
3CA563A1
3CE5EC38
3D932C01
BC1DB4CA
3C94B475
3B0C840B
BD485C0F
3D1E03E1
3DC4600E
BDD25157
3C7FAF04
BCF6B160
BD8EBD15
3D363B65
3CDEDA80
3CE29169
3CB816E1
BC114D43
BD4B1B8C
3BB4CFB8
3D534CFD
BA6F9260
3D0E48E3
BCFC9BCF
3C1E2448
BA430A1E
3CA92844
3C20B1F3
BCD6BBE3
BD0024B8
BC7F8464
BCEC6587
3D83B7E7
3D1D8AD8
3BFD0DA4
BD60D62E
BCAB4D1F
3AF6DA76
3AE0926B
BD73B40C
3BD4621E
3C97C668
BD555A74
3CE0B06D
BC4AAD1B
BCD68346
BD0939BC
BD6261B9
3C1BB333
3C4B28E6
BC777C8D
BCC760D0
3CE62B39
3C2C89AC
BD51B155
3C28D5E7
BBCF2E03
BCCC8EA0
3D07BD13
3D3DADFD
3D5E548F
3C1A62DE
3D15A966
3C39A3B0
BC87F78A
3D914A26
BCCE2F23
3D4CB2CB
3C0A031C
BC21149A
3CD7BA03
3DA0F746
3C9F52E8
3D177AF1
3BA6A58A
3B75A907
BDB245B8
3C012CF0
3D7F9A5E
3C6C1ED7
BBE4EAB1
3D57FA08
BC9FC15F
3C868A83
3DA3A1AD
3C8ED2EB
BD31023A
BD7613F1
BD12C159
3DCC50EC
BCC4582B
BAEE4D9B
3D08D5D6
BB620370
3C947B09
BCC9D67E
3C4FFD7B
3B986A2B
3D0E56EA
BBDAF19E
BCEC11DF
3A003D03
3C408F11
BB884E0A
BCBBD4B5
3BACB01F
3B9633B1
3D890740
BB172D57
3D7B08E1
3B0C96F0
BD5B0EF4
3BE8554C
BCB9D6F9
BC05C5DB
BCFCA53D
BB78BB3C
3C2004B9
3CEDCDB3
3C0270F2
BC5D1D67
BD105BC3
BC08A4E7
BD30A0AB
BC7D3C24
3DB4F85E
3C151256
BC55498E
BC40C5A3
39887731
BCA03064
3CBFC759
BA63277C
BD4581C7
3D702C7C
3C5BF406
BDDC847C
3B528368
BD07DF2C
3D271C83
3D60E5F5
BD1FECBE
3C923822
BD382F44
3C98BA2E
3D441892
3CCF03CA
3B82D047
3A641BD5
BBCC7A99
BBAE4222
BC4500C5
3D5C8404
BD3198D3
BD865378
3BED9AC0
BBE64A37
BD1935ED
BCBDB625
BCBC6DEF
BCC6B200
39FBBBA1
BD8125CC
3CAC5223
BBF5341D
3D278D74
3BA03852
BB504155
3AFE2B14
3CA80FFC
BC3336E8
BD301274
3BA037E6
BCA45472
3CE0A6E3
BD2C29CD
BC1A2BCD
BD1A423F
3A971795
BC931726
BD245ABD
3D254C87
3B1EDBA1
BD7F8507
BCE09C1D
3CEBA88A
BCBF7530
3C9020E2
3C02F078
3D0774E7
3C1F5094
3CD1004A
3C66E709
BD565962
3CFC5588
3CB9DED5
3C16BF5A
BBA8A2C7
3D2E7DF6
BCD9C018
BC9F6D6C
BD0CD174
BD2BC7B0
3C8818DD
3CD79A26
3C83F865
3D006D2F
BCB7CBEB
3D28B7DF
BD512926
3CCEF010
BCAAF92A
3C17570B
BD084AEA
BB9D335D
3C351254
BCF3AF2F
3D2B431E
3CCA566E
3D0610D9
3CB6F318
3C24FA25
BD2541A4
BCB53533
3C021DA6
BC73DA21
3C766DD2
BCE45ADF
3DDF5627
BC8A5E26
BD682805
BC326951
3C66326E
BC22282E
BBC130D3
BC045136
3D043D42
3CB4978B
BCFBEF4E
3CE3D009
BD4603AE
BD886482
3CAF69A1
3D51B08D
3D1DB422
BC58D4DD
BDA1DD07
BC020AA9
BA5F1431
BC84DF60
BD4086A8
BD2705C4
3D93F077
3D50AFFA
3C6CB465
3D336114
3C492DBF
BD2753B3
3B115743
3D47B485
BCBDC7BE
3C945930
BC776E24
3C2129F9
BC358562
3C1EA50E
3ADA2526
BD4C58F8
3CC97EA4
BD225752
3C65EF69
BBD47C58
3D72995C
3D25172E
BC80B6C5
BBAF9AE2
BD346D17
BC3AFBC0
BC868C0F
BC01BAD7
3CF31389
BD3B5110
BC552D23
BC61718A
BD3A302D
3D88305F
BBD5EE4A
3C911BB8
3D8835CA
BD73E71C
BC8B73F9
3D6059D5
BD243046
3CBC9EB1
3D01CC8A
3B97A6B1
BAF01379
BB739258
3CBFD38A
3C95AE5F
3D4DBCA2
BDD05108
BD0037A7
3E025C51
3BBA6118
BB63F80E
BD8EF9AE
3C0C3B83
BCF7F46B
BD072A93
3D8107F1
3DDB39DA
BD87CF23
BC4ABC3D
3C73BDE6
BC9E76BF
BC7994E6
3CE191FB
BC9F11C7
3CE405C9
BB6CFC62
BDB0AED0
BD21D143
BCF11DEF
3C482CA2
3D204182
BD242855
BD027F5D
BC9CE763
BD015B42
3C8B622A
3DA1A013
BCD15430
BBD2CA34
3CCA3B00
BD602145
3CB56490
3CD89610
BD033C79
3D3597A8
BC0FB217
3C438E77
BC73CD3F
3C300829
BCA6B4F7
BD2C6622
3D55F3C6
3D0DBF71
BD56699B
BD9AA782
BD59F61A
3C2FAF09
BD68D454
BCF02652
BD3C4CDE
3C988F78
BD6B22AF
3D27AD70
BC18F7A9
BCAA1FAC
3C9E41D8
BD3D15A4
3C8D21CB
BD557E23
BC6AD74E
BBCEA329
BD75EBB9
3C8C4B20
3D217731
BCAD7EBD
3D65BECE
3BB355B7
3BDCF460
3D179727
BD555357
BD2769D8
BC914526
BC4F7FF9
3AD68EB0
BD2B3FBA
BC3C1F82
BB848740
BDC5CAEB
3DB8A058
3CDD6AC2
BC0FD394
BD66FC75
BCAE8405
3BD242B1
3D29181B
3C9D94EC
3DA26C79
3CF96ECE
3C1B9EF8
3C8462CF
3D0114D9
BC992E8C
BC14E19B
BD31E48F
BC450896
3D160248
3D787F43
3D040C4C
3CCDE247
3D2D9773
3C3E95DF
3B5894AB
BD2F29DA
BD141AC3
3CDD6725
BBAAB66D
3D5DB254
3C12A96F
3D82180E
3C8F6EEA
BCB2FC50
BD949B53
BCFC77FB
3D22F512
BD698DC7
BDAE2AF4
B9D16659
BC112A5C
BBB1F529
3C755B15
BD6BCEDA
3A9704D0
BD6BB313
BC819097
BD235297
3D52E47A
BCDB11D6
3D0DECF7
BD08D9FA
3CB05B4E
3BBFC457
3D0D64A7
BD4A0715
3BA27B5A
3CC6D8CD
3CA2ECE5
BCF1BBA6
BD52166D
BD8967EE
BC696AE3
BB7B45DB
3CAA1266
3D692B68
BC126DF1
3D0960E8
3B63A056
BCF59A26
3C9E89BA
3A5304CB
BD1783CC
BC878511
3A6DF2EB
3C8582F5
BDB8600F
BCB3DEB6
3D8D7E77
3D61F9C5
3C225511
3CE65798
3CDFA0C6
BB9F55D4
3D976B67
BC2D53FD
3D550DEF
3BB4606A
3D365974
3BE33EA2
3B52BC98
BDBE71B6
3C878E10
BB527D0C
3C34C863
3D57332C
BD601D56
BD650418
3D52C82E
3C5C761A
3C7AE21D
3CB96A82
BCBF01F3
BB32FED1
BC93796C
BC8337FA
3BEFA0C0
BCED3B1C
BD5E12F2
BC3F4314
3BDB278D
BC952882
3D034B4F
BD0F1743
3D87CDDD
BB6A2039
BCDF3565
3BB50EB9
BA70AE1A
3BCEA4C4
3B9084DF
BD252322
BC2A40DE
BD159157
BD2A63C0
3CAA75C2
BBF21947
3C151059
BCF3A06D
3D2FA55C
3D4ED4BB
BDB6B6F5
B871DED0
BD44DCE6
3D1EFA40
3C5FECE1
3C3202B3
3D1C470C
BD323BBA
3D053F36
BB8030E8
BD2E0F43
BC6EEE00
3D0BEE17
3CC3BB18
BCA72277
3D62068F
3BB2189D
BCB6072F
3C01E2E9
3D80D66A
3DC3FA11
BCAB9EDA
BBFA8A7C
3D431BA1
BC6B5517
BCF1AB64
BBA700B7
BD0A3CB9
3D23932A
BCB43E23
3BAA3616
BCA2ABDE
BCF8A493
3D8B8ADA
3AFB9025
BA0F0BFF
BC5351F8
3D9B6DD2
3CD14404
3C879D7B
B7767FB9
BBF2DB4E
3D67FBB5
BB6B9F72
BD8DE7A9
BBE40E60
BB7DC923
3D733D04
3D6FEAA0
3D0BF192
BD08B3F4
3C826B5C
BD472A9E
3D96F7EB
3D0F9631
3D0510AE
BCF0F429
3CC77F14
BBAA8456
BD37C2C1
3C273295
BBB88E52
3CA58CB7
BBCFC85C
BD6F49D3
BC7F691C
BD5E823A
3BDA7753
3C5F003B
3C75E70C
3C20CA14
BDA26646
3C0A0365
BBE4B4E0
3D02EE81
3C0E18FE
BCFA7299
3D2C0995
3D7D1690
BC97C8A1
3C4AEF66
3C6EE2F1
3D819D09
BC6A21D3
BC96C6F9
3B2A5064
3CE8B25E
BD56E2CC
3D08392A
BC9A6CC8
3CA66D4B
BCA47A38
BCE64AAF
BDB94957
B8B20726
BD8839AC
3CEB84A0
3D9296B4
3CDB3B20
3DCD3F57
3D6B306E
3CFEA592
3BC1BE15
3C44FA59
BCAB704A
3D6A882B
BD25AA67
BD0E7C92
3C6100E6
BD0862DD
3BFD4791
3C06982F
BB3338F5
3D3D5A8E
3AD23125
3C8BA30B
BCD0917D
3D214F09
BAF0A9CD
BD6B8314
BD1B84F6
BD28BC7D
3C820F18
BDA53A1D
BD645AF1
BCBE1D82
3CB622B5
BB49F6B2
BCEEF523
BC87A43A
3D38B4B1
3CBCC386
BCCEF9AF
3CF51F6E
3BB455F1
3D388D16
BD587877
3710897A
BD849116
3AEA214C
BBBDE970
BCF9D24F
3B9B1A7D
3BFAB7E0
BBF06693
39C18AFB
3C2BA65B
3CB77808
BD2B19CB
BD6C18B7
BD493D26
3ABAE206
3BEC7AD5
3B9F91B5
BD3230EB
BAF081A7
3A129ABB
3D8B916F
3CC5DE00
3CC145E9
BC27FBFE
BC547DE8
BD15BE4C
3CD79A72
3D9D1EED
BCBB8436
BC883E2A
BC934470
3D5C83AC
3CE4FFEF
BD15BF64
BD2B61C8
3D5E88B9
BC3E1DB6
BD3304F8
BC640DE7
BCF10B52
3CAA2713
3CDE219F
BB883FCE
BBB5C6CC
3DAE539A
3DAE0DAC
BCF87B9F
BB11BA05
BCA70B0F
BD754ADB
3D02E8DD
3D577C72
3D5C7921
3C1DA053
BD6D803A
BC2C9F75
BD9C1A23
3A8A5061
BCBC9CD4
BCB78B74
3C821232
BC89B4B1
BD55CA5B
3D92383C
3D4AC6E6
3CCABC46
BB6F80D9
BC08E66C
3CD75709
3D1FA2C7
3CB65CD4
BC8A06C0
3CF13F47
BD2DB202
3D491A20
3C304999
3BDFCD51
3CA51062
BC9347E8
BDD1819C
BD0A8394
3CCA653D
BCE7E16F
BCCE2BE9
BD28D184
3C412BCD
BD0AC958
BDA5D57B
BD104C30
BC55E27A
BCF5C5D3
3D458BFB
3BBA4320
BBFFB687
BD02DDC0
3C08C46B
BC78FE67
3C8BCD3D
3CA055D1
BC558687
BCB92823
BC8EF294
3CFC5029
3D8D1578
3D1E9F52
3BD1DF43
BB5583CA
3C2BD574
BD21F1C5
BB1227FB
3C1BD524
3CD8E7C4
3DAC1921
BD1022C9
3B3EC163
BCB5B226
BD0DA592
3CE68CCA
3BAE2C4B
BD1E2B32
BBB2CB4B
3D03BC61
BD21E557
3C9247BD
3C5B1632
3D418E3F
3C2AA12E
3D121E6F
3E092DB0
BD12E44E
BC81C7FB
BD076C3D
BA7E6FC3
BD4E2CFA
BC25317E
BC8670A0
BC2BF1B0
3D882E6C
3D4F9938
BD008328
BCA53242
BD0259CB
3C7D161B
BC8B9BED
3D155949
3CB7F9CD
BB683110
BD6B9D31
3CA062E2
BBA65299
BC40DF43
3C93863C
BCCFC37B
BBBFE09B
3D36F374
3BF68F31
BCB8EC16
3B8585A2
BC7E1CF8
3D343735
3C6C50C6
BD967063
BD04307D
BD08A851
BBEA1766
BB895E38
3D3F7E24
3C3CCAB5
BB37ACA0
BDC2C8CD
3BFC2CBA
3C8AF1E9
BCE858CC
3CE033A9
3DA203A9
3C9BCB4E
3D0CC4EE
3B6B1FAA
