523B8F8E
FF37DFE6
F443BFFE
8FC57FFF
0051348D
00221300
80078914
58007923
E4B0007F
07330200
004040E0
C003050B
C017C0DC
B800C223
3BE01A17
43FFC3C1
E0B7FC0C
DE1CFFE1
370057B7
E4001DD8
5C0001EA
85FC004A
F07FC010
F12BF8DB
000002C0
2427CB0D
06C00008
02680000
002BA800
00312BA0
C003B83D
18001E0D
19C000F9
0900000B
71180002
07192020
20C81200
0F1ED360
607DFC0E
4627E3D9
02603E38
000101F0
00000000
00003200
68000218
C7E00030
46CC0002
43600000
41AE0000
0000D000
7EFE6F7B
04D74090
00F98003
1913A000
41EA8E80
D007A7BF
5A0073D5
DBC605A4
D1D63079
FF7D4117
AEE3C281
21FE093B
1B1FB545
C072F0C0
30439A86
068054F0
003D0010
00010008
7801F042
03802904
6A7C083E
741FD103
089C1010
7164C000
0000D4C0
F64BE927
2B000020
00120000
0012C000
00010200
800000A0
6000000D
48000203
01802020
78000206
0F808030
30F80C03
0FFE0480
4079F228
0803FD01
00003900
00000100
00010000
00001800
03000090
18F80029
F8FF8001
1D486000
403B2084
0000A600
E0D21AF9
C92D5035
DE919DFF
FFFFBDFF
0EFED1A1
802830E8
2003809C
7A003D19
20600383
0076003C
7013E007
0B008C00
01F00321
400C00F6
E201C00B
4BC40C00
099735C0
C37C3FFC
F9BBA3FF
FE007A7F
A7C003EF
E23B006F
CD143C00
05CB9505
00008F4C
27CC272F
96D400B0
F3612975
F47E2012
5F03F01C
0C121B03
058D6080
8056CE1A
4C81FC02
0288B000
00171780
8402F1F8
18059932
61803F0E
86080F6C
75C0C143
E3B23C1C
9D72F5E0
A94587C5
CEAE3953
7F870249
ABFC0007
F14F0020
810D180F
00006699
A4DA9A17
A01EA4EC
838706E1
FC9946D7
A060C7AB
EFA7DDAD
7EF9FC37
0F1C1E4A
A3740190
8D370017
56116003
CB9F0C3C
0CD948C3
D193D55C
9DF9902A
7B7F1001
1FCDF700
A7FFF380
D8FFCA85
DE0E921F
FC033B65
B9FCEEE4
354BE8AF
FD378BE0
0000B312
23AC4265
A6D701BB
5891A16B
029D9C11
0001D000
00E00180
805F0000
D000F405
86000000
1A1C0004
83C100E0
E63D080E
0683C200
A004F814
0C022E02
00D031E0
002E028E
00032020
0001BE04
C0000A75
6FE000A3
3DFF2009
311FF752
4D76FFFF
0000386C
6E8DF9E3
FB0BDFDF
03B6FFFF
40966FFF
000137AE
000007E4
8000005F
18000006
01000080
80100008
18011801
01801980
0008013C
1000C021
22000E00
0201A0C0
C070041E
FC020001
3F000801
000000C0
20000064
8D000003
07500000
00168000
00003090
1397B3FC
E57F67FB
FA28D4DF
5D2D6D0F
07E1F0D8
001FCED0
00006E6C
080003D4
E000001A
7EB09803
03E81F20
001FB1E0
F001F29E
8D001FC0
400003E7
C583837E
205A0829
00028380
4C006828
650004A1
DB00003D
30D00448
958F0015
308B7024
0000A7D3
DF0F7412
0AA0C890
032CA400
08062100
40707690
C807D1A4
FFC07FD6
53DE0786
9E7D60F1
F8FA140F
1FC6E070
60FC3006
130BF0A0
61311CE8
02C1C0EF
167A7C00
003725C0
100FD802
0000A3A2
D40815A4
DE60413E
84AFF773
15280DB1
1A494040
0000CE84
75C7E52C
490BEF74
BFA273CE
F256B604
1D60F808
01B01618
680481E6
8C40001E
94044149
F658E00E
02811F00
006523F0
E00FA87F
6A00FAA3
01F007E4
E2A0807F
3E560007
17E440C0
C0629D20
201F401B
8605C018
F8000807
1D200000
01B92043
00005957
91A2D91A
FD7EF5C5
E275DFDF
2D295E3F
0A1A63F1
104BE3D2
F1004E5E
33800383
36F8011D
FD8FE00F
8EF77FEE
1C47DCFE
F980BA9F
0FB6B0C8
98ED9686
CD0C6C68
CAA3C22E
370230AE
1FB183C0
00C55402
5498335D
0E385EF6
B30BEEE3
71F31F80
00005491
E6D76E6C
13701020
EDB72240
FFD3802C
1FEFC300
81201380
78A4047C
5CE0A518
12CB42C1
05B5CC00
200EDEC0
0040D760
0C1C06EC
E0B2A064
2E2B1FA9
B78211FF
7B3FBF3D
0791EFC6
123A87B8
6007D47E
0281F0D8
1E040404
B4E02E01
05F50230
0000C530
1C33DB88
071418F0
42FE01F8
C014B05D
FC018857
7FC018E4
8FE00054
8C38001F
1A85C000
8280FC00
0800C780
0000DFF8
240C05E6
4000FE47
660007E0
B1E000F7
7E7E000F
817CE800
000E5B10
000FA67E
8C07F008
6B001C03
C3E00001
A0CC4003
000051AC
1FCC38F3
F099FFF9
F3CFBFA6
1D981C9C
7CF6843A
264E63CF
D8843388
F1B7005D
0C54E461
80E3AD82
10019E61
61887F84
C01AA6F8
DC02E52D
36C09FC5
73FA68CD
EB8C4014
969F027F
5A3B8FC5
9F8CEFD4
2DA7DFF5
1683E15D
AA910014
3C94824E
0000543F
CA5B1C89
1CA93083
40179480
F8054364
0CC01DCB
F23E256C
FD6BCC7B
6F4A9F47
BF1B61D6
FE7DFE3E
09D9D421
C0FF7E78
BC0FFEC9
55C06FE9
6DF40E3C
A505E0F7
07584702
003221D3
3802144E
43000511
5D392026
F87FC620
3827F2CF
BB3AEBB7
00009796
C1B0FFE3
C15F80FC
BE4DE8DF
9D8AD47F
07017300
07000860
2940010E
CC206212
58430000
671CB037
02353F80
F8135BFC
07A94289
B01F0134
E401F398
8FD0673F
08F50FF9
C0C8640E
800C8D68
70029A1A
0E8028C0
B7C80504
3BB7F6A0
E888E9AB
0000A318
A3B36CD6
DF6EFD79
1F45BFB3
7039FDFF
ECC2E6CB
0491C46D
E4863803
E706B0CD
28701211
089E03E8
712BA85E
118BBE07
E118AF84
5C18412B
DDE1D487
0DBD0C91
61EAC2C0
FC4C0E4E
2F92D841
10FA7960
C006A9C6
A506FEB2
00A01C87
4A4E8322
000011E4
2DC63FBF
3DB8C20B
C20101E0
FDF645FD
1FD28B03
C5C83000
68200033
C68F8010
08B27801
00AF03C0
F808E03D
0DC18C00
00B40940
480801C8
E8C0000D
3B80C802
03840180
01DF8018
1E1FF001
00FFFEC0
C007FFE8
50003FFB
7478037F
27B68C0E
00003300
7217E137
995F3E7E
FEEEEBFF
77A6C0EF
17EFC021
0295D240
C001BBDC
DC2415FC
7F80107D
00F00D04
00090230
30000780
03800428
E01F00C7
3F01F063
04F01F00
00050178
F00AED9F
F000A79E
2B054777
4B800153
3324C001
82407300
10207220
00000760
7620E7B6
1F208801
01440000
071EF180
80F7A3D0
DC0FF6F9
1D0077B7
35EC06DC
DA8F807B
B5687E12
1ED59561
E1BF0DEE
0E08FDC9
21F0CF52
501F17C2
050133C8
025C00C8
0001C000
20008100
31004003
09E48914
BCCE4BDF
4982003C
196A0000
00005709
2D8EFF5C
C9EFE97F
D18CF007
080BDF02
60A44594
7F001666
98FC0003
3728C00F
90760F82
8A458870
E072FD06
140A1EF0
8021039D
90204020
38009F88
E20001F4
7638008F
C7034808
06782800
803F9220
04035034
6CB01601
C257B188
719F2D7F
0000D6D2
05885B4D
3A9340CC
16580044
62416800
0B8900C0
F8C006A0
FFC40257
0FBCF094
A17BE3C5
9F5FEC7C
5CF0FE03
81EF18F0
2008518F
8440E3E8
30801405
E7940AED
4358804F
E0E54080
041C20C0
003284A0
0222F03A
7C3AFE0D
0A9BF830
F93E4040
000040C3
1A8E9FAB
CF1BEFF6
7D76FD9F
4DB78F82
019299EC
06B3BEE8
E01E20BB
17001325
0E20C030
B8091613
CFE21FF0
405F60D6
A283F19F
2E90FC85
49542FC0
9C1B601C
E440BD46
10051780
9F001C14
14E00200
1282C766
84E13C32
A7AFD06F
7973709D
00007DA9
19C7C58F
8D045A00
1B0A9F99
CA03CF73
3980E1F9
DA0F1575
7E87904B
6B010D82
ED7C00C0
9677041F
C0427006
41C0BE28
002C00A1
E08301AE
86112501
BD721B91
7F337A19
06FBEF20
007EDBF2
A38469FF
29051307
C1DE7C25
44177F80
B23B0034
00000319
A0037333
0765F685
F7E722F8
8C0DE7EB
D880ABFF
9EE6069E
F97D00C9
47C7640D
6EB00388
0EE70039
00C48048
88219002
2C4DE042
F091D4CC
1325575A
A23F7C01
3BB3BB8A
BD9CFFCC
48E777ED
F40AB8DE
FD10569D
6C656E43
9DEE3829
61ED568B
0000822F
2B6933C5
0FD80CC0
228D0465
02038408
00401720
78050FFF
FFF04047
2F550005
C3F0007C
7E0E000F
0F72E000
07FFAC00
017F46C0
2015D032
A0013802
00002300
00418840
00005C00
20002040
E8801314
7E0806C6
5BFCFDB0
7A9FFBC1
D0DEA85D
0000AA21
CD7ECFC0
8F5F3FBC
F8F33C7F
7F89B4BD
7C100803
524002C0
80C1C1B6
7C6455BD
3B472449
02007A02
00070F60
7800834E
61EA0130
400F46DE
850F235F
9C449B33
7F06BCF8
2B7EE8FF
86EC4540
1C876F71
89D002E8
9EC11018
17C07C08
6E23C788
0000903A
E9E29BE7
7549A822
817214C0
711E0004
0F2D31D0
406CF5E0
AA070BC1
F4FE513F
4C0BFB81
C338F77A
181E8FC1
41C5BFE8
2E1BB5CC
E0E0EFCB
493B0A7C
31E57867
0322A7C0
805BB03C
00068E01
C0C23864
A98DD809
EB30C355
91C04800
E3353C62
0000B9B7
48E3F260
88A970A4
EFA43FBF
F5669BFF
5609796F
8011E1DC
F002312E
C811181A
5ED00113
00AEC820
780DF802
0AC0AB86
C7388F98
D82E4012
128C8F01
808080F0
FC901D0E
D7ED1AC1
1FF9E5C5
037EF74D
C12B07C0
2A884281
03A0118C
A614050E
00003018
1898FEF2
CFC505DE
EFF137FF
FDF35BFF
0EFFCE47
00403B72
60000328
0E000015
AAE00E09
009E00F0
FC0B580F
2FF05001
03880C30
E00D00B2
FF40A00F
1BE40803
05A83F80
FFFD77A8
EFFFB6FF
003713D7
D0800759
6040003D
347C001D
1D418E03
00005E00
8BE04090
181A007C
00046000
000C2400
10004C00
03E003E0
803E000E
31009000
01480180
EE00841C
70505862
BF00D607
01E00A00
000F0010
2401F807
03801380
0018001E
00010008
00000000
00100B00
291F0019
6CBFE807
E6CFFFF6
20ABBFF7
00002C21
0D47E6CF
0481000C
0119C002
000AC200
B1003FC0
FF2002FF
7C80000F
37801C02
00F80180
E00F801E
7C006003
1FC02600
01F801E0
800600F8
98007001
00001000
00000000
00020000
00012C00
C0780480
BA0FF0D2
2D81FD0A
1A8B4100
A0C1E018
0000A608
323C4256
A25F91F6
A1F9EEF5
50085DCF
05026D20
9D21C6FC
E1FE00C7
7384FCC3
706803D8
F738602F
07BFC002
B865C80A
5FC77C08
07F85CB3
C803848F
14233800
00920140
6005900E
040D2880
01A92030
01898317
0D775D83
497FF7F8
F59DBFF9
00009DC6
2A2288F0
54410E95
2C0BF43F
C17B5820
8660EA3D
060000A7
C08000B7
C0031609
5E0608A4
3595F001
01799E80
002607E8
C00F893F
F091FED7
6F131FE2
E0660BFE
3E2BD437
01636781
02CF5748
D40CE66B
2F80001B
77C51006
50600400
E82BD013
0000B039
B5147845
01B02948
83EA8170
1011C012
40B0BCE0
FC031E6D
8FC00CD1
05FF004D
14DCEA0A
9F19CE9B
88FEBF3A
3093F7E3
8118FC66
8A8182F3
20101827
010101F4
E13C401F
06EB0C00
00272A20
8007E2A7
C500FE4D
EEFD1EC8
B8BD8202
51CBB9C2
00001AFA
0C83DA69
4576C87A
068C2625
3DD69740
D60E19D0
F073F29E
3B804A67
17FE05F1
8851A0E1
ED8CE201
FE9B215F
3E054A27
03F01C74
011F81C0
7801F807
8C1012D0
18C0003E
01BB9442
080E6580
8003A181
899FBF4C
D59CF3AB
299FD42A
907A0400
00001721
82D4F697
A0ED4A35
40EC0091
9A13447C
E285D5D6
B6731D9F
BEED153B
A25E2177
6E305200
2DAE0D1B
3DDBC078
FFBB1C17
3E5F5961
2B2EB11A
8D37C47A
56437A00
03B86184
0A5E8154
5001C745
3EDEAA83
E413F7C6
B1DE3FFD
712E417F
7E5A8386
0000CC53
56717B4C
9BCC70B3
4E61060F
893E1D25
0415FD8B
D85176BF
FB01F767
A7AC3B9B
CCFFC1E9
9876D804
3D8474C1
53EE3618
413C42A8
BC1E807C
6B80B803
2E1C0400
0003E040
50340E0A
8605FCF0
5E1A190B
443EE3C0
444DF3F8
3EC1B2A0
10B6000D
00002008
CFB21515
17BC2064
043D5824
DCBECF50
DF0F47EE
AA9D2DBD
784ADEFB
0F8014F8
805C40C4
553CF836
3BD31F47
C0FBFFA7
9308EEEC
4D010D78
62EC01B5
D71504F0
2688516E
23208A1F
749FC861
43D472C2
F09986CC
C431C512
092800B0
61114001
0000FEA3
7C196203
38214D6D
A45010E8
F866702B
7F4E5804
77F80592
81E0D574
A05C8628
0183F813
00207400
000C87C0
9000EDE9
1B000462
C00C0284
E5016278
3000AD43
C91A813D
3DB5F883
40F9877E
040DCD30
0E20FA73
EB6A4090
9E92C00C
B3A47C06
0000EA00
94B17CA7
282CFBDB
F995F83F
0B632FFF
B8423F6F
6800D280
86000322
E8C0C47E
34813F07
8110FC70
18079E03
00C667D8
860F253C
9C807375
75800FB1
A14C007E
70200107
0F73001C
0BEAD800
005F49C0
80009A50
A0009A1E
83807260
719B5FA7
0000EDBF
FE859E12
CD39AF7A
9035B47B
2F862F03
836D05E4
AC4DBE3A
E0201C42
152301BD
13C0202C
3B160283
E3E1DC1E
3F7E39F7
52B8F652
84158760
0B88B78F
050006E0
4058082C
78068D40
77E36D05
10727A66
C81A832F
DF281645
8ADC2001
F5EF1000
00004945
182337A9
F86EFF9A
B289BD3B
20DB1E82
A604A850
9F004A14
19740070
0887DC24
835CF7C1
BD2CD47F
02A31FC3
806451E0
C007203F
9B207E6D
388203A6
E7C0403E
98340705
5FC76000
03000800
011F4180
0807240A
DE09AD16
C3BFDDB8
395B95E3
0000AABF
B41F8EEC
E2CF7F7F
DD583FF9
C12E5FFF
810063BC
8020333A
F80141AF
BF0008A0
98700042
F8360006
0FB1C800
E0E32944
1FCC0089
425F2224
0008FC11
0D118F80
80308C74
3A05518D
E20000AC
B8801580
4BC001EB
34290037
17C90000
0A0BA000
00007608
CAB5FE39
E32F6B95
EF28FEDF
FC463EE3
E48DBDEB
02BF573E
C069FF8F
32000222
02200000
20B20000
D00AC078
9C40F00F
1FC21C87
359E008F
77FCF08D
A97B8688
2CACF8A0
82B5B774
8ABCA289
015F1231
F8EA43CC
0DE2207A
00DF1BEF
0D09E7FE
00004640
55BB11A7
B8A7BFF5
E3D3FFFF
DC8D8DD7
0FC015A4
01FF0C00
100FE045
00021E03
822001F4
3422040F
F3F3A804
137DAD69
EBB81899
501900E0
080EC092
00D092E9
583A130F
9003FE9F
B0036DC2
A6C00FBC
EE0300B7
99FDC043
CB39FE05
8127FFB7
00001B14
FC928852
F697BFFE
EC10FF5F
47868652
44403C88
47800086
A028004A
38007000
00400168
FC204198
1A810A03
204E0BF2
A3FFC33E
AA0FD671
2E023BE3
03F13FFC
E01D407C
5E057703
7B80268A
005119B0
2002500F
36809801
E5300009
E0437838
00001993
097B6C57
78C7F4A5
A195FFA7
800173D5
C000F5BF
5FE003F7
C07F8043
6A007801
02B001C0
C05E001C
0004C002
0040D200
00020100
80020090
98000000
12000000
011F0200
00042040
B8006703
45635C52
715FD29D
EC3FFFF0
3CDFFFFB
F4379FBF
0000B6A4
EE46F1B8
CCAAF8FB
B2A3EFFC
FF8E9BBF
1E21D137
2BED60A6
132EF878
28549F05
C2C40198
1DCE0827
3244F506
2100070C
37D00598
281F9879
F201F519
4B621EF8
1FA4750C
23FBDEB3
D06DCDDE
CA00F984
0C28064B
717F2123
8C9BFFC2
40FEFEAA
000049C8
E27B7B3B
D3AB91FC
FE15FF3F
069B5542
F000001A
EA0003CA
20680029
A916C010
220C0200
2810E8B9
204B9F03
07042BE0
C038079C
B001C023
1A001F83
033401F8
F822C00F
0E83E400
007C3600
00178C40
2003ECF2
1E001802
DE620C80
A1D7C013
0000F1DF
9253096E
EFEDCEDF
2FA37FF9
00FFC3F7
0004A300
00006F20
000001C0
8000014B
BC801FEB
FFF627FF
03DF056F
4001EC52
F8003C33
97C004C8
E80C0001
0400E000
004C0700
00050008
00000601
00000080
B000004A
EB43C0FD
C4F7FF1D
FE3A7FFF
0000AD7F
145B6470
8BEC0418
142E8001
1A720010
0686B380
83D8FB40
603B5D83
910C2139
1141F184
DF2C0714
FCA9E07F
7F871A0F
07B86260
A11C413C
01038815
07803C02
02D08080
80184013
0400F000
6A180F2C
4FBBC0A5
4EDD148C
5B222768
22D0E0DF
00004829
96CEF402
AF3F77BF
9F88FBC3
41FEBE9E
EA3B3060
05461200
00946CE6
F80398FC
0E803E86
80881FE0
100F1E62
20C121C4
A33075BC
1884CE65
A9828EF0
06003FE8
8103007E
FE02F397
01A09716
872406F9
B06B884B
240E601B
FEE00486
4F964011
0000589C
54AECB32
AEB631B5
FF23877F
FF21600F
33F08100
0001A9C0
80000F68
C0000001
A8200000
06000000
00283000
00003F00
800049FC
F800074F
9FE013FE
DAFE067F
F8BFE0FF
1EA3FE07
C00097E0
30001DFE
BF60000B
13700002
3DE80000
400E9000
00007D80
96111685
086418D1
464D5FD0
F2EDE3FD
23DC5E0F
F000A4F1
7FC036E5
E7DC016F
FAFDC107
19CF97F9
F27EE07F
190AE205
05000FC0
468081CC
815D041D
793FD007
6FE0B480
93FD0D0A
200FAC67
0689ECC0
80720794
8002D9FC
86F8EEFC
4D9E8FC6
0000DDB1
8D110E61
5952B24A
08D11000
90115800
03C08610
103E0480
807FE050
4015C700
B063DE78
5EFFD2E1
E1FBE79D
801FDA7A
3E00FF07
816056D0
100E0705
05D0F0F0
4034100C
002B4800
00032B80
C2006198
1EC40200
51DE001F
729BF6D6
FF397FFB
0000945C
45118394
C2BC4472
FF1837CE
FBFA83FF
2DFFE401
8103F9B0
80002FE6
A40401F8
08C01803
01140280
7E81008E
3FF04003
01FA0260
601F800E
7F817005
0F301C00
20B8F702
008C4AE0
F004AFBE
3C80AED5
53E00098
511FFAD0
09C827F4
530AC200
0000E101
E80AD12B
5E5BFFFD
6FA8FFFD
43E91AFF
0033F891
0008FB54
00000088
100080BB
08000E0F
C5806078
1C071C03
F06410C8
47826C9F
A3DCC040
306CEC03
0A02C5C0
C0101C5C
380E0381
F7005005
1F000B01
61880450
645901FC
F86FA3FF
8A8EB00F
000088F4
A6EEFCFC
C1F74E7E
36F55F8E
FB0A1FFF
580FFFFF
811A23B9
20EE52AB
1F081902
E920000D
D7060049
FDF0C03D
FC9FB0FF
36017D01
67C00305
F0A0013B
FB9FE000
7BC84C80
E7C29F00
3958B029
00081281
BE1803B7
CDF2D8FA
769F31FF
6B67F47F
000045A8
8F422E59
FA3FAFD9
FF8EDFFF
E4F359FF
3C59FAEF
00159F0D
50030D2E
A000285F
04A00005
0CA80000
00618020
000F3284
A000EC7B
BD86BF43
62607BE0
18A787F0
C14AE97D
F83CB7F7
DD007A7F
F0010CD7
DF0013CA
38C25091
AE040004
AF930203
00006B03
3ED0EE9C
09241812
01D40000
0002F200
000023A0
F00004F7
FF80001F
2FC20001
05FE0000
C007803C
3C007801
01C09600
001E0100
80016000
00000002
F1800003
0C380001
0080C003
00080800
000106C8
D00000D8
39CC5C41
1ECFE300
00F38B00
00008901
0590B5BC
C50F0004
02248008
E002E000
E6000FA1
D81003BE
B000C027
5F801C07
40F801E0
E31F001E
3E816001
03C01200
00380A00
00078050
0000E000
02900E00
005DC000
00009800
F0000286
3DF008E7
61FF01E2
580FFFA3
04D0BFF4
42CB4018
00004C01
58AB090A
37EAD741
59E7A060
10824181
00C2E820
E00C84FE
EFFFC065
0737FC06
C23000E4
FC0F000F
01F0B000
815E5400
241F8000
4010F8AC
1E860E03
60802161
0002CC00
000A30B0
3001BB03
81803EDE
7D35309F
85FDFC25
FD3FF7A6
2222BBE4
00001F9D
1ABB0084
243A8002
023C1C00
02E78400
007D6501
8003FF18
AC003FF5
618403F6
5C69202D
96580103
8DF38031
71BF1407
1F3CF880
03F36FD8
702700D2
0400B801
00901600
00030410
38010807
03800180
44FC008E
B67FC0BB
1BC00014
8C7C8000
00009F08
9778E76D
163735BC
2134402A
E403C00D
3F805A89
027C8050
A003E8CA
42001C01
022000E0
740E000F
07876000
00023C80
A000C110
10001411
18880209
0229C020
404F8800
0002FB40
7040DEC8
87F00D36
67FF8227
F9E7F003
26FE0000
3A928000
000061C8
82293574
A4510003
0604A040
E7D2B7F4
CDFB1518
830FE638
74007EED
6FC201AB
B76A00ED
89E34085
800E701C
B809CC03
FFA81443
FBFFA167
AE6FFD0A
7BB73C54
4A568BE0
018FF428
E55A2AE2
C900867C
47E0013B
B7B08DF0
07585280
35278143
0000D604
65FB99B7
BB9E0645
05780004
809D81FF
00079806
10017F00
B700FE96
FC7836D6
1D47C0BF
F1F83F7D
000EA1B2
F000F813
31801801
8508006A
E009C01E
98811A0D
07F00420
200E0004
00000800
00008A00
A0207FE0
AE03F6F9
E8213FFD
7C70FF85
000065FF
D0F908B4
32D01C47
18230B82
4F7710D8
74055C07
7F001161
92A881AC
F9FD101A
04CF8062
00987800
00175F88
864077F8
2EBC12E7
00220234
FC0E307C
E740A41B
6F940389
C1D9F01C
477FF000
8C25E904
8500B1F1
5F70009F
F1243931
A7D8084C
0000A3B2
69444BB1
0BD86162
85509640
2CE332C4
910A26E1
968C7E38
F7001E57
BDFA08AF
5857A3D9
E56FD39F
7D5AF21F
9A289674
59B018E0
8C9910F0
006DA804
8ED00F60
187D907C
74AEC003
811B7480
0415B422
41FFB386
BC4D7EAF
80D9FFD3
FC7F9713
0000CD2D
6B3E6DEF
E8EFD9EC
9F11FFFF
45615FFF
000020FE
000001C0
00000000
50000004
00000000
00800000
08010000
01802840
10BC0184
8115C07A
30005E07
010041C0
C032023C
F0020011
0F006801
00000180
01000000
54800000
4DA00000
2C2FE000
00001978
526B6A72
BB533D18
2B5EB800
00ADA204
F01783FE
F0005861
BF8005DE
CD78003E
0E8F8041
40C9F80F
030E1F80
00F873F8
1817E73A
FB803E2F
B7AE03F3
F9C6F81F
1F4A9F81
039C7120
101783E0
0C03F588
86003C2B
06000FFA
8BE00005
978403C3
0000B45F
A3D992C4
EA272CFE
FE4CFFFB
FC897FFF
03B86EE9
003851FD
78000006
47001C01
09700380
013F803C
30042003
4F081800
01B90980
229C2004
A301C107
07230C00
0E5505C0
FF923EFC
7F73D3EF
1E41687F
C70000DE
24690056
0CC803C9
65542504
00003118
24121092
9FAC3E17
E7E3B577
7C03682B
7F90D1EF
2F602000
00200028
8008240B
0D80C000
00104800
00001F80
00603BD8
7007837F
FB807E9F
CFF007FD
B2F7007E
FC19440F
1FC76240
50242610
03580681
666AA044
57208003
93A00001
42C59000
0000A300
6C26C83A
046B0017
04080000
34004C80
33E04DC8
E01A05FF
7C00F847
7F820F29
36F800E8
FA37000F
1F43C000
D7F01E88
033F1223
80184044
5601160A
01081A00
02002000
20024800
000198A0
F801BF8E
EFF2411D
D5CAE381
8B382427
802BA000
00009050
739F1DC2
09980001
04403000
00078200
00013870
9000032B
680000CC
F4000018
0740E100
E0100718
BC030071
7BC00687
039C22E0
003FC078
4001D401
01001E00
00100060
000D8002
02003C00
00700100
881E8030
7CFC2C01
B1000085
C1092043
00006A10
78431F52
1DF00001
013A0000
001B2000
00070370
80000208
8800001A
48000024
00800000
E0100004
1E238030
31F03807
039E6200
803BF0C4
3003DF00
02001C00
00000080
00000000
00006800
80000180
5A880002
A87D8011
E19E0806
14608000
00005000
C32E9AA0
D762E6D4
B0387C70
10393FEF
C0FFC93A
B933F26E
B1C0E7BB
E28E0E1A
0791F034
00E80F80
9016C7B8
2AC871A3
C7C3FE3E
9F6E37C0
04FBE9B5
25038E4B
95A023C9
832E391E
05A2E020
D80C8700
D0DCEEF2
4E81FC7D
1A4C09DD
6D1881CA
000096DA
5A0AA03A
F5078A0B
047A7F41
03BB0AE0
0809CCFF
C000FF7E
1A00074D
E56000BC
FF87C283
C3D8FC7E
3EBF1FE3
60F5D3A4
B00F7FFE
F6807BDA
75A801F2
0F03FC1E
01740221
321CC026
4B00B803
0A180180
6119EEA0
F0101D09
B5E499FE
BD1AE3E1
0000AE27
C1874F2B
3D6FFFF9
FFA87FFE
4FF47FFF
00FF4E13
00007640
0010005C
1000000B
18000C48
03100040
20018000
120049C8
003805FC
F80DC02F
C7005C2F
1A700CE0
C00673FC
FE116EFF
6FA214DF
10001FFC
80000010
6F80000F
E70AC000
1427CC04
000014C1
57F7E006
19551C53
185F40A3
D3D12014
70171850
BD00080E
0BA005F0
90FF0004
0105F401
40891F06
0696BFC0
C0151CFC
3DE260DB
D1E1D2AF
3E007DB8
E21403F1
6FAE50BF
00D2DA01
00176C80
A081E71C
1C027A63
D5F20087
3D6B2022
D67B8F30
00006FF3
5AD8E894
F1059BFE
8F30F77E
CFB9EFFF
007793FA
800164F8
98000EEF
4E800027
153C0408
D063F7F0
1E8F887F
407E6903
D0079F3A
BF002891
E950437B
2F080C12
FB6946C7
FFCBB00B
09F00402
08000AC0
C000024E
30058463
F6B9DAF7
1C695FEE
00002FBE
6300099E
F2B9CE0F
D726FFF7
5FF7ACCE
E47FEC77
C717F0FE
F9405C67
EFCE03FF
8CB8A075
0DF78403
080FA0E8
32447EC7
F35E0205
303BF46E
CBD16FCF
6BFC1837
F311C101
8758BE68
F2DFB177
7A63F966
20C67306
580620E7
179A58B8
46064300
00001110
7A452CA6
339F0BFD
71DBDC1F
71798C08
2E800020
C8026245
4050E91E
5083860F
7BC86C35
3F09D447
01FD1F80
003E41E0
C201C5BC
3C003E2B
F2000BF3
A3A4063B
0676E037
3EB43F81
B1829E6C
400CA8B0
840B1837
48989002
DDE3C010
E000F27D
000030DB
B2CE6351
EE7BBB9A
FFDE9B7F
9CE3F12B
2FFE0E00
00BFAEA0
00076E58
600001A3
03800001
00000000
80060018
1C005E01
88E004F0
FA0F80DF
9FFCFE48
25F99BB0
481F807F
070B7000
00002900
60013170
80000BC3
AE000033
DFC01D02
69670000
0000F90C
B4D83EAE
6A3460C7
1802580E
C9958000
7F6812F9
53B1B6BD
540519D7
B4CC30F9
BE41E14F
FD74833D
D8F9D113
3F96DC85
61F9467A
B81B0DD2
1805D145
850ACF99
6CF8A83F
260E83C0
74E238F8
78FC78A5
E683C060
A2101403
1FC8A400
C8EA4000
0000E126
DA9FF714
14DA0005
50CBE201
0073E000
06959F40
00F85C40
863FC0C8
3802128A
0480687A
99100A07
03C80530
C03F249C
0E03F843
41E039BE
134E05F8
00F0E1EF
01360614
8002A010
2005B900
E1407838
FD100092
4BF300A6
E27BF406
7EDBFFE7
000042F7
B8641F4E
9762395F
98F100CB
1A89214F
4651601A
C00519E2
09013F9E
C27FD573
0E2D3E23
008DE681
00061C00
00603DE0
C02301DE
FF009B65
F5F001BD
5AE70003
0FAFE800
17F9D780
E0F6BFFC
AF5C4C6E
A0FFA66B
6B03F845
C4100389
A57E045E
0000B2B9
71C98A5A
28830013
5C655C3B
0FF4BFF8
7BE7E5EF
05E5E0D6
7063D8EB
B72C3847
053781A2
80910311
FF440073
FDCF3C0F
7D85F38B
9FD20188
5B7CC0C3
4E95CC02
40A0A3C0
193F002C
0BB2E100
20ED9F08
8117C1CC
FDB23F7E
2ACD81FF
1250790F
0000F1CD
6ED6EC00
F66DAB0E
1EFAA018
002DF200
000FD200
0000FF40
04003FA0
F800FFFB
EF80BFFF
A1F86BFF
001E8EC0
6000F1E4
DE001D90
FFF004FF
E1E60006
0240A801
00300300
90010008
08016000
00100450
001E0074
A005F172
D340FFDF
57E28FFC
000029FF
A1698D09
44A637A3
C11B0F8A
DFD12916
3F62F993
2C1EA4E2
B38170C1
977F5485
4479E3AC
8FED0885
04776361
C107CC7C
0E081CA5
0361C7B4
9EBA2E18
388643E2
27D8D162
11FAD180
C85FEB1E
D0A7B6EA
7C0F7BDA
4C5817ED
755B8356
928CE3FD
00004E01
67404AE1
18E81C02
A43F02A1
3B018032
70F81F02
82021228
38000798
EF838276
2F480033
114CF204
0004C880
A1819FAC
0E36C3E9
F031E5E7
DF3F9FEA
93FFF9FF
9E17F3B3
00777E08
880B2F90
860061F8
4BE0201B
CC080000
09E00001
8C184000
00001393
C21ECAEE
383E1693
702E011D
8807A101
71A097F6
DC3919AF
F7EFD067
07DE1F40
5BF001C0
860F001E
0C582101
07C09C00
907C80CC
6241451B
6B5C0033
D399F100
B57FCF00
9697F260
0BFF4181
80FFD03C
F635F3AF
944ABE0F
4F227201
807CCDC0
00000585
7B49C3F0
7EFFF3FD
54F03DBF
A7B6B977
04AE9074
3E435B24
887D5050
3031F8C3
2F83AFE4
C3A1787C
1FAA8FFB
787B51FB
2A057F12
0FE262C8
689E0911
8481C850
44960D06
130561A0
33400F0F
075A0880
723C7BA8
A0F7A5B4
BDDFAC97
316EFEFE
0000B9BF
2D452581
ACA01C2C
61678017
C7EE801C
9FECDC11
01FDD882
0077C1A4
880D0032
20C1F5C6
7248349A
4238CDCA
BA099CFA
07F008D3
A00E0392
BE01E4BB
69E017FF
0FFEB57E
00383783
C0021A1C
3764312B
D730004A
13DF4007
F497C42C
4263FCA9
00001CD3
5C014E9B
61FA39E9
320C7FE4
646FDAF4
8E3AC5FC
E0C0F07E
FCC30E2F
07DD78E6
E1740146
DDCECC7D
3BD69027
30FEF282
B10FFDEC
1D305CEB
2DCE0795
8DDD0800
31398481
7F6C1C68
1FA01102
19B81040
C584BFF0
062C6DFD
05605BFB
44D80B80
0000137B
1E7842B5
F635F796
878C3FB8
A1EF1EEF
0D0380D3
20403D48
800589F0
606014E0
0B8000C1
FCE1C81F
07DD9C40
407F7DE0
F003FC5E
2F803F73
01F003F7
818F401A
28243C00
0606A4C0
7140180F
1F5009C0
E0F6081A
10023057
AF63C05E
56FF738C
000061B5
8BEF18C5
968322FA
F016F101
6E073012
7FE06001
79FF80C4
88ABF8BC
D0C2E636
6B14B87C
3606C20F
0240CE00
8281A370
281543C4
C0411624
7C180033
00A0004E
22678613
31B5F459
F65F5F7F
FD3FFB3E
3FB75C1F
CFE7A00B
085F8001
075AC810
0000B1F3
58C2CF4C
40E46022
00145004
505E4E00
0F801409
183E47B2
81E7FB60
53A40701
A2B200B2
FE2E3C2F
F9F5FF3B
989FB4FB
7E00FC07
43E01F01
000600E1
8488F0A9
447A0825
00032130
30130600
01800110
BC301B5E
10FB1783
92FFFC18
11BCE7E2
00003FA6
07777C2D
054C0D08
A66437F8
FF7581DF
1F57E601
00E679D0
C00F0192
9A00F01D
0F4F0F42
00E800FC
8804B605
02003A10
11D20100
C09C04B7
B700C07A
BF720C0B
0B9C55C0
C018F39C
E6091FFF
8E000F2A
940201B9
FCA03068
D2044407
D708262B
0000FA15
33831888
30BC0422
ACF9800E
FFC83A03
7FF8F582
57FFCAE8
0005C2A7
4A000041
07B00000
00060000
00042000
02000600
004004C0
00040178
C0000016
08C08001
00EA0000
007F0000
20011040
8BB88285
11BFDD46
6D6FFFEB
09389F7A
12711400
0000F000
8E772C1A
7050C1ED
236E2935
0FF09480
0F9FA731
03F5FB00
A615EFB3
1C290A7C
38C75C6F
FDC8FDA0
EFFA1F16
AC83B3F1
1E403037
99E446D6
765E7271
C8C63B3F
077C1F09
22CBA3F4
881DC0DF
14348980
47802920
719D4276
C6AFC19B
8C0E4C40
0000C871
D2F856DB
5359800F
01203080
0442C010
C302268A
7E103E4A
D7C600E2
6FF9800E
41FF3E9B
7FB7F08E
053BEF01
C01DDE78
9C042D43
51E00384
2C038F13
14420595
00500030
6021F09B
08042A80
D0198021
BD80480B
82FC02C5
EF93EBFE
B7937FEF
000052EA
72720A0F
E81ED49E
4FD0FC5F
C42833FF
7F86BF9F
23BE0332
2B0CF8B6
26000500
09300088
F42A0002
FCC96002
3FC53400
07C01100
C0E00018
811C0009
F949C001
07F1FC00
031E0EC0
3031FBE8
88241AFB
703827DE
C8F2AFFC
FBFFF8FF
45DAF0DE
0000F080
6F4A4686
A81FB9BB
6B838FB7
04A27202
0008C780
00000170
7C000097
4FF00000
40FFD030
061FD3C1
2000F80E
02082E00
003C0140
A003E02C
8E002C01
E1780844
FC4F80A7
29C57E07
002039C0
C0000AFE
2E00005F
F8F60004
4244FC00
C0520F82
0000E385
0412E774
13308BDB
0C4E1140
8B150354
88020C01
9D694E40
47BF673A
5C51CA1D
1A0CAE50
9018FF01
8293D7B0
D1A5B7EF
EE316BDD
4D43EA88
588C0593
5D0432FE
9F7C489B
022EC134
C00C951E
0200CD40
1978582B
2D8EBEF8
94072FFF
3F85B641
0000D0A1
FCEF52A5
0A7D9E23
8BFF29D9
106CC413
0020D700
40000114
FF0000D8
2FFED102
023FFF00
963F23F8
D024F00E
0E07C400
0132DB00
601FE934
8F01E018
9AE03BAC
740F00FE
0120F407
0400D7A0
800018B8
7DC04207
A8B26918
259FEE51
F9F7CDFF
00007BF4
233946C8
C3478C1E
E9B3014D
FC452033
9860B703
40108C21
700000CB
8FC01081
0BFC0100
002F8000
2001F080
01800E00
007803E0
E007C0AF
9F00FE01
A0F001FF
FF53001F
07C0F400
00EA7760
A00F83EC
A7C3C02F
E708100B
00800A00
10CE0600
0000FC00
D6317123
D2DCB7FA
ECB0F0FF
3D48FE07
018821B8
000D8D30
E8007450
A080038A
9E2C2072
3D68EA07
03C4BBB0
007E51F2
C003F53C
3C043FF7
02E0C1E5
A7BE041E
0E27F041
585DEB86
40211110
320390F1
E56D0A04
AF0D7409
3B425C04
F04E2EB1
000083FF
3DBD06E3
CBFAA951
ADDF04F5
FF74A8FB
FFFA6E07
CF725942
0E604574
9E6E0013
307BC002
05965C00
0017E0C0
E400503E
06480E00
0061417E
BC014817
79001007
170E0490
01FDA092
C0778704
EC0BFFBE
3FB04F8A
10BFF026
47C1E360
45990A33
000023A2
09BDB4E8
245D8893
FFAB201D
FFFAEB03
7FFFFCC0
17E01E79
40280308
28040006
0CE00000
00AE0000
E0192000
0E008000
007003C0
C0000070
E900000F
0E002000
06D00600
800E0060
0811F801
00FEDD40
00D7FFF8
7D007FEB
1E7500FF
0FA2680E
0000A388
F8755D15
A2400FB2
F0030041
0007E220
00003700
C000027A
FE00003F
5FE7000A
0A7FE704
801FF978
7802FC03
0381C700
001C87F0
F000E29E
8F800033
F120280F
BF0500A7
FFFB0007
000E3000
0000A360
900000AA
74600002
41780100
C66B9480
00003E45
CC3AB984
CA5FB8E8
10F4FE62
000B3FF0
F02402FF
8100A5FA
FC0C1A4F
07816000
40780600
08030070
39E11003
018DB800
003801D0
0039C048
4007DE05
068060E0
C00C02BC
D8020015
0FC02880
00140214
AD0011E4
8C3E901A
0F3F2081
99C30000
00009007
712D8350
B701A079
4A94F00C
81005F00
B804455C
B0400FE9
74000033
7F801006
1E9C8386
A4058C34
702CBC07
120077C0
00F00EBE
100E00C0
1800F00D
04C01FC0
F041015F
CF850020
1CF00801
007C0840
000FC02C
668BE405
13501000
51B69200
00001C18
9F1094C1
CCF407DA
D115E023
F0122C00
570088A0
B43A0146
1C7AA07E
919F2452
A6D8D00F
7E09D007
03F19F80
01EEC3F8
C01BF09E
15007A0C
180C03F5
A5834078
76000407
07650C00
30181982
00F44304
2A07C836
38E89003
479E4107
21C62054
00000B43
03C19807
56370784
84784045
75389E80
00ADEBE9
0407BF3C
80001F55
EC80027E
B988001F
F9B828F0
3FFECC3F
02FFD3CF
E603FF68
0D4053D6
39FA0389
070DE000
00405000
000051E0
F0000883
17800500
00FC0094
F807401B
1C8EF804
F45F4701
0000BDB2
3780250C
6BC9BDB6
C1886A2D
C008EFFE
F000C7FF
EF40207F
F807006D
A1003021
4DB00381
805F0038
3804E003
03C41900
08140718
106060CC
548E0001
2000F000
A1BA0600
8FE00030
1FF2C002
00FFA4C0
C047FA40
CC803C3A
56C050A7
C16BFB23
000057CE
968BB1A3
1BD81C2C
A12F012E
FF75701B
3FC8E619
E7FB0990
FD162100
D490305A
0EA9C2E3
00C86E7A
004A9241
4080CF40
800C25B8
FE000067
DFD80C3A
61FE8063
FF3DF80E
1F20FE88
1CDDF870
8BFEC6CF
E03DE318
45008004
12262001
61E71200
00003F00
154E57D2
24004480
412D8AC0
020D97E4
002AC7CE
40349190
FA010CEC
C7F34042
06FDFE00
00FBD7F8
7C0D70B9
01C84204
C50999E0
FE007F3F
4BCDCA7C
7E1C1F87
97ED81FF
FE7E901F
00028700
40002F68
64008A8C
E60080FF
1CA40267
26F2E0C9
0000C256
7AA288DF
71579037
B37FE398
00B8F385
0027F400
006FD860
001FFB30
74006BFA
27840003
000C0000
00040000
38003700
01C00BF0
F47F80B6
BE03FC0C
9DF26F81
00E700F4
000C6C00
00002F80
5C0010D0
10400091
1923C7FA
07B07E7C
999A18C2
00009DF0
450A0CD5
6380202F
D7250000
7FFBE001
1FFBB000
01FEF9A0
00144392
0006007B
0840C001
01840D00
70020004
0E001A00
00700660
C0060020
DC00100F
0D803000
00EA0600
0013C020
0000B020
02604F20
808FF9E0
098BFFF8
16F91FF6
14106000
00002900
B64E8D95
785C07CF
00E90602
F6E641FE
F7F7E857
860672C1
93E06DE2
4E3E103F
2CC0F003
85A61784
380D307C
7197BC0F
8204BB40
5DC833E7
DBFE00BD
78574002
0794F588
1B2D8424
D239C417
2661FDC9
D0B8F0C4
D6045CFD
160883FB
1B810004
00002427
84F70FB1
F93BF7FE
F98BB7FF
7DAF6FFD
627132B6
04216FA3
39EC4838
57FBF343
415F3F62
81A78DC0
8003604D
C002383D
0C438684
EB4628C0
D3E2E433
3F8B9811
F7A58200
FEFB3532
03ED2285
01080978
75100FEF
A42998FC
6BFEF7FD
7EF1DFEF
000063BC
26CE0285
F28E89B8
FB2F7BFF
FFFAB91F
0FFD9000
003EF9C0
40037FA6
9400025D
7900140A
010883E0
F0189007
06003600
01E80150
C00E0002
8000C00D
0E040000
00185000
00038FE0
F000229E
3F800641
99E10173
F23BF492
E061F738
0AFAFF90
0000CCA0
B7C33283
EF05FD9F
8A4DB11F
FFAC823C
1E511C41
8462D880
80208588
600060E4
46090F00
C059BC1A
1FA03DA1
007F29E4
E007A13E
3F04761B
81F003A0
67D88033
E007EC06
1EE19CC1
E2306428
27FA4140
827604E8
6107800F
75600002
C222D102
0000D09C
DED68635
BB4796ED
C4E5B6FE
BBBC3FEA
35C1278C
407D23D0
E014713B
E00C01A0
FBF1A00E
1E87E261
F4EC7DEE
291EDB37
02402915
1C5B0190
E980D90E
768460AA
7ADDC406
0BA98191
4C00B057
04102F01
C95001EE
C2CB10DA
D79FFA54
334D3F04
00000CD0
606B2EC9
3A2209D4
A114800F
E4876400
7F001C6E
F8000EF3
1B00001A
3CE04004
59CA8202
0A297C32
23695F43
82815FD8
900845FD
9020F213
20001F41
859000FC
70510007
07836400
002C7400
0067CB60
000FF0FA
76801505
3D600000
90A04400
000040EE
C5E5F943
23C43F94
EDCDDDF2
BBA6807F
3DC26C0E
4BF20403
BF185886
A073ED00
89C27DE0
00DC83DA
00921808
03803764
01BA00E8
7212A2D8
2B00085F
317E0003
E0AFC042
3E437F2B
C39FAFFC
EC2125EF
7A657E7B
6B97F006
41280802
D712029B
00000F91
D34E73F8
CEBB7B7F
DA13BE7F
7DEBB1FF
BC7FEC57
50015B86
01800018
20134009
0400AD00
E035AD70
1E061488
80F051A0
C803E09E
504007D5
C0DC003E
78EEC007
7BDA4A04
FF65E375
07FEEC03
4C208AF1
405081E5
67D040EC
F3C6000F
46E6487E
00002A6F
92AC161E
77A25FC4
4D28F012
0010F040
00028300
80018C98
36000CCC
53880184
BC303F84
EBFE25FD
079FA07F
001BEC07
78001DC0
8EE000C6
B83D8015
07012000
00E80000
0007C000
00008400
00000210
5018434E
9F67CF78
C077FFFD
3E82EFFF
000006FE
04227748
FD9106D7
F8A9FD7F
FB813FF7
6FF4CAE6
00FF5FAD
2004F409
C2000811
04200024
00030009
00170020
80004804
006001C1
F3044014
EF10001B
1BFC0501
91AE3000
BFFCF3E5
BBDF63FF
FFADF87F
7CD3E3D3
EB76E066
89F801D1
EDDD1017
00005820
3236775F
CC7D108D
407A2089
30052828
F000669A
9B800AE0
DC040086
04907011
12DD8701
0099F860
00083FC0
A00037FC
000001EB
8006021C
78001301
A18001FB
7A55808F
03A48010
0C540400
001F82A0
1843F023
79103C02
0EC00700
32B58C00
000015D7
6B6D8580
1C266FE9
911E1700
FC5381BF
FFEDD99F
1FF1F8A0
C5E60F82
6491C02A
0C915900
00F15F70
3C06A6C1
40E11184
880FBC06
6FC07DF2
ECAC0240
208CE053
02F92600
C63510F0
77F31B06
CBF5C25A
210FF0F7
C6000E0B
3985900A
B5C3E909
00008D0B
7B797F64
6D46DD1A
1003B003
F0E2C83F
3F00F001
270009C0
09D001E4
C05D8019
0947E103
00747C00
08049F00
008001E0
C003067E
020000C9
400003C7
A080800E
3A790203
034A4020
0076FA00
013E45C0
400FDC68
46807865
8780029E
616120AA
0000A8B4
5AF5DA71
26080713
00B02289
E280E004
8B10C038
399A748F
7208B0F4
C023820E
FA89F464
1618E853
01799F80
801F1DF0
780AF1FF
93C1EFB5
320C07F2
E141C078
3A0E0837
01F7CC60
800EB218
F025E739
5FC33002
5BF40013
E17FE102
009F7039
000063D7
D463D256
0C56D194
485807E0
20CE6900
00C245A0
80006E08
7C202844
67FE8216
2BFFFBD8
CEFFDFFD
1D7E6059
00CFFE04
6015FC61
09C0F6AC
1C929F48
041E3FF0
015011CC
20069008
09013A92
C801B961
FC1E7FDE
A4DFFEFE
261E7F3A
7BFA937E
000084A4
936E95E8
E5948E49
EE0103F0
6EE1A1FE
515F2639
290E8086
275BCB96
14727911
60C3FA64
069CDEC0
62292F8C
88850378
3F3F1086
2134252E
702C01AA
FEA36A4B
0BBF5F2C
C7B861F8
F62DD7BF
FE1F6D81
DFC0C719
BBF44F1E
6D5FE1D9
C6B6FC1A
00009A74
C2FEF535
6C7CE65A
CBCADFF7
E9020BDF
3A4AA79D
80E080CC
F8632FB2
C303F812
0D287B23
FAB5143B
158F4021
0070CB80
A003AB30
1C203043
4CC20205
12C60012
002FE480
7E6B37DD
C1F1D77F
93F9F5BE
E41FE877
1A67E096
C720110B
7547DF78
0000F5DB
79CC1BDB
1EB0050D
FA6C0008
FFAD0017
0BFEA800
003E18E0
40040DF0
C2000053
5CF01C03
00C601C0
F00D601E
0700C000
000003C0
E00000F4
FC000012
1D84E001
00F0AE00
000D45A0
0000F418
00022E40
18023FC2
9187FBF5
B1543FFF
50856F40
00007698
44C2A641
72D91168
02C204C1
40F807B0
2E8F0101
01B47F80
01080FE8
1C1881B7
9803CD04
A1100DF8
FE3920DB
3FC84405
17D80260
A49C03D7
5171A01E
28600C11
10B44440
000E8ADC
BC0DB338
2F437720
7B8E857C
0230A11D
C4FF819F
27FEBC59
000043B1
4C1E9225
DBAFF3FF
D9ADB5FF
C8A69AB6
5C008140
3F8004F8
81B00072
A828080E
28400582
E22CBC1E
AFF05F86
7A2029FA
51FA039E
0013E019
9E011736
04401BF8
604440BE
AF004708
A2404412
004C03A0
D80B0320
0400100E
FC25CF1C
223F6873
00002BF1
DEA85846
1412E1F4
86B836B1
DE266E7F
0E4F99C3
06FC8C58
A03EA868
3240AE42
23000520
7A1203F0
FBD3003F
4E1FC007
DE031802
07C000B4
10840A0D
9E956A94
076C0601
00674930
3838B402
03E60F84
A61E00AD
483BF0CE
DE63FFB9
BA41FFE3
0000F8BB
2DF6C0AE
E9FDF7FE
BEC9FFBF
0023FFFF
050DE8E5
3FBEE176
A1FD6468
40086903
0D9000D0
81E70040
801DA022
FC11D00F
3B830B80
81FF00EA
B16E8E19
0A01ECC0
81900464
F0056000
11810A01
C0141BC2
5100CBB5
FE1C1FFE
B8BFF5FD
09D7BFFF
00009ADB
08D6627D
293C048A
00630000
001FA000
00005C40
000082A0
3F803EC6
F39F69BF
FFA79FF9
F9FE3DFF
073E60F1
E0017606
0A001C40
90F000A8
A0250015
04405800
00F00000
00068000
00003000
80800000
C0145F28
EA03DFF1
C4D07FFE
D7F4EFFF
000010FF
72369390
F6EF45E8
D598BFBF
8B01013F
FA40080F
B4000444
0A5D4004
E0D69E0D
AF27FC60
8BFFFE41
42C6FF80
024223C0
82DF2059
3813E00D
5D055BB8
5DD43205
D57F665D
1FF8E7AD
E0DBF139
2392FCFC
8CFA80E8
2DC73A44
CE108140
C99F1EB6
00003300
DB7791D8
BAEFCBF7
01DED840
13720302
69923008
0C0001A1
85F80268
00BF8007
6E03FC01
2EA0BFE0
01B85F5B
800F99E0
6E80FDBA
C4C10BB8
00800FF1
A05002E2
F82E801E
18083801
00604880
C04660C2
504FF82F
BFC012D4
C32F80DE
F3493EF3
0000BDF3
03DFF26D
5BE1EF1A
6BDCE7FF
236A8EED
FFFF6013
2DBEEE3B
E6778BBD
E57088DB
39044001
00E91F08
240C8150
2C407602
42C40268
B2AE3FCA
1F857149
BF67EF8B
649EAFFB
C38CA287
7EB8F780
3FCB5BFB
0CFEABEA
DB02F07A
8B00076A
DB5715EC
00005C3C
BBC37766
DB1F71B2
2E819FFD
FE72FE4C
FB607FB7
E01203FF
24005147
88000B1D
30700063
F5A68014
3C8B0040
0B963A04
01FE0BC0
E03FD81A
A2128100
3AF90110
4385FC00
139E2480
70F1D87F
651C230D
4DDF0383
74BED233
4EAC9080
10B20000
00007E00
6DE6BDC3
45D42E3D
B859E012
00A5D000
90006D38
28000803
A20800AE
C060940B
06032040
14603003
00901F80
802F39F8
DC02E07F
61C03F36
D6046FF8
F3EA33DF
1F3F83CD
40F7F01A
001FC900
A000BF30
B300000A
0DC00001
EDE80200
E8C9305B
00000AED
18A0F4C8
7A813869
0446E209
80034400
F4004DFE
FF8004FF
7FEC0047
17887000
14F80380
8217001E
1801F803
03000700
006000C0
000700CC
35003000
12B02000
06480200
80208020
08680801
00DE0800
8007D132
409C7A0B
6919FF40
51276411
00001491
3998C8D2
E94FFFF9
FD09BFFF
F3200EFF
FD3037ED
621300BF
F000AD18
80000300
04B00042
A05E000E
0C210800
00C07982
F86E049D
B202E018
7E783E04
033981F0
C40E3C1F
9A082441
FF80A940
0FE80E84
007801B8
2387C035
8B740C01
894D0001
0000D332
EBAE10D6
D7180025
3E11C042
41E15200
77206880
93515F53
BC724D17
FDC77273
7A4CE0CF
A820C13E
FC20DF1B
3FC5BFA1
CB3817FE
E001D66B
2E0166F1
CC7A5378
B8074537
43A68A40
2CEC692C
4D7DE3FC
2797B811
06D32402
14498040
84454101
00002673
A763818A
923EC17A
3520D229
F7FA9D46
EE1B49F9
FB00517F
5C0E0B9F
CA6014BD
19CF0743
F9D0BC50
3F8F9663
32E043E5
A1CE06FD
2B082651
E1A847C0
CD8836F6
32629696
8684860B
FCFC71E8
28DB8E81
2349B8E0
86001D44
18606060
0073A202
00002308
0385BDF7
07B6DDC3
92B80120
00028800
0007D080
80001E90
7C0004CF
0FFE0005
1CFFFC00
005FFFF0
104F700F
00432600
000016C0
800021FA
00014A09
00000C00
004A00F8
20011006
00000080
000004B0
A2000074
BC340030
006DE695
12EBE97A
0000F450
2588E6A3
57362008
1E3AA042
DEF8B097
1D0F20CD
BFC18943
134C111A
AEFAE054
0F0F5800
6198FE00
1E018D23
20E991A2
EC4F0B18
09417EDA
5AE80B26
DD89C937
7E567A41
8A6CE2D8
FF2A461D
04FAFFC0
757FE1EE
C290717F
13850118
0C9F9804
000041D1
BBC63627
BC7D3616
5F0E6ACB
73C6DC66
FFAF8C84
17E01E29
083F82A8
FC278239
0644E802
10430700
5E880838
0FEE21C1
803D83BC
4C432834
FDA60829
048AC029
04B02600
00DE5170
F884020D
0FFE9088
10DFF5B4
22027FED
A67D16B3
5FCB2002
0000D330
D079055F
20B20003
00160000
0005B000
00002500
00000180
00000050
B0013C00
04007100
C1E00718
000F8030
70004007
03000680
4030007C
30038000
02001E00
000000C0
00038006
00003800
00000000
B0000030
0A00FCA4
C8C5FFFF
D9078FFF
0000D2FF
041B4890
816E1F26
D12B00CC
FDFFC02F
0BF5DF02
03EA7920
60780226
37438014
0EF01804
000600C0
7001E00E
07C0C400
00780980
D00C00A4
6F80000E
4E483001
03BC2600
00BD40F0
180BE443
0AE4BF44
C903FFC1
41603FFF
E18E03FE
BF373804
0000BA02
9C8CF66E
61E89D40
BB094492
E1DB65C2
4A61FF96
CC00A73E
FE22B44B
77AC0C1F
08E080C4
750E001F
13E38010
D9BF3C1C
5C76F069
A0F27F14
6B3799EA
83F0FE8C
1067A9DA
80023BBC
0885A2DD
D904AB3E
350EB0AF
A1F0CE04
3DF80FC4
DC03727F
00005240
7C14D389
78F73FA6
038B6A4F
D46F4E00
FF80269D
2BFE3D82
8567C050
35004B00
07002160
AE44890F
27549FA0
C192186C
2C39704A
80E1E3A9
0E060621
112130F8
E4378B8F
4E81717A
F998144B
8BF7443C
577F0809
9DEC5AA3
85AB8E08
235D7B6B
0000C4AB
5EC1B84F
3C6A34A3
889A0302
1F940781
3B0225C3
A738B000
BE4F080E
EF883E3B
3DBF00F3
88C7880F
2694F181
006F0BC8
F00F7A38
4E007961
78E80785
86D30070
7854E003
07215C40
486C3800
76FC0F4E
2C7FA152
3C01FC7B
09D82BE9
B1940E2A
0000E901
E8292F8B
7DC6D025
10D4CFEC
E475B3F9
7E0FE43F
B7143AE3
6E20BB6E
F37891DE
1DF1014F
41EEB040
DE1EE03E
E700F61D
9F401F81
45D001D1
EF5E001E
7E3FC001
07DB6E80
A3ED6BF4
BF7FFBD7
481DBC10
68830FD8
FD8A507B
12E830DA
D4DE0FBD
0000111B
6A69097E
0EC00002
00680000
00009400
00013820
00000480
800000D0
20000008
00006001
C1B00710
0E0E8070
78A05007
078C0D00
C07800F0
4003C000
00001E00
00800060
00000000
00004000
00000480
82000010
28718DF1
F9C8007F
1239007F
00002F6F
534C1169
5606B562
01C205A0
F8C88DDD
1DAE7D93
00817604
760C0C63
0FD400E6
9CBF0B30
945719B1
4D1BF01F
80EBFF0E
2000BC41
B01B83D4
D702D01B
6C581C2B
FDADE7D7
7F93EF0F
80403EC5
EC00A3CF
AB10032F
AA4A6809
0A3F61F5
59C84F02
00002A60
7E849CD8
B5AAD34D
7EC0BF0C
21BC7EA9
E80F62DE
9E8173F6
B3C00F1F
84D515FF
1A849023
41CC0361
F88EAA1F
3B00A303
81380618
580FC0CC
E1A8BE27
2D8F827E
6674F803
870705C0
DC60D6FC
1FBABFE9
40EA472C
640D5BFA
07D8FBAD
0B9255CC
00002B20
11D64D8E
FB84FB5C
7FFF4FFF
7FAD23FF
1C4F488F
200233C0
8000001A
D001C063
1B800C05
C0E801F0
3F018C2F
30D849C4
F0056F1F
0FC8E439
19F08009
0C470687
E7E038E8
FF4FA7EB
CDE0762B
001008D0
C040006E
8490483B
F69CB6BF
FED79F1C
00005476
E0DFCFEA
37490643
3613C000
1CFEA200
03FFA600
40FFBFD0
6E3FDD97
37FEBFFF
17EDFF82
028FF8E8
50417203
41C0DF00
9F4B7F00
4FBB43EF
7DFE8C1A
561F7802
002C0100
80018000
0800640A
43C04D54
31AFD1F9
EC01F9FB
848073F7
29ABBF24
0000EA53
C89A2A0C
A6300C0E
0B03A040
C10C9A00
FC002C23
BA800A13
7C80000B
25E40039
C0C5C382
011CEC18
3002DF03
10003BF0
0028049F
E007824D
7E003C03
821001F0
F036001F
0F830800
00682800
805EE080
2027F038
7800B405
08400500
01906000
00002A42
3317FEF5
ED4E7BA1
E8AFFE8F
534F0019
D290809A
03A00687
8A0601DF
040E7804
0B4031C1
82299A3D
16101A00
C1A60B30
807FC1F8
F043FED7
731F9FD4
16F4BDF4
E62BE79F
DA92ED7D
67FC76F1
D4B7567F
0C09E60A
56800421
F4D00000
1A8AC261
0000A8EF
03219269
C0BA1E31
E8A511CE
7EC1A01B
77F42A02
0BFFD180
80129FD0
9041001B
01802000
00000000
0012C480
00001700
00000070
C0061E67
8F0074F2
E1F01B0F
FD3BD8FF
3F5FF433
80F19FF0
F600E3FA
BF908023
6EFA0002
21310003
00CF0800
0000AC40
38D0B4A9
17C4B730
D1A7E896
D449D81F
2D10C40E
0A35BAC1
09FF6140
F84FD805
FE0FEFE4
D2C86FBB
05246BE1
80824958
E8027716
0E806394
21880336
26CAC043
C2140808
3F5034F0
1CAB17C3
05DFF7F4
7037FEAF
836AEBFF
B3DFDEFF
9A8CFCD0
00005FDB
6FE93241
7558060E
FFC39FFE
FF6B51FF
1D1CB629
00C03A82
001B83E2
7001F55B
3F681D6D
009E02E0
000CC000
60204204
20800B62
D8080056
2F80801B
19E68001
0287F0C0
FF9F357F
FFEEC7FF
17887A98
7DF291DF
6FA0407F
9170673F
BFE11FDF
0000F798
8FA14CAD
CBC6DF54
AC7274A0
6DEA2001
0FBE9A00
05FCA050
81D8FCF0
B00581A8
5201D81A
A63C4B8C
B23F063C
9F00E8F7
2BC85784
C56903E8
A017DA18
0C000FE1
D80F027A
1042F803
00C027C8
E016C33D
F6127867
23F087C4
8DAFD01E
F96AFDF7
0000AFDB
939694EA
E5090511
97934000
FFD3B10F
3FFF9701
00FFDA40
C000FBF0
0A000038
09A00006
002E0100
E001A008
06009600
00400400
C0000030
F800000E
0E004000
00380000
001E4800
10006084
40521E09
508FFFF2
3107FFF8
E21C5FFD
14C1CA00
0000F020
05E8B571
C0A20C60
F90A04F1
FE82223B
3BD8F201
CB87F857
60301F34
94978691
0D2C7006
000F8F00
000D24C0
C100CC02
0334C460
7013ED3E
1763FAED
F376626F
FD2378FC
17626007
E8FC4780
7E07BE3F
9FB1E0A3
A4CC1002
47820000
3DB68000
0000A278
2F310E20
73784E67
001A0840
000283D4
6007887F
54017F1F
17E06FA9
D0761FF7
1D85E079
00E83F80
800F00F8
38004607
639036C0
405F81E3
E281F87E
1C620A83
01D00030
081BC009
100CB300
00003A58
F1708FEF
3D056D7B
2D401CF6
74948587
0000B41E
649FDE5A
008204EC
35F3C00F
D509EC00
F70056F2
BF4385FF
F4D1D067
17A01E00
68F980E0
EF7F001F
7B417027
078C5E41
C030102C
061601C8
08003804
11C08701
E0D24A0E
08060A01
1414EC42
03FBC090
523FF037
70017E0B
0CCC3820
11148400
00003540
4FE24FE5
7A65C119
3417E80F
F00F1000
FC003EC8
7B80155F
1EB0021F
25608005
08602FD0
A05082FF
F207101F
1F803BC1
01388248
E003803C
1E001E85
85F803E0
F802001F
06CC7400
206AB3E0
15DE7AC7
2DAFA6DB
25D17283
27C04800
D1AA1406
00003863
37BC1B86
407BEBA8
F9006DFF
00E15FFF
002837F6
C0001CFC
A00000AD
0200000E
00000000
00900000
08082000
00C00E00
B803EAF8
77FEFD51
2F1FFFE4
1272FFF0
00210268
00002800
1000E100
0800036A
400000B8
A9800005
09000000
A8B30000
0000B400
89F8122D
9F0D3B9A
1446CFF5
D80C89FF
FEC44FAF
87FD01FC
9007E069
2E001F07
413000F4
8F2E000F
D4F66001
6043F402
0E003D00
83F02090
A09C280A
1E91E001
01F81C00
000FB060
701176DE
0B00077F
B89E03A5
B877C0B9
14EFFF3E
2AB4FFFC
00001CC4
98FAA63E
56B81C63
C3EAA8C7
CA2636BF
BBD11385
1BFF12F0
A009F022
2E001E02
80600010
0EB20000
F800A006
83800000
04040500
01000070
A08C000F
3D10C001
02F0CC00
003901E0
3001F457
42C11FD8
181FFBF5
2CF07EF8
E9BF27FF
2F7570A6
00008801
BD9BA21A
AF5E9482
31200D81
5CA4D330
02E17B2A
8F32019C
497872A0
67B70014
A57470D8
7C570317
5FF4E93D
DFF71621
237C5247
803A0150
D001184C
54061180
CF98B59C
E454C410
0C07DBF0
0271FA80
491FD693
E4C0B36D
34BFC7B4
0AED11FD
0000D92D
27BAAC9F
90608E41
36930950
EAF6A190
82DFE3FF
F382F3F8
7A4E7EB3
4FB0F87E
79FF8107
CD9FB06C
F8194C80
81A01C37
9B1C1363
405BA1EE
DEA9548A
6B1B83F6
1FEEB8BF
01FC5EC8
401FC3D4
FC0C719F
A6C38190
0D5C0604
4A6058E0
04548508
00005AD2
1D317FCE
85C80D17
8B1240E2
0DB34800
00FFCF00
0000710A
7A1E033E
DB31E874
01710BC0
140E1031
C850E081
3FEA3000
0B7A3141
C01F8006
A401501A
1CEC0801
01CFA000
003F4200
C000463C
B6001863
1F1BEBE7
41EAFEFA
FEFF7FFF
F6A77FFF
00004D6F
84BA4E42
AD5CB30A
E270C050
7FC3C003
16FC0601
005FC7E0
C03FFFF6
5847B776
1EE070E1
002E0300
0005A010
10000A00
01800460
C018006E
0600F007
02F00F80
C0BF8078
78007407
01405300
BC2025FC
70838233
8FC8F0C3
C04031F3
74BE4401
00009C00
FFB8E405
A6E99EC2
E1774A40
BB02E4B8
7BC197AD
A7BA550D
B0FF300B
F70E2888
A820A190
00080C0C
00078080
8067F018
10036165
52C0572D
9C1C07DF
AAFF40F3
D18A3C0F
07DF7761
5097D7EF
BFF9B63F
FF7FE053
E7F61826
2E1F000F
397EE000
000034B1
145B6A2B
5E70D802
007A25A1
D066F05E
E0057C0E
FEA20BA1
17E00710
C9FE117D
580FB02D
05F8FE82
00064FF0
200351C6
C2143F34
0C0183EC
F8C01C3F
BED44077
3FE80001
83F9A034
001FAB00
8012FA60
80008AF0
610167FC
C28001DC
42458EE3
0000D499
8C60D1DC
0DEA9823
DFFF9FFE
57E6A06E
08565607
18081A63
4BF81704
E5F5C079
32E38F03
07169860
72017016
17000B06
01F009E0
800F809C
FE00040C
EFD90001
3FDF6801
A3F9CDC4
CA0EF8D8
82017A83
E07206C8
55076F5C
A2D87FF8
601982FF
00008301
E3358F1B
CBBAB039
00228A01
000372F0
0000E508
E0000370
FC00001F
6FF80000
07FFCE00
000787F8
3005700F
00005600
00000B00
80000028
08000006
CD800000
7E380080
47E5000C
01304000
00000900
000001F8
EC20051F
0C183741
C1540B00
00007000
2D843689
EBEFF7F1
913DFFFF
838B8EFC
1A004FF8
8080871B
7C040077
00001804
81400101
70500034
3C8C0003
37F40143
B0FD031D
881FB274
100CFE06
06300FE0
A056027E
5C050043
77C0A14F
02080888
8004002C
66080001
0BF00000
2D220400
0000160C
2F789F61
B819FFDE
E64BF79A
FEFAA4F1
EC01D018
1E000161
11900102
80500024
2C800280
4208780C
02039F80
D0012FFC
1AF20A77
103F1237
D7057FD8
FBF03EFB
1C100377
27E5E4CE
40335B1C
A807D01B
1E0030A3
77C00E01
9C938B01
FA38389A
00005ECD
FEC70D3F
17502D89
EE620020
FFFBA015
1FFFB200
03FFB5E0
003F2FBC
F04BE0FA
0A017804
00DC0700
000ED070
0E00EA00
006803C0
600F807C
1E00780A
0BB0800B
01AC0010
035C6660
F01D773D
5F07167F
D87FED67
4A1FFEDC
16916FE5
412B1E00
00004010
9E86A7D6
F7FFBFDA
FC518FFF
2076407F
004F8400
008A7E48
0006EB90
F0205FBB
1182061F
00C06000
000F0201
3C007023
7FE805A1
7FFFC07F
F7FFE43C
B8F76F8A
81B51A68
803D8015
88005504
00002190
20000360
C9060BFE
4141DDDC
7E5347D5
0000DF80
5BFFB389
EDD3FADC
BF9CDEF5
000A9E02
C00053FA
FEC8057F
7BFD804F
4701E002
33300308
0A7F0076
B0F77005
040F6006
00209A81
80111800
98961D02
41DC7080
11600400
81229410
0CB020C0
482D10F0
D90BF1A0
031CDDA3
B57FE6E9
A04E3F55
0000EBAD
E329961A
D5EF7F7E
FE977FFF
FFEFBFFF
7FB42F0F
000156E0
A0000052
0F00006B
20F00000
00070000
00007000
00007E00
003800D0
E01D00C7
FF81FC0F
D878B7C0
FC57A3B0
FFF7DA2B
84F8BFF0
E00037D4
360003AB
4F40000B
05C40000
00BF2000
0000BA40
DD077788
4365BF03
D5AB9081
7109F087
76C40795
76CFEEA3
287F7070
930FF39A
2A20D8E0
00630D2B
000F8090
26107C11
81C88540
F20C7E1D
7F651EFB
A874ABEF
F05FF7AC
BD83FE12
00C2CF98
D13F2676
1E80FA3B
93F97502
7A56880F
87A77DD4
0000E7F6
7F92749F
DB122650
4C417020
A0119041
0DE6A082
272E6EDC
83FA63F8
700B888F
0100F802
00882380
00048070
18001005
01405980
61388693
3A0080C2
026807C2
800F007C
1E086003
41E01600
A61FC6F8
7643F80B
0FA42FA5
D0A64037
C60FD81A
000098DA
223CE33F
26C02E09
EB8221A8
62E02013
01090E04
14C1AB20
05790C00
201FC001
0703FD00
80C82C00
0C0583C0
E062D05C
0F000480
F0702254
A6030070
10207C06
019A80D0
7A006407
01C0DAC8
D00716B0
F422FEC7
92000FCE
F6110FBF
17899FEF
0000E8FE
D547344E
FE5FFFEE
FB487FFD
648A4E0F
060218C2
40380E4C
C8018A78
1020080C
920001C1
E1C0E31C
0E1D1FE0
0875C1FF
F1C3AF1E
A38E6A43
207DE3E4
060AC61E
806606F8
3804A647
03125001
10962740
00001540
87000121
9A40ACFE
3908B781
0000A26A
3FA73121
97520980
1B5A1049
01AC4002
0207B200
01C81F80
801E01FC
C000A034
0B80384B
03F81380
E62B01F8
FE219007
07F00AC0
C03D024C
FE03C03F
1FF00C01
00F80080
000D6000
2000F710
B0801B93
BFE0031B
43A685FA
FA87FFFF
D740FFFF
0000E37D
88A9E694
4E8FC5FD
EE1CD5D8
6AF7DD56
28CFE2E3
4980089A
C6003FF5
307000EA
19C7282B
A8E87870
E80B0E7F
F8F1F813
F983ECAA
8FD045A9
F4E933E4
4E21FC1F
029C8504
A30C80F5
7C60D828
030126E0
D01847BC
1A02B1BC
C3C11A97
D84EF907
00003FCE
DBAF5C19
C60BBB48
FCDC243F
2FCD91FF
09F7F212
4023D284
CA040D01
B0C20030
0C1D1C01
006393E0
3A083600
01E07BC0
500FF358
5B012677
5B9806FF
19ED8001
1F8F2C00
FFFDE2E8
6FE6E407
925F08D0
B405E44F
85002230
FCC0000C
846D0601
0000F580
7B0C7E89
95BD6812
91D301A0
34025300
84815FE0
FFB8066F
26FCC07F
23847C02
33F001C0
E487000F
05786000
01CF8400
0A049A80
E03B8110
2207B816
1A60B001
01FF2F00
80227068
382BF387
91211BBC
7CC0402B
C5FDB8EF
3B3FFD5F
02DB7FF2
000076F8
0E1D1971
9368CBE6
221B7BF8
437E4FD0
D8972368
B806EEDF
6B0049A7
FC88133F
DF89F101
BD38E511
8FEE04D7
62FFAFE6
D30FFAFE
9F803FD7
40E0012C
875E0016
00EA5280
E00481F8
2C02CC82
13F82A28
00BF23CC
1401C410
1D08C029
9C925101
000046F4
15C80944
1E710007
001D4000
00520000
80411590
E004E4BC
5E00315D
01700289
60834000
85105A01
078002C0
E07B649E
0E0FF176
00E07FB4
141F0FA1
054270DE
00080300
00078010
00000800
41000190
97B80022
77730013
77460000
90F48000
00007400
667897BF
470E4404
08750A01
CE17C391
C140FDF1
B016D4BE
FD80FCC7
77DC03E5
C679C1F9
6EE70C1F
0F5E6041
61F67E05
A50AFE02
CCC127CD
05890396
2651B804
027EE020
7061861C
00401060
33B0AC84
601EA0A0
2005F60A
048A38C1
77021FCC
0000A4DF
813C4AE3
35F00DA5
121A29F0
00E693BE
802BF505
F80203DF
6F804736
F6DC1FAB
9FF7C1FC
01C71E04
0016E0F0
61002606
07B80640
601F8164
CE047C0C
3E601441
57AE1300
01DF0060
801FDBC4
BC007F9C
CBF00EBB
FE6730F3
822013F9
A5FA410C
00004559
2EF0759F
967E81F7
21D8F00F
022F5810
40007180
1F8019C0
03FC0038
1838604A
42CB0012
71387808
4430EFC0
FC2103FC
23E2868F
80070478
3881E003
60801E74
211800FE
61024005
06184800
80430120
B300600A
A4B01E75
D68FA6DF
90EDA4FE
00001E67
47EC259F
EB2C1907
78F21743
3BC2A011
02401E21
A8052794
3D826037
E7DF6605
89FFF7A2
D9FF002E
00496002
0391F200
003C4420
F00BF06F
8F41FF6B
50FA366B
541FE1EB
03437E31
807DA3FA
DE01FBB7
CD60021D
2866A404
33447C81
CCD28D16
0000C728
A1B583B0
88DF82F1
AE6DEFDF
21405C4C
4304F1A4
9302071F
FA000057
77800017
D1B801B0
FE34401E
1E855001
1FF85730
43FCCA7B
201F8CCB
1601F008
05223EF0
607701BD
020B5450
A0000E86
4A001245
FC70058E
FEA78E8A
48420C00
41F1E008
0000E728
8FD59C5F
0B3028AA
7B1692C8
E4114888
3FD07009
BDFBB8EA
5613A1DC
A00F1639
2D00B3E8
EAD8EA25
0808D8E0
008067E0
E038807C
6480F556
4E013BE5
F43C3AAE
C6F2269C
9D7E7C11
89062A67
7EBCE97D
A52FFE51
6787B002
B3801000
BA2CA043
0000D91D
809D7D2D
15B90458
0A007000
00269C00
0083D808
2002ED2D
1A0003B3
00000061
23800010
7D380800
0F8785C0
C07C00FC
BE0FF21F
40F03F03
000F87E2
23007678
004800B0
00028000
00000800
10000700
92800024
EC600100
15720002
816B0001
0000B822
B393C90B
1E40FD91
08118000
02940E68
725FBC5F
6EE31992
5FC312F0
ECFE401E
1A8FC055
61C1F8A0
1E9F9F20
40F3D382
E806B57A
3E00170F
73DC02F5
3688C01B
84922FC1
2AB2C0B3
2199270A
A0F3A750
00AD58D8
808037FF
A7E90563
DE20F077
00000E4A
2BEC94AF
12690223
1DDEF806
41FBD800
26374840
80803036
60000701
C4017050
41802F01
880087B8
FF810031
3FC40987
83FC2148
403E020E
50018502
01011EB2
201901F3
00032140
E080180E
1E840CBB
AEFBC81E
4FFFCF23
37A02033
6947C010
00001A06
7DDC04CF
DB719E4C
5E2309FC
F91631FF
3D468E27
08EDFDC6
C0CF37EF
2442D7E2
04360980
011B81C2
E007E02E
DE00EE11
0FB81400
A77D10E6
C4E0C09E
5F166BC0
FFFC5EA4
3FF9F0F4
843FE4AB
9A0071F0
660005CF
8820AADF
8652DAEF
3FEF89FF
00002438
1C02E98C
E84F6FAB
9F95BFDF
50EB7FC7
E8401BFF
0F8082FF
C20C006D
8A007007
1C500540
A010003C
18230801
0DC0C400
197F039E
821FF911
02063F0E
0010E0F1
4003860A
9E962C70
3FD39F43
401F3272
AE406AA6
8DB65A04
BD7CC885
D0EADEDD
0000358A
C3FB526E
276902EE
B489EA43
89EB0E02
A7882071
6F324467
5A110198
F826CD53
51C8461D
FE19C17C
71615D06
3BCE49E3
81B80178
081F867F
00033105
47B017F8
E073367F
50830C03
DE76682D
056C84AC
C06F8168
380BCD40
522D0C0C
60D31000
0000FCD4
9AE19EB8
44EAFBFF
DDCEF6FF
188BDABE
246C2226
0C096FE4
824021D4
D8701662
6787F773
DD60FEFA
0EDBBFC1
407681CE
A402FF9E
57002E49
3F9002F1
37004077
73501487
4E021C90
01856521
02136C80
14206CD5
3C1710F0
0DCFF0FC
F7D07F57
00004FFF
F000C030
5DC234B1
FA4538E0
6BF2FEF1
FFF0E7BD
11FF2077
6025F262
B0000BA1
83F00092
C0260004
1802E000
E780B61E
01701503
C00E0018
A200000A
92601000
029F1040
026A71C0
F9FA979D
7F8FEF6C
BEEBE1E7
175E8103
A6B769B2
D129A06F
00007A6F
41F2C845
FBC7FB9E
EDA8FFFD
C4288FFE
E600D9FE
1478064D
F8000C32
63003D81
867801C8
D047001F
34EE8001
506FE004
AE07FD93
066051E8
723B81C4
0E01C810
00949E07
F116F5F4
FFC348AD
2FAE19F6
A2F3821B
C55B590C
6497E47A
CFE57FE1
00007167
31F6EF1A
AB8DD033
42914103
8001BE40
7C003A8A
E7F8047F
C0038002
4F003800
40F001E0
F417000F
0E01F000
01C06200
000C00B0
0000000C
00000002
01004001
00118400
00031060
30001A86
87F00248
643F80E1
D981FFA0
0C26AF10
31804080
00007000
026A82ED
CC1E2E6A
0EBB283C
9BECF0B1
00FFCA00
002FFA60
002D52F0
DA03F386
19363F2B
40CB80E0
B66E72C7
2820FB08
A3C00E81
4F8E48FC
019C001F
080FC000
00E03C00
002AAB80
C0054F58
47809260
9129ED58
C302F9F4
F33FFFBF
76ECDFFF
00004DEF
55A07F6A
6ADCE088
4F15EFE9
A8A1FFCD
2F9FDB85
3735F6BE
61A60F4F
03F81275
16368188
92D23A58
9F3E60F9
9874F43F
F8810403
5FCC00E2
9579A02D
1DFFF580
1FC77690
0507081B
08F08BEA
5F1995A0
40B16B8C
E172EFF8
ABAF8EFE
FBA0DFA6
0000561E
83852F30
1A76A32B
027A1145
00479380
880305E8
D000509F
7E80036F
0FFC003C
1AFFE001
15BFC781
F000E03C
0B8A2E02
00380200
000F80D0
0000F80D
3D001D00
08DC00B0
13DC4026
001E2800
0800F8C0
00821554
F01C790D
0998E000
18D00000
00004010
86339D5C
2D008804
10CF2D00
74BD8000
0F49E000
6270B289
032F3619
C5883D5D
36C0DA5A
571CE58A
031A2E84
EA819FB8
1C9079E1
61F1869A
0E1908E8
B1FFFF7F
F6179FDF
0398F3F7
D0367A8F
B400F6FD
DBCF542B
72EC0001
BEC70022
1A90B0C7
00007A3A
11F2A902
7E737CE0
D9E3157A
9B66D2D7
F67FAE46
77FBBB60
BFFFF60B
F83C785D
0FB3C001
01FD0400
00075000
00005180
200203A0
43001093
A5842006
0F64C000
025E8200
805CD190
48D94712
D7FF5D58
00FFFDF3
938BFFFE
78307BFF
F55CBFFC
00002C9C
2C4FB007
45B9523A
09A28904
251E6040
F7B3AC49
9100D553
E450059D
EF9F725D
1C52F78B
80DC4620
1C52C050
F39CFFA5
E00CDB70
2020FE6D
6E591EA2
179C56DB
F3CB84DE
1FDFFE07
64771EA5
EE0FE0DF
E6FBFFFC
2800DC41
50D00081
9D9D8007
00006C38
D75219C9
01691703
05160042
91192140
21880C64
801E57E8
7E409F6D
D7F60D06
AFFAF058
75CF211F
3ECEE012
51FEDE07
BF3BBE40
855825B8
F100009F
3C870602
027300E0
60D4980E
231659E0
E8438EFD
BC253F8E
C2747E80
02FD7B04
98F90208
0000B5F2
1E15E5FC
FBB7BF7D
B699BABF
200FB70F
F66944B4
1F252393
87F04048
707F4009
0013D550
64287C44
034C0F81
017DA3F8
F803EF9F
18043A30
051203E3
839C8038
E01E0C07
16A23302
43FA3600
123E8AE0
C816DCD6
35B11ABF
4CCF043D
4E034DCE
0000A0FF
9F770F1B
6522EF3E
F76156BF
3FEA2E9F
37BAD37F
B9021335
F002279F
860212FF
2C64C00F
4A010000
00140880
AA01780E
0D73CCA1
61AEAA96
AE06E30D
3DB1EA10
8FF37EFE
C1BEFCF4
DEBF41FF
FE687E3D
0FC1F7F1
93EC2C23
DDD44221
9182E922
0000A420
8124D130
852AA5CD
201860EE
FF13A01E
09374D73
CC9E25E4
BA38E401
3FDCDC82
817652EC
0D0F0031
78E9640F
678F9702
4C1A1124
04C10088
08B8021E
7A0F8001
47A0B800
87FE15C0
D57FA010
96C13B4D
8A7F7FF2
24D17D7C
A87A03FC
4A55183F
0000F406
E0462355
EA6D6D74
FF987F7F
C8245CFC
EE08A3DF
E178C408
8E01C0EE
35201E09
43D80180
F4BBC00E
0C1B1801
F3EC81A2
F987019D
A7987009
2CB14F01
851187F4
F8104027
578338D2
0FA06C03
04EC1504
610B0888
5A012040
94103000
38EC1220
0000A522
3FACCA76
C2A773F8
31F79DBE
54487ECE
068018C1
00FC0520
400FE010
0D000C02
936000F0
7C10000F
C3F8C43A
B00BA082
0E01FB05
007000C0
08060102
03002070
008C4B0C
0007B020
14037BAA
41801B14
13380001
ECFF8009
0067FC01
080F7FE4
0000DFE7
2DDF5045
CF1B880D
16AADB37
14285EEE
EF702C75
FFAA0957
BB3E040E
12024045
04F00348
712F0006
6E285A2F
02505106
40762138
9813E048
B1003A07
03001020
1E482000
02A21C20
332044DE
17F2038D
923E9694
C523FF31
6E1AEDBC
01E866D9
00005661
A34D9A13
8948A653
CF28848F
7E2EF402
A000CFF8
CC02177F
B942F257
2F803D63
7CF003F1
F3E7001E
0EFFF001
0070FE00
000C2FC0
010080B8
8080200B
0B114000
0081A400
000302C0
B8022886
4DA00148
807F8AA0
5457FFAF
C732FFFF
11143F46
0000DA85
9BF3FCC1
7E1A36A3
A1E7C000
980A3548
3341FE15
02793230
005BC132
F19F781F
1EB3C3B2
406AF008
0644C800
00726280
E002E19E
3F003869
13600162
BC4F4003
1E3DEC01
047069E0
58D08FE6
BBFE1F11
717FCFDC
1903FFF9
078E60FB
19CB4F88
000004D8
CFB41C78
07AE0A8F
2ADA00A1
2FB33C80
A83C4788
A016E777
7E03C7E7
B7F03F5B
1FFFC38B
0465DC10
1C0711C1
01C0671E
04080C20
A0200012
4900001F
29E00D02
AFF080C1
E9F41807
01D7C2C0
A01FA67C
0183F1C8
9303FE0E
26703BC0
5A068701
0000EDD4
44E152E7
36D44306
ECBA00F2
FF4DE03F
0BFED200
01AFFB40
00382D20
B001807C
0A803C01
004803C0
F006801E
0C006600
00B01640
C00481F2
FD2F800E
2BC8F800
01CC0F00
0079CA70
50046F26
0541B370
C0026703
760178FD
EAE09358
8D145101
00003D40
353F9437
8032807C
A92CF09F
0000DF40
8004C768
F4845E7E
FFFCC653
17BFE045
A870EF88
071F82FC
33EBD017
81DFC400
C1147A82
81214BB1
680183CB
D181BCEE
3D4801D7
C7328019
0FD65001
006692C2
4BA73160
28365720
1B4F16E1
2A4D52BF
0000D06B
7A29D0BC
8BDB2903
23874664
50BA028A
00A7F026
3C0013A3
639E84EA
C31FC04F
063A7002
60BF9795
AB0060E8
7FFB242D
03FF8821
801FE144
52737C2B
19014095
93E72008
041FB74A
601F980B
C096EE20
BE35FFBF
C9B3FE36
FC7FE779
A438B2FF
00004603
DD9F0E4B
C83FABFC
1722FF15
813E0FF0
B82711FA
D2C002BE
DC080063
8F000000
03E00300
79010071
F1835C07
3F1408E2
01780310
001F8078
78005805
070005F0
E860041F
0E00C000
0DC41511
006E0900
03050020
D6E43B26
121A2040
215D0011
0000C401
115A35F5
AF20179E
FAA771FF
4BE0E0FF
721FF00E
54014011
070003FE
80710838
1C455827
00D0DAC0
140F9FC0
07C031AC
817B06B0
9C0F64EF
C77423BE
F9A4600F
0FDA3501
3BFD62FA
F17DED2D
1103FFF0
9012074B
76020194
93402E14
9CBFCD2C
0000815C
C0FAE27F
B5A9C760
EB5FA5EC
444DB0CB
F7DC79DF
E3B00C1E
7862C17D
FFCD842B
2BF001C9
603F001A
06323140
06716000
B1A58150
7A0BFD3F
7EF5ECFB
D6378F9F
6FB7D5FF
5BBABC97
E476A5E4
58315D75
D074C305
C3E17D04
0D700101
70804210
0000FF74
69E7B6EB
7350DD0F
C903297C
10F8FFFD
333FEE1E
132FB0B0
C4CF6EB1
72183EF0
0BF024AD
80CF41B0
120D4071
CF10E41C
1D6F5D61
72CFCDDE
B7ECB81E
5C1CC487
2B8DEFC0
07E47AB0
C0576663
BD25645D
BFCF83C9
67EBF964
53BAA5F3
6F63F715
00006B08
8C077B52
EFADFB50
BFC8EF3F
48314EFC
F415A97E
03A03F02
80000AC4
40006106
02800300
81E0001C
0C071401
20CEA9C0
EB0C8EBE
9FD0C3B1
217D0F42
0580C4D0
C0005E09
9C0220F2
7F406C05
018000C0
E04505CC
58039011
5065C80B
F78EFF88
000097FA
7573E33C
B9DBA95D
81887047
155DE403
248309AB
34497F71
C6C1866D
70B51F78
9481D3E7
30F8DC28
020C98C0
00721BC0
8007CB7C
1C003E49
6DC001E4
C3D09036
3F210203
15A06020
21F034C0
213C29A2
A06BE834
9044ACF9
0F40F2AD
BEFC1337
0000B23C
6B80F371
18621448
5016C980
0007DD7E
0006163B
3D000242
57FF2070
FFFBFFC4
6AFF824B
05F37800
00124084
FC005611
07C00A00
01EF00D0
FE1FFC3C
59408EC3
0AF81840
00772038
00082500
10013860
D8100BF3
F4F96DFB
B053EFFF
51277FFF
000023F6
C2198AE9
70161B67
BE4C271F
73DC417F
E8BD7945
1BB909A0
3A01C796
FFF01676
BFC781BF
FBEDFC0A
4EA55FD5
A65463F7
C4141DBE
AC0E084C
61E84187
E7A7C61E
4EF0C4F1
F3EB899E
3FB6EC4B
28789140
88B1253C
E4012879
CC545DA1
D1F32524
00000D24
06DAEE34
39ADC60E
053389E0
88062084
00627C52
000127B1
FF000657
EFFC10CB
DFFFF7FB
F5FFFCFF
1E8BF00F
00007E10
00000D20
2000009C
78038004
04004400
00680140
3E8A500D
02A42D00
80884C10
A0A43375
C81BEFA6
A51BFFE4
75671F7B
0000A6F2
7DC7F797
7FE85828
7161A0A8
D2146201
FE601209
57CD3F83
C5700980
60D8280E
01890001
0418F010
001A9F80
800F3BF8
7800795F
73007F05
182C03F0
E3E4202E
7F6E1E23
A2F36012
007B39C2
E00FD7BB
1E03FC1B
12E01C0C
F7630005
11CA7020
0000A39F
276D47BC
B7FE9E6C
00DC11E0
B0C6AD00
9F889880
3F4D1528
2A700132
BA28C0BA
C20D250B
7778F022
0379FF00
822C87F8
3A1AF25F
C161298C
280517B5
E0B0867F
9E7C007F
E1E24920
021E6ED9
0C3FE63C
9D0108D1
C32C0506
F80B4062
90921408
0000D2DB
1E6466FB
DC1DAF53
FD1BDEFE
E94385DF
FF80D437
1FFF0DD5
A1993EA8
7300800C
0620041C
02661000
00048200
8001F810
44009C47
6280049D
B710001A
1BC3400A
01EA4F00
DE3BDA38
9FF95216
1D5FF73D
569BF337
33637ED9
EEBB09D7
DF8018B7
000091E7
6390EC04
29165C32
72098200
D2B4D402
09D50A80
0A3FE102
8400FEB5
142687FD
7880F073
34589207
0206B460
80218F30
1C4815E3
E0EA3EEF
87974BF0
E7737F0F
0353A3F8
40E6F7A3
4000B628
CC14E200
958200E1
F5940016
37660483
B86B3422
00009E81
9828C0BD
0DA80211
000A1080
003E8100
C002B07C
DC0053CF
04E007B5
741E023E
FCC07011
01E80700
800E4038
1801F603
00900EC0
C00780F0
D100381D
1D400181
C0A80018
0C388000
000CAC00
0001F2C0
68102F3E
12080067
06A0EF00
30324208
0000F910
0791F06C
ED0A9F82
A18F610D
070A38B2
EB805786
7F68D1F7
54FE01FF
C707E008
89F007E4
BA07845E
50CCF807
03806708
9639A0E4
7029E2DF
30070D48
E53839F9
FF27012F
8FF57D60
9D3B33C0
F43FE674
5751A473
01EE8F05
7AB55E00
B712E0DD
0000DE75
6E07ABA3
F3A5E6DE
CFCA7EEF
403D5FFF
6966E0BE
2B84DC90
A811CFCD
B3206800
08000143
A0E120E0
E057847F
F86EF007
FD02DD01
0F0E4C98
687BF000
2E00EB61
BCC527D2
3C1F9004
1FE07E00
00DA19E0
402B5F96
E011FFFF
5F5FCAFF
76A7D584
0000C0F0
93F598DE
D0293E99
AFCC0696
FE6C47BF
FFC2FE07
FE400AF4
77F80023
2F690011
10B00800
00AF0080
E410200E
0B800C00
00700D40
A0000068
F802000E
7C806001
03D40600
01FD0078
1FFFE883
017FE980
4000FFF0
5A4021F9
CAF801D9
9FD50E00
00009190
D987E237
890A95E0
B029B005
F4149824
2F9D1689
057F70D0
9829F91C
FB2116EF
70CBF15E
FF48E04E
73FD9F87
659FF5E8
F61A3876
87F1079A
305F89D0
4180C75A
402984BD
102601E1
E30C289F
8CD5C1A0
41A60024
5A141DC2
E5A28B0D
E31E7A14
000048F1
C6532097
DBEB1823
228004C1
0073B028
C0056A82
B001EC92
E7C04FBE
70DC1E92
2F7FE0E1
81E03A00
000FA060
70004C02
17044760
E4FFE9AF
A7BFF4E2
6C7AFE2F
03F105C0
01172828
80007B00
500122F0
91484530
0E034039
0B9059FB
76D80646
0000913D
9DF11552
FB6BDB56
331AD61F
A13E06B6
B007C8CF
01807080
B04E05B6
3D407077
9FA38607
8FE4FC22
60717FEF
D20723D7
C4401E9D
9E050180
D880E3C0
670C187C
7EF00186
C7E3001C
0EB86800
00FF4C00
8101E698
6911047F
B12021E2
1A9CA4A4
0000BB0D
B0C1B7D4
06F91E81
84AB8030
00458123
00005000
00008160
F800041F
D7C00005
00FFF000
004FEDC0
1001F802
02408E00
00280240
F8004094
DF00000B
F2FC1807
FF0BC080
3FF8F807
00002B80
C00008BC
6C000027
752E0001
0284FE00
008C0780
00001808
3D7B7DF8
107E1183
01204200
00025800
C00067A0
FE0001FE
FFF0000F
0FF4E001
00FE8700
C117807C
3C087003
00403400
000C0880
00000018
88000003
60800000
0F080000
03E28018
00383801
00090180
0001E008
E0103F4F
8C906184
20F34514
0000B608
A6E033D0
1944756A
E552D10A
30CBB9FC
E800114F
E2A042FF
7E0780D7
A7B07091
3DDA4601
80F06838
180D5983
41C04F00
040C0868
AE00F051
EC8407AE
BC8C606B
F7E9E007
17F91810
0732B841
D00FF152
8001F088
3000FF5D
06E00018
5D54840C
00001F40
5E2195E2
37829802
FC028034
FFE18127
0FFF8800
00FF3900
00045FB8
9C000078
19C03807
00C20380
E000203E
0F008200
00600FE0
40000060
CF800008
0DE0A000
006EE200
00052000
00005012
40001E92
0D02AFDB
F903EDFC
E708FFDE
0D0A0F60
0000C008
A12758DB
E526FC3E
CF9E58EC
334075FF
FBE1C87E
9FBE84C4
70BFF4D1
A780238B
2F0002B0
46B00006
001EC060
E801C01B
38235C02
E180188C
A938680A
11114801
01733000
03827100
F4C9D741
EFBDF8CA
593FFBB7
31FFFF7D
B077DFDA
FF1E3FEF
000078FF
709B6564
6421B6B6
C3B512C8
2013B01B
E2162007
3C047E84
8BD004C0
61FF8003
251BF800
0411FBC0
016E9F01
00016FF0
D015E8DB
4B802F19
4EA00A78
64F0C1C7
E36A003E
1C32FC03
00CEBEC0
4003EEB8
2401EE0B
A5D00776
C83A007F
B7A8EC7B
000073AA
AB324676
E867DAE5
FD703FFA
EFC5FFFF
FFF82DBF
07FE07C0
C017E026
7200AB05
8F600034
142E0800
21E640A0
C00C002E
A9534AFF
DB825144
00B90402
5BFFC210
FE878A03
8F7DBDC2
2AFE0BCF
CD04183E
9F4014A6
CDE1406C
967FA61C
834D86BB
00002AFF
C8F68FFC
6DD00801
613A2000
001FBC08
00012500
08802CA6
E0190017
32202005
D7F02040
700A0007
07F10010
E1BC0804
195FD342
C27FFF06
2E037EC4
8B207007
007C9100
0000A130
1801F281
F20004B9
EF900135
F1FF8100
66FB7E05
7FDD212D
0000E80D
07AE6D9D
B1DEB7FE
CEB0D37E
FC9CBF09
877001C0
E033C778
F800F02F
59000228
DC20801C
7E150007
03E99A60
003F09D0
F003E35E
4B147D42
23604DC8
828A0EFA
1089E077
2C0F0586
92046978
AA100A0F
7F400438
FE49222B
924F08C0
E8EBD818
0000A613
C63C4849
96FB86EE
7FDAF86F
02F65200
151F81E4
03ECED31
83010F91
CD600A3F
5E014013
77A0FC05
00B38F60
800C89F0
F801593F
C6D00F5D
A02F01E5
AB41E97E
9C1E47AB
006780D0
782B7A8F
C147DB02
8E007E2F
AAF82052
E4AF6A16
711FF8F7
00005181
7879B88C
00914212
0AFA0000
DC163200
3FE35A09
0BF87DE1
000533E4
180001C2
50C1C00F
019C0600
F006607E
1E002A01
00E00880
800E0002
B800F804
14903180
00D00100
00148000
0001E000
00A01B80
000F15EA
74197DBC
6B233FDD
4D320840
00003989
2B836E2B
14C40803
0055E280
81F6C080
003E8720
8203B838
FA819717
77D85ABD
2E7383F7
A1873C11
3C0060C1
23F18E12
017F80C0
D00E8014
7D61D006
1A120C00
018CB000
00BCDF80
C001D87A
FC08B1C7
45E0CFE4
400FFF9E
00F033D5
391C0020
0000131C
C23D8C66
06E02403
06372000
02F23780
0017AB90
C000BA8D
C000058A
00000018
05000002
00000300
9C000031
79E00007
07FF0360
3438F83C
C603E889
0A001C00
019600C0
001C2004
00005100
E00005F0
5E800057
6AC00100
63C200E1
01A1C001
0000AD00
D4E8FB84
329B9748
D10F061A
9406E862
2010F422
447D2E05
FDFFA4C8
77BFFA06
8EFE7FF3
DD6B075F
0C5381B0
404D661E
800AAAC0
9B00DE0D
05940F72
3C693062
06DFF280
0C32AB39
0C963F82
80B2377C
BF23F88B
3E2C7EA0
439DF87A
F398BFBB
00006E7A
82F77D34
9CF4F8E8
15C0F018
63038287
0C081821
BE000407
03F804D4
797FC843
4283FD40
254971CE
22FFF6BF
3E8AFFF4
95585EBB
8401CF23
FD810DD6
2D940067
2CBD000D
22BA7400
026A5350
02EE99C0
B847D7ED
A58857DD
BDCD8C5B
85732CC9
000089E3
083EAD23
A9E43CA1
B87FB068
D60F6A16
6FE1A780
4C3D4206
D203F0A0
80420713
2D0B7018
0FB15C05
00038C00
000FA3E8
F8006876
F381179E
934001CE
E1A3C7FD
DC2F7F3F
03F2FBE1
C07A1FB9
E0030372
C700FC41
6BF40209
E67F2003
E717D81A
000093E9
C07FFD21
282A89AD
81AD5C5F
950F8967
C06176E6
5F68A562
A1EF5015
0223F348
772847E9
1E7D7A79
09F0FE4C
C21C78EC
F004F881
9D003F8D
B8F407FB
92DE60C3
27842C01
2502C040
084A20A0
00FF9230
B02FFDDE
9539FDF9
91FFC97C
5595FFFB
00009FFA
742C8E87
26E0F551
0CF712C4
023CEBE8
403FAFE8
0000D259
F8200E37
8634309A
34713109
0A880002
0358A080
E4469015
1A3F5863
E07FFFAC
C407FBD5
FBE37EFF
1FD36D3A
001EEFE0
F00565FF
FA003C9F
7FB00385
47CF722E
22EC1901
FF62044E
00004E30
BFC6197B
1D28C003
01728000
009E4540
0E03BD04
85E82441
A03C0036
EC0D001F
09C3E021
1F147F00
C01007F8
3F01019D
03F240C0
80178030
6C02A027
2FC01000
00DC0180
007C0018
040BD001
15E06F80
DC47C0D3
BDFCFE5F
F62797FE
8467947F
0000249D
EEEFC6DB
ACB253B7
10FCC039
7A018001
3F00BC09
FF201806
0D680201
38E99212
5B85CC57
13C8FF02
27859E60
81284DE9
813B837C
EE07D64F
F500DE64
D4C404FD
7AAFE04E
8DFA424A
603E2320
1BC2DF45
852DFE3A
3800620C
AFC26000
82710207
00008255
48AC8AFD
8066DF88
5ECD39F6
31BD299B
5019D5F5
1EA00B3B
5FC0208C
423E845C
4D27884B
102A7840
C00505F0
BE23901F
21F84052
321F1EB0
A0CE709D
7F44EA13
1B841FA0
673C3078
FB1BCF17
1CBE9B01
F0306BF4
C6A02EFF
FD1D0B7E
4F67C7E7
000040BF
47E595B8
28A902BC
C1211000
E822801E
24007F01
2EA40864
5BF582E0
DC9F7A2B
F59AC683
FFDFFC74
0624FD83
0064C37C
50050691
0800702C
39100780
A00C0072
68000003
07C2C480
40E91800
A0E50040
34376F30
C089FCF2
80B07ED8
3E071D9E
00008C57
1D7B149C
60809001
52D449E0
913611AF
FF5EB027
1FC296C1
6FC00318
10FE001B
0A8FE800
00717E00
080087C0
81A05A6C
141017E2
E16007B8
EE34007F
3DC27B07
67EC05E0
7F3C40FF
4033FE04
EE173F72
BD60CEDF
5FE00070
50A10027
3F079A3F
00006FD9
3C44F96C
1FA0FE1B
FE31BFFF
0BF9D07F
000F0A00
40007088
A0000338
E0000022
0C800002
00280000
20012000
03803704
807E07F8
FF3FFC6F
EFA9FFE6
FEFFFCBF
135FFF03
001CF898
0002F780
000037C1
800000F6
2A420004
9A200001
512D8000
0000AA1C
246EB216
FE36C3AA
FBADE03E
08026623
00085D00
01F808C0
801F8010
8D02FC03
A97000F0
3C0E0007
03B0F040
00319C0E
00430880
E01E6216
1F003E00
08F80040
0027D406
00003D00
000475E8
F30009FF
7EC00343
07FFF00E
E5BFFF64
98B1FFF6
0000DF9E
740CE8F2
9D909D06
003A2908
39DBC010
E8380A1F
82062273
7A47BB77
290E76D5
3C7BE0DB
1F5DA81B
0814F884
B320A748
00180054
E00781DE
C7001E66
C1721F93
862311FA
61F06B7F
E1EF21DC
6F38D17E
8EF28022
EF8FC203
9A683E00
D0D40539
0000B922
34D08D06
D42583FC
04CB5F5D
A9DE9B6E
8200F690
398008F1
24DC0003
5428B800
E9C669F9
7398D807
02F9EFE0
FC03F3BF
05B01A81
801F90B0
2402F803
69000FFE
827C184E
8021A812
10242D10
C0005360
9F820183
41BD0754
E81FF1EF
60A8F9FF
0000BE7F
1078E21E
069946C5
5974CCED
39FFCCC6
807FE9D4
0D08FD87
C0700FDD
680E81FE
1300E81E
0FE01F90
01DE83B8
D80FDDE3
E9C1FB0F
0F1E9380
D071F17A
07248FBD
E31C0CFE
14289112
12E4A720
801A26C9
4C01CD5E
96BA1EFB
579FE2FF
C79DE18C
0000F698
7151DDA7
FE523FAE
E7CEFF7F
802840BD
FF984450
7CFA0E85
A5BFD4EA
52221E4C
012408C4
E0200002
8403C050
2C506001
B0C1F50A
FB6F76E7
07CEB35B
9AA2F9C2
08AE000A
CB307578
9D508B35
25B3C55C
87AFF014
3B615892
7F77CFC7
6FE1FDEE
00008574
A6E43BEA
3F283E51
FD9981FE
FF74A9FF
35DAE70F
C8201F72
74400100
C7F30016
0C7DB200
00860680
A008E090
03801000
007808E0
E0000040
E76A004F
5A40E001
0FE96F80
FFFF603E
07F7C901
483FDD84
18001FE5
F5800030
FD48002C
126F040D
000095D8
916C0E6D
5F8ACF62
7C8BDE1D
0FEE3EF4
30162C1A
B7007F87
DF492B8A
FCF961DD
3F8F4916
47C8FF02
069A0FD1
406171F4
C800D49C
9EC01EE5
CC7E807D
7D44EC1B
168C0BF0
A13E803E
0BC4DC00
04040140
18044F0E
F8011C7F
01247469
F7620F0D
0000D099
32F20927
3E5649B0
08338001
00537000
00000400
00600F60
801FE0F0
3801FF06
0B003400
01780400
0005A060
10005204
000004A0
40000040
5C000007
0C800000
00200000
00038000
00002800
00000020
18000302
2503ACFE
F9ABFFFF
FFC4EFFF
00005CBF
3A232AB3
1BCA7213
042404B0
900221EC
FE398E4F
BC137187
49E01DCA
C04F9850
0485F040
80D01F00
056C1060
00E6C106
8007FF58
5D20EFBD
6CD407FC
B77E6827
D318B78E
9D78667D
A043D96F
0E46C765
9E222FEE
65CE13D7
BEA80409
F7280100
000092B8
9941AC22
5C352220
00576500
103562A0
03622C55
0F7E7C40
88F7C01C
0800BD21
0301E181
D760BF0C
8F9E1570
F86FAF86
6E04B706
9FE02992
1C77023D
0F8A609A
81D0238D
C0018058
1C001C01
01C00E81
201E4488
AEC0F1DB
75132694
1FB7FB62
000016F6
14AA1238
43500A08
0C1B0080
A0200000
3C02DC00
00000B01
00000188
10000010
03001800
01280180
C000C01C
0C009400
00E00EE0
80060004
17006005
07C00300
005C0030
00000000
00004C00
00002A20
4004083C
34200006
02C00000
10848000
0000D400
6B4AD24D
236000CB
12C71100
06538100
F0521438
F0004C53
7F4207B6
B7F8141E
0BC7C1E1
C9BC7C08
0E8DBF81
E1C06B68
1C1C0169
E1800060
6C2015C6
E05001B8
09140017
41E82000
001ED4A0
E00FE3C0
1AC3FC38
1A827C8C
00601F80
21F90000
0000E042
67AD55BD
45580388
04654180
80744110
84012C70
FB8017FD
FF0592A3
36F831F8
B3EFC1B1
1DB0FC06
05DF13F0
E800E63A
47881EF0
08BF036A
5C89F864
A0821F8E
10B80071
605A4801
001C1C00
2019D580
19C2FCE3
8E5827FE
B74026B9
98F64003
00004F90
666E58FD
A5A80A93
262C15A1
FB5BF100
8C8DCFA0
67E08751
CF7A4081
EDB4401C
D08BFBD9
C5183E1D
06D8FD00
C7EB1FC0
0C3E62EF
C5A1D634
0C1903C6
E6C2A3F7
1C448DF7
21FD5482
C80FF841
A8C6FDB0
2B660240
4B4A0243
7034DE08
022F382E
0000C325
585E29A9
89309BEE
61D6F863
4916480C
9F00E080
41FCDD00
0E3BD7C4
EC45049D
7101F76C
7E31CEA6
54F09FCD
302591E4
C715279E
9A604C1A
1C0E0763
65A0B1D2
C07C874F
2005F220
78403680
6B42C4E4
CA7FDC1C
3A53A001
E9BD8202
DC5D3050
00003550
D6CDC787
B8BDAB44
CB2B7C2F
9008AAEA
FEC8CDFE
7FFF03BF
FFFCD40B
F6007AA0
23100732
02420001
00008000
00012000
00428262
E801A492
93802019
613E2187
811B9301
B358BF30
FEF72BE5
DEFF7E6E
2CFFF89B
0DC9F722
7AAA0005
A265940A
0000325B
EB45FEE3
E43C7B00
FC3D8FBF
36BF08C3
CFFCE712
056BA370
94000DC0
38030033
2840200E
21680000
00051C70
40115C01
00401C70
E010403F
AF04378B
B1701FF6
DB038E7F
81E3F8D3
F8AB95DE
DF0A275F
9FE0C010
4FE60402
23980000
01458000
000031A0
43634EF4
AC4E18AB
C0071800
601BA001
7E8030C2
07E01CE0
A8F000E8
320F840D
8188E148
FE14EC1D
0E64BF81
01EA39F0
581C202F
00E0E0AC
18000FC0
831040F0
FC2E000F
02074000
0004B001
111CC560
9417C412
BE199807
4B860800
0153B807
00007C47
A4157F9A
EDF357FE
97D2FB3F
27FC0DEF
00B7B038
C001FEA3
84602BA2
E00504B8
0B027007
01B88701
03089C70
023F79C0
E363E7BE
3E181E9D
E7F002FC
EFDF001F
5B0BF003
BFB007B9
C1DA54BA
20225F41
40C909DC
6702A0F8
D1000009
7732808B
00003B96
08839784
4F137620
69D53EA7
0D884BFB
F610E70F
07E007BE
805F0048
E004700C
E0B00180
921F0804
0A80B800
0270768C
C03A021C
C0436807
3CC80F1B
18B04061
7D024407
8B6C0B10
7E7C6043
41FC04C9
8E1FE09E
CDBFEE1A
D7DC2022
18448039
0000380C
7BEBBE3E
5793F7AC
EEAC757F
64AACCBA
3CA050A0
02640720
000EC28C
00004009
A2000190
3F081008
03E20F20
000F31F0
E000F31E
1E003B62
722007BA
0F13017A
E040B80F
020223C0
51801836
DFC6084E
AE588012
40602022
DCCF0111
4411706B
00009BE4
124B597C
A4EACE58
B9A46E1A
D7FADFBF
FED6BBEA
CD167998
983126A1
88450421
0A405C24
85386BE0
3EC00D9F
F1F6C0C4
D6051372
DFC01F25
38F403E7
CD09C009
FDB0AC00
E174026B
A7C07841
09521F40
C08420BC
B8000439
3A008022
4244F011
000067A2
EFEE7016
E58FFBF2
D295A4FF
680B7306
C000E2F8
A900035F
18200479
5ED749B1
18FF6760
A96FC5DF
E83BFD5F
0214E361
81917C88
082F90D0
99041A95
A290C1F8
70110C3E
0FA6C040
92389184
01F02ED4
906782DA
4867E040
EC5BFE48
70D1978E
0000D4FC
C18E981E
959648C6
061CB166
F81C0268
5B076389
CF68FF25
D3684FEC
A86028DB
53CFA2AD
FF7875B7
337B87BF
58179FE3
0BB16DB3
993E8327
0085E0E1
CD400F08
20140FFA
1806C819
31DC0C02
104BC0E2
F059FF78
E190AF00
C02712F6
78B1A82F
00001DA0
3736C122
12182C83
F53687B5
FFFCEBBF
3FF8D22F
0386FB60
A6260B16
92C1C02F
3FA01805
00EE0000
3809E08C
CF01C418
1AF41BC1
C20501BE
AFE8201C
7E57C003
8FFFBD80
A3DC37F0
28BDE27F
EB0F1EF9
7800B7C7
DBF0A06E
303E18D5
2C01C78E
00008312
CADBAC11
C95B7BBE
4511FF1F
D8685FF1
FA54CEDC
47418CAE
F17C097E
E841E043
52301E05
20FA10EC
7403A002
07C05880
40FD1750
787DF88D
AB07FFBD
81F0F8F9
78AE0708
BF0A7774
6DF137D9
F80A77FA
618C5053
0727734D
EE588866
D472FFBF
0000BC2F
646E789F
5181084A
06220002
00017900
00003BA0
FA08057F
F000D01F
07800C05
C17800E0
F917001F
3FD0E000
83E72E01
103C0940
001F8128
5607000C
01001000
00088200
0000C000
00001044
3B8010A1
70BFE3A2
7DEFFF3F
0F2DBE21
00910001
00008322
6A4CF000
EC60379D
FF49FC7F
77F8685F
006FF400
000FFBE0
8001BFF0
3801F7D2
15003EF0
00580464
00071820
100039C3
C38007B8
A838053B
372380C0
906C1C00
002301C0
E007608E
8F00E700
03D41660
C4070032
9303F819
28808F9C
9D08EDFC
0000FE8B
312564AB
16A06000
11D40A00
34D42C00
9FB71978
A43FFE9D
7C907D43
37D807D3
9EFB4159
FFAD691F
FE79C31F
DFE3DF3E
7B983DC5
827101B8
8C07B27A
FD920FB3
22DC13CE
80480000
08262AC4
4040F815
635C3E56
9EFBE362
04886C41
21730800
0000A4F0
C7E18F06
27059AA4
595FCC80
0F89A010
8F00C204
3DEA5A00
A7EBE196
AF7FC455
0439DF60
62757F0C
1700A770
C0D170B8
1F4F1D06
D15E3C76
02168398
91205E1F
102741D8
90116545
C0852EDD
A62B6BB8
7E03E323
B3280F61
001FC4A0
3A6D9F5F
0000FECA
E47AD528
EA9BDDDB
F599FFFF
7D26161E
3FE00D1F
02DE05D1
8003F86D
4E0005E7
F02000FC
774F0007
000F6000
C2001606
02340020
60060011
9F125001
1B701F80
8027F070
3711BDE3
83295DBC
BD41303E
EC7D0305
299FE012
06B9DC00
C316D4ED
00005AA6
23D14833
9D480905
05738301
E02CF871
3F8ED507
1FF8FBF0
02A247B0
7C1E06A7
3DE3C003
01D01E00
000141E0
18004303
01E006E0
800F0168
F001F81C
8C8015A1
60F9008E
05CC4040
0020E902
C31CCD80
08EFBD9B
4D0BD81C
0D40F71C
94761C45
00003AE0
811DB396
EBC7E56A
F4A57FFF
C442BEFF
FC40F86B
C13A00DE
DF0CE04F
631A6406
09700330
3C1F00F9
451AF02F
0222C802
387F4201
4F0D00F0
92B2C116
5CD708A0
FD370873
7EEC3B60
AFF1B3E2
AC97987B
4FC09F67
B67E2010
331B7D83
B8DA8116
000071D0
A82B0E30
5D6BC84B
23E6EC70
00101C01
803011B0
8005C55C
DC008FD5
E00402BE
3E04E0B3
D3E8671F
1EC71ED1
20FF43E6
E70FAD7C
3EB01FD7
C48381FC
4210B80E
006E03E0
1021201E
D1806811
008C360C
C018422E
AE04E00E
19A0A6B2
BC5B85F1
0000F73E
4D263AB4
F61FF72C
BFC6CEFF
E4FA22AF
0E0BFC10
04057B46
408C0198
0C03882B
01031819
A02428C2
80063920
0D24081F
71E2000F
611E340F
874875FD
B9E80E83
A39DF6F3
CE0AF7E3
D1C0D71F
0208147A
D30161ED
41B084E3
EF0BC4FF
AED17DFD
0000B789
672F1B54
C618EAB8
006E5405
17B10082
58415859
9780B788
C87801B2
C4070015
2DC07805
A2117B90
F691CF30
7F961BE5
633D61DE
9418C31D
7B80F045
0EC40F09
00A5007C
201A4207
09707EE0
06FC2F20
338FA106
1A00378F
ECFC663A
E6CF0009
00001227
1E73C30A
F2DE16F5
0C887E6F
FE1B5FFF
8DC1ADD7
94FE00EB
A02DEA7A
3F247F03
857007C0
BC2B0023
01C09022
601F00EB
CF03CA8C
9CC938D0
33C63F82
87034054
002FBA04
00008E60
FE00C84F
13F01B00
983CA44E
28C72F8D
FE3FC8FF
64D8DBAF
0000F5DE
BC1ABD25
730C1D82
45C309FD
0205E007
00002602
07800D20
007E0080
3807E003
0000EF00
02E00E08
006F01E0
E000F19E
0E002E81
D060611D
1A030E88
00F038E1
4023C000
40003000
00002D80
800040B0
1C00099B
8BE81075
FD1FDFFE
EF61FFFF
000007D5
D32B3519
A4910130
02000006
00107040
00001680
0DA004A0
A07E002A
5B05F007
00F801C0
F01F000C
8700E0C0
7FF60C1F
03FF0340
0033E030
28013E01
00801000
00100000
80014000
00007600
E00003B0
9210001D
7C73B685
ECCF7FFB
83FB7E79
00003024
14B6B576
988767B9
FC0DFA7F
8F166F00
C43CEAF1
C009941C
1800814F
58C00468
1E010011
7B79A00F
07969C40
007F11E0
C007C53E
3E003EF9
28E007E6
8506B83E
245E1503
04848344
0860A005
62A06941
41289E14
1600005A
12800A00
CA7A0200
00006D70
5CC012AD
68433FC0
F1F1BE34
9C537869
F1EB808B
0FFF8F2D
3DFFD049
433F6C1B
B0B8A000
077E0082
C03D8031
18086407
2E403F80
08F1F5D1
93259979
1C6269F3
09F34050
9D36B900
013BB902
C027AE6A
5C29FF80
A960FEE9
8FFFFF25
E82E6EBC
0000EE98
27417B47
E41FDFCD
0D9EDFED
000ADFF8
04004DCB
8020137A
1000015F
90001002
01000100
80500010
38080003
11C02100
001E0400
0018C058
380ACC01
060087C0
C0000478
38070003
07001002
20000700
21400020
20802000
44C80000
002C8000
00006E80
1B98CB87
F454EA03
E4CF60F0
BB82B03D
7FC9AC07
0B743380
CFE1879C
280F001A
070DE003
80E85E00
04068E80
00E02DC0
F007E5BC
4B007E71
648C07F6
30A40063
E22E2C07
9F98EA61
01EE1706
A1EF053A
801C4DD4
D640037D
5CE00007
24384903
0000FA18
69A69512
6CAA1806
BB078060
5AF4A000
BD043113
00000B25
40000030
1C000002
02C00005
000F0300
C004E000
1C004F01
01E00060
E00F007E
3600F808
01E007C0
E00F007E
0E01F801
00620B00
20038248
A90F240A
94004004
05C00000
48B04000
0000D404
EB0DC09D
EBBBFFFF
DBA0FFFF
E1221FFF
38003BBF
000009D8
0000002D
08000006
01800000
00080008
18010801
03C05180
003C063C
3081E059
52881E00
00A041E0
E072061C
FC050011
3F805001
00000540
C0000026
2D000001
05980000
40BB0000
00005C50
46086E20
BDF28B92
54066EDA
CE878EFC
29980AD4
8419E60C
F8203B9B
6F841BE7
DCE0019C
95AF000D
5FC06005
F17F0C0F
FFD5E997
0FDD91D8
CBE1824C
5D128C08
2250B080
020CB55C
FC21F0AF
2BD13277
C7A8138C
B618E17C
9CFEFB59
46CA0400
0000B501
5810EBBB
1FE1A7B8
10F00000
8CF4C480
3E1DDA40
03F01AC0
40570890
CC05DD6C
E101F83C
39241D86
FFE847FC
6F91954B
0D100145
0013023C
40039026
07803588
4010018C
805A0000
E000C009
45C00D81
402F8280
20EFB05D
D2A7EFC0
C2A5DD5E
00003606
62378C38
06CB9E45
85078DA8
08A7E083
0368F604
298B0D56
11EDA628
2ABFA584
C4B4FD50
F0265EBB
C001008A
EBDF303D
1CF6EEC1
F068FE17
2F0A0EEB
88203BE0
D0474DED
1F30B39A
00C117D8
E08533BE
FEC7362F
41B34FF1
F333900E
B140EDFF
00000C3F
403EBD7C
DD911C9C
FC57005E
3FC56021
0FFE3828
01FEE120
800FFD14
0401C7A1
69011836
04B01200
00008180
C0000510
2AC04152
9045230E
C00224B9
7E6431C3
1FBFFEBF
43DF7FFB
9057DF8F
F6571E3F
3FC0045B
D7F0000E
4643C206
67EEFC64
00003180
420B96E6
31DF1FDD
CE8B7FBF
7D41792B
A3040690
380103E8
C7407F0F
3CD0BCFA
FDC7007F
1BF9F003
0026DF00
30201BEE
E1DC06FC
303D8056
2B216383
83D4067E
6A060361
71E35CCD
2039BF81
025CE106
82C21129
288CA403
4A6138C0
03EF9F00
0000DFA0
535B85C8
FAEB38FF
FDFFAF8F
05882A55
4001D0E8
6B0023BE
804000B4
F0006010
2500B780
021C1818
00A31F80
830F31F0
E073F8DE
723FFF5F
0F02FFE2
E2741DFC
FC3F06FF
5513E517
80118378
E800083E
2E080007
63B00207
EAEFC202
E3ACF1FD
000085FF
0B75250A
A0CF24DF
CB0FF7FF
E7BBA5BF
187729C9
821F6E78
0C009FF4
343018F6
5C83804D
39D0F806
9F1ED3F5
3801C327
7BC00E7F
BE5C24FA
597DB159
A70FCF2C
1BF52565
8105D99D
4F31D157
5C2DF2F1
A985C750
1819AFDC
DBE07CE2
79338C00
00004752
CC3988D3
0B008022
00510500
00F68000
001FF82A
C4057037
5AB03457
C7EC04FC
D9F5E0B6
7B1D8904
AFA0D1A0
BBFC9E36
17DCC06B
4431DD9E
5C2BED8C
1A801FBD
022D15F5
80BFF080
C812A65C
3E14E883
CF8F80C3
7779FD85
DD422C0A
87A47133
0000D544
1861ECF3
7B3A7771
E41BBFF9
7805B23F
22BC5CAB
2052A80A
86051DA6
C74A7DDE
8CF0555F
B1ED3FF7
028BF780
024A3EC8
D473027A
F44AA54F
BFE39FE2
15A7FF25
7B11DED7
76AB4B1F
81BEA630
891E6027
0491603C
5707240C
80640C00
FA039F2E
00001BAD
D9EE89F5
0D440069
00A80000
00100000
00009780
F000043C
782A002F
1F006000
017A0100
C0078018
FC436001
1FE01401
01FC0280
001FC058
3001A802
01000800
003000C0
00030004
04000000
00000A80
9E027011
E0801F8A
7D9FFFFF
621CF77A
00009205
A0407D72
65027604
E04AA40B
F99C6301
B6FCDE10
DFFC0EEF
697DF467
E78D45FB
7CA04424
02030000
00396000
A180FE04
00E00AA0
610E808E
AF100009
0A4F8101
00DF3968
BAF939D1
5E9FEBC5
CE9FE6FB
9EF3FF29
30FFFDEC
E23BFFF7
238FA8ED
0000B12F
0A95DFC0
E41FB2DC
FE3B557E
4FED932F
0201F980
01F00A08
003F0004
2800F000
E1400064
36209C04
03388FE0
F830A1FE
8FC7090F
A077E920
16073D1B
81E237B6
009A03FC
00821011
0004E401
440004F0
2E50003A
D3FF0085
872FEABC
1B4C7FFF
00000FEB
220B7A75
B2FFA0FA
8E087F2A
209A77E0
10428FE0
C604B67F
78C07B7F
33360325
D2708070
FD17000F
BB70E011
3FFED40A
0B4FD840
11713B3A
B3CE4247
DF83E800
00790580
40189038
3E815004
0CC61080
B09D53D4
A43FFFB9
41B4BFE7
1F598000
00003F02
96E60940
743A8070
06BDF57F
E5EE6C8C
C10EC619
BBA0158F
ABC481D8
80BCAC13
D048C013
FF8C6C7E
ABFADFC5
B82363FE
0FE028F7
414602A8
8800751E
CB044762
D3DC0A5E
81EC8070
047ABD30
0148AAE0
20013774
3A15135D
F64BEDFE
704169F3
0000B5B8
D04E8958
5FC0C620
23085FC1
00391FC8
000719BC
C000339F
580001A2
00000004
01000002
80180000
1C000001
01E00000
070FA380
20F8F960
7007FF84
02403FE0
001000E0
00018002
00000800
80000200
26000010
2AA00002
1CF80000
00300000
00004200
3CAD56EC
46686827
FF600275
FFC2E03F
13A84E01
0001FD40
00002338
8000801C
B4200000
03370300
0010A000
00001E00
000000F2
7802A257
EFD1FEFC
F8FF77FF
FF8FF0FF
0FE6FF07
804427FC
F80005FE
2C0000B3
1BC00013
02880000
40780000
0000F500
192DB3D3
41EE9484
F02B0000
FEA98820
1FD23A01
01FA47C0
4000E216
2A000520
10C0C046
010D0600
00000040
00001202
006005E0
8006002C
8C00700B
08B00380
C02C011C
0C09C481
2840D068
7FF00309
0BFF00B0
410FF81B
3450F941
00574400
00000E40
AB61FF98
6D09BFAA
4DE9FFFC
78FEC3BE
271F3693
00776A93
001587E0
DC21F635
5F823E3C
23001DE8
B002F48C
BF00DE2B
3AF00482
386FE8CE
DE02F83A
17E01BD1
4AF20E74
223FE480
C0038EBF
1E00F4A3
B6750FCB
652800BD
D233FF1D
8DA9E7FF
0000797E
42A16FCF
73B4404E
36293301
C27C0370
E6853D0C
E2C02ABD
5A000132
B3302097
350182A3
D1603C3D
3E1AE5C3
3FE11D0F
03F80470
601F010A
3A00F802
01500778
F00F003E
0407C080
40E04809
0C540A83
B7B5E022
42B01E05
33C10000
81F52000
00001D01
7DB5119E
9F7004C3
005A0030
6013817E
02027C09
0F800680
81F80328
180F0003
05C37800
006C0F00
C00388F8
6DC1A407
00FE2180
C02FC184
7C014437
0BC03C01
03FC0380
A03E801C
060E9A00
000207C0
7001CFC4
30000FFD
E0BE30FF
BFB377B7
0000E900
2947E44E
ED37632C
FDCACA7F
FBC07601
9791EB10
813E6298
0C13FBAC
A1870478
6C8428C3
02F8D202
00339C40
083059E0
D04BE8FD
78020F2F
2F5007EA
33E4011C
0F177C39
1F27A701
F8F2D3A4
7FBD86FB
0BFF6882
1721C407
4CE10002
758DA003
0000F310
D5794E85
E6A7FEDF
FDEFDFBF
08437EAF
00041055
10042B14
8400005C
C0214019
2F45FF64
90601DFA
0C181302
803021C0
F263A41E
FF923A1B
1FCD8BE2
52F9FF67
F1AF17E1
5E39F04F
204847C2
40045878
FC000067
B72801D5
F91FC277
FB927BEF
00003E3E
35F989F0
84488042
002C4040
001B9600
006E1720
1805F410
480046EB
7A0E0626
030160E0
72100703
0FC10030
C0FF0405
3A07E561
02F1FF28
E20F0F72
07007001
00E80300
003E8078
00001803
838007C2
433807A8
405FC29D
2B070006
00DC0000
0000580E
0FEB4071
93DFA3EC
AC329C7E
F3FDC44F
0F18C002
1353A8C0
70C0A396
9C1A1D7F
F840E0BB
4BE83EEE
F24E407E
1E00D881
10D00FF8
9C1F0064
EA03F00E
7C017F88
24B00F98
10298A61
F00AE80F
0FC030E0
B13F18D0
441EF814
4631FEA8
90AE1A62
000060E0
A8F8EB6B
21E10286
00DE0000
C0360000
F4001201
2F801063
F802001E
36E8201A
215F8280
841DF832
7020FFC3
D7002EF2
03F00364
800400C0
10002804
468001E0
7C10001F
07D20000
00A48410
005EC980
4407B0A8
D801FF0C
45903C00
002E8000
00002640
CB583BBB
C80A7760
F7F05EFA
D1F0A16F
FE73D47E
0D571C09
6867039C
CF01543E
2E823B81
D160093A
0E088000
11E94701
70028B44
7E00776D
6F6B08EA
197F6C47
099221C1
C00CFA5E
FF47BE7E
37CE23FF
338EC74E
FF00FCC2
1CC000E7
6130E39A
00003BC8
26958791
18B00000
08108000
000A0000
00021C00
E0071626
FE0070F7
07F80342
213CE070
B0070E17
1EF16061
40FF1602
0E1FFA40
40F1FFB2
38078783
02007400
00400180
00078000
00004800
D60005C0
E3FC0304
F875C243
110C0812
13DF0000
0000A200
B7BFD4E4
5123E7D4
DF79FE7E
76AD1A8F
03DAB089
207D9150
C00BE016
18172F01
E0910038
3F218807
F2F8FD1D
FB0DB8FF
7602F88F
9070518C
98024EAD
C801A1E1
40BC0C06
0120A090
00002316
04000BB9
CFA01013
80FD0021
6135F04E
F2D0FEF7
0000E5DD
5F41D9FB
B2EAE2FD
84262002
FA34101A
3E49B093
17EE1140
82E040B0
380E0030
4144F400
0110FC20
04682F81
806739F8
F805F2BF
49803EFD
497A07E1
3B00E07F
B0880E07
0ECCD820
04C0D401
03F545F0
323F88E2
BBB0283F
D54B0023
38ECF043
0000F7E8
37837007
2D7561EB
97EE0F24
01F7E7E8
000EA705
0E000520
B1F8001C
4F7F8001
03BF4400
8027D870
E00070AB
4F410607
00E03AC0
D00E00A8
C801001E
5B800801
1FC001E0
7BEE800C
07FCDC00
00161E40
300007D0
093007FE
FA7789FF
5FD5729F
0000258D
5785D806
70BACAE3
08C40420
FF230117
EE9FA863
A7C4BC08
59608944
19BDD7BF
534DF00B
C390F8B9
17719F03
001D2BC0
E40334FC
DF00280F
71F005ED
6517803F
7AE5FC03
00028080
101A4C06
29C96342
80130CF0
14000CEC
8610804E
03600100
0000AE08
C2102C68
3FD4F3C0
0E586EE0
757DC802
011FA548
07C1FB60
A0002DD6
E420A0E7
0D442F03
EFE841F8
FEBE861F
18FFE821
B50A3F8E
4FB003E1
A0EC80AD
1501D808
00602080
80069018
B0005A02
27F00280
60FF0004
440AF05C
82C5075C
DC566E48
000036AA
87A65378
DEDF07F9
1FDABFFF
3EBA7F16
0630A4CC
00005490
100006EC
2D0001F5
FF8A003E
FFD8C5FE
DFFF9EBF
002FE1F0
E005FE3C
9F0024CB
08880095
22104008
00351800
00034800
68025E00
168003A0
607E007C
A00F8016
7F05F8A8
BE23FFC0
00001E7F
9C8D6615
D0E38729
F69BBDF4
70F688BC
0DE719C0
1B1B695A
F0808908
944001D9
03401100
6428000C
2601E8F8
FFA02A0F
1FD81261
E03F03CF
B643E00D
9A631E45
80978C71
0021A784
E15974B4
D10FC1A1
FF00FFAB
83711FD2
E7EFD43C
8539A2B7
000047F8
3E95E8A9
ECABFFFE
FBA07FFF
00849FF8
801053FE
80000D7C
A00000D9
05000007
01200400
00320060
18028003
01C02000
A01C0218
A070E061
62060E06
008071C0
C070071C
F401003F
03001001
80000860
B0000006
B7800011
15780000
E033C080
0000C388
B70EA9A6
77A04100
062E8000
01706080
C057ADF8
E4037B3E
FF80278F
17740003
A801C1C8
C4920A04
9DC001F1
6BFE160F
1FFFFD40
A418CEF4
EA5DC9F5
0C010801
01D00C80
0819C000
0001A424
28001AC2
4343AFA9
68365BFB
17B20822
0AC49000
00001521
08E23702
4453E2B9
492B8820
B85CA013
C3E59DD9
F823EF1D
BFE0BDEB
23DF03A8
A739F0FD
209A0F08
009FE038
707E6407
0100FFC0
8E582B88
14FA3FD2
47030BE4
E1440026
1C02F803
2169B900
4003E0FC
5C31FE3F
B8208FC3
97C31039
632E46C3
00002E9F
255E9AD0
22FDB13C
1025D903
C006AD80
E0005BFD
FFA0003F
7EF70017
13007C02
123003C0
C44F001E
3C136003
03C13C00
003821C0
00658079
00100008
02006000
24080200
01450C60
01200203
EFBF29BC
9C3FC294
B9F5FCA8
9FDE3125
48200820
00008600
C957CD2F
04CF0414
A0FB3900
0FFDA5E9
05B8893F
00FFEFF1
2207FADD
DF4047BB
FD60227F
1BEE00C1
703E601F
C0015C17
1A0007C1
29E00050
470E0011
0E73E001
817F1C00
003AF3E0
00620B5A
9480F638
7B30AB6B
71BF0377
C97FFF12
9C8EFFFB
0000DDF9
76FEECD2
9092F418
00581088
00060009
00026C00
036C9A40
007FE3F8
B047FF13
03007C00
00F81D40
000F8060
2000A807
06000EC0
58380061
F8038014
1C000800
012C0080
000E4000
0001E400
00600F80
B0010FD8
2C013FF9
33B07FFF
DFBCFFFF
000015EB
C66C0211
685D74DF
1E493E7C
CE52FB7F
0E11FBA7
80417418
D01E00DB
5000F007
01000700
80C201F0
3E8EA007
018CA1E4
A01A231C
2F283923
D1A3EB61
49BEADF0
88104DC1
BB0B51DE
FF80D90F
008009B8
50430367
A890C0FD
8A7C41BE
8725A199
0000DC00
5F0ACD77
15840A15
E31783F8
5DD860FF
FDB3913F
8CC4B965
7DCC1387
87DDD358
1CF1822E
019C0C00
00016040
63807814
1C203B01
E2E01D88
D6EF203A
FD7FF905
FBFFBCE5
3FFCEEFB
44F1E7EF
DE00EE92
6FE05785
B2E96A6E
6F1C4028
FCEF361E
00009C41
2D472F01
ED6B4C59
69D27637
780C0FFE
6AC037DB
A0FF26AC
722BF27D
1B186B46
C19000B6
1E1B0007
05E48200
800FA0D0
E800FA9D
8F807FD1
38DC47F1
4D8E4268
9A79740F
CC42F590
6F851A24
2AC00B11
2C9B01AE
77F43129
BE7F8EE9
387B7E66
00000787
A6432332
9766E608
CD7E3FD4
F88BF5F5
1FC6E3A7
1EFD0770
631F1456
6660F40B
3A201F04
D0DE003D
9D0AE00D
0000CE00
1C801F61
809811D4
8E00801B
1A701E01
038305C0
E0FF31FC
FE7FA1F7
2EC5F0D4
E880010F
0778F8EA
696FFF0F
C700BFFA
00005BE7
51553B81
080904C8
00320000
D0463400
7D806F91
603901EB
72005057
3F3807C5
FA7B80FD
FB0B981F
386C5401
83815602
02F00141
C00600A6
2E001006
04F00100
E040005C
00018000
40202080
21440225
438BE13B
E8DCBE0D
04883880
18EF0001
0000C844
45B4FDDA
D9AEFFF4
FD98EF7F
DD98EEFF
B0B7490D
49001185
82100186
F8008008
0D011805
20F00400
000E8F00
C050B9B8
FC05837E
FCDF36EF
CF5DFAFF
FB7E3737
FF125EF7
1FFCE0EF
C1B9C71B
08047E70
4C4000BE
47BC009F
E0E70A1C
9607522D
000073E9
2C34775C
3CE1973F
D3C4F005
B30C9A0F
2E00E041
0DCC2D00
00F1B444
680E0FA5
63FB80F0
FF7DD806
07C59F00
007E31D0
E007E13E
93003E31
79740301
03D04072
50035407
0607E040
00612CC0
83E02447
8157C63A
AF1D6813
93D78823
C346FB61
00000DFF
3A9946CD
9396EDF2
311618C7
9EEEDE42
07E431C0
00BE0908
000FE174
0000C664
C340001E
1F250803
21E11D24
D01F35FC
3E01F683
E0E05932
582C01C1
054163FA
12389E1C
00060110
E00A11C1
11080A97
2DC100FD
40B89413
196FD401
A7C9D5B9
00003744
B688EDA7
5A603863
7CD38F8E
4008D1FE
7DB20E4C
C6237CF7
F5FF7F87
E65D58B5
28B04361
00DA0018
010AE000
C8C1D200
0879B001
64A6A759
EA1C7C72
18A4E803
01DA9FC0
40BCBA7C
7FE3E79F
CE3F393E
F8F9F7EF
89F0DEF6
97BC038F
E78CB15E
0000DBDF
CC36A289
937D31BF
1BC8B61A
69FC4D0F
8803AC82
F08443F6
FFC0054F
58F00008
A287F828
3F80FC83
B9BB9FEE
100F6FE6
E7986D1E
BD4E0A19
790066FF
3F00E63E
3FB88727
E7EFC41A
055E2E05
01F6C020
C0023884
5940A0FC
9B5A88D3
05617E63
00003BD6
1845D774
DE7147FF
77A07F8F
DDEE9A5E
1A1DE58F
008B5B22
D0447E46
701400D6
F9C2221B
9E6FEFA0
F4BADE2F
DA1EE963
C3807F9C
0EA8009B
2805B085
C514F672
E65E032E
C7E62A30
1D3C3018
08462C60
B043177A
BC05817D
D1F0F9F6
20E45FE0
00004808
A29BC59B
171E7B59
83BE93FD
FC1C73FF
088BD5AF
80207C74
E9002463
87540014
0C3A2C00
001F00E0
FC04201F
37E21E01
06001100
3C0800D0
F850001D
7ECC0800
0BD820C0
7F88C007
07FBD540
200838C0
D10003EC
647802FB
CD1FA1FF
55DC1E4F
000016F1
C23625F9
0DCC99FE
E0873282
BF527093
FBE22905
CB0D1890
BBA08126
95B8447F
EEF8E66F
025F8802
001AF080
0043D314
003E01EA
E021E18D
AA100F48
F9711075
1F2F2007
87F0D7B4
263506BA
68D71DF6
ECC57855
282C0205
05400040
4481C228
0000D1E4
AF674139
1969AF96
AEEDDB3A
3D0221BF
B18FDA47
7C0199C2
CF2817A4
98709035
1F8F8F03
80F87BE0
8E1F05C0
34F1E190
84034DFA
854007D5
F0F800BE
7DC9E006
0FAC6500
09FEF2D4
F1BD8D03
4F61B8C8
C46A6155
770100FD
1180937F
5C9C8FD7
00009E58
BEC37772
20281729
11BB2081
C82FF47E
FA00600F
7FC045E1
07F002F4
B0FD8803
058FE100
1089FC00
04169FC1
8028B7F8
6404329E
A8002E67
0A00013F
6920602B
35D00207
C3FA8034
047F5840
000F4F60
2003FCF8
9600007E
A277115F
32487E83
0000D34C
7293A403
261C3F65
EFF280A2
FBCB40FF
FFA9B803
1F011B80
80E023A8
68150017
0609FC01
00981E00
10008F80
83E02580
002FA4F2
33412EE3
BE7E0CFE
E9F6F177
F76FEF86
DFFE3E33
00FCFF80
040FFDFA
26020076
53040051
8BE04004
82702C41
00003A36
B68C0613
5F2E081B
06AE00D2
E0D59000
1E039000
00000180
00000130
30000001
01801C03
000000C0
C000800C
0C005C00
00600580
C006001C
0400600C
04800600
000A0020
00016002
00001C00
00000200
60200014
40100026
09800000
30A80000
0000A600
A5D2F788
4854AA68
0045D014
FA158808
5FB1BA81
02F80240
0023E0E0
A1880B01
4390C07C
3C110003
01E11F00
002FABF0
F801F39F
C9C03706
189C0BA1
0385E1F8
701B0816
00020040
80000F4A
09C80FC1
1B5F800F
9CFA0008
103BC00B
E364BC60
0000F704
FD16F3FA
373F318C
1D873990
004E7900
00026300
5007A1FD
EFFFFC49
39FFFFC3
06B87FE6
407E03FC
000B4020
10203806
00022E00
80100038
2F018402
1C700800
01A38000
F01F300C
15040A80
801C783A
FC55CF7B
C4BEBE72
5617FFFF
7F8CFFFF
000094EE
46F324E7
E63D9BFB
FFB49FFF
B4F2DE6F
8111DB9A
80000151
4001000E
D000240D
4B480200
7D000006
03711E00
391009F2
01DF233E
840F622F
1A01F708
00200630
C856487F
DC0537FB
E500F4AF
18003F81
26800340
2B580005
0FE10000
02B71E98
00009F81
84209C24
4A2F787F
002B0022
0008C180
00008F10
00008670
F400007E
7F8001F3
FEFF5FB9
FFF7E5FE
0E7FF027
0003C600
00000DC0
82800078
28020009
02A00000
00680000
00034000
00046000
01000260
20300AF4
9803F0A8
0614FFFE
F53A4FFF
000058BF
77DAAB1B
ADB96F04
F1B2ACE7
A80EEFEF
D248EEFE
CE1B977D
BDB33C4B
EF9B3306
07F01110
00432007
0384E020
005F8004
7023EA92
B9826F23
83A520E8
1BBE0002
5373A900
89F87D30
1BF942D1
6F3F567A
4D7A76F1
B86EFBB9
5A1DFA3F
A0E6FABF
0000ACEC
2443AB49
40B3D6D3
075EF6ED
A1046FC8
E0C9E2F8
282F5EBF
F4A0FFCB
17000352
8EB000C1
298D040E
01E68060
C01F9000
9803FF45
1EC0FF09
395C5F81
9A13FBF4
400F3D6F
80591978
F002860F
FA01618F
CE49C3C6
6AD85006
9BEA0008
26788002
0000FB23
241D0139
2B600001
00490000
002A8400
0014E2B0
E001903F
DF002FCF
403000FB
2701E002
E0700603
1FB38061
21F50006
0B0F9040
01FCBC78
4807EF85
07007C10
001401C0
00024010
00003C01
0E000500
E3E008B4
A4880013
0CA00000
02438000
00006000
4118BAEC
E1E7EFFC
7635FFFF
17316E87
02EE01E0
403FA33E
F001FC6F
220003E3
96200098
7A69050F
07E78C31
182651B1
E1E9FD1A
AFBA1674
1815C34B
04A43EAA
804603E2
F800869F
3F01DA03
02002946
285C062E
52664208
536F0D81
8478CC60
0000D207
B05D1F47
3B115E8C
EE4F1FF8
E8FCC1BF
7CBBAFAF
5F57AA7A
57C081B8
C278015F
0E210403
00E50000
800F0070
E0014004
00401C40
044001E3
D728001D
1D474401
DFDB3E00
FFFCF469
F9FBA39B
FAAB7F50
CD34C3ED
5C05FB3C
272017DF
7DCAF3FF
0000AC9E
222BFC29
677F77F6
37407019
C99E8000
0DFBFC00
0188F814
023009C4
0803C05A
2041FE02
815C0FF0
F50085FB
6F0389CB
06B80618
097F8028
7002BE02
03C18FE0
C064003E
040B4203
0000CE00
12408700
DA7F90EC
C20004FA
F885890F
227066AB
0000EEDD
400EFA25
B91AAF60
0BB6A401
A40E0000
00010903
00001FA0
800008E8
F0000C6D
FF04105F
EFB9BF5E
0FFECF47
003FBDF0
F803FE16
8E800DD1
3CFE00B7
07004001
00300000
80029038
0C002601
41C013C0
C00E001E
787AB0C3
48B3FE0E
5EBEFFF6
0000EBFE
A6C08C76
3F22BB26
48380C6C
001161B7
FC0C3F7B
EC2144EC
7F46193F
D3FE3422
1CB082B3
08CB0C08
188C4081
E16F9006
203EED40
E230BD0C
E36801EE
3D7C1003
83FDB800
FE79B767
A3BFE7F2
FC9A7DBF
A5C15FAF
72A9C413
49487E4D
EEE6070C
00000703
1C83BA71
EC6AF436
FF5FFA88
B7F96AB7
35FF0608
00FFF8C0
132FFEB8
B001D455
0C8A1001
00E88700
00098030
18002001
05C009C0
F10F0096
D20CF20D
0BE00E80
00500040
B40EA104
7B316789
93FF7E22
1CBFF727
4102FDF0
31503FBF
3B2803CD
0000D280
21EE5660
2DA9D983
0257020A
00022200
00013FC0
FC00047E
FFFC007F
1FFFF003
00F8EFC0
C01F80FC
04616007
0008BE00
000601C0
C0028078
00000C03
02601080
04538080
C0A1C01C
080E6100
0005B1C0
5200E0B8
99D73E09
2115FF99
E0C49B18
0000E2C2
FB53242A
ECB7ED7E
FBEFD07F
010D2C06
00008000
01E00840
003F0020
2801F801
030004C0
5618020F
43B206F0
78298C87
06826B80
20204828
38021D13
012001E0
0010020C
00010010
10005700
C0000170
3E000072
3977004F
BEFFFC7F
D89AFFFF
0000C5B5
59EA1B6B
88D8C60C
6EB8EC8A
B5FCFEFC
3153C4F2
045CAD5D
68E5A649
52040000
42700208
1D1B0160
F9F08A7F
DE2EB6DF
6F585A2E
864309B0
2287C811
5C604D84
239F8000
1E3E4060
3FEDFC81
01472440
218CEBA6
4C78C5FB
C7BFCFFF
246DF97A
0000602C
461FE018
000573B3
F028E63E
00034B52
002077C1
C00A8778
FC007007
5FC0060E
18FC0070
F937800F
1F97F000
01F10C00
003F4B40
02177862
4041FC06
00001800
80D001A0
00036004
28005881
B7000028
E0F80135
AD4BE80A
04940800
EA790000
0000FA00
C6EC5389
9DF52443
DDF9008B
FE36A07F
FFFE001B
0FBF4924
00613A00
BA8C0019
0568F003
01EE0600
00040000
00009018
20000800
40001484
9C000091
12E00003
C1578014
FF13EC0F
F7FF0FA5
EFAF397B
7F73F2DF
0FC28002
EA70000A
31DFD2C4
00001CB4
AA587F1B
24AD0855
3A305FE8
FFE485FF
3FF7882F
04FE5D52
600DF394
46000009
08200011
800E01C8
F00BE03E
6B819607
04881A40
C4EF00DC
41B8800A
2DC71801
01DCB700
00FE87F0
40172A31
1E04DEE2
E36057C7
7CFD16FD
419FEFFF
5E81EE07
00002918
D86E4B3A
8545FFF9
597D7AFF
06017651
40C07002
0C001B06
82780088
1007C005
05804F00
A8500238
5E2200C7
FEE010FC
03FC4A04
0027F028
20033D00
03A004E0
C018043E
E007081F
03003601
802443A0
7800087F
14E21870
FEC61727
C45183FF
0000627D
ECD93D47
F3C08CE9
AFFE7FFC
FDFDA3CF
9FBEF681
09FF7E80
A37FD708
689A26BF
0F840800
00F81880
C00EC310
1C006000
19E00DA1
63FF80E4
A014F308
0353AFF1
12CE3078
7539DE4F
01D8F720
5027F6B0
00897F2D
E6441BF1
46C485FF
A3D4DB1E
000028BC
F6B138AE
230A091E
C8F00140
FBE31003
FFF6E607
2FFDFE40
0EF0F7A4
C85D801D
4886F003
00D0FE00
0E000D40
80C01780
800317E0
F000265F
263001F5
C4402012
9E170802
00C56040
C07CC840
E45FC68D
2C27FC3D
A2158A06
84500004
BC42A1C9
0000D355
42A79247
1AC55205
C283001C
B4413183
57FA3C13
12FFE663
87EFFE79
F283DC6F
37B02C01
00EC0100
000CC018
08006000
00801EA0
E006212E
BE903800
90FC06A0
C19F00F8
FE107C43
03F03F80
9C0EF03C
ACC8CFB9
66801970
A5B03DF8
29888EFE
0000CADC
8AFC11FD
D93D975F
207648FD
78E74020
1662A3C0
90FD1E82
06806FE8
782186FB
7F8B6FFF
3208FEBD
20209F23
30802BC4
A71420D9
6329447E
151702A8
06B25162
E22F0C18
DCA2E2F9
58022610
49BC3620
E55F7859
A024F046
D0014D07
B6DB1BDB
0000C3DD
2E9D7E18
3E78940B
FB60012E
FFEFAA5F
1FDED705
00800BE0
700001E4
0F00000C
24702000
00070000
F001600E
0F001200
00600340
C000006C
DA00000F
1FC03001
0FC40300
817FA0B8
86DDD403
08BFD930
0001FFDA
D00030FA
E890000D
23FF0501
00000A04
F0705B84
2D7977EE
B8549DDD
7FFD094F
00BFE400
C002F800
80000B68
AD2000A7
DF8E5607
FBE8F5F0
1FAE160F
00FDF9E1
C401BD3C
9FC03FDB
49F00037
161F800B
009C7800
000485C0
F0004C50
05E002C1
E07EA0CC
C800C5F9
F410FF5D
9E7DFFED
0000E8E0
A72D181C
2470D43C
420BE504
62654F10
44812180
980E143E
F30151EB
0C100F10
334581A1
FD98141F
4FF381F1
F0FFC64D
0F1EBE25
0D3A1150
B00F8381
0C023C18
00A002A1
00080472
F0006821
AE080F80
4BF8123A
A82D8C35
0EE2D488
70D28008
0000CE81
B2DF31C1
38C41262
A65221E0
53B20404
027C43C0
88419ABF
FC0002B7
E7C0309E
7883E0C0
650A0C0D
0779E1C0
E31D07B8
18BFD37D
601FDD72
B603EE95
EE701E2C
3D7230F3
641CACA7
F480EE7F
FA746C1F
6FC60087
D7FE0005
9F852340
8DD9D021
0000BB3A
E23927DB
F73D7FB7
F8EF7BFE
09E833BF
0BC75E90
1FEF8261
140FC4B0
D4610275
24C7F813
7144F052
5F838FEC
1BF015E0
518A983C
320407AF
9934016F
FF004A45
65AADF09
32AAA3F0
E43FA79F
37F8B0A5
22F68571
A3C65692
E2754E33
3F5D18EB
000043B0
775B683E
311E03CC
016D8809
DE1E8A17
134BB400
281C2E86
0FF0EA78
5DBF012F
D75ECF4C
8DE17CF8
B166BF07
0B1F3FF1
EC0A458E
0BE42610
899C044C
6290407C
AE3004B0
013B0400
004E3802
80D98740
48042E38
C01876AD
DA2E8486
A1B52CBF
00005BC5
92E8119E
BD4EFEB2
FCC9A7FE
017949DF
2806BDF8
A000122F
000083A9
B2785E5C
0A3F07F1
0192340D
820B80C0
DC00FE0C
2FF713B3
3B9FFEFF
FE26F9FB
1FFFF84D
1B9F9EC0
CB5CF960
C005FE17
28003BED
B4200343
4EA3A3EE
E40001B1
4FE84216
00007E34
F3158E20
8B51022E
0B5B7002
00173500
0000C3C0
00800700
003F0010
3801F000
04100180
D810001E
E7C00020
7FFE1005
03B7D340
E039B020
19018808
09400800
000002C8
00009000
00004A80
20001908
7C0000B3
69EE110D
F5DFFFFF
D711BFFE
0000E10D
622702E1
F9AE317F
4E08C4D7
FC068F8F
73E07DF0
B5FE0738
8005F868
27001F00
C03800F8
FE370007
87E36000
C3CEDC00
2C08F8C5
10D1C121
A15C0288
0111C000
01431800
001147C0
600183D8
4F091BA7
CA1B3197
C1BFF276
503FFE00
EB4AFBCF
0000250C
00FFADAD
DBD7D3ED
7C1B3FFF
536D5BED
AE8E26E4
2EFCC750
533BF05D
21804844
42B402FC
0E478A73
F4F5623C
FC0F7E7F
1F415E8F
19F93140
30141711
6B85E1D0
10015609
006017D0
40886CC6
03C04A28
BC3E0A27
8BBEF36B
E33FBFFF
30F0FEF2
000088F3
FB553A8E
C37EFFF6
FE39DFFF
3FE09FFF
04003E86
000004C0
80000831
180000C7
40400002
02088000
00011800
01006F80
006802B8
7807800F
1FC3AC03
01FC11C0
D00FC53E
FE037C13
01016680
B000014C
450000EA
32000000
01600000
02528800
000075C0
E8648E86
95EE8307
E76C2EF2
7FF10197
13EE4400
014F2060
800805A2
3C01E1D1
0FB01E0E
02D121E0
FC0DE807
00006300
820D0F80
1FC00019
C1F80008
1F1EC005
00305E00
01C3CBC0
6010682F
23A09F40
C017D7FC
C404FFFD
2E1897FF
9CF8CE11
00005B85
1E8977B3
11B97132
B0052227
8D0EC000
03CCBC03
8804851D
0C323947
E1B79154
8668FD18
6E09B783
79E3B76B
6FC331CF
841C733C
1061C214
14800E34
48C041F3
7950C03F
5435C400
0416BF80
0062FE68
4A4F7D69
D8887F81
FB0E6410
426FC52B
0000FCED
D574A1F5
40C18FE0
F2D0DC39
D00AA00F
FFA060F9
03FC0220
2001E031
1A001F0F
C53000F0
784F000F
04038000
0010A380
80020990
F000505F
62800601
0AB000C0
80472800
10023000
F98073A0
F7F81F5F
BBBF07E5
EDCFF8CA
581E7804
58D90892
00007500
879EBAD2
7DC1B824
433E0341
0012A000
00001580
C0000DEC
FE0004F7
2FF0000C
17FEC388
EEAF4FFF
1F4F60E7
007FF400
0003FE40
94007D01
94000008
11487001
01C80080
00038004
00010A00
400013F0
C2000777
ACADC7B0
8C7FF7E4
7B08E7FD
0000BEFF
4302DB0A
FA263953
EC13E63E
FF95103F
7F881B17
A5E001CB
20400018
97840001
39C0C002
038C9E00
001479C0
1A001B0F
01F805A0
200F8066
DA00F819
CAB007C0
7CA30096
879E8A81
C00CF104
4C665F10
BEE50072
51AE0005
45A06A00
0CEF0C00
0000D9A0
F0745F7B
55304A02
0EB60120
FEDD502A
0FFADB02
03E30300
80716790
A02F86BA
4C05F807
02805FC0
7140DC0A
0BE09FC8
047A023A
42001A60
ED58010D
8545800C
0A6D7803
019880E0
F036DC8E
13D0B200
827F9381
8287AD38
EE8000BB
043D8040
00003A01
65CA4F14
4AE08ADA
0628FB13
C0F51640
FA07F07D
55612E02
42800333
E00030F9
5340DAAA
C3D807C8
FE3F901F
3F80A3A3
03F80E90
243D8A31
4288DD27
06010FF2
98643053
08059C83
49014D6C
52ED2711
E93FC232
138D1C02
94201002
867DA000
0000AC00
B99B16E6
082F5AF6
E47D8615
9202000D
5EE28441
E6FCA221
007F68B9
F003FF95
0E287E04
00390200
00452040
00400B28
002AA880
000049BC
A71C1039
014CE040
056DCE04
0C1D91E0
3A919307
E7FFC470
B04FF7C7
57E2FB62
63FE0EA3
E345EF7F
00007ABC
E85FB571
54BBF773
170EFF4E
800E5F70
F8006FFC
AE8006BE
D0FC00CF
3F212001
02300E80
22930078
FA03D00F
3F008020
03B80100
806F80B8
4001F911
A4400B61
40140626
5E10C001
93FB47C2
20F69831
44CA3397
902C2FEF
B3FF6184
72B822A8
0000E8C5
4305A0A4
513BBEBB
DF94DF53
FE294FFF
08209FB7
80000A68
F000003F
87800001
00FC0000
00B70000
70013007
07800600
00000280
000000D0
E802001C
3C806001
0FF10100
F7FC4030
0FFAA000
003F1880
000001F4
C100000B
08000000
88000000
00003018
AB4FA1F3
1FBFFEFC
E6EAA6FE
28F59F1B
67A425E2
103A0A1D
901AC032
6D024E4D
F1D00058
7A099C07
1FF3DB01
FCFE0CEA
E1DEE55F
80177A04
3A0077B2
831146F4
C062529E
0C0F23F9
7BC04A6E
3E220C04
8AA200FE
C7EF00A1
064F7521
53B5FEA7
000077C2
553C5250
96482C33
F0AD0311
BB8A2118
9F87C809
93C058E2
0E900094
904B801B
2D00F001
014C6F00
4208F7C0
27801B8C
00B801B8
0005C0F1
DE801D1E
3D4001E3
7DFE0107
07FCC040
712F4526
798EEEF4
607F98EB
F3038801
8EA08200
48EE0221
00001728
4949B5B3
0CB80005
00480000
00120400
0000C100
800002B0
FC000037
1F800200
81780070
760F0007
1F80F000
41FC9400
033E8500
0039F0A0
3001F704
03000B80
00100030
00018000
00001000
E2000180
C7FC0008
FC1FC004
058A0001
800D2000
00001800
5DAC2880
69A1C148
007F5792
580365E0
C05817BF
FC008F7F
7FF00477
8FFFE001
10F30F83
802F80F0
F801F01F
05042601
00080880
001001D0
8804000F
ED800001
1E000280
97E18014
037D5801
00639980
C0002188
F1500E3F
035C27E8
44B9B480
0000234A
EB8773F8
482377C7
04210101
7806C091
05F0C978
80006678
C8005A75
ABC00160
767A005B
FF7F850F
1FFFDF23
41FFFFE2
F003FF5D
1D80BEE1
21EC0194
059AC040
00100800
00021980
F8007894
1FC00202
51FE0084
D003C00D
9163F801
27864701
0000ECF3
BEB5663B
41DBF6E0
E58DDBFB
F8029C8F
628808F0
F830387F
8E25A18D
64819E07
2F8850F8
7D6BDCBB
11C3D882
022E5BA7
831E853C
9069F97A
77022385
54300871
186E1101
75A63B03
67EC03FE
0C1FEADA
602F5E2F
CA876CD6
1A027800
44C79CB1
00009C6B
3C42E0FA
B3DFB7B7
FFE5FFFF
FF89C89F
13AA4627
00004044
0000001C
90000003
78000002
000D0000
00002000
00001FC0
037000F4
F01F808D
9F01FE08
D37C0FF1
3A27902F
03637D87
A00A999C
F000815D
9A80002B
2E220000
09604000
03B29800
00006880
C9D27B0E
461FDFA4
FEA78DFE
5FE07E1F
94307590
F402A12A
740006E3
F310188A
19300000
005E0000
0000A030
DC008C03
54D00440
788FDDCE
BFFFFBCB
FE7D6FDD
7DD78F77
06FAFDD0
D016BB20
6C001A76
75804783
7F82200B
09E81141
3F658580
00006A00
1B69D1F9
C98ABE9E
7FD6FFFF
EBEC73FF
BAB9C5F7
4202C6FD
30191C0F
F7001FE5
28200010
89AA0005
001D2090
F000E024
21F805D0
D99E988A
AF01C999
FB7F0E96
356BF003
FFD97F61
FA3FBEFF
BF10F2BF
3ED01762
6DE2031A
10F87004
3A8A571D
00008D82
8F34107B
E32DFEE2
FF43DFFF
7F855667
00FF1A20
0003E8C0
40004FA8
90000078
1C000007
02800000
00050000
00001A00
800001F8
F80120AF
8FD17E5A
F27FFFE7
EB0FFFFF
038EFC0F
0000D664
780004FF
7E8001A1
3BE00001
14400000
016E0200
00000380
62F3ED63
DC181548
00332060
FF30401F
7F85A30F
53F81980
8D7B0CB0
88BF4200
2F8BFC20
0420FB00
1459DF00
8107B9B0
D8047B74
47C077D4
F44C06F6
3565C07F
F8F45C1F
017A85F0
603DFC16
81A88620
1F1C6990
45C0903E
7CA90017
0639A020
00006125
E6C9AB4C
302723F5
A293FF7F
C0832EAF
DE0000C1
67200500
9DA80020
6C0F4416
3287A543
F348E073
00605F82
8066EFF8
FC0B9C7F
874072AB
191107A9
E088507A
3C2C8407
8C52B460
02B89A81
400FE130
04009803
C0080661
F167C5C7
FA77F9FF
00003EFF
8806BF57
094A0103
13D71780
FA9402FE
F65F3F7F
D39FD087
1B0394B3
7B981806
08FC02CB
87F7C838
6019B6D7
