C90D5975
C7B6EB53
986F182A
0634A484
6D70000E
AAC03076
F84130F6
90BEF1FB
03000C25
BE31FE2C
FB7EC87E
B73BB8D1
4448AA82
2919E251
84F41390
A794EB0C
6422004F
002AE5F1
1D420B45
6B2E6FB8
D20FF81C
622D711C
0E837388
FCC282DD
EB820000
1B3E94B9
A59CC716
FFEFCD9D
CEDEF864
52661ABC
B21E185B
73503B20
DBA42937
78902419
F67A1BFC
1A885FF7
4E99F823
329C0701
E101F739
6C1CC8EF
81EBAF20
1EE8C203
F6F5183F
F18F09F6
95AD0EFF
4BC079F4
884250FB
000024FA
091297E2
EFB90000
DE318632
8013FA60
FE2F8E1E
B63007EC
3693FD21
DAC7B83B
D1D7C1FF
781C73DC
1986F3B7
987F018D
0E197538
A192A908
DBE7F89C
9816969E
17D6DF8B
1CE2392A
C2FD257E
3B607B8F
5F44DA78
A1316D05
06BF5E40
0682007B
2CF813A4
70600F35
DED10000
F0A5FBB5
EFDE5CC3
ABDC018D
FDDB95E3
B8239EA8
03B8D7AA
84A13795
1ABC3079
049E494A
F6BE0834
E1C178DE
4608B84F
78E6B564
DA49517F
F1B89325
03968DF0
3B11BA27
9E41283B
190AA348
2B3D0D80
AF95FFE5
2460B4FC
802C0415
1974DDD5
7FEA0000
3FDA81C9
35EFE9DB
F5707CAF
AF43517C
F76B83BE
9D3224FA
7C8C7E7F
4A165EC2
47D2FDE1
C3A11257
6E0330C6
A46110DB
C5D0BE77
4C40CDA4
F404F96B
0076405A
01F459E9
3E864DF7
503CFFFC
0700FB90
238955C2
EFC485C5
F682C9FC
31BA0CDC
3C880000
FB9F14F1
938CC36B
B7EE6FB7
D2FA8FEF
40B61D1B
EEABD47F
A6FADFDC
EB96FB78
303B2F6F
D92637D7
80DE1DD8
019A0301
6BF44100
5EA87A03
180FC07D
A3AC0910
7B2AF61B
FB069BFD
8476D17E
FA0D8DF7
3DE8DBF8
C2FFBA74
17FF9D70
F47DF095
EF3B0000
907DA807
E11442E1
7DCF722F
03F4AAF9
995BEE07
6D1A1029
7C8804C2
C668160E
2A191054
20808608
09838020
468604D2
83DE7E01
79AFF96F
C5FF7FE9
2E37F7F7
EDFFDC7D
766EE9E1
702E5A01
759E5308
00048240
C9000242
00004019
E2280520
D4490000
099E0E2D
9FC7D2AB
7CFCF1CE
FF8F0CE0
F7495965
7ED6E27F
F3CEBAE6
812FEA3F
84626332
669007DF
F4017C23
781BC2A2
CD5A4F55
4E9A467B
A8B9FB08
E02721EC
03DB6A70
898D3C47
0250DDE2
2155FDC4
187FC18B
D9B1A325
1FCFCEFD
FEFE86FA
5F5D0000
5B10740E
110E9458
3F8814BE
C0599FFF
DB9DD28B
2BE2B466
B36E2ACC
BE4C9F7C
6281A610
9110762B
4204209B
C83404FF
CB80A7F8
CAA8997B
28385E7E
708FD2DF
C07B59E6
06F433A9
B5374035
E0F86D4E
2BFFF052
B3A34E5C
F7D0E9E9
0124C1B8
FD6D0000
C4732DA3
34010A93
C111407C
0FC1FE08
13AEE93B
3BAA783E
4BAB4DBC
3CE016E2
CF567920
F0741E97
A8B3871D
FF181FBB
EA4577ED
2A846E03
E42780C4
50500D4F
000267D2
8C4764D9
2151070F
1B0DF029
342F0C1D
87F4AB03
994AB70F
00609E07
59B30000
29BA326A
36FD2AB1
F1B3BF7F
2623BB98
63D9F221
6971C006
7A2707F0
F205F21B
8F7FA14B
DF0AEEAD
A9763BFA
11F5D3F0
3DF01E47
88D6E45C
213A7058
97D97932
00FFE668
FFFC97FF
3EAEC442
36DFCA40
D16D800B
AD8901D0
F6D9B1E8
5FFEE96F
3FE40000
606EE3C3
A5128888
23D76382
E865609F
C062C8F4
2AAF1E07
C584F076
19FF0C7D
31E33C29
4E0CB9DC
21DAFF54
0AA491E7
916EE933
DA17AA1C
92762A7D
E4E05AAF
4F17E1ED
FE783AE7
66A8C97A
8334BFEF
0B6DC894
E9C1B830
690527FA
A869B0A0
7F100000
3023FAC4
21DA940E
78ABE182
D20CE372
8BD327C7
E72B8758
6867DCEC
A6500400
87622E73
FCE7EE76
2B5701A0
30531384
8371740B
7B27F4B4
C178995C
7336027E
C406F5BC
91A24FFD
ED6F3E13
F6BFD653
FC879819
656E2BD6
151DB80E
76AC60E6
2FA50000
EEE67432
97AF3E98
BFB6D3C0
F65774C2
885331CC
08281422
1AA33FB0
A10FFF99
27BF267E
BCB5BE90
F5FBD9B6
3705D8D9
EBABE120
B0D07114
01F19139
6C8E65D6
D61F3041
097F67B3
BB63BE11
17090280
E967EB29
957E3F95
9FDBF75F
5EDEE6CF
BE940000
6219681D
A255DCAB
53FE2883
85215F91
00A56C70
0F103960
EDB7E46D
8981508F
D5BCADBF
87924F9A
E3F004AF
FA133C2F
E0AC17E9
172DCAE8
2A67E77F
846560AA
06845900
24036600
014FC920
43FF4648
3434DCC4
5FEC004E
665068A1
A7C97B90
35440000
6BF8A3AA
4616B676
7EE46CBE
5BE5735D
B1F3F7DC
3DD419B5
F2227947
48104229
EC202DF2
4B80D5C1
FF4973F3
FEDF6A02
7E0002BA
4B807D65
BC00DBFF
CC718E7B
EEA477FF
F8D3F6FE
E7FFDBBE
9E444A7D
F76CF643
B0DA65ED
BC1F3A83
F748B2E7
FCFA0000
1A388511
EEAB6B93
7FBF695F
AE9BBBFC
0812EE80
028601E8
55003C62
A48DD507
42C00440
E8382C29
1A894347
948C1FFC
DB46770B
662BED2F
617A2965
1F1797B0
6BDD9343
3D1C900F
EB5E83FF
7F7A991C
86CA4010
BFE853CB
F3F6F9AB
ADFA6365
F3AE0000
4585BEB5
8EAEF53B
2E3D9253
7C2ACCEB
E8E1131F
47FCC522
A4087E32
C11DF495
7792A768
F23F41CF
37EEE81A
DF5EF877
228D3F4A
2EC1F8B0
F257819F
1004C967
21E8B8A2
0C6B5B26
7034B370
04B429C0
972F0401
FF0400E8
E5EEFB66
79F68B19
1F9B0000
50B7FB05
D8F73146
F88EEAC9
A76309F6
42CF0C04
AC38E698
F8FCE8B7
EE72AAD7
9070AF79
000B6280
E17E20BE
1FE0CFCC
205AFF4C
D5FFBF5A
ECBED58A
001FF2B0
00041B80
40C55003
23CDEBBB
2D3E9825
EAF790FC
9CF48E6F
F781BB07
CEEA932C
6E3F0000
7A1DE410
9DFD1CAB
67F65113
60D2BEE4
DD8C0AAF
44DC80D7
139C16D3
3BE1533D
7E0DE7DF
F93636EF
77E4138F
78A50068
8F501D80
7281A23C
007E90FE
1FDF7FA1
70FADEBE
5AEF6CB1
3ABBBC40
948E2645
F3BBC981
C09A6CB2
09D05AF5
E14EB9F7
CF5B0000
3D5FB574
5EC16851
904B739E
A602A101
214D0160
A6A06BD3
750617FC
342B7FD2
8393C4B8
1C006823
E000DEE4
0458945B
E2711FD5
E9FC7345
95CF7BF9
3F1A4EEF
BB9F64D0
051F7A40
A9E7B31A
17285092
F68DE01C
B00F6F59
602BBD77
0D2DA1AD
5D2F0000
06F2A28F
A581B010
B03C78CC
1C70CEB9
DBEBF0BD
CA888E6F
C4AC49D0
50383804
3707C19A
A1F48DFD
3C41FF0E
9DADFB71
AB2FDEE4
EC467E49
518FF34E
157948E2
1DC83B01
1FD33989
B4BFA99D
0A4E0FD0
2BD6DAB8
3925B988
77DE95B3
8F933D90
15530000
FD33CC8A
8A7C80A0
4FE0B157
FDE51FB8
2428DD96
C03AC94B
03E253FC
9B7F4D0F
9A32E0E1
CE5F1A07
F1B540C9
1ADA06F4
6F73E68B
EF7EE5FB
3B837F7D
D0FFFE0A
87FEDEE8
35FF9680
80AEB430
4AF4C1D0
6A9C020F
E782A457
FF040AD3
A40FAFC7
F6EA0000
7C7F4562
24F642DD
A7FFE8C8
7B0ACF0F
FF4F78F8
A8F98688
40B531BF
87CF1AD4
6FE1E0D0
9C5F0407
83788360
A2514E10
91FFC112
E3181518
AF810D18
F01020A1
805F0D26
87A8C3FA
7B952510
5027BF5F
53F11FCD
F374861E
3C51FB1C
500EAA79
CDE50000
E11E5F91
BFCA98AC
F457DAC6
299B786F
FFE106FB
6C1DDFF8
8F17F906
C1FE00CA
3B880CE7
E0547A7E
07124681
FD655687
98B831A5
F274F03D
208E2BF1
8F1CEB8C
7C65E761
52578CB1
F7E1FDF9
CF472F8B
E7C0C93F
944E6FAF
000BFFAB
2B6D040A
04AD0000
5692EE6B
212C0911
20843211
1F270BDA
3ED59D2B
FA2F593F
FEDF417E
8C793BF0
2CA3E465
2D341038
7324000E
386BAAF6
006E43C0
5F848FAB
5BE54F7F
F84F961D
843FA4F9
5BD27EB5
5B2DAA38
FE29069F
9E87D075
305B164B
2A0F3450
08B9FB73
8A0F0000
61244420
1BD63D37
FDFBBBFF
DFF8DA99
FDC42523
AE7A07F0
63BFF000
F67C8029
AD84835B
F0EFCDC7
5FFA9C27
C9997DF6
3032C03B
259189EC
195A8880
FA22C88B
E8581A8E
AB846C03
C5D362A8
8EA80BE9
EA03497B
0ED5CD27
FBFDF205
FFFE6DF8
23750000
B9B686D0
A502180C
F354AADC
03BDCB06
BD90761C
B3F5FDDF
9CDE3F58
32E0075A
60E343A9
DDE085DD
FB08FFCF
099314F0
3818F458
03030E30
0271D122
E66E00D0
28F90F8F
0ED0ED09
D813120C
8010EAC1
DD987D81
1C0ED8CC
5FE4A515
3C3595C3
9E380000
6AED3D50
55F2A182
8417A6C0
02652C80
5E0DDC48
C8BF0136
0F50CDF1
D2C1EC5D
6D6F4166
C77BC27C
2FD0AECF
27177C22
F5BFE21B
9E38F078
6AC1198C
7F427D86
AE242A55
C05F6414
206C3581
BD556617
8C97C274
6FEC0343
CD43E936
DEFDFF1A
A6EE0000
EBA2CEBB
EF33A621
407D5CCC
17452C4E
505C1754
E4E231D9
74D3C514
A98C0470
869FF698
90BB1F86
FFC680AF
600C00FD
89003FAC
8680FCE1
400D4A16
80267062
006C09E0
2B583D00
C1747484
006F51C2
0B955D06
715480D3
6ECB03CD
A2EAD039
16210000
E9FFA6BA
BDEEF53D
F7F7A692
FE40A0F9
71566D7E
E1858F55
6E36023A
CD5FFE6E
4D63EEDF
D442A927
830CDFF0
004F6E02
23D38088
2160021E
A00100B8
42044D44
001F4BA8
12EC1FDC
AFAFFFF2
FFF645FD
C6EFA52F
FE656973
5D9DFAA9
571BE179
4E510000
7FF22E0B
DDBC060D
EDC2DC9D
42037B6D
3003C7CC
43A32478
2213CC82
19DF55EA
61FFFBAA
CACA7EA0
3C066800
A0BF01D8
ABE516F5
FE17E7FE
22DE67FE
2DD7D58F
D0036277
435F3618
05F39410
96617602
77BDF854
8A5F20C5
543A35F0
A00232E4
BE270000
E03DD065
541A6764
93877B40
50A2E69E
52297030
01EA7584
15D5F023
CEC71207
38724081
1E140A95
C39128B8
760E8706
A0FCEA58
3C1D0DE7
93DBBA96
8FAE7F69
69C269E3
DF86F001
90A00899
10B30187
03A10554
BF134FBA
E758B1C3
DFB87DB0
1F2C0000
08D69B67
7FFDD929
3F7BB298
74431601
72177801
44A47020
0970B541
C18FFFFC
637FF4F2
9FFAB6D4
4BF8782A
C46BCBB2
40247909
CA7296E8
CE206004
FE2E7800
61426074
D8BD4F6C
20FA60E8
96C45B41
A841D41A
18B21DD8
109BF90B
97BF058B
27B80000
C3AADF3A
A5FDE718
7E9B8B0B
E58FA62F
52DB4B31
EFCA75CD
EFF85CDC
5D3DDB35
D8BEFE9C
EE4FB37F
4FBA8B68
5C1A1802
13700068
E404C03B
C10059A3
81E59290
35940DCB
E484BEFB
E257E515
323966BE
FD9DEEFC
9B0F7D58
3B5E2BD8
55F2F1FA
033E0000
84488DB7
5454A6F1
F287F93B
97AA509B
B0A0E007
85C963FE
53E152A5
0E470B01
0363E71C
4E10FF51
8745C041
1C1F15CD
840081B9
63FC3DCF
BFFFE61C
1FD17291
9E56F9F6
E7765121
FCE3E1F1
ED3980CF
56210962
6585EFF6
F943F60E
2FBFA11F
F1730000
479A9659
4DBBABC0
7DE80FE3
0D112B65
880863FA
03AFFD60
57FFC602
0A0EF023
503E0052
13E02E02
6C1DE02B
F4CE2F3A
1960F3E1
E3DC70FE
A3E28EF7
68A835E2
1E9A5030
99DF906E
187217DF
BC3CB60F
F7B558DB
9C32656B
7BA0D091
9FC019F2
EFF70000
6C9F13BD
4B416F34
FFBA7BEC
242AABF9
18ABF4F4
2A057D5A
0365469D
A8F9E916
08CB8DFD
42783098
02D1F0E8
3A020B06
9861E0F0
69BC360B
8587F771
E0CCBEA3
1C6FFD17
87B5D73A
A0076740
1BFF7A24
9A77C14B
0FBC3557
578AAED8
96B92B93
FB1D0000
E3F16FA5
647C99D4
DE6212E6
105DEDE5
FA35816B
0C7327B7
5A05BBC5
28FC6C77
5407C010
F8F8193C
1FA0AEAD
7C1AF17F
C5D21FE1
1709CA11
202F882B
9FEC4030
370DBB4C
4A5AE9E3
C0B5B641
1727EBE2
735FB8C2
F871C7A2
426EEA84
3A7F0019
B32A0000
1066D4B4
A166A47B
12BDC784
09D6DC00
6E24245C
FEF6A486
736E11FF
B5AC5BE6
EFB4D4D6
EEAED9F9
EBE31FFA
6065EA0D
A6B8A281
6B0013E0
D000CF7C
00FF9E80
4696AF9D
7404E095
96FE4E7E
22CFCFE8
F21E3FFE
CB82BCC2
BF2BE2F6
04DCB8EB
C3E00000
3B966822
398F9DF9
3ED3F7F3
FEAE4309
022B3505
87D9C0C0
2546E203
EDFEBA3D
FBF1311F
DE98A57F
44AC6E01
FC2E802E
CCD08CEF
6803F1DF
B9B59FEC
CAD52760
2D14DAC1
86069FDB
44779228
5F348150
36FC0241
7ED206D6
DC3F0169
FBFF13CE
397A0000
B3AB9711
6DF3D2A6
B90FF266
0C1DBE80
17AACA87
ABBD81C7
51CC7FBC
AE8A0BEB
F15FDC6C
AFA19BD0
D0DEFA27
B795B818
701B3D07
EFF97879
8FA50D10
FE30AB0D
E3AAA496
98DC44F0
A0502790
2941EDA9
E60960D4
CC4B89DB
C028D64E
82A032DF
730A0000
E16003AB
AAE56042
5C0077EF
88E2CFFD
03A48057
E88C2F58
3C846F83
B800A504
27FAD075
06046960
814C4E08
2301BC05
D5DFA3F0
393FFC46
CFF7FEE9
EFFF7C5F
6EF271E7
FBF4F16B
D1ECC90D
69BD088F
C02802B8
F4823FEF
4023D0F5
FEAF733B
8AF80000
57C6FF4E
C9E7BB03
FF3D57C0
705B9A19
241A05FE
02A011EC
27220760
B087F600
843BF003
1EF70916
41B2A392
137A7CCD
7C274536
E6CA9BFD
C1608218
1F20D6C3
6147D836
02FF8572
024DD6AC
B930C440
54BBDC02
B77E8169
9AE04748
AEDE9A5B
BFED0000
10E1C8B3
1000D556
21C35041
205A0D39
0F5FFDCA
6C6F1A61
C8B62781
5232F492
C715C0E5
90F909BC
85C46A38
1E3C0F8D
C963A0DE
5BCE4788
D7C1FF02
AC1F27F8
C3E20446
23777506
987E61CC
F8805FC7
0C13C00E
DAEEC020
48F68A35
7AF62CE0
5EEE0000
105AB87C
5193DE02
1DFFE779
6C7ECE96
90F875D8
0A450EA2
E4205828
B6E35281
93335429
C70E391E
A7A06293
7F0076FE
70006BC1
4685BE1A
A05AA2CE
D000BCE6
03D6D3A8
293EF9C7
E3947B5D
EF7D1A08
7B43AE82
993A70AB
D76CF14E
EFFD0C65
6B9A0000
56924195
E14FCB7C
B03EC9C1
80F28606
2944E7FD
A63FD6D7
12FFFF63
E4FFFF0F
049DB3D1
00E60710
0ED82260
69E85808
6562A8E2
EC19057F
D350EF9E
2830B660
D2BF1095
95DE6630
8C624364
05C5BCA2
0C196145
04B8800F
9E322749
DBFBC219
FF000000
FDD3A11D
68431D10
FB9B2260
99DFEBA8
8A4C6E65
8CAB0603
8B103CA6
B80C156B
83304A58
1C603A14
958160FC
C214037A
9F44FDA7
FE9F9FB7
E8D3FFF6
FBFCDFD1
C7DFE9CD
71F7FC70
149768C2
39D87818
ABA80150
5AF80F52
FBC55F0F
DE0B2B81
7E1E0000
FD754215
D1D2FF5F
CFCE8E93
7F9EEED2
703F8C9C
2130F2CA
4D1FD487
D21284FE
F8FA1321
CA2A883A
02E0EE48
3690380E
C94EC1BE
1E86D748
08FEECDC
4F0FCD27
7AA06D44
E6089517
D07AB075
0CA00A13
9C218872
F75CDF62
E7839C14
F2F7609B
A55B0000
A855A939
0EDA2EA7
8517FD60
7E989F17
8AD27D5E
D5FB7F61
F0ABB007
257A03E8
9F148E07
BB3951CC
FF06BA3F
841F5389
13838F33
55946D32
D9087E0F
4107C1FE
017689EC
D3ABEFE6
1988F986
E9FEA12F
DA41CD6E
3571782D
FFD4D00F
FDABDC35
19F70000
D2C61A53
213D97CD
BAFF011E
0BB23E86
DB249A57
8AD1AA1B
37F423B2
9D7C7D7F
983CADEC
1ABC0E1C
7BE60DF7
B9BD05EC
2D611F0B
348BC249
7DF8C5D7
DF83B772
F023FAFF
10F78940
884C7B02
2A213F05
50E36026
E258CC8E
1385C6A0
087D25BF
ED9F0000
77D3E7F0
11D5C63A
56B2653C
B37566FF
9A797C60
042260CB
E6F806BD
E6FFBFB5
17E4BE54
6C2E6BD5
7542640F
F46541FC
001029B2
4C003FF0
AC007317
2085F73F
0A0E9FCE
B01CF7F0
AF0A77B1
62589692
5BD927C0
548D4556
F6DFF1A1
BAF35C1E
AAC50000
AD41CCBA
647C5D68
CD8CDD48
A42A2838
41F1D712
F277FEF1
FC9FF96C
DBFFFF68
27F67F79
E2EF3BE1
E40AB812
32A102CF
83617A26
E30D50FF
AFCAFEF1
E6207176
EC158A70
64BF27B4
3522A425
1F0B10F6
6AD11C24
BF5FB63F
3BFF38E3
FEDFE9F0
6D060000
60766F23
97DF5D35
787FBF54
4DFB4912
7EB8C2D6
8FBE951C
4EE79565
572FC1A2
CDE0EFFD
5E7585F0
FDBFE9CE
E2EB606A
0CA6E301
80561FB1
63D17A0F
570AA8AB
E0670EEE
40602DC1
271867A0
B37B7D84
BA1BA266
A6EB0084
23FFBE90
3CBF05B8
5EC40000
23DC3522
32A783E8
19F8627A
0764A7A0
1A315608
D52BEE0A
C722A733
CA765659
EC5EC12D
A1D9C790
5BFE537F
ED787BF5
E3D9FA3E
5E619A52
B20D0A43
80008FB1
1C082780
7186DA04
12BEEA02
AE7D781D
27BD21A3
1FF29E97
FD66E54B
1ABC0730
9EB90000
F9601F8C
CFC487D2
10DE6440
25162F8C
6FFA79F3
08677686
090D4551
81E9F259
696B002D
07F97671
E4F0F706
FF9E1FFB
C308EFE6
3805ED71
901F8113
0068A060
02005C00
23455990
E00378BA
1996C000
7BFD4690
DBAB9C34
780384BE
EF652D95
5BFC0000
417870A0
1F2A8E7B
4E0DA30D
B130CF35
FA44B32E
B36CCAFA
50A50B2E
BA49FADB
000F01E0
60EE7724
C7814E88
572ECF84
C057D84C
417FA7CE
84F96CB7
2FBF1F1F
F0E5F8EA
DEA1E4AD
FE3F2FA7
70E70106
0983C4DA
9040459B
2091E366
0B02DEE3
858C0000
9EFA5E91
2A615724
708E30E9
002083EC
02293780
1B50F611
6B687C64
BB0F0315
C2FCB694
AA8C2BEF
31503580
DCE6C08B
350183B6
FF806F80
E5BFDEF9
15F3E53B
05B9D5D8
2AD75881
8FA380E0
FC714409
0901C872
C00A87C4
53F9E0CF
FEB7C7BF
9F6F0000
38FB73EB
7C7DEFB1
D7FDFA79
A2607432
813B707E
39B024FD
073FFF56
7FFDFF43
400264F0
00D86200
151F3001
013200F1
61C0EFC9
0351C22E
2DFEA391
FDA44AFF
4BF9D957
5739F957
0C9A49EF
809D964B
0DD46870
BF1E04DB
6C8A9719
DFC081FF
7EE80000
EE001F29
EB280262
1E6CC347
FF22C552
5C597EFF
C19BF710
BEB0007A
B2001BF0
61EFF6B9
076E8FBD
FF957C1F
A02F0C8B
28EE384B
D2FCB6B9
BA777E85
A0FCF8DE
9D0515E0
29439199
803CCB67
099DECA3
1DE5ED49
17978575
6E687DA0
A840AB21
F2FA0000
A2073BD0
ADE5846A
A4B5751C
0548AC42
7625264A
76E8847F
FFD13C28
DAC1FCE7
DC4C3DBA
623DFFF1
604FA58D
01E0B5C0
1CDD1E61
B26DCA9C
90814383
E2873EAB
85835714
582E6DA4
654BFDE0
63E1C4AF
6B2FF583
D834081E
BE3DEA78
18BCB1BD
034A0000
B236784A
2F484F8A
80625BA2
07471137
D28B0AE8
ACA06E26
A3AB6A56
30F15166
174BCE4B
B220FCBF
B93F4138
F7E04686
F3DA368A
9FA1CF4F
D82B29E4
0C4DD4D0
7E27BF9F
55178AE4
D8BFEDA4
BB1BA47C
43EEEDC5
7037E3FA
0714AA58
002E0574
DFE00000
72E8AFCC
404842D4
06640D51
A4180385
6A9D4AF7
1320769A
0B874BA1
83D39C2D
367991CE
856D19D5
62B01482
57446380
5E3DC05D
69DF85BF
DDB2F4F3
7F9D6639
B270F78F
77F7CFB8
FE21B18B
7F97903A
D175D46B
085800D4
2000624E
8828D243
47D30000
81D8A15B
6381F580
000308C0
3E865D41
07382FB2
C537907A
0B0D24ED
BF63E566
1F04DB6D
E1F0F33F
064AF130
278EEB03
F6EC387C
05878C3B
88F0052E
DF181289
E3B6036C
5E92C27C
4434EB8E
A2412622
F0CFFCBB
507421BB
808CA56D
00211608
38090000
71659D36
20433152
478D0CEA
56384FE7
324CD688
3CED818B
0F34289B
B415009B
01F598B0
1F080747
82C2C6BE
1E9ADF86
1955D198
33F84DF6
7DB5DE7F
7C39B6A4
15C8445A
26865A10
F0B78898
F020395A
93A50E40
16F4BCA6
6C164177
58170FC1
44DA0000
FA46B854
39BFA4BA
F3BB62A6
4752990C
9BAA216D
74E079FF
E5026FFC
E8255EDA
23F02568
31002452
40010988
0018B8BF
822FCBE0
901EC40F
6BFE14FC
EF1CAC4E
9F48D397
5FAEC0E5
DFF6B49F
FE1872FF
BC5215FD
CC2907C0
15F8A887
A7C5033F
F47B0000
95360FA1
8F48C077
8047435F
41A96232
5DB69812
3E0F3E05
857EE0FA
2C6F2BBC
65A79EB9
5D83B322
CCFB807D
FDC50F2F
4CA2F27E
847B0770
55E01199
DF41996B
5A36857F
B2C1A1BF
250C41FE
07C3B982
24D3E083
685F06B2
A88B8600
01E27569
CC080000
7111F8B6
A7FBE7F8
E9FF618C
0DDA5480
DB29082D
FD682F89
3987F0C5
53042091
3FB48502
6F80E6E9
E684FDDA
A02BDD6F
00D0EB3C
1B478043
CEA82407
6D42919A
0C0820B0
09062EF8
23EF8EC1
CF59827A
281A17F7
1FC01B54
DC0A5F7F
FFCF4B5B
3C6B0000
6A72D4AA
3B86CCD2
20FF4D8C
38DC2EAF
396958A9
9C2DD029
7C04C3ED
25F83236
BD07C2B9
82FE1734
3CC1A59F
AF9A73D7
8A742F49
0F187F31
24EFCB0F
0BF34360
07400604
30819C07
F073BD7C
01EF4FC0
2FF9B011
9E1F0B1A
4EE15235
85A01A00
46F90000
F30C7619
67FB7A0E
C0124CFF
30D765FD
F87D197D
2060DFA9
8049967A
94B23BF5
4C03FE4B
4282D01F
F61BA03F
913D65A5
33880FA7
98815AFD
EA02F87D
302F945B
80F4B36D
9F208F7C
C1DF7A20
8300B9C0
50C6FA11
4F9F6FC9
9B8BE138
B1BC15E4
14FA0000
A6D2D5C6
3EEFAA2F
DE3F6B65
875F01C4
07AC2901
EBC603FF
FA22BFEF
E01AFEE7
01D94E24
BA009E46
E847EC54
532D6451
609F0F00
39E32E43
71AC4347
1D38A533
E7AFF156
4FB21E51
7D8FDAC4
3C4F6581
B1B49B3F
9079DC53
297FD778
9FFED49D
FE860000
9E0B3509
7AB5308D
2FF7CA6F
72C1F9DF
6BF207C8
0F31FCC0
CB2D98C0
F64944F8
BE009C29
72F26CFF
1CFF9BF0
A6147E25
BCA4F6D3
581F93A5
E039830C
21C45D5B
3CD0B20B
CF31A0C4
8FCAB6B6
CB4413E2
F9A8BA3C
36F1AA70
A5AD6B86
72F6AB75
48CC0000
7753BA77
D28FCDBB
417C7686
44537432
5FFFC904
EDECA27F
8C18F9F0
BB3DB024
4734A6A4
8801EB1F
045FD079
1F3F5213
E9E826B5
154238A2
35958938
1BBC2002
37041B1F
36C4E011
CA5A5465
07819487
60D1C801
057F89B6
FB3CBF0F
47FAF6F7
9D3F0000
B4713B03
8B9E5D60
F74FC533
77185C21
9CB80284
FF651CE7
F601607E
D7B3ECDB
E889C1E0
00023E00
F180303C
4031C7E4
1C51F8B7
E63FC74D
D7F1F6B5
3E967745
00B2A586
DE49BDF7
1E015DC0
B0E6FE8A
F55B2079
F92100AF
8A0EBF70
7D02B242
FDED0000
93F1B404
CE6486C5
E29D8E9D
31030BF7
E10B9CEB
13BED258
05E0B8D9
FA06D303
03B08330
5C14130F
818162E9
765836FF
82C3D1A5
C9897DB2
6755E3F7
DFB47CBF
5C8EF1EF
B0E7D212
A42AA030
1270512B
382808E3
FA0ADE14
77BD89C9
BB284FD1
15380000
D1BA066B
95CCD4DD
F8A68C5D
7EC1113F
5DD1A2F5
430F8010
C6AA0027
8438411D
8220FDF0
C8BEDC3A
19BB3100
82823FAE
26C3FC08
D897E2BF
9C7B67F2
1F1DB241
ED4AF33A
1A77951F
B2024FA6
02082E53
F100B044
088021C4
B10194E0
1C0698EC
1F820000
490B4BEC
29008B3D
1CDC7321
7C82407F
F46D9EC6
10444D7C
B7D00F20
7A01FB67
280729E9
F43F537F
863EB3FC
6062FF02
01BF4011
B3B20C08
8D817E22
A03FDF4A
0076FAF4
CFAFE303
D83729CA
6B4EFD54
FB4AC29D
3BDD1676
D827EC31
40634DA1
E4280000
A39037A2
F00F82FE
487FBFAE
914C1CE0
B4EADBFE
D58CC9B4
F3FA4FFC
BFFF7FB1
BFFE566C
3F000C75
DD8A55C8
B85EE015
01E80075
7B10228E
784947FC
27A12659
D6E47697
AB9FB5A7
11D96C96
55A6EA03
D8F38D0C
1AABBCA6
31FE6120
A772FB2A
AEE50000
7D5DADF6
C9608554
701AF680
682A7A7B
83EF03C7
CB53F60D
533BCA44
FAF1987D
E63F9A7F
87D99DBE
54E19706
6F92DC18
DBD3D82A
0D9FCF42
7D347A7C
FF27F40B
60FC3BE6
57165F0C
4233E182
73553CC0
CD30924B
47C83FC6
BC04E1DF
8AA7ABE9
416D0000
DDA7C991
3FFFB9A3
F5BE98F4
D55FFA87
F491428D
1C3011FB
DC462BAB
9407F223
54B73C7A
1A88B483
3254E367
5E1B30F8
0559CCE4
801D541E
B0F7DB52
01AE50A0
05781FC0
0E86C802
D06CFD76
3123E9CE
23E7D883
3FEE198E
1781EE51
66DF0DFE
95DF0000
64D3222C
D0062A81
C4D90F84
1460A7BA
994B5D0B
F9D7703C
867607E1
6AD87A2B
F883C8E6
9AB04F3F
8F0074BC
E12F814D
426D04BB
83825CB7
886D4709
A11E839A
E3D81C0B
1D6EB8E3
C839B6BB
52C6C3D8
5A4C1DF7
C3A57BA3
E3032257
B20B40D6
07FC0000
5797B25C
5FDDBB37
FBF9AD6F
DFF2DC02
724EAF42
015BC104
26AFE003
FFFE0033
86BD2239
9AF8E720
0862DE84
AF7917F5
7970700E
94121FED
52945FCA
7003DB47
8877E06B
F74D4983
C0D64FBE
37FE7100
87F8F062
C59010EA
FEFDF9A1
DFFF07D0
FFA10000
A3D71C67
76F6D367
7BFE0BB0
3FBA1014
57D8833A
FEAE12FB
F8857FFF
D5063FED
0D000DE1
58001E4A
C0020A23
C03CCB7E
80C0747A
947182E2
D98E9C98
9C4EA20B
F188374F
8FD6B826
A5ACC5FD
AFC4EF2B
32EDA8DC
C3FB7208
36DFC165
BF4E7F7E
3C780000
CD40DCB1
8019D779
3B95E090
14A1E7A6
293598C9
47C9468B
12473C6B
296B4453
581C23AE
E7942E01
1D71D016
9FC184FA
CAE01D97
F853F675
E27F1247
AFD15C30
7B7EF4D7
EDF2B3C9
31B0D0D9
7D4725E8
41F5CEC1
6AD10093
00001F7D
E010AD74
FF150000
0C3B13B5
E0200179
9011B0E9
30AC383E
1AC784AE
B4C5A76A
F094B8DF
BE0AD8CD
70A2DA89
8C92E57C
63638E94
4C1D7C3F
1365F0E4
75BFA483
79A272BC
EED3C68F
C5AE21E8
4A9A3E07
AE8AB29B
FF46D5FF
38412BF5
00031649
3B0C741B
0501A10E
72CE0000
2A65918B
3FD68713
BC3FCBBF
FFA24AEA
608CF41F
BFFA4609
DF77941E
1F70F679
713DA45C
E72B4CEE
67EDC9CB
9B22D8ED
1962DB1F
96E88CB9
0D0CB365
BC5C601E
BB74497F
F80442E6
805835DA
0190C9C0
0B9B1202
FC2C8971
FF7BA2BF
F35E133B
2B5B0000
B46F0917
CD342BC0
E3D0256F
D94CF5FD
ACFFF7A7
E09313E9
74A0B406
406C27F0
4385AF00
D6E8E819
BF04B037
E41800FD
609B05DF
F7E442CD
3F00D2DA
F8174F37
E3E96AFF
59C834FE
4976017D
4D9400D9
11D55A22
E8384DDF
B826892D
C2857129
77F70000
14DB0421
66086C38
3431EE88
2F458809
7F89C1D5
6F26AA3E
3271CE07
6F7849BB
53274FE3
10BA5273
87327FF2
FC6F5C0E
C6FF70F9
D5EE0670
B881D4B6
F41E33CD
106858D0
3507F002
604A10C5
04003872
911711F7
D6BCDCAC
8D7C74D5
16B70B08
92990000
444BC8A0
42B2438E
010ED7C0
0C84621B
DBCC868C
B4C18558
FC2F1DF4
6791A18D
BB90C9D7
C1A34E6F
A8305691
A71EF61C
323FB0EF
87A50961
97B9FE2B
DA1E011F
C3CB314D
33823F43
F48E683A
BD0E87DF
D488FE0C
6407E820
0017C837
EF9FAD4B
A7790000
B3024468
E9C798DC
6FDF9526
7FD864BD
CFDDA17F
FFA896FA
709BABFA
9017DFDA
4F0001EB
D4006E47
D002F8DB
E03977CF
D18513E3
CC7CFF0D
C0DD48E2
DFDEEA18
447FF94C
87FE982A
EBF19DE7
EA79ECDE
ABFC18BF
7ADE13E3
FFFFBC8B
F9F96A9E
BC760000
282E323B
5957F679
73762974
E7ED0AF2
9303C0FD
86980F64
7BE7A206
E9F8007C
7E48030F
C4101F65
FEB9FF37
ED3410FE
FC92201D
AC0F15F7
992BFC87
28376E6B
2D5FD78D
64B621BC
05CF5742
0C6DE580
E57F800C
350978D5
EB3E79D9
FF7FD4F2
D76C0000
A3A78E86
97C7AA1B
70CF7EAE
13BAF740
EF384463
406C05FE
28F49FF1
D2877A56
B471D086
D99D1F1F
20AA4F3E
8E41D365
F1EAFDC6
590BE916
21D8050D
2EE9E101
59A2000F
8664C01D
0C2215A3
3B203FA6
12116223
C5FF0AA6
D4E40263
A73DB615
BF6C0000
B28A8E89
F303F4CA
0BBE4D27
AF019DA1
35D41A8F
1E776919
7B890AF5
EEE1B5E0
FB04CE2D
E01C82BE
B1065FF0
076B9F91
360FF76F
1EA10610
FAE60A1F
AA34CD28
9D406700
AA06F632
97354352
17415FE8
FE04A49D
DD167F07
A3F3E576
2433E6E3
0E290000
2AC396C5
6DB1E882
DF3BEFF3
507D6D62
1BA7D541
3C227B51
F1F30602
C7B73E76
FA1C7CC8
69E88C7E
41F9B63A
678E639C
692F1FF0
4455E242
8E1C9812
B167C239
009C71DC
D340E1C3
7C041668
42368373
F89102A0
0DFF7294
DEFB8375
7AE127D1
A1CF0000
01E911DA
CFE6F7B5
9E6C2615
3120EF1F
880B16F8
0B84173B
0AA1A0F2
149632E9
A4E1F24C
F8477E40
01A98758
718E7E79
FAE3F1F4
0F4FFE74
C37F5146
1E8C7900
7F075A00
E4793203
EF093474
70E689E7
7E6B3685
010BE199
2F86859F
7A885450
36090000
46221B45
4F7DBE57
DFFF80D7
DEFF0B5D
713268F0
03403D4E
4006061A
3822808F
A03130E8
D6B93EBD
F7D274D3
9033BC44
E92AA818
42E04BDA
CF80964C
C8070E77
4EA0D6B8
7A8DD22A
70CE2C69
0E753C60
5080D02F
0E7C18CF
1DC78A80
FFFFB93F
867B0000
C2D2F1AC
41F7E1F6
35F34ABF
B96D9EDF
000320E8
03BAB600
17849847
9DC3821F
BF7822DF
BF07220A
3AD15D67
2E9B865B
B2218E2F
9E74DDF1
B7767FB8
5CE8E8CC
1DD316C2
BE36B19E
D8BA15E6
265E4E2A
7665E9C6
8F5830B5
799E40D3
A355AB37
322B0000
B1D17750
43C17144
E95A8805
93FB9B54
1DF48FC4
FD49F83A
FE0F0B0E
AEF080B2
2E097F48
F039D33F
2448C1F8
4D164BA1
AA491DBB
583CCF53
E8B8465E
9BB9DCF7
B6428F9D
A1A865CE
D54F15F6
BCFA368A
E532EF0D
4D93B305
813564B8
C8288D4C
09F30000
B4BBEE40
9DCFBA91
FF9836BD
1E113BE2
085497E8
08BABD20
0A7F704B
B3FE880E
4BC793C6
C1CDF4D0
0D7D1400
E8E710DA
7E607721
AF6705DF
D34607F7
7196AE12
B8D1D587
F64D753C
81FA57FC
9C444FF4
58FF10B9
380E84C5
DE9A0548
ECA7D6EB
CE450000
83B5503A
24220F92
08185EC0
0606C4FD
00D57BE3
ABBFF823
F360C10F
9A4E07E5
6FE16779
7E0E7B42
E1C6CA9E
025CEE92
CA99224D
6DFCEBEF
3F29F1EC
B82B57DC
43A6BA00
0EDE6001
301300B7
038A70C2
D5AB7C2D
D5D7460C
FFFD6A43
7337FC0C
4D690000
D9250AEE
BFFF610A
EAE9EE95
35F96EBE
7829926F
F1924574
93C13F61
4BFF7F1D
FFEB3B6F
F28F8BBD
00992640
88AE0005
12600804
6247A25E
7075B0F8
4F08750D
E231EB25
01D389ED
030BB7BA
13DEC5AA
DEB79F2D
864278C0
3DC9F902
57F22144
DF560000
E56F3824
C123B954
17DDAB65
FF8422B9
76178225
798352EF
70BF68B4
C738F110
781D32C6
F1DA362C
16C01601
BF10A805
DA5A001A
36D81129
74842AA7
EE03E65B
FC12F63F
EF330DFC
FD59FDF5
F4FF61DF
DF09D8BE
0102E986
2485BD3C
1D0460CB
01760000
1415E486
CAE14910
ADE5E3C4
01803001
CA5EE4D1
1A45D224
2B1A7A2B
FBCA205F
D8BE03E4
CB806E3B
EDE109CF
7E18B379
D58177E2
273976F1
AFF71ECE
887982DA
26843600
B0427A1B
008622F8
84E47444
A20F5A7B
50FD038F
5B480B9D
A7959CC3
72B20000
64F016DE
0DA9D5B0
0B488042
E033665E
0134D690
0CC95760
25B8B406
6DE7E099
947C0235
2FC01327
FB40F8E3
F42EBB6E
1BDC95A4
F74658FF
F93915A2
11F127E8
3E6DB842
65F3C918
0A67921C
1C944A2C
0A001EBA
FEE10607
4E096041
B6D352EF
DA6E0000
9BF9A63C
EF098935
95902B34
4461E053
6C1A03DB
776659E2
09865678
50A64196
822E9B82
F859FD7E
01384B84
3EA506E5
F53A78F7
2AE35583
47FA6314
3D980FA7
F19DB8FE
7F2623E0
269B7E23
76BFF896
B486E9F4
41DE9F7A
2EE9865F
48498AA3
8EC40000
3B129F70
9BCF6E0C
705FD6FF
C41EA2FA
72A36B0F
C18B85BA
1DEB41EE
EC3E3E98
BE4CF837
1183FCE8
316D706C
07D1EC82
FC9B71EE
8C1CBDCE
65CF7E2A
1CC9E6F3
9FBEEDAC
1B1F3DEE
B4F4DC02
EAF0D890
EB3D2C7B
54B20B6D
2B41EA01
AE75E130
FE470000
B4421637
799813F8
21FFF706
4BB42026
FE45B20B
F5103AF1
B5BB21E1
2BBEBB69
FB87B79E
900C1E00
2FAAF80E
E8B301D0
2D40FE49
F703F911
FBEE377B
FEE0A8FB
17EA4FFC
264BF191
FEC73823
6FAF8A70
0BE99A11
3B02C59E
6C799560
0802FB9F
5EF80000
257E7BB3
1F6DAA93
5FD7AAB6
C023F2D5
C27427FA
091B3F40
42E4AE01
FDF7F073
A00F0772
03F06100
163DB011
A3F999EE
50B0FB4F
721E5924
4AE7262F
74E12B5E
558BD510
917312ED
02CF08F4
7DDF1D6F
C515E22A
C61E1751
6C2787C5
3E944BB2
F46B0000
F1D8B18F
5DDBE684
FB7A91F5
FFA98CFC
4C2B0E80
152B3681
3A037005
403F6001
8E810C3A
D2A68879
4196EF94
69929897
7B962383
CC397AEE
100F8AD3
F2E39473
1F7338A1
CDBCE1CD
E73498F6
6E3F860B
6E8D28F2
E000BD81
006F2EB8
3CFED1F5
37A50000
8932217F
3B60720E
A5FFDEF0
30D12C09
7BFAED68
1D7BFB18
9581DFDB
051F9E82
9EC57F04
C21F0F6C
3279B5D1
4FF6E72F
A86B7AD2
B268B8E1
7BAD4109
B1A9B920
E7410050
8C3B698D
41295858
6A4C2C80
B49B2808
77BB8259
DF5D2C75
EFFE9A12
DDA90000
9990D1D0
1816A302
194F63F7
19B9DEC1
49E7EE39
F69F6307
A246787F
AFCD04DB
963192B4
061E0610
F3E48157
1E9E02F6
8CA619C0
1F99E9F5
987427CB
FBC5C2FC
BC70015E
8266AC5E
D8D92900
C95FB655
DD55F880
F03B1A51
1250E0C1
0000E735
7C720000
2C9C7784
FE1213BB
F3BF5A00
0330D809
9BFA48F9
B60017C5
9C01FF4E
C1D871A5
CC95F6BA
A2FB357E
2D64FC0E
280B3C33
F9E88C43
E8D8B4C3
7AA1D641
2FAE856A
796E3840
8C65F51B
B2338014
788D193B
0F78604A
1FB7BF22
FF4350FD
FDF41C56
17F30000
EA3A98A3
C580C8E8
722064AF
CBAEF09B
23F7A7E4
0D3D5083
C4798B7A
43F0D340
8F0CC7B6
F8E89078
8CA73751
3590BE0C
E80FE0EF
43BDAE6E
97E18FA0
503CA97F
E12C69F8
7AD9BE45
F60FFC38
0A899E85
2E1A0905
36F05067
A8304BBE
CA21A243
46AC0000
4E3F49D4
B2F6155A
F7FEC788
7B4E122F
7F96407A
D4FFF564
E017FD9D
E07FF7AA
F5E588AF
FE00EDF6
02037910
00880400
0460A528
F8483E5B
45C38DF1
607F7F43
43DF4098
39BE6DCF
FFAAE7BB
F68B78C1
E174BB80
367BF6AC
9D109ADB
D79203DF
64120000
EEF65C1D
02ADE240
5BA594EB
AF869E41
68697D1F
317EFE6E
0FFFC4C4
FDFF3F13
D2E3C011
05F75F00
4B1FB013
80A403C2
6E807217
E47F47FB
BFEFC7A3
EDCDF8BF
C1C69CE8
4666FD9E
0D1AAE1A
1BB34573
00E2E400
1FC48630
BFF1C9F0
9DC3BF8C
DE940000
D87F22A8
FD1D5FB9
F795E6FF
4F9A2064
B82BA0AE
A7FF0814
BDF74E8A
F7E94674
B001ACE0
02327EC0
60D8B03E
814FAFC8
9FF1FDA7
E57E5FED
5B417C75
A107F6A6
82C6629C
A975654B
6AA13722
0289F800
0569C018
40D3810B
633A29D0
44DC568D
E4F50000
634A12B5
3E87AA87
BFBD1EFC
97CC0C41
F2E5A5E4
2C303BFE
CF613645
2D1E906B
34800D62
400D62B3
FE230FF7
FD6767EF
F83CC5D6
100A46EE
B0047DC2
07304DB4
0B3D8BD8
1408D9F5
19CCA281
E0305A33
D4CC04FC
B7E05FED
DF5BF23D
EFFF1BFB
62040000
2188BA17
0F351058
0E3BAB00
746D39D3
A3E333BE
0EE67C17
4A6DE8D7
349C3FCA
5F839FA1
F87EC95F
86A855F0
6896FA2E
11AFD00B
C9AE079A
C2882A90
090E980B
843D1F39
4344353C
041D073F
3BB47D3A
520E1442
CCF8462A
A7202FE0
0F9194E6
A6AA0000
49FB9C5E
E699BDDD
CE3DD16E
10FDB62C
AEFA9BA7
6C46B095
E3D4CFFA
ADF38957
FFC6BF8F
7FEEF06F
00E05E00
00060412
27000180
6400C107
101ACE72
43E80C50
AFD8BFAF
AD8F1BFB
7C53A1F6
DA0F593E
B0EF49B9
DA0E7AD1
B9BC2892
57EC3C42
CFA70000
41B6E109
5FEF10C3
7FEDECFF
FE063FF7
F875B47F
F4EA07C3
E781F4CF
623C3446
8707C61A
E2F62CB4
5EA580CE
997544F0
1D40F725
1BE4C827
AF4E6489
DB3C578F
A9E45CE8
3FC91FA9
686521A0
72AFB909
515C9A72
B6FDCFF6
447F7BC6
DF8E89A5
2E8F0000
9FAC301B
FF75C553
62FF9019
37C71D25
E42ECC3D
2C1F99D4
1BB4EE07
338FD658
1CF1EBF9
92287EB3
6BD1B9B9
AF191BD9
F0A8663C
7EA6BE88
E01A8C00
07A31082
4F902621
3111A01B
203420B0
C1EB9641
1140F016
5F0B01AC
DBD25B2D
CBFCCD1F
F7800000
822AE9D8
8ECED89F
3F8263F9
4A8AC7AC
148BFDD0
06F6D740
1EC61541
2FFA860F
CAC499EE
8140D47A
8CA075C1
663ECA1B
FF44B1FC
DF027DEE
0C839DF2
C8775F12
0FFAFCE0
FD008899
40408961
12104750
9CF3C3C7
C1C2B5A9
ACACD488
73348FA4
DECE0000
9E474DBE
0789CBCA
FEACA077
A607ACEF
FA1CCDF6
B6F6EF9F
5F200FE3
4104EA1D
C8021F30
A02F1E44
01C652D0
06D736A0
B906A406
1E343BC8
D104B867
090E45DC
E99078F8
CAB5A6FF
00437BFE
2511FFFB
E53EFFFE
A69FFEB0
30A5F12A
7FBC64BF
FF8C0000
9F74FEAB
B7AEFB6E
E2FE0687
92629F4A
9E27FA22
02B944D6
570C1C0C
AAC2D432
2B7308D8
10FC1727
9AA3DFAB
FD0980FD
B77CCBB1
06875124
D0CF87D8
1F828600
6168DC16
1822C3E9
3EE22A3A
EFF67C70
3ECF21E3
E2CD37D4
A139D417
603DE27F
F79A0000
E2E2EAD8
490D809E
303026D9
02035800
0E5F8402
0872C446
CB6EEA45
A0DF475C
33F73163
752AF73E
9DE0E3C7
C226691F
ED5C3DDF
FBD257EB
2A81F66F
C043D727
00DEAA98
08CF5000
03ED4B28
1A18C525
A5F9441A
1F863FB6
D3DB67DF
95BC5415
AB720000
FAF07CF6
DAAFE46E
47694B2E
FE05E379
C864FBD0
11C610BA
2F488EF1
5887FA6F
00BFDF30
137FFC12
01DBC000
08580EA1
0181DE00
B17F5B11
067C0276
0B508372
16BBEFEC
6CF6B9D1
A6B7C2FF
7C9CA2F8
A1A4ED6B
E0DF56F0
30C77A20
FFDDCC97
BCD20000
60CDF038
7CE1C56F
7BAF969F
C6F89FB1
CB23FA5F
C394C246
0C89CC0B
CB04103B
DA00B5AA
34D61BE7
EB6BFFBD
6FF39CF3
BE6E1F50
5D2B70EF
76C790D7
19DFAE29
04D5ABFC
5A390B04
F817C5FC
52E625D8
277443E5
01116052
6E0C2AA7
FC53FD85
E77A0000
0F90C70E
21E9F437
5405B15B
08F4F28C
026DF1C0
1ED9E601
1E6FF802
997FC017
FFFC43DD
E3C86F70
7219D217
0110A146
6BB0C575
EC36644D
B25ABCFD
23E2D68C
CCFFE712
6ED3603F
2EE7A3BA
B6FD5334
3120906B
36000BD8
503C45D3
AFEEC93B
5BA20000
67256DA0
E35CAB54
FFFF8DB6
D2F2AB23
583625E7
64814585
5232C7C0
602649B2
23E02670
CF6A1650
E8CE386B
6F18656A
E8BF836D
6D6CF80E
9C3F207C
87E05F56
7240F537
8FAE3478
5D961B87
F896D429
BFA595B2
B0B384EE
0708A35D
B873A25C
7CA80000
664AF892
59DB7835
FAE2DC67
BDFD76BE
B3049FC3
00ECD9C0
3C9FFD40
05E61AAB
BBC35783
2FDBD0FA
FFDBD685
EBBD7C7C
B459A2CF
8DF800F0
7DC46B06
6843D872
F03CEF7A
475FA8A8
5AC8C3A7
86D88AE8
2B33B4D8
E76178EA
770DD043
0A7E1492
20F70000
35747645
557E4E39
EFBFC3DF
EF5A2F7E
981D17FC
243817EE
7DD21F4D
BB80164D
000FE542
0078BD10
11E4E05E
1A018EF2
3097FC1A
17E55AB9
F759D229
E492B655
43C2760C
6A9315BF
C1A70590
16326563
5B7EA9F3
BF41174C
BF66E00F
BF3F2FB7
DEE80000
846DE390
2E83B855
77C739DC
2DF00EE6
29D6F008
5F568044
4731262F
9EF94256
24100150
47402839
9A03C18E
B858534F
F765BFF7
7633F909
6379FE7D
2B7F7777
8A6EB7C0
6AAB3A03
F0A10442
08DC0804
2DDB00D6
887A6E62
55DC122F
ECA15E13
5BA20000
FEDD7543
5B88F7C8
B117DC34
14397BC1
9629AA76
FE8C0E03
AEA8E258
FE0FB80B
F0A08144
0F509A80
6A81CAB4
479C18C0
EFD16C1E
C933EEFD
7FF1AD76
FF1C1CB8
73C5462F
32875DF1
2DAB6AD2
31DAF772
524F9744
E8791843
28001220
0011A945
5CC70000
DE6D4602
30C47209
18BF878F
217C22D0
7D4A7E07
A0B5F07D
F87E0F35
9641EC56
BE1C2AE2
F0E0C6BE
084ED5A1
F4B43A14
746EC22C
AB52203A
63539CCC
7C58EC93
412D1BC2
3EA87367
DC9D88F3
A3CDE0A2
36E6FFA7
DFA0D245
D4C501CB
B021FAAF
16100000
481F5564
6C9562AF
FB83171F
BEFD88F4
5871F1E0
86D997A1
B58BFC03
8183E805
97058362
807751EF
82C1D816
55B1E037
786D2D1B
D8D3A8B9
8CB8C7C5
4B186C12
788D4C63
8DD5C00E
E0C3C078
E5CC2712
041D829B
193A0BE7
57AB43AD
6FF46B9F
71850000
2F5D704C
0B9B889F
EB3F53DC
BFFFD813
FE3C774B
F7B096FF
EB0FBFC9
293F807C
8600079F
74006AE3
B4039FB1
EA6B4B3E
503D11F9
32BB77BB
B071EE80
39538CCD
013D2F2D
A1603406
284C4AB6
7BA8E0F1
8D10197D
CDD7B5F3
FDDFFA58
FFFCEC9F
B46A0000
1189FB1C
8405AB17
907FF6B8
E004FCFA
00D6B0E3
D7F4C217
1D7AB886
1177CF55
7F91105E
3F08A248
60CEE140
4AEAA002
5F80820B
E45240AF
D440043B
8980FB08
007B78C0
54F78F09
EF7BFFF2
F672DE17
63FFF662
D9FB76DE
C7F97DB6
A008DCD0
D11C0000
F048006C
DFFA8729
579FE446
C77AEA4A
71E06EA4
0E052A85
AF4504EE
A91ADFF9
3DFFFED9
ECBFD00E
853B0070
00F425E0
04063980
5F3DC484
DFEC0001
6BAA0C88
AC710319
8C00C534
9DAA25E3
EAC33E8C
1970F585
2477B1C8
3307F938
1969ECD5
6BE50000
089F2ACF
3FA3E2EB
3EFFDC3F
70B88FE3
AAE3D916
11D21D21
B00A321A
4D418CDE
1C08B45A
220711CC
82FA67A0
7B00279F
FFEFDADD
C143F933
A2BF01C6
51A89DF1
9FACA094
5C3B5EF3
7A1D71FE
59416C42
8A8A6BA9
E2BFBF44
29FF01C7
9D2134D5
6D0A0000
12137293
CBD7F51C
52AC8264
1F1ACBE5
F8249A9A
D263385B
15386C55
EB7101FC
68501C07
C51D9D2D
01C00FE8
6C0FD77F
B9ED2CC5
3C3BFC55
22B3BE82
15E39220
53063247
3A9805B3
4D2D5233
50FD22B4
182BD99D
B5FE3A39
9BFF00A0
1F901177
3DC70000
4E3FB060
39DF480B
A7EB277F
FB4C1782
B53FA704
F1FE9400
A7684048
91801FEB
90096DFA
B7F7AE9F
FFF1FB4F
EBF5ED97
FC74EDBD
00D0A7A4
E416DE15
B1B2623B
FEC26B37
F749C7FF
C02A2A5E
1008DDA2
068B6028
CC008C69
30217750
D597D8FE
676F0000
C1C218C2
39CD9549
BF9CD861
FFDF07E9
8FB9BADE
33FC1FF9
79827F7D
98BB6BF9
240712B0
1272BB2C
01DBFA42
1EF60E5B
22C72F80
34707C83
70AF627D
BCE80DE7
FDDBE4CF
6D1F3C18
74E3F6F9
07954243
A0019970
50F6FF88
4EDFFEDE
7DF9F60B
FFF50000
6C87BBA7
AFF8A59E
972DE455
F99CF6FF
C5574FCE
13BF8FFC
3DD00F80
B001EC4C
64064752
542BFCDF
A39F4FF4
5421DE1C
8B788213
A0E03CFB
15202A29
C38E0FE9
1843028B
F1BD97E7
80D7ADBE
06896E56
6FAB6738
FE9D0EEA
BEDA8A11
FEFF4736
47040000
C11FD9B5
F7FAFA2F
DFE74BBE
79990EA8
C932FCC8
6057248A
29F614B3
F5EC005E
987ED209
C4CB781C
10F82902
9F9A601B
7D5C8FF7
C100E839
F01728F8
C1EB6968
1DF02C83
F94AAB1B
F06D196C
023F6680
CAF6B883
66329481
A140E890
6998F99E
FB3F0000
E83D8AEA
76F77767
5FDF7138
3FC85B65
3FD0513E
FCAEC4BF
F2F25311
DD0870C0
BA0206BA
1E801B0B
B0031AB9
000B4EDF
82DFF7FF
0A343CEB
305DB783
4A63FF70
00D7F1C1
1778F99A
1B665F9F
F52F0FDD
EDF7FAD9
13B3C590
91803BDD
2010B524
FAF10000
936150C0
02100F66
A0742C88
3CC05A3A
4FF80A2F
BE43C151
EECA106C
67C39559
5C09FFAD
C08A67BE
5006BBB8
BA0C0BD9
86AF7E60
04E8F803
57C50233
BB572B0F
9B3A1FC7
CC4EB10B
CD79349B
7C39BA5D
2B355BE7
C22870F1
08400360
40227A68
5C480000
0410739C
77690B62
919D74C0
0F614019
7BEB81CD
123C3F6D
944AF9ED
D10298A7
3C1A1ADB
D228C8FF
09FFEBE4
CF924BC2
69EFFFA4
133FF01B
E13F8118
00FF18A0
00E81A60
0F6D8042
7553C8CC
3F652863
D6BFB15C
BFB98B12
F9EFBCA3
FEE9FFD3
081A0000
B0EA16A4
BE68606D
A99EBC3C
196EDA83
D224183E
4A6107C0
0E123C9C
7A5F81AE
A05C481C
B6080584
288BE6C6
554E19C4
D7D7F016
B9DF8AC6
9753D872
BEE8D735
D83A61FC
D07EAFCA
599BEAB7
73175D76
059F4983
6962C355
104080E3
0C04D9E7
7DD70000
C0A81366
801B2E60
72E76081
3F3DB6A3
A02C50A7
02D34868
1B968703
5830F01F
5B9E140C
2BC37FF2
385D2DA1
959C46E5
7BF047BB
3B296C63
934727E6
21884CB6
5FDCFF54
718E3BAF
68F74A6F
F9B769FF
EB3E53F6
66AE2F59
E0200A56
0880B180
D4AC0000
397F0580
58DFE6D9
FFF704BA
7FFD60EB
63CA175F
7E806EF0
5ECF6F9F
226B2DE6
78405092
000016C6
0007062C
372D5025
B4C1A23D
30B0A2FC
5C0837DD
1002B2F4
007D6490
0C4E9037
C8EF8FF9
17BBFFEF
796BF7EC
DFCF6FE4
3DC1FEB4
F00726D9
FC5F0000
160C9525
BBF32A80
7FCCEE01
CFADC3CB
EA5321F9
A39C2FCA
47110F41
DC81FB31
A00EA5E0
00771E90
1BF11869
7C083B53
813FEBA9
55781C03
FDDE8062
A0FE2FBD
AE06E869
9B955523
455BDE55
7BF34B01
A3B7DDFB
10ADA7F1
36EADE5A
B4BF9443
38550000
CF4CAD4E
C02FBDA3
C9EA4706
EC00496F
75F8CBB8
EAF9938B
729F42A6
339C05EE
59C2445E
9C004E74
DDE66701
7BBE7D98
FA8FC2A2
249D0DE8
C6FFD1D2
2D98FBE1
EE778EDD
9069EAA9
C5D965D4
B289BD49
890FD13D
31FFE243
93DF9011
0EA06551
D10B0000
9278613D
53FB5DCA
D9C3A7A0
42115605
6FE20FB5
FEB0224A
FE07D114
307CB0EE
08E41CB9
CE096E38
EDEDBCC3
93F706C3
F6F2BC0A
D54696BC
55BC8061
5F022067
F2A218FE
12682DF2
0856BF69
D8673F18
62B7A915
22FF31E6
3D5C3FF1
27C33EB0
FB060000
D274EDBC
7C612B59
B8A39B7B
0007942E
64408BF1
04F27FA0
088E5823
D9C2A92D
EAD7A6CF
DAD131E1
20CE4C06
43EF5B91
B8E0366B
66123FF7
B0E28BF4
59F6239E
1981C4EB
85660569
1E7F8A74
756DC704
F38FCFBB
E0BEB9E7
0EBF0323
FA3B1E89
EB890000
C9FB825E
95794A5D
5225629C
A00C51BA
D0F0A5E0
EA64E7A2
552FBF64
F6F9EAA9
DDE4BE6E
F4CB24E3
CA2E0144
54E40026
01D03838
380F329F
53A30774
A44C32CD
DCC9428B
8F177778
36B6AEB1
61330786
2074D9F9
981FBDD8
975BF4A0
4B75C9DC
C3910000
86F2600C
93FACE4B
975018FF
FB4F0D97
47EEEACF
4EAF61E9
DCFC9747
23D82A60
BF783546
43384585
7F46187D
743835F8
AF00085F
1E806CFC
78013FF3
C00D5EBF
02B517FF
F6E83FFC
B6287D93
23492E75
7A0FDD91
055A7164
308A4033
F4D66BA4
A89A0000
7C99495E
B90B95A5
7A9CA37B
EDEF5E7E
831CA00D
2F4F51A0
6509386D
F81008F4
41628B60
C9A93C04
8D8903FA
C81E2EF6
1103FCEB
EDFB9D4E
99D3FEF6
BD7BF717
FFA0C697
F3759D38
945D9000
BDFD0066
F390022E
348020CC
3BDDFC7A
5FB88AF6
FB220000
C34ED7AF
03D67504
94F86F78
8216BA20
87884162
004935C8
0088ED31
103A3AB0
7696FF12
EFFFD888
E95E2930
2CBD8F30
C6705E03
83E2C07F
DA1C078D
F0306F06
86B053FC
1501E780
1F522556
22602288
1703C86B
A81E3FC7
095FBE9F
5768E899
9F1C0000
04AC95DF
6AD7A3E3
7F7FBA3F
F7AA2DAB
F404036A
F06DB592
F85DCA7B
FD1FEF8F
97A90E7D
00BFF0CF
9F36FEF1
E067BF01
C3D91000
7EA76313
4DCC00EE
23E458A0
6E0F6F9E
8120999C
AF67C7FC
BB75CFFD
32F47FFD
753FFFFA
5BFFBD87
F7FF596B
D2C60000
5D0DE54E
FB1D7448
6FD79771
F7B987A3
22126222
37003D08
4F01C045
8871E029
BEB700B7
C2B91D86
FC898F17
0988A481
9795D52D
DC8D45D5
A5F229E9
6D773EF1
74D5560B
3F3E4A6A
8E873380
09D7C6E6
ADAB926A
43190DBC
C26F4910
2EECDFD8
007E0000
2A415A8A
CCA0FD8F
0009507B
1EDB9DEE
DCF6181B
FC7BDE5A
FFFF04DC
3B905AE2
8DE77E4D
7F3CFFBF
A617E003
D3728073
81200244
0500FDAB
A03B4D86
1B0C2904
F97F0DDB
01E537A7
5036AF4B
11969B20
BE31D105
7285B2B3
317F3A32
AD79F69D
E7970000
68A421EF
8500E0E2
80D9E2F8
07DD2450
5FABDF07
70F8FC56
7327835F
D5F87E55
07EE2414
1C71F3C1
B658EC0C
05902D66
87B1D57D
9221A78F
AA1615FE
19F06578
190B93CB
EE73BF8F
396A0B16
126D1ED1
FD80D99D
F04ECA7A
07781D42
0050FAA0
4ED60000
970F03C5
1F5DEB5D
62E782F8
77DB1B25
C79C223F
F82002BF
E2023E01
0F5CC016
0A40025B
70104A26
00124178
78B33F87
F9B91BBC
846CED9C
21D9CAC5
0BF6D56F
0E274FB3
9EB8EDB4
B6F61DD8
19D97FFC
9F78F167
4C9EA5D9
0213A1DB
FD6AD4FE
DD8E0000
BDC35869
B0DC4755
5CCB94EF
97CCA51A
15F7A7B4
7ABE0B81
37F03C16
7E27837F
9018DBB0
07EFD508
A0E2100E
976B1FC2
1F77FA83
35FEA43E
8DBDFF7D
A4BCD2BE
CFE279B9
3A36ACAB
EF57F44E
41D02B3A
5F07A15F
C3202DC0
8A009560
0B0BCC9C
5C890000
84584988
7E0BB36D
3B76BC5E
6DB1BF01
7C52583B
A5844840
0C2A3FD4
938C9451
51A864A3
5A0306A3
C29EFD1D
5EEE68E9
B5A7C783
123C702F
859FC4F8
4282C444
5FC8FF43
6E33003B
B0928CFF
CAA084A3
F4065DEC
24CBBD0E
055781BA
C91B453C
FFCB0000
4485C3D6
64CCAF1A
8B4B42E0
021BD732
4C7FF3BD
D53BE175
EB08A435
29189FCE
F9FFF6DF
FF7374FF
93F3F028
E433000F
C5128160
37801202
580D5A55
01D4C6BB
17A1CE9C
3AEC97F2
E3F3295F
F9EDCD77
D16DDC38
4C5902DA
102A99D6
1FF9E9EE
C21C0000
869E5B8E
2DBEFDDB
BFDDE23F
F26E8D40
BCD46A4E
03BCFF50
14324836
6DC400FF
EE015F39
E0BFE6CF
DFFF70F1
FF73C7BA
9B183D17
07490463
1C96D344
287E2984
45112004
1911C499
48CE4E71
1543E94A
042A200E
37A707BD
D99AB2D9
F77DA296
2DE70000
2025BE2B
C579119A
7C3BE0AF
217BFF9B
521A3F8D
762B8193
BDC1E6A1
4374F0BC
37B84E86
F33F71D5
D78475FA
484743FE
0BD00280
AA35E10F
C92E38E7
2C92D685
6186FAB0
6FF6FF06
DFC876DF
7FBB6321
B2DA3078
C218050A
3EC93FAD
76FDF3C6
326E0000
3B76600A
5B2D3AAD
7B8C81A0
893AF884
7E90CAC0
7CB62597
4BC95997
4F9296A1
B9855932
F0E39DF7
CBA073C8
EE9B4234
B0640A70
2540780F
5A18FFD3
4398C4F4
6607C487
CE15D25D
71AB07D5
51F0661F
EDBEFDF3
2C6DB6A7
81B600E5
D7BD9B4B
EE960000
DE554438
9DAF3DEE
B7EEB13E
DFACA8A7
DC956DF5
6925EFFE
F20FFEC1
E7200090
3D8003C0
C0007F07
1C011D80
217A6A1D
7C3889E2
C16B5F98
106D8AE9
B12C535D
472748DB
CB9C54ED
05DDAB5B
DD0CB24D
B8A26159
A6110159
C9DFF87B
FFFEA677
BF570000
CF897D9C
1EFE606B
F7FF7370
05E2F05A
BB868C3A
A2D80DD2
4D79F739
53FFB62D
DF08F78C
C24E3078
07A52003
FC5A0060
21302F17
0E1EBC3C
FD6593F8
A8ED9B46
02B1BF5D
01845FA0
0E3EA77E
84FF8A92
C7F0333E
B36C1F0A
1E1E5AB0
35BA19F5
D3D60000
52E53C9A
6E0CB195
4FFB50E1
4DBC5CC5
05214FC1
7D84B80B
3AB3C3BA
37182437
EAC3C970
32549BF4
8759F0FC
C98C2465
BEA78F67
FD7067B4
5F9ED4AC
E1CD12FC
1E019B11
FEFBDA1F
B422ADB4
1384BB1F
2686DFD5
382D8691
207410F6
008B1065
EE5B0000
90AA7875
FFD2C987
C0762BC0
3BC6A804
55C8D200
09FC3328
810AECF1
19527F9B
547F27D8
B3FB76A2
FEF57343
A0A74E25
01FBB0EA
85EA0E8C
5EEC3001
FFF6A4CE
FDC00B9D
8181E400
427A0430
4CCC0844
22FB30BB
5FE087B9
CDFBF95D
FFFE40EF
632F0000
43E0F7E0
74610869
8023C9C0
1187B001
31D6C001
016E019E
14422513
0DC2FFF7
B46A83A7
43DBD76F
4FB3DD86
BAA63D57
C52BC63A
5275216E
4FAE3CA1
9AE17CCC
D42C0D32
C2CC6F8C
12F841C0
CE44A63F
E69FC312
4C7E0C51
9E42665C
2FF5A80B
35C90000
632AA7F1
77E6E616
F7D6E7D1
3879F674
13039928
FB363B47
51BE6899
1D9C2F03
E3432CB8
8E0E9C89
E29DA37C
26C41DFD
7F92C7B7
0EB14B9D
A4F93407
1B27C0FD
B1BA03FE
B0E068EB
5C2AA358
878C6956
56265D99
38180407
26003412
4439A27C
64B20000
29A2D44E
CE4FF919
FCF7D33D
7FC427A2
74936741
3269D44D
FBBFE3E8
EE182B6B
C087D1D4
00301D80
CF29902E
ACF10BFF
7811F9BF
F9FF51DE
BE061F8D
A3CC6DF5
816A61EB
A936CFD7
1DFF612F
7E010121
6668E328
402866E4
0F7E3E78
E28873D7
CDA30000
F9A0057C
3D56EDF1
FD68B8BE
72665E26
F204486C
421427BB
798AA162
614E1511
53184417
8141985F
1B4CC1F1
329C3B37
2E21BDA8
712BCC14
5AD887E8
8ABA9EDB
AB0B5B47
A580FCC7
24270DFD
5E584C74
F27C8EA4
202A2EE1
3672C97E
EE0A9C67
779E0000
8E5D30F9
D624154F
FD505BC7
F2EFE94D
14F44C28
23AFB980
1925CEB5
E9747FEC
41FFFEC8
766EC633
EE37F00A
207000A0
22A02534
B6601070
D685EA0C
F9FC243F
51C7001F
010E42B2
10A82637
544B2B21
94C89023
C79D9235
D73BACB4
4FB025F7
1EB40000
49EDDD05
6FFF995F
8F7FC674
CFDD28B2
FBD10328
D4381262
4C07E513
C2B394AB
97DC1792
4C09AD81
E0065E90
A0A6BB06
81692A0C
92976740
6825122D
094A6DBC
1E3C42D8
1718EB42
B127C2CE
755039E6
600650C0
25FE97CC
FFF7FB99
7FF2B518
D6C60000
14A5ADBD
60744F66
6F8DEB87
6DAD77B7
1057FEA8
5A9D2084
35B1784D
992311B9
C1F87BD2
EF053617
F1F05FF8
3E37AEAD
7E7B80E9
5F2872CF
A3179477
40F4FA08
ABFEF614
6F7F6BF6
FE1FC095
A7B81420
730B05A0
45FF05FC
FEC26FBF
EBF31202
FF6D0000
725CF86D
99F757FA
08208A74
2245B299
25D3AA24
1F6436B0
57F7D193
BFBBEEFC
78684FE9
242FEEA7
09EE38F2
4CF71738
81A07FD2
CFE3F86B
881F680D
C01853A2
07003A78
100A43F3
6336D391
22A73A00
2B33E09B
7FA81C23
FED3A856
83FE82DE
A3730000
A9679905
6B7FE67B
59BFE9BF
E487E7FD
C7FE3EBA
37B07EF2
35EBF78F
5A0FF125
893AB5E8
3602BBA8
054613E0
3EEC6806
00518A0D
18703075
A24E01DA
4AE157A2
02DB6E18
1FF4C201
440580EF
72FEFFF5
FEFF7B69
AEFE7ED3
FCC7AB74
3210E75D
28460000
65003C5E
404016E8
001F0808
A4793BD0
BF15BD3A
4FE1E8BE
36B38CF7
BD6E3EA0
EAB1BE02
443FC06C
00F855A2
1B0CE801
FC87CA9D
419EB3E5
97FC7E07
CCCFA91B
D7701EFC
6763C6AF
669FF941
DB73EA33
B41931E1
A5F82BB8
05809814
EE134E7B
D7100000
DD271164
41242014
200CB76F
7EB21EFF
193DC36A
AD5E12E4
5A991F3E
18C6629A
E26CFEE3
872EA568
115E7DAB
1D942E2B
5B47F874
210F294E
0171DD7A
4FAE55DE
C77BB7DC
47401D89
0039F4ED
92DDA9FB
34D88730
43902C98
4A2410B2
8E0243E3
89520000
74993635
A93180C4
A3BA7364
6DE2B85C
BFC31719
603FD99C
E7BF1BC6
6EC2A4E3
6E0A8FE7
F02457FE
35723FF0
7CA3FE12
C03C6063
0D1F43DD
8BE8BEF4
870A02DF
33EE64A4
3BD8EECB
431682B3
D88122D1
F448322A
1041CF2D
163BFBED
FF7CC30E
3AFB0000
871B1D58
28A4086B
1C100C45
28803AD7
33B326E0
3E12BE01
E705E3B7
283E1BC2
594356AD
1C673B01
C25901FF
A3DB1594
96F3F15F
94BEAA31
0EB39512
3CAF599B
9BDFB27B
413B4970
22397DE3
23FA7F78
122BE457
183B08FA
00680680
6C499CD9
5B500000
BA8C7194
61585E4D
F3FC80BA
6068FE11
E83AB04F
23F443F6
106A74F0
0953AC14
BC39D038
6B760319
2864DD96
37197621
35343AA3
D422C134
FCF947A9
4F20E011
72744D87
2B57297A
48712D60
A770EDB0
A9D6FA1A
02D18EF1
0200427E
1177FA3F
CFBE0000
BB7F6B09
20D7EDEE
D7F7F6FB
8FDACA1D
E0A3BC3F
B55B492C
B09C61DF
3ED4B340
EBA7875A
3FC1BDC8
F802ACFF
102C78C2
0506C4C0
661C3FF7
A52179E8
844C5070
C47F485D
857822E4
5BD38D4D
B1E47ACC
DE12F30B
8BDF91C3
FA301999
7582C1BC
18860000
D09AC153
AF6813D3
A12C43EE
A1CAD9A7
A9CBFFEB
1FD9BCED
FD00092B
C0282398
0CAA9713
F2FDA237
E4D23FD8
026DAB22
112BE00D
37A041EF
400027F6
00294A30
0276F600
309A481C
A58BBF8B
D597FB4F
3BE7C40B
7DFBB111
7C6FEE85
5DFBCDDD
0B470000
0315BDEA
EDDB914B
8CFF6624
D0DEDD80
F7FCB195
E2FAA19B
8700133C
4E2ABEE4
48DDCE44
3BC7BD90
6EDEDB46
878CA4B4
F5AC941F
00C4A87F
0F414595
E73C457A
61E76A28
2C2F69F4
C273FD58
0EE27B80
960FC002
B1460958
0049CF0A
7028F84C
DF270000
D18828E0
C7624F3A
AE3F47B1
87785F3A
A2F293EE
0C2F2F80
4450B4F0
5E300E74
87A3CC19
D81B112C
606DEED6
EBEE9D78
30007BA2
C7839C38
F8348793
B1AEC40F
024C6C49
9E9069B0
F8531131
20544D80
2B9BF00D
BB7FE9C3
FE7EAEF3
6FBA9403
B9C60000
E2225B58
7947E24C
BFCBC864
93378F38
6007E900
A7754B20
2A862400
78C44007
85802961
321E2C54
35E10806
EFD60158
6BF13D0E
E933CDCF
D827FEF3
9E37C94F
0FE3D2B4
4FB27B47
F3985457
DBFE680B
382A005A
00808255
1E84009E
F77CA2FD
E5C70000
D4E74163
A33E4A5B
EA9FD336
8E8FD8D0
C0D1853C
8B1E5221
782A8067
E7080C74
5B217CE3
C171DE13
418CC3BC
52C808F9
3F215C4A
EE5FBE7F
D57C77F3
EE5FEF11
AAD5F4BC
B3DE344C
170B57A0
03E2F780
62008004
2C718262
805DE1C0
4C210A80
64930000
AD826735
DFBE6B6A
90769462
850A4F21
853C8A46
A356D8AB
E9D03173
EE864BE2
E85D4800
4F50EAD1
5E2644CF
76E87869
7018850A
C0DC89BD
A6800F89
BC18E8DB
85C02BFF
BA113FEE
C1F3BFB8
E92FFD00
4C8083F7
7065C1F4
162D0B89
01806955
8D690000
C98EA782
0A3632B1
E212A950
780259AD
9691A4B5
CFE52E0A
4EC1E2F5
B91C14E0
52E37CE0
5C76EF30
979A5738
43A99F51
1EF34D56
DB0F851D
DD19AFCE
85C1B87A
ECEB4FE1
F7A1FAF9
C61B80BB
2890EED0
BAFBAE26
B8A40076
8FD0B350
0803E5EF
09FA0000
7580871E
C02D9A90
23007500
2C060A99
09D1DD00
3D714BF7
EEADAC26
A85094D4
05DC9713
29F2FA0E
3CD1E2B6
E4652826
809B01E8
1FE81C03
5FEE0B88
FFFD8CDF
FE49A35F
8FE4FED0
FAD5C000
3F980127
FF2000BC
58005FA5
07DFD9DE
6FACB98B
50050000
34B5BA2C
EFD7BE91
D5EF0837
FEF9F5DE
031778E7
00F5FCC6
53032103
372B7C98
A896D70C
C41D35CE
40FF50C2
AFBFB51F
7491F9E3
6C38FC3E
A07E7298
A3C75D36
E26E6F22
CBB5B94F
F05D1179
87A587D1
F24A2F11
5CF0F4B2
DFEB6EF3
9BFF223F
BF4E0000
C6760019
BB49E7D8
F799C9DC
56302803
6339407E
FA501786
3481E1F7
921D43F2
A3C01EA1
3ECC1611
E97F140E
AB00166F
B070AB88
C1ACF891
D7B44A80
326B524B
756B2691
897FC45D
F92AE544
18833677
D9C9DD2D
A12528C5
21002099
0E412135
78D90000
A56237F2
A354AA09
958AA9E2
EF13DFFE
9C26FA5D
DC839A83
D532B21D
5ACC8B30
3A21FD51
7404B201
000303D0
12BF1006
5340C210
3B5C7803
15632DF5
00E8C045
813AE1B0
07DE5CDE
BD85D9FF
FEB7EB7F
DA05EFFF
1AFBC154
B8107BA8
4085DEAA
946B0000
B3C7B59F
F7C76B15
6F6EBFEE
CFF8F2C7
37B61188
6F064791
950C0A16
E7A91674
A411441A
D032DD23
724631EF
598B19FC
136EDFC1
7CF5F127
0BF9306B
5F86DE15
701AE8F4
716DBB43
3E281C7D
FA9139CD
B3C64780
F3512160
3F802459
40072BFD
D1EF0000
CC617113
CEEBC86C
A1ED4804
FF0766D4
E97D78DB
B274F0B3
F5BB2FE8
FC38FE93
10075BF2
60ECBA0A
063120B0
2E14B804
032D4084
5CF82321
76031861
59034794
C8607CFF
3FDE30AA
6EF9D70F
67B780F5
6B2057DC
3C84042B
BCA65865
7F06215B
EB870000
A484DDFD
2B98ED3E
4F3E1313
E17960BA
479B0AC3
BF79382F
D982A22F
D81C5E3E
15037EC8
5E6DE440
E4397AA6
508769E2
300B86C0
1B476700
759F784B
0F8981F4
5E181585
4B803927
B3299F6D
42B05CF8
AAF6BD1F
6D8F8779
7EB8BA28
340FAB21
A19C0000
7871CD20
6FD3EF53
9BB7FC84
F1F9503F
119303F1
FEB01C1A
F913C236
E078647E
17850364
FC1C4216
8B1D3A2C
9DED62F3
0A9D16A4
8A3778A8
1B9B64FC
BCF16AFF
C7D5EAF1
21C47FC7
EADCEF5F
BE6D3BA9
FF040B35
43E803A7
E3A09D84
9C888170
6DE40000
71A652F7
BECF2657
F1BECE3F
34D1B3A6
407440FD
57D8BBEC
1D07EA03
352CF475
DEF117DE
E206ED70
056F4E00
7D91411E
5C166FFF
6D2FDBF6
DBA688F0
A0769E7D
17605E33
78C7A9F8
1AE01C06
4B29184A
5DFD23BA
00B8ED75
9AD4CF2B
DEFFFA79
AFEF0000
0ECDF635
7FA4110C
81CBDAF1
043B7680
2EE7DB97
1F02FEBF
73F482EF
ACCF8E23
45C5C397
A27A3D7F
07017300
F8F3BB16
2F4824F3
7AC4FF7B
490DA7B2
D99811A5
B11931E7
327B70C3
80BE8DF0
39E09C62
E00DAF6E
04BEB5FA
804F8EAD
C6E5EB1F
2F250000
8066B419
0DC3FA39
DC7BDB7D
4CFB84B1
3F6DAD51
BEBA2307
B776E0AF
C8E0F900
FC478451
040B3FC0
505EC87E
0EDD2FC8
1B007481
82427E30
71EFF4C2
034CE781
243E2365
87E117E8
3D45DE56
E5A0D7E8
5D4DFC49
D0FBD198
2FF0F998
AE7DA3B9
F9E80000
A4ED3F49
B22C286C
B1BB1B73
80403FFC
01417DF0
24C39F60
A5C6A62F
FC87C062
82BC0B58
8DE27743
7E10D066
6DCF1CEF
0EF34AE2
7B80FC7F
30B3C5FA
827577DD
92073514
043EFE02
87B2D506
21903529
2D08A41B
FD30EAFF
79EA8E8D
36B8134F
F8D60000
4BBBB4C1
83258918
41BEF342
0126A680
0C100877
BCDD029A
5AC56B80
3FF1163E
4A968FAA
CE389F7E
CF22B4F8
7E23E39F
83F68340
17F03713
58048323
41DB860A
2DDF6203
6E3FC1CE
D3140FAC
5A35D1A0
F4D14F57
45CAFAF4
E1228632
807C9580
A7770000
97738920
AFCB1DB5
FFF4A74E
D8CF3CE4
D83901D0
F5BEFFF2
2F6EBF1B
C885B606
10436F7A
10B7BF91
37E240C3
F96FA079
07601F22
0CBBE011
7F700233
491B027B
07043BB4
30E9CEA8
51C30B4A
C05049C0
ABD82AB9
BDB4AAE1
7EF9FD2B
7FEB9CDC
A7720000
77B89D3C
1F7F73E7
FFFBDCB1
29D1061C
F80AC24F
FFC6245B
785AC7B8
3F425BFD
EFF28CCB
FB65AEE2
60161346
012638BA
2B0C0EC2
6803E3E9
007F14F8
CF400E21
5388ECBF
C84AB2F6
EB2FD82F
FD0F2D3A
F2B4FB9E
A8542084
05045DCA
A053ADE9
FC900000
CB5FBE9A
4663706B
F17FD0BE
07CF8980
CD19940F
AF2F41E9
F0681BF6
23A3FDDF
5A280FAB
C180AF79
00043F78
449974A1
498DB5FA
DBF9DD04
87ADB1EB
BCAE2EBB
7C804163
CB56235C
FEEE96D6
B32877BA
073876EF
784058CD
0041B4E1
A941C1E5
15EB0000
0DBC0114
6D6D81B3
D9406F47
21F07035
C9E80798
ED881F8D
EA0352DF
605D2FF3
01FE1EAC
3F8E62C1
DD9EEC0F
560B40B4
87D04380
0BA07861
87F004EE
77F9FF87
BF5E701E
E156D728
FA1EFDE4
D94F6013
C185CC0C
CEE69A70
63007356
00123FAD
671D0000
8ACF3564
7EE5115A
49025D0E
19CF295A
3584791F
FD769FED
F10FFB02
52BC04A4
CFC57CCA
0BABC598
7FFF6287
C011297E
80F3A0C0
37F80D80
8AA1F800
A4304256
D1713D5F
845FF548
B1402889
61C0091B
77842039
05055B9E
87FFDAC3
BFDF3A8A
13260000
D070C88D
FC667E66
2F737E77
9C713536
68734C29
49590976
6502FE83
100E82BD
37A5AA22
12058CAC
F75F7F23
7E39DA38
4DB95A54
4B546CC1
8FF60820
BC2C0E81
6561DC13
E51F8AAC
43C862D0
5F5023A3
8950002C
55E1E926
7BFAD115
BFFF7ABF
33600000
6FB6B0B8
1F5BC1AB
D0371C5A
17AB0D05
1B83E2CC
022DD8E3
D0489ED3
58A5E057
9C731F60
87BA601C
EE43E23E
D8CFFDC0
8040CA54
16379A61
0156F81D
03EF43DE
0FC12B00
76039007
40C7F828
2F5DF991
33E7E012
758C4192
DF4C93DD
89D85408
1C6F0000
658221F9
D4407879
41014ED4
8107058B
2BFC28F0
270A8700
6ED070C4
D2975CEE
68F09D72
8F7DD614
C72B02EE
0A420D84
8730EA03
E8BA8CE2
95BFFEFB
A43EFF5F
0BF7F0FB
7FD59F8B
FAE38E85
441F0923
139FA2F3
67F21A33
30203BD4
080232B0
4C280000
F41407EC
DBA9FC15
7732E7D6
01F64600
35F2964E
D8DED016
FED333FC
FFA26AE5
FB4A95CF
FF3772FF
E3C95FF0
90C30A00
07E00202
7E00D2DF
F017C05E
83EFAD10
1F35EC07
A4860ECB
A59BFE77
3F038B59
ACDE7BBD
53A0F8CD
24B52195
0FDF6856
66390000
E1B6C2BC
66CAEE59
E7EE2230
BD30B038
E0052031
0D5B8104
128C0449
0E7C030D
F5C600A3
EA00161D
9C73EAD9
9A6FB95F
CF3731EF
F9A1DFFC
BA7FFF4A
931F5F5D
83C6FEA1
0513EA82
10AF7050
02C88000
65DFB801
491933A4
03FF2BF0
CB6208B4
B7EE0000
2156DFC6
9FCFEB1A
7BE2261F
F2915285
0206E622
47BDD080
34A17202
98FF9412
C3E191DD
FA3650DF
8FF0F4E1
FA3EA01F
1C3003EF
EA3CD33B
08FA1AC1
9DD437E9
3C63EE85
A1E5BC0D
12FF9E7A
3BB200A4
38F31460
770112F6
D7B4A16F
FEFF36EB
1F680000
622B2666
CC9D28AB
256C1590
E66FE273
4AFB7AF0
66D2A60B
0F31B59E
97CE2647
2CE0D8C9
DC70B089
E06374A6
6E903555
F4272E18
00E57862
8A07C124
4776E3A4
C16C9D0D
229081F7
CD396823
A7E01C77
1256DFA6
3381603F
0F39ED76
00018BF7
7C3F0000
8C63AD8D
F87BE713
7FBE71EF
F7A5072F
F83D86FA
343EBF09
84BE1B8F
7CB0C6BF
00075FF0
00BBCF00
19FD325F
62FFB7C1
4B3FCB25
2FFBC84F
B7947395
AD2CA735
6A50FA22
7C06890F
2AA537F2
FF209B62
F74B8AFB
BBF93E71
FE66FDE7
FDFDEBBB
FF1C0000
CF3DBD63
9DDF919C
FEF4F83B
197D8350
F75792F5
AE781B79
4D0E3FCB
E793C06D
354026A6
5C1332EE
9B336D44
6DDF9A47
EEC8E785
CC1E7E31
307E1799
13CD5AEC
11ED974C
47BD7C50
3CC4B841
8D0F4748
BFEF6A5D
F15ECB01
5FC5F84F
FFFF2126
2FC60000
0C230F56
92DE55F2
67D4B92F
BA213A0B
E839D05E
C1C111F8
1C4C77E0
5201F655
381BB0FC
B1FD1F05
19A57220
BB18473F
669712A0
3C983E0E
95E38619
AF68B07C
74224988
403B73BA
7BDDCB7F
ED9ECEAC
DDB04A23
B6FCDF3F
74C947C2
BFEF141E
782D0000
240F0BE1
39AD181D
FFEF762F
6433F7FB
2C922F0A
1CE751AC
CF4B5DD8
4C1E5917
3BDB7CC5
7F6B8BD9
07330860
56300805
08A280B4
2CC3D16D
005E047F
73E01491
0F2FF8E7
CE1FC71F
E8E973BF
DFB7FD7F
EDDF7E36
641FEFCC
1BF12499
1F25B1F8
D37B0000
0148B27F
028B5C8A
9ECDDDDD
900681FF
B147F287
D1073220
1930221C
51092BF6
750BFA19
E47FFE08
20BE09A0
20714141
03A45700
085FFC05
398F0AFC
E2FD12BC
43FFF058
1EB67250
7FF36A9F
ED7C263F
AB1DFAE0
105962BC
27ED0450
203043E5
D8040000
8E0E90D9
BF9BED9F
C56B2C74
03E63880
47F1F813
BBC902AD
E8C06F85
7E078070
E4EA1DD8
0E29EAC4
7AEF2897
3A153CB6
4632C6A4
159E4571
C6E2920C
7FE0E400
644066B7
C20FA0B3
60CC1480
90599F00
C654CCBC
E68A0127
A9FF9FED
7BEF0E44
9D950000
02D12D17
8B59CD27
73CA8411
B515CB0F
6D03BFD5
6C947E6C
53D4FEE2
1E539D86
FD0DC86D
62F65178
83E856C0
3E1F0E45
A050F978
729405E0
D0C5E16C
E88F438B
25E8F85D
CC356C60
51CAF1A5
01A852D0
B06C4D00
FF60CE61
8E0FEE7D
37FE06FF
3BFE0000
2DBCC9ED
F316188B
F30F7CA3
CA1C6780
0A6E128A
0F98FF41
0FBFE80A
4CFF503D
FFFF0B5D
13987FCC
75C0BC03
A0668038
9F901937
F5194549
A1C6777C
15E38F10
B4DAFAB0
B3EFAEE8
80177AFA
A55241F8
CBB00BA3
BF624ADC
90CACD7A
46FEAA13
77320000
018E9CBA
D2310D64
0210E140
1C0591A0
6F51E8C1
3A2B7F6C
92296EB7
72F1E1F0
35AF0EAC
4807FCB7
022CFFC0
2D1DDA5C
773E7D5D
3987EDCA
9BEDFA6C
203AFE46
834E7C00
F31FE19C
25BC42C8
3BCACE42
8482B061
80290300
A67F693E
56FF5591
EE790000
7798074C
F5432D2D
00D66C44
00C44270
4EDC42CB
46FC341B
F8C68DB7
D458B9FC
8F8F5F3A
7024C28D
C426B3DC
781F7BD4
E3F8ACB9
7B910F10
BCAC4808
200E0208
E6F0ACA1
EB8C081C
E0C10187
00CC3CDC
A48FCF12
809C7842
088BFFF1
1FDC1C80
EBDF0000
0A21A986
4F9D2DAF
FB9AF954
ADC0E81F
DC39013C
BB310687
21CBF858
D48F17A7
BEAC1A22
B5D707F7
4CB34758
A31EB42F
993394F2
7AE13055
4D568060
C16A26C2
4E48D5A5
FDB16C1E
3C2B25FB
F55F2BFB
C153FC37
FF8A8CD3
20224C39
7011C7DD
6FBA0000
71869FDC
3FFAB8E7
FFEDF05F
F73EBAF9
3CC5FF7D
E48FBD3B
AD5EEBFF
36424353
0BA25C72
840CF408
075220A0
0AF30000
14127609
A5DF4058
F59C1FF1
00A1F370
00692B90
47EE1213
D88BFDFC
D7F4B75F
8BEF7FE0
3FBFD7B1
EFC514A7
DCE9303D
BE180000
6FE60D48
D32C540C
12F95306
80794BFE
37185F1E
BFA7E107
93FE195B
07F13E52
BC11C043
F43B835E
233E7595
C21C2A62
C3EC0588
2B11A68D
97908172
E37F69D0
6C68FD88
D501E96F
64E18DF3
3149A12A
EC0FBD76
4E13CC6B
D10DC994
080854E1
CAE40000
B1573D97
F21FF1CA
70287BE3
A0563225
0A1C19DA
00342FF3
4AA50601
1A6F133E
A2CDC8F7
97AE3F35
000D1D5D
7F8E378D
7E0E0221
0CFD6CB5
397B0104
6F8110F5
E02A190E
10F33BE3
17356E40
B0E3F000
CB65C112
2CFD86B9
B3C9465C
06A7E25A
7C940000
C3EA9609
F66459C9
AF12B66B
E2024456
ACF3F20D
B70E559B
6CF29F24
9C3EC9E1
F5C69B6F
1E77F9F5
AE7B26F4
F4D8E7C3
8FA1FE6D
96617798
711E198B
B03E62F5
A82423D1
B64FDEC1
A51B6D51
12516E12
46F222C7
B2341A19
7708387F
09808EF4
578D0000
F403639D
B22BDDBF
7FF69436
E3BC6F35
A01EBB94
F091FC0D
F47F23F8
DB86523D
70BC0690
3C3D5937
43F84047
D8D2B82D
9BED5F87
FA91B0D7
786866FB
0E067673
03B331DE
5F1B5EFA
7973DE2F
EB3FB67D
CCA434AF
205801E6
1FD18672
E6574AFD
BF700000
8F4C8100
30EC2850
27D8C471
39137235
590649CC
67CFA1C4
1E948DF2
F93D4637
F168C33B
A3B086FC
18741041
8D260078
EA2807EB
F381E6E7
C23E933E
97F3C699
F9219189
B01AB3B6
80DAF43E
544F8FFA
0177B903
EF8884EF
D200402D
3E005A6F
9E800000
83EA363D
42021B0C
18A914E6
EBC601ED
5FD6D072
65442119
B000727F
B2159E72
00040164
60006E6A
000140EC
0C1C19A9
CB0F6DE6
A93FFEAD
9EFBF87F
7E3FE75E
5BDFEDF0
13FA5C81
01D680CE
AA98C80B
89912C0B
4AD49258
37E57C57
465569AD
DD930000
08A8225D
253A0DE0
8C2F4551
680E4805
06880864
3C442F8F
5D41E1A5
9F8E36F4
09E67EED
0E7FAB42
EC66605E
E3E934DC
3D743845
06078AA2
841A7E2A
43EFA2AD
BBFE2EEE
8700F899
E838C966
29F09C20
CD17E353
772BD156
1211F734
4083A332
D6CD0000
FF0EE11D
7BCA91DF
7B23AA62
4A2BC0D3
F2B49436
A4CE0F71
E6FED04E
77EDDD3C
DB879AEF
18A481BB
46EC96D4
2A18FA43
D8744288
4761801E
0D0AC761
D1A417A0
3881580B
FB2E897B
E75207B1
B7D01C24
8DCD7230
002FB6C7
345F6F40
DE14B269
AF100000
2D27B4A9
07738AD5
E57E9572
A03A36D3
05B9B3A0
37D01785
ADFFF806
CAFF9075
FFFF0686
83E05012
7785B30E
E432B8FE
98837D40
1784ECA2
5C3B208B
13F4D239
00204FCC
2B2773B0
47B83C52
CEB64249
CD70648E
A5816F12
58559FBD
2EF5AE4F
D1F00000
42793E3C
94885A1C
F7FC1CFF
B3C966B8
086BA6F5
261F7A99
1BF7F861
DF77B937
FADCFB9B
4C4AFE48
1A054801
6EE0007B
5DA01E0F
F415F968
F77E042A
CFEC3A9B
7C325BBB
7786D519
14CF887D
E4BFDF16
3B337829
3F41E0A0
FF980889
74521577
FDE20000
E06B631F
BA1CD7D4
4118DF72
81469000
2E875F24
327C902E
7A06C075
36576872
F0DDA674
FC49F726
82EDF3F5
51E3F75A
F37FEF7F
FEFFF77B
79BF948E
C000976C
00504750
02972404
60FEE0A1
4CBD380B
19BFE2C4
0E6E2F4F
8103F2C0
52B172CA
51F80000
D3D1D750
BEB51A16
40A8E4FF
40FBCFEC
00B2DCE0
CFA97780
35876800
A0AFE025
D76B025E
3B413F54
727E5D17
AD3C8020
E0740F70
2F3A7648
E0E44B9F
2135336B
55B616D1
EB1D0038
7C0A8266
0B769A02
DF60DF09
3C07E86E
183F4982
B3F3808D
2E650000
9B14E92B
EE77F9FD
7C7D633E
F06F40E3
085233C7
1CDDFFF2
2FBEF9A8
ACFFBEE7
8FBD8140
0041E420
0D188300
6C0C0031
89F8944A
3607D883
A4F8D7F5
2804BED8
3DD03C02
BC629E5F
0443E1F9
39592DC5
203907DD
8A6B3CAA
BE75CF3A
A7A28B8B
5FB90000
05B83F53
4979AEDD
15396CF7
E087A7EA
62096BE6
9DBCF65C
77E16B47
EA8A45DF
980EFD72
0577E680
83AEA57C
0037EF42
013BC233
27F3014B
300C5AB5
00021785
00CE5379
57AC16BB
9AFFDFF0
7FBDFFA3
6F36A77B
1F9FA4F6
F622B257
BFDA155B
9DE60000
83F19DF8
E6600664
5FDBF69B
F43B67F7
E306007A
ACC02394
46FD96C7
9BC1DC34
7C1F835C
0CF00143
1F0BC023
F1B20C7A
1244B981
390DF8A7
11D401D3
5860F0EF
1ABBFD28
6EFEB886
64EB1994
1F37AA7A
478B574E
348B5CEA
847E0ABB
4018CE3F
FCFB0000
25350B54
FF7F4A7E
61FF2D7C
FE639F5F
E1F78BEF
D84BC649
6CEFAAAE
7AC79FD4
3D251B11
60A04C1F
8F8200F6
04600BDE
43D23C63
0C013957
040A3D7B
E042359E
DD18FDFA
708B8B81
A86C5004
B6FA7CE9
897FBFF5
79CFFC39
E0F66C0C
6C8B5E6C
1B150000
613A4F91
DD2A11FE
400D26F0
32DBA9A3
0FBA241F
9D01CCF5
D4CC3DA8
B7826146
58591997
21E18F07
200B36B8
0AD53B5E
C0ACCF68
9E9FE530
0621BD42
FE4790AF
F39C1B49
97707B51
2C8677C3
53F3E5B0
753B7F42
E6A9EFD9
28006FC0
B481C5E8
E0130000
478077F5
31CC2A0B
1FC0F055
B7AA3BC7
722301FB
F49591FE
25B20FED
B2F17F8E
D003E0DC
24DF1180
53E616D8
3F03FF43
F356E5CA
3B1C7B22
0BC05839
ECF8477E
C6AA752C
6E157E42
1A0D4F0D
A8753A64
BBBB9821
B7E80760
D7E968A9
F3F6F99D
DC790000
C760A69B
41924034
57395B40
3DAF18A3
DD19FC2F
8B4E607C
1B740F40
97B0F833
FD9F1337
C1F14AC7
2C1AF110
E3E68A18
A6DDB3D1
64040070
1E8DFAF7
57A7FECD
8F3F0A32
0ED2F89B
509794CC
D7E76424
4FD1D380
54EF7C26
D84E0754
0357986B
9E490000
01747354
83012568
0D046B79
0078DE6E
9FCFA4CC
9D364512
AAFCF2A2
6DC0504C
C4CAE79C
205C680E
9B07427C
30E807F4
92000FA4
0EF47D77
2A1B53E3
FA03E57F
007F25E9
D1CAD5DA
9B0E48C3
F80A1932
95C9BD4E
AC72A384
02FC1409
0C1240A4
1C100000
96033760
D9DFE3D5
676F143D
78BE9326
A3193444
65C6E0EA
1C80771F
B8968955
98C04646
D904CE25
917F3E78
AFD21B82
FDAAF79F
E1F7EFEB
35FBAD61
7C706287
9F3278FF
7B5DC6A9
13A77CB5
7B2BB009
A25AC0A2
91DC881E
C6F0850E
9FE05D92
FC490000
70BDABB7
A54CDC71
FFDB67FB
D0F8457C
E00462DA
53271290
51C08682
80E3E002
FA5E809B
06A204D1
7021A45E
0E802749
174DBC35
42DF49FD
E2D8C7AD
26F307B0
B9F12585
EBC0104B
B9E71630
5E02CAA2
34973042
4EE9A782
D9690484
EB7D6D86
777D0000
4DBDB0BA
65CA65B3
174FB741
179DF431
9206E2F7
7B2F03EC
8B40BAFD
EF012C48
D2E75372
54165B05
D18075F8
3234FF34
E223D87B
D99A07FC
C4D16F1B
A81FF5EE
E2F805BA
9A5A7A7A
000D9BAE
4372E9D9
60B4BCC7
BAC2C0F9
0D218C70
8C0B1AE1
EC320000
9AF6A4EB
A128008E
4602777C
8E0471ED
1DDA7FE6
B16FFDBF
C2F7FBBB
64D6FDEE
0BD7A5F0
0E7917B1
03255290
60733BDA
85803272
F65C527B
81504D02
3DFFFE0B
A4B83DE2
A104490C
91B5E462
8FB63C07
8C93800C
DC640033
9DC01CC3
D7C0BA44
7E940000
D981EE32
2291A5FD
64114808
3960980B
F2C800DF
5BABC6E4
CEB00366
A0B9C539
9F1C8509
E3DD1897
3AC3311B
22EFE267
F0494575
A6C3D286
D0F8E92D
0A1FACC8
71C0360E
0C016103
C2E5723A
304D4782
A020FE47
4603CB06
C07EE304
4ED30E15
99CD0000
44CF231F
5F878B20
0D555DCC
60845612
774DC228
D1720A57
0A00EDF4
601C2754
11C43C68
1F06C250
2912C196
8FC34E9C
5511D343
71BE38CF
035B0325
2E7C867E
C736F4F0
BB760C8F
FFDFFF5B
EF1BD6DB
C36A0BEF
E3C053C1
40017C4A
F2AE5276
A8940000
E86C8A6E
31FFB1CF
EE95DA4F
FBE6AFF1
D81D8177
A0A3409C
F1BD2200
C6FE021A
7FF813AF
FF80A55F
57077501
FFEB011D
F1A4A8FF
C6F0E7EC
106E7FBF
A1C8341D
BB6A5B06
F08EDD3E
820146FD
26035EA0
47E3017E
AE01E022
E8FFE5D9
E3FAAAA7
CF2A0000
1A7C4A25
E9CFCD40
1CD3D4DB
6F4FBBDD
88C5FAE5
1BCFE6A7
F13F36F5
F417E7FC
83F7857F
77007369
E016FBB0
0066FC23
8F01A1CA
DFE80240
A0400704
21703629
817E6E00
01DFB600
9940F170
FDDB4323
2BF0D00F
7FB720DE
BFC70B30
F57791DE
6CBD0000
809612AF
82E6BD2F
81193080
E245DCEC
53EB8300
4D8CD003
F0F103D3
39B03F9A
D50BDFB2
B0676D45
070F43B3
03FB6934
0262A358
0DE9FC05
21255216
7E20C463
593B242B
D7C982EF
7B4A0047
96B54A55
62D799DB
F12FF90F
02DF9210
58C9A3C4
60270000
8110E83F
D8E5504D
CFA21C5F
D5699958
26824E0B
846FC9BD
EE07DADE
57D69247
25C9E67E
3400905C
BE0183F7
180437CF
C68137C1
EC238B7A
B8027F43
6011EABE
141EC2FB
790827FE
0CC6FDC0
2E3CF167
61708EA8
9B27EBCC
60D0B348
0505057E
450D0000
47C50C04
00311DF0
40063D38
05243010
2E502D86
D3A89CCD
FBDF232E
F6606BFF
8992DFF8
787FD767
869487FC
3426298F
A7B53C5F
77EE0662
57803118
9816A58C
01FC1BA0
8B8FD118
48762301
2CA98B5D
E2168A8F
92F12E48
3F4FF0F2
81932C34
E8710000
B52E5FFB
7FE3D91B
BFC77EA8
95EE1101
5BF25FBA
FC89FFFF
E900FEF7
9B8D443A
D20202C6
208076B8
070CAC27
F9038926
F115637D
F4100E0B
4289A2FA
6A50C748
25853AFB
F4069B0B
51CFFFF5
5E185BF3
2936B7E9
F3C7CFF6
9DAF396F
6FFE028F
62EA0000
64EE35B9
6DF28EE7
BAFEB3F0
8C25EE16
C731827D
271D3B0F
2143E60A
780A2DF3
3BCCBE01
1E5B8331
4C1F938E
2D1D19F2
45628D91
54DDE92C
A1258517
367169D5
204D96EE
3EA81941
C765F83D
B44933B8
FF6FA578
23FAB150
350575A0
53487AE6
A1900000
6C0F592C
8B8A9F73
7E6EAD35
06C6D0A6
6A33EFA4
8629FFFA
F247FFFA
341BEFFE
1826A774
00003308
00059800
011F003D
012267F0
20417983
4BDED05A
239AC79F
E85EA9FE
D5BF177F
39BF8FFE
94BC12CF
C9D58ADE
A14D2281
FDD01D2D
F7999DAD
ECF10000
F0BAD818
746A2000
084B8380
23BBF4F0
4358CFCD
27EF0817
B9B04C3F
464C6370
C68172DC
39C43537
946181D0
09880F30
7E2AE9D2
8B4FFBD3
73D938D4
1B6EC6E1
EEDC2F4C
33EEBD4A
5E8A4DC1
91F5B6D4
62995F54
80748C04
1020AE98
00014A1A
0CB90000
D123AF3C
BCFF396A
DBECD735
C16919A8
F4D81DD3
E9C44D26
32ED3674
883DFFFC
D0BFFF9C
3DD76DE8
81839FE0
20F57480
23283000
736C2003
0145D436
C85C77CA
CEA9F681
CF02909B
786E73FB
B69B0C68
DEF76FD6
1343B6E1
30DC4610
1394B39E
86180000
6672830A
2BF6EB8D
BFFE427C
0376EDD3
76E11365
DCF9771F
A25D8F57
B30ABAF5
76DC0449
B508D9E6
65EB0DE0
3F141B82
A918F798
573FE8B8
E07F6787
03F046D0
198789A0
14E87C00
F7DAE820
F574AD45
F07E12BF
62AE8FA1
4D7FFD4F
DFF43498
A9270000
76EC6612
CDBE3630
ABFF5994
D7BA155F
8080E76C
094D3C00
5EBF400F
82AB5FD3
D95FF97B
F1FFC229
1FDEFBC8
0BF7FF28
3DAC6842
C87DE234
C8961642
76824503
857DBDD7
648FB419
66C3CFFF
7C591342
9157DA8A
5DA45DC1
A78A7804
BCB98A18
71D40000
512D9CE5
DA6C85A6
13E6BE91
E117857C
C97A8BC2
0F3EC730
055F3BAB
5EC7EC76
A0B1EE7A
7C3C0D03
67C27111
E235B3AE
D3DF0DA8
6CA0D0F9
CE770F4B
AC24FD3E
C09BF3B2
82B9CD6A
D5140C66
ED1507A2
224E8610
CD7C1025
DDF945D8
97C23C17
F74A0000
765D8C54
28C6AA72
CB1AB517
B93DDC03
D0D1AFD0
AF19BA23
52F53138
3B97C1F1
D0F2552F
C40F59BF
91B07650
7B9EAB1F
F31A1AFE
47C31862
6ABCA822
90F524E9
34F83001
C681D519
526E6A38
80AD05DB
4C9907E8
CDB4AE8E
FD7A4D05
4F6DDCF1
B5F70000
42030D06
2DB8E8A2
3F8D60F0
D8369FCC
082D6FC0
0653A2A5
0ED43CA1
EC078615
C7FD2178
65603F1B
3798FF67
751D087B
997255AF
E1874E03
CD39C453
43534E00
B727F835
A5735C0F
A1EB07F1
7C149D0E
4A4820A0
AE5BAB30
179B4811
DFEF2D80
FEEC0000
E3825121
98DDFEB2
78F7B77F
B818DBF9
C878DAB4
62EF5032
26D04546
304C9324
25649C6B
6D8D805C
6CFBB7E3
3BCC5E03
79903DD3
F8065E5D
948BA1EB
C9DB4C1B
3CB5C6C7
097A1BE8
AA77EB7F
835A17C0
6D34D004
B85E02D2
35493C5B
BC424E70
DD080000
81A0D000
0804BB52
001031D0
90051803
D2BC81CE
411CCDD7
270403F0
77E84A93
DEBFBBB3
F57EE2F7
B08C47F9
0637FBDE
251BFD39
DDC64BF3
66075A4A
C02E096F
C02528F0
87400486
8EC5015F
044A8964
3C6C36DE
1332BE63
915F44C4
45FF6B76
E3E40000
60B68B55
A3FD556A
7FEFF62F
F5E7693F
A018F5EA
A5BC2BBB
E7A16291
F601DF69
D81DFE54
009BFE00
20FE401E
40B18BF0
078FFF41
F5FF461F
4ECDF6F1
F12CA3B2
E0F76E96
5AFDD81F
3DEF81A5
B67845FB
E3F780F7
F2E656E4
7547BECC
6EFFE797
6E180000
53784776
5EFB8250
BA7F32F8
38B955F4
7D97CE3C
B4C9C963
ACD4041D
942C2866
96EC6B0C
3E801FBF
8BBDF2F8
AC77AF0B
C423C177
D61209DC
AD033E8F
2200FBFA
241F08CB
11FCBC7D
0781A14B
20F059F2
83FB1714
75AFD205
BAF93E77
554C95D5
4D990000
0DD28F47
2B619315
5E263A29
D837ABAE
C2439FEB
43EFE2F0
DBBE26AD
7D4B99B1
A1F1E6E3
3C761393
F7C23643
E90DE8FC
11A11384
4B9E852F
B37613BF
5C01F179
E08F0318
08D82F66
AF0C7069
58E0B181
F10E22F3
3B7C864C
8DE6C0F1
F29ECC19
75720000
15FA0E99
ECDDB7E9
08AAA4CF
81F8DEE8
7DA89DFF
7E2F73AC
C7FFFDF7
B37F77FF
20003F28
40683F98
04C73400
A0C51022
130C0530
698A7003
3587C875
235A6CAD
31FEB7FE
4F84F027
F0829221
D03532DC
116D7B7D
7E8D2E61
FF1404C9
B68514DD
FF3A0000
317E6FCD
6B1A48BC
134D1546
EEC06037
E4ADFF38
20FBE82B
0FBB9CD0
5F2F7371
6A70B790
52EA1908
792BA00B
60750035
02001F65
B17F6005
37EB5169
FC75A66F
058630BE
2D00728D
6CFCC879
3725C6E4
14CBBDFB
291C40AE
3C0118C2
C06DDDEE
36C80000
F637D861
FFFFE865
B6FF0CB1
DCEC8EDA
85BFB512
8518DF11
18A9F00C
94785072
AF2D9E7A
F5FABD9A
7CFFD9CF
43777742
74BE58A3
D9B19F5C
0BB09F81
E8C2FF39
903E8552
8370F96E
3ADED28F
8AB843E2
77EAFC3F
1D3189B8
FF777266
4FFEFFED
11170000
711195D4
802FA674
55FFCE02
11BAEE9A
39507087
9881E87B
1C6187F1
F5D07A21
0E0FE451
80721896
0FE08E92
CE8A60A7
5F9C64FD
7B886857
71CA4E2B
D113D32A
2AAA5129
9C56DB8B
E161FCDD
18BC5D5F
87BB4A5D
FF23FB7D
6BE344D9
A9804885
249D0000
FC825877
94F6F58B
A77ED9B3
7FECBF95
C04D57C2
17EB7C08
3CBB7003
6824402D
11F8051D
AE9AF153
F551AFFB
7A76FD28
F4707D1D
341084E9
E01616D2
404812A4
01FC8A7A
916BD6C0
20AC2682
B47A5006
2BF5030E
DD80158E
FDF9DE4D
FFFFA11B
A2E10000
82235C35
940398A4
00518188
7FC4A205
3B77CEA6
B067D442
735800E9
BEED5F9E
6747F991
A6FFD245
C7F63378
606F6D0B
8479D0B9
4A648886
A080004B
EC1E00AE
706E45AD
47A75157
DA019808
892C9265
93F18801
DD2B0A11
E7B7CAF1
809ED4F4
13E00000
0F5AA7A8
37554F6A
D5E7067A
86555804
75E7A207
DEAE66F9
CA067EB4
CA8FDA77
25429CE2
3C78DB3A
E2261F77
0F7FEDE0
78E9CE96
46B3C8D5
C1368392
7E320C65
E519DC6B
3A1DE8B4
C9AC1F10
BB42BDE5
F406A85E
309729C6
99CF197C
3FFE5917
FA190000
22CD0B88
75D5E89F
FA7F84A7
056E75C5
231C7C2E
978722AC
B234BC83
E2139B56
78266BF8
0002F620
00518E87
BFE32DED
29C3BBF7
AB3BA64D
9E9C034C
E3C7A99B
FE81742F
8FFE221E
0360DDD4
A554470D
4B3072AE
881DACB4
0808D212
D862A7F0
FA700000
35D1BF22
2CAD4F73
D82BE7DF
E45D57FE
20037959
D33F4FD5
9ED9FD5F
E07FC571
1FA3F737
605F000C
07F74301
F45A000F
85840BC4
E659F703
B7421741
DBB22077
0583435B
F9B9A6A9
0046DFC1
02A408FC
17581E59
FE53D2FF
24EF94A2
F5E280FE
46B30000
D0B10660
61803E6C
5FBEAE44
A2219FE7
9B0D7A1F
E32B505A
1BA5C1E1
AC89BD56
D407437C
607E0101
07E047A4
54833B02
5D0CE878
27668547
5BF1AC7F
7ED9159A
C0E7FD36
D77F5F78
9093E19F
F89AC646
2EB7D622
D369004C
62489D07
022F4E43
DFF00000
3EDE46BE
BE300A01
472C612B
BAE7A031
6F2B01FD
45652252
045C30FE
649711C0
30E31783
E1230C07
1E6F67F1
5BB15EBD
46703EC4
1186CA8B
5E7A9279
5EE00F86
D32B06D8
6528A745
4A00647F
6EB2E0FF
F60C6579
60B29FD7
B561C276
718D3D46
34AF0000
855097DD
2A14DE7A
C5DE4ADA
2603FFBD
2F6D5378
EED2F962
D0BC2486
5886D81E
E0DE8710
50F83D43
3E266963
F09D1DEE
0ED15BA3
2FAC3E77
79DD87BA
086BE66D
C0A6F1D9
719B1B90
29D052B7
F335983A
4D0472E8
40E77E3A
9C2926E0
D82DECE3
6FD70000
9C5C950A
7BDE7079
EDCFD87D
D0F10568
1BAF8E4F
CAF8F00B
17D1846D
782B4C27
A14A007A
3268802D
0E1887BD
EF9BBF95
DEB67136
90B5E0DC
3DF62B82
B66128A4
7FB56367
BC02B2BF
983912F9
0142EF60
624E4000
38008321
C00E0140
03610564
4CA40000
2C7B241A
0A58CC28
81B22FCF
B182B2EB
CDB13FE3
1DEE6810
B1620536
571816C2
2149BDD2
7EDFDFF7
C7E7BB66
F033D70F
84681B22
59C0DABD
FE045C0A
E8135B0F
3D122FEE
C6397BDF
86EE1CC9
03E1FD90
17A1700B
56151E05
A067FC11
7ABBC5B0
B02B0000
CB15DE09
2F11010A
80232D14
03244C41
C9804C00
0921C085
AA0E1B5F
10F329E2
AF137F60
FBEEDE17
B47E72AB
AFEDF63C
A26BC3C1
59AFFEF2
9BBF802E
47E0D9C8
80043680
000CE2A9
11546DE4
6EC1AD39
F614E899
2C42B42F
130BD00E
429082AA
7B270000
02C494FA
C554C828
7C78982B
81046E91
0F1C7670
C0F71109
F5740767
1D00BA55
C6C27C91
9158D985
029EC0A0
00097AA8
9076F7C3
9BAFE270
E03D818B
00203478
005B8D70
39793F40
BBD7DC1A
A6BEB426
B5FE9FDE
15F9D7C8
0961BB20
80098B39
9B3E0000
92058FD9
F106AA6D
C09FB9A0
01F9209C
5F126FC3
DB883855
FC238752
AA78620F
4B1F2160
71684FEC
234198D2
739AD772
AF08E30F
D316F14B
8EC6D808
B8E0EEAD
4603CBE3
EF2D18B4
5E3B9FDA
13826C09
8512D709
40DE0025
886123D8
2BC24808
3DA00000
D636EC34
2C4CB1ED
DC6F4BCD
CC7FA844
617BB0A9
8B5FFDF5
1F7EF66F
FFFEE367
EBF02F42
405C7000
343E7001
5C7B00B0
0EF01E70
E207F4BB
ABEC97EB
DFF6EEBF
63B70DD8
4F4B3F93
A25E4521
01D719D7
C6B64ADF
9758821F
5AD417B9
4102C37F
FCCA0000
523A66E6
10066A23
F8CE7257
F5DE59D8
8C29D477
0AEB0A20
28CCEA2E
6A9088AC
27900446
D0022CE9
1B4B4331
9E963FAD
FE917D7E
AB2B7FE5
CB1BEFF5
E8DFF687
1AA9E9D9
3F77F480
05ABEC42
15741002
3100E006
678B0023
F4F84857
DBF367C3
6C180000
C5BA6A3D
6066EFBD
1B1822F7
BF6DCE00
BFF9ADD5
FA1C4B79
7F88E72D
70440948
8C3FD7F5
B4108464
8C0C8332
F3167276
FACFC011
DDFC05BE
47F93F66
5FF93083
FF86325F
D7067011
E98B04FD
84D10797
E30113FF
AFB96FB3
FB072AB7
9EECEA1D
91150000
1B1481AB
F80864C6
53C86F25
FC74A1FD
B1767C8E
B169C0FB
3CAADDA1
6C35AB0E
03D5B160
FC5D41DE
07506A82
1E4960F7
C87A0BE8
81E81BA6
9DFF1031
FFF0009F
EEBE4DFB
0CC5BD51
F0B6E80F
F6500356
5D089722
C803BF78
C47CEA7C
BF3504D6
C2ED0000
D9065286
D7BFDFDA
813FDD8C
1AFA9260
14CDEA14
F7A404AE
149D026D
D89821F6
543CDD25
B370CB3E
327B9D87
EAAFF6EF
F6A41E72
D04AE1BE
955EC322
63B4FB8F
F6EADE32
F0AC4FF6
7870D5B9
42274DE0
6680D807
0A0400FD
04000C90
E0014A6D
32090000
0E248DA8
866ED12B
0B7FCDE0
E7C61CDB
936E5874
9F8F09B0
731E69BE
5FD59848
4421CEF3
5644BD62
6043015E
3C317BCD
45795F62
B23A7D7F
234A0D3E
6C337FF1
86972908
1DD2CD40
BFC7C27E
B576CB7B
55F5FDE5
3BEC442D
FF829C1D
88808764
A2D50000
E270A5B5
7D66849C
4B9FDCC0
113864A3
F0567E3F
BB30D1E3
6D5E1E61
DD71CDA2
CE3C8360
0196DE42
38E8300F
D882002A
57F07FEB
FFFD79F6
7FCEFFBF
FA33FC2F
859FB970
DE0EB657
7DBEC5EC
808D5777
2A84E0F3
ED734213
5C000A6A
604853BB
FE390000
56764110
02C496C6
0BF58FC4
18317982
3376BF4D
68D67A59
5AB14AC0
1FEA65AD
F07364E8
D6E9B78E
295A1B90
C7A0D40C
FF75E6FF
747A37D4
D702B06F
C0FCC70C
0F20B9C1
FC0EB91F
6EC6A1FD
1D481BED
C00D1FBD
C24A7D5D
903B47D8
182480E6
CEAE0000
A713CD40
54674E98
BBC4F60B
130F465B
1F08E49D
CAB2A0D8
0F8A0F4B
FB68EA03
D50F402E
D572177C
DA80321D
A5D7D33C
335DED08
2F0C71E2
03671DF6
7E2004B9
42A53D66
1F3F8587
F9ACA22B
C15E60A6
567D3082
08D1E61D
06040E89
C020520C
5CB00000
BEA0888E
38C89569
BE52FFA7
EC28DDF8
010A87C7
DE82C283
FD00751D
C26C1E2A
234EE8F0
44FE470F
3F1FE097
F76BCCB0
B762CE4C
9AD6C9EA
64389EE3
308DC0A3
896C8DF8
968B5D9F
F8085C3D
8030BEC0
43EF640A
F3C805CD
8B12DEA1
98B19055
29F50000
7062C4DA
E5220652
82D8D700
8085E8C4
322F0160
82841B7E
0605A815
1047BCBD
3078CE54
3DCBE1F9
3C7FCFDD
C62D757D
F7FFC9CF
D1FC7C19
55BF1D27
64CA979E
1C09BFEF
C05E1B24
D1B0B98D
58CF1CEF
E42D8E7A
EEE922EF
0D2AC428
2353B875
57560000
DE1AD1A9
A0B001F7
99103848
ECE49B59
47CA71D4
5B0E4DDF
4161DBFE
35C92AD1
BBCACD74
A47402E6
47457750
3E25DFC7
A46F031F
83CF23FE
86E66C0B
926F17E5
0C2A05A1
C60D4A48
3327C38B
5F816017
DE6391C5
CC7C053E
A5B8E6BC
85D26142
7E8E0000
125F46CC
B477BC1A
CBCA3F7F
65BD757B
67CA2377
F5133F52
24047E37
421FBD54
2FB6F7D1
BA102E2F
2C56A1E0
7EC4ACE3
C1B85C3B
1244CACF
C01E9249
6BA0E654
01D2C2F0
5EA9C984
A0F9E87C
1A6A730F
CC7DF83B
F1DD6D97
78EC739C
BEEB36FA
A13C0000
0FAE4D62
CFC77FEB
B01E3DB8
1BD91D10
778FE04B
BB8241F9
FE3856D0
D2047EB0
51402C6A
9C17FA43
E848A83F
A31205FA
10001F83
3D48EBB1
E643C81E
A40D18D1
FFECC803
CE88551C
B7654878
516CFE60
FA5FBE72
B4E5D9CB
8582B78F
93FE24ED
F8B10000
26B59403
90CD01FE
AFFFEBDF
F3DC7C1F
DE26CE84
CEFFFEE2
8DF61F65
0C01C816
E81D02A2
07A01F01
F103BCFE
2A53BFE0
721FF45D
BEDED570
B5E15F83
1ADE60B3
7DB50153
3A045DA3
5C0444AC
03835980
3C575001
CF5F0F74
CF440B63
9E24CDAB
DE8A0000
06DD2AA8
D4C1548A
06370D8C
81CE0809
0FF55507
582A523F
FE802BD7
6FFEDCFA
8C8E02B7
08004450
000A6DF8
418E723A
A97F23E4
4FFFAFE4
CFF8E6CE
3AAD707F
F2589730
CC010507
ECE4C04F
7B080E19
A503AF17
F296EB33
2FFF6C88
47FDB45F
79B50000
519CEE0F
6FD36F4E
81D78251
1ADF12A0
33AC2FAA
2BF50B9A
E4552704
245417DB
E5C9D3D6
281F71FF
81DFE15D
ED841EFD
D3E1DB8A
0F0ADC17
E05F472E
42D8AD2A
808112E4
18A0611E
821C7350
45727E00
B1BF6814
B1C64F16
829E5E3F
0E00818C
18AC0000
674DF629
3EFE1C9B
ABE69D3F
FC9860BE
0C3C4F3C
9E35C7E3
AFB8FEC0
DC1D7035
8186C9F8
61FF9C5B
4FC1F1E6
9A7324FD
A0BA0255
74E4C901
DA2A2347
90180608
FC9BBD0E
4600E556
AC04113B
F1717DAE
0E42EF37
D83B17A8
117EF4C7
7304D1ED
EFAF0000
98C16560
D5F80CAE
5F82FAB6
78059A1D
E91B000F
06224530
7920D948
A00A7E23
1A33DC43
C325F916
041EC7E0
1C0D1FD9
54807DCE
C186A52F
973B8649
EBE4085F
C69A0EF4
3C3EA451
BA2C3513
F4A8E120
3480E338
2C4BAFDA
21BE40E7
CC3D9722
D9370000
6E35C515
76DF68AB
F5FD975F
36FBFF5A
E7DC4AA6
7BDED304
7B062257
FEF317DF
CC41F654
C06FC6CF
CF7BFB2F
ABEF9EDB
B47CAC95
DFC2CB50
180AA86C
05E1EB04
5F712AB8
0801005C
414C1D83
CF17BCCC
F4ED0057
EFF8462D
879FFAB7
FF9F0D6E
61790000
662465A3
3227BC24
7F9B27FA
75BEFCE6
DF31A733
FD74607A
468B07B2
5EF8F48F
DF8EE832
F8EC28AE
0A8E2760
61EB1C01
046701C6
F5945ADC
B101CC27
58333C45
E02ED0FC
27BC645E
DA55AF53
E7987E45
8114268D
5B8600E1
6A564B86
9BD741E9
8E9A0000
E4DF78FF
52FEF23C
151113AE
D8C332DB
91C3E7FD
9F8947C2
7530B99F
C00F8402
1C7290C3
EB8138FA
F2478F7B
7D38627F
E3090092
6A8C145E
C0009CE6
80557BB8
57ED4FED
7E33177F
E81FBF56
770B7B3E
0F6F95E3
A3D9F4B7
75C2011F
A205ED3E
39460000
E4660BBF
961349DB
2458FBE4
5813257B
C9401CFE
072234EA
7CBB0D07
C70BF06D
EEBE081D
3FE255E2
FC8751A9
84C19838
0F6A4745
63053DB7
70835FFA
365F7538
03E9F088
055A1196
75AF9803
6CF2325C
43D8AB42
1BD2127F
2C0AA55A
90210C45
40640000
5EBA0396
2D4830F5
500CDFC8
916EAB81
6871030F
F720CAFB
03B7E5F5
3B7E5B72
DDD3F403
8CEE13D4
83E28A00
3946E000
C3508C2C
E9CD614D
F6626BEB
228AE49E
709C13C9
F7D7657E
FFCD31A9
FC3BD9F3
FF17F13D
C3208740
4000BD3D
D9064AF8
A7180000
EA445BA0
E7BB9005
47FE55F9
9C316A57
E023A1F8
28B236F9
4C169F4F
4EA7902D
3C3EC343
4AFE78E9
36959597
BF549FAB
B000AF08
2C17F626
E6728A93
8A8A46C2
95323742
77AEB5E4
FC2B0A67
717D765B
FDA660FC
CBF827D3
7F0D662B
EFEFCD83
A1010000
5E570B0E
ED37D95E
55C85720
14045B14
0367D204
D95001F6
882B22D0
266003E3
72319B02
E31DF61E
7AB843E1
1F624E43
E4A3E234
6F0561C8
C38E8AA4
8B92073E
BB04CE3E
C20B53A0
26FD4B30
3F8B76D9
EAF5FDBC
4040A5FE
00148B6B
98012D02
5C220000
C6B73BC9
06B3E96C
7FF794B1
CF7A9CBA
A7C8F3FF
EA989B44
D0F2F12E
0F8600E4
31A406AC
96006B51
F003043C
E91CBB8F
AA52C7FE
96E0C7EC
E3839D8C
C861E0F3
C90D5BC4
3B391367
F9A73C59
27C81BB6
239192C3
0BD35A1B
FF831E25
6800D7D5
583C0000
54A39323
0EDF3348
E9BF565B
3BD9D735
6956C29F
092B81F2
5AC74C1E
7741C019
D03D10D5
45C24600
7842AB97
0B0279E7
C50FEB06
0E737BF3
0BD7BF86
1078E274
0A6FED54
5E90AC23
CA10056A
2ECE90CA
0A64D556
287F0E17
E786A35B
E5028B20
4CFE0000
69E84F95
E5A1EE48
452C0693
203AC040
C70EB627
7061A46C
06E21F57
A861783B
BE3E43BD
81CC05AF
1EE0A647
5F157ADF
C00DF567
8095CFC2
01CECC6F
9DAFA4F1
D8805302
C76C99A8
C058C502
7A112505
A08DFCFA
7861430A
CD04491C
A345F229
003E0000
3EED2204
DEF1F43A
9B7F02EE
9BF2FC68
FDAC3E57
092D90F5
9A6F5E96
B7C99EFA
1E90DEB5
E2ECF93E
7947DDED
4199DD00
754F63DB
779F16DA
1BF15B80
1FE5D9A0
131B9B30
A9DD93D4
3F06A6BB
ED2012FA
250617CF
1F7FBD08
DDEBF55F
F8CC9C4F
AC0E0000
845537DD
D52B092B
10FE3F40
3FF3E474
7AE86003
B1A2BC2B
E1560797
21345A45
4D87B779
807C7580
0BB6A000
DB50A36B
26E0FC4A
A7D6FAFB
09FFE1FB
6079570C
11AFD9E0
0F505900
ED259B44
EC7E913E
777AABE4
3E038D22
29E4A5A2
20020E94
163C0000
B098495E
24F67ED1
6EA1FAD2
EE0C58FF
E035053E
05811684
EAB0DC85
3C377028
A226C4D9
663B3CAE
33A7677E
F6594D16
1C52CFA5
B9D4E0CB
1F787290
8FA0F9A1
F1E29362
38744533
CF3B1F0B
B7B5F30A
9501D097
E07D25D6
04C2D9DB
AEEC6531
9FFF0000
EB2AE14F
7763D6AE
81642049
036A2D58
1EBA7593
B46D2208
3CD1C24F
6AE828F5
7C9DE4F1
7C03E52A
01FF03AC
CCA6FFF2
B08DFEDF
8E1FEA12
207F2095
00F63168
00958C00
08B00800
254BC393
BBBBC935
41FFBEE6
1FA44629
E7F2BB76
EA89962D
21330000
60AF80AF
1AFBB50C
AAE8BECE
40059B1F
9AE56BDB
459349FA
667EFF5D
7852CF7E
080E3848
0042B700
01033001
0070B0B5
4605FF01
2BF3FD11
BF7764DF
FF238B0F
EFF84A59
97B90ED3
8F03826E
C12916BD
E025C059
BBDD0D43
74309A29
FA0235F3
7F900000
E1FC32B6
63F9B2C1
FDC98DFE
012DC0FB
07F421FF
719A5BCD
4687F203
10F80074
BED54067
547C609F
2D4F5FD1
1D2D4682
8071110A
3586EA53
08CE177F
87D0C2DE
A8058FC1
D5F7F5CD
F7734D7F
BA3EEE6F
F9DFF8BD
7C29FB10
22267BE3
5A28C2AD
E5DA0000
40A8B5FA
2B6BADB3
1A42F383
2D2A745F
D97F8C95
D888CBBD
1E644F7F
7358EEA4
D7093A61
1E0784E8
C1283DE0
329CBB80
32115404
A000D04F
118E00B9
03C2A7F6
3E01FE33
D182D27C
F57D3F7F
FD9B23E3
3113BEB4
089EFE2B
05DE8059
D85651B7
D2060000
F9001C74
7CFC20BF
FEF9EF16
4DC5D1C4
A846FC07
341672AF
A7CCEFF7
94EAFD1F
C120ABC3
C0C07706
00402800
00400076
0BBA9658
77BFDB1B
DBFE02F0
FFE13E3F
F839F6B5
C7AFBD64
01C82839
8D042A81
F9E0143F
1A8C9325
11FFFF1E
7FF201E1
ED1E0000
D401FD5F
AFC7E3C5
0336287E
BE544BFF
68F7A3DE
170CA055
E94AB745
46AFFE7C
6B5073CB
DCA8F4D8
6105DE2C
B52B8A1B
F470061E
3603FA03
8002BCF0
84008E4A
03EB3BFE
FD47CFFF
FE5D9DFF
FBFAFEAD
FEEFF461
CF49FD58
FDE5BFF3
C103B55B
E5180000
FE9E20E2
07ABAD1F
613201D0
F8B6084F
9C47EA62
0B873ECC
BA90D12C
1DEE7202
22C6C9FF
A6DABFE2
0CC9DF70
47F6F689
F93FD9DF
9799C5B4
E79D937C
C39FEACD
798D484B
19D97938
9764F9F8
8A30C616
A0E2D4E2
3A160BCB
80D08380
C246844B
8D9E0000
33B9B29A
4100AF45
4CBE5809
2441F87B
2F592FE7
FEBE2947
419AA3F6
DFA72F8F
E81BDDC0
44B61F40
43E09A18
3E9F1F87
4FE3E87C
3B6A9FEC
99E1FF32
801B26BE
81E459C9
7E8F86A0
163A507C
76E959B1
ACD2120A
FF7BC067
29382733
845852B2
65980000
3C7F0126
1DC5FA6B
3FCFC6F7
80DAF7AB
1A378E95
52045023
16000AA9
C7107013
D6120184
20843F0C
6C2AA54B
E4E32AFF
7FF78FBB
8975F5BA
9F9EFF78
F1F2FFE6
C95D60D0
EE773255
F2A5A86C
07EE2438
4AB083A0
CA48001B
015006A7
020011F4
5CF60000
0DC4A24E
FE5E929F
926D94F9
4FFB04A2
1707A22E
8AF90F5B
8D59B7B2
0ED4C6B7
9323AC40
002635C5
F8C2D312
909047E0
39CE7C46
00C70E51
E05EF58F
439720EC
74BE0371
AAD0B824
FF1B9154
F36DCFBE
86F7F5C3
F7719D58
7FA58C0E
04305275
FD630000
73A62019
6F3CE76F
B8FEA878
13580832
53049957
D9C64EF5
F6E6BFFA
21D7AFE4
21C00E5B
FC027F78
6007703F
00F5F4FE
2413AFC4
90760F8F
84B04AC9
BF16A89B
70798BC0
45F8CD61
0903E7F4
97331E03
2DFF4831
9FC9459B
0EB3D8A4
4EE22E57
FE500000
E0EA3393
E1EE3B85
9FF40BA9
3C19AB68
F7DA1939
3F458B86
8631707F
F7EF0EFB
69719234
162A031E
359AF70E
0ABD6E7E
BD602B03
DB4F5134
2579FDCC
CF2FF95C
7255813F
004B39B9
20666C0C
1306F518
325FE6D6
A079108B
05803542
748923FB
770A0000
13ED7A7D
2C0BF6E0
115DA290
08C5019A
CF627F21
F0C5D812
B3FFC1CE
80782B4C
AB87DFC4
387C483B
C356E0D8
7DE25675
23EA2390
0DC8900A
181024C4
05FFEE8C
EADF252F
1FE451F4
BF713EC5
D727941D
D8FF1086
CE6A2461
A1F02810
48009074
ECC40000
927EA447
D7F2BF40
3FF56200
056F6245
FDF0AF26
68A033FF
7A9CFFD6
D15BD18E
4F000748
30006A10
00013380
0013A03E
40A02B70
29047B8D
C45486FC
31742FC0
B13CEEBE
8CFC3B7A
FFDD6D9F
DD9F5B6F
FDF382EF
599B0CE7
15C0F958
FF7B0BF3
FA400000
911B2537
500C0463
D8810B8B
BDD42D6E
5A402F51
C9EDFC46
437EE5BF
E855E952
16EDFAD2
0FDFF520
9CE45009
40240902
03F75264
A3F78CFF
D7F3EF7F
BE7FEC0F
E78E8EF8
740EF1BC
8244C42C
076826B3
F475A0F7
763C42BE
40B05FDC
45092538
6FD00000
73C2203F
8F0DD8BD
F0BF9D96
53BA5B61
7777C545
01299399
1616DFB9
026AE586
495EC542
16EE8A03
4ADE86D0
FE3ECDBD
F1D199F4
BC3CC8A0
80D2CC1C
4C888F45
F001A60E
294EE389
00773F11
1142E800
02BFF066
FF7E0688
9978EB30
BFBC7698
BECB0000
93545BEB
DBF2A1EB
605B9ED8
83666F80
B6DEA21C
EE948529
BED0083E
CC079DD1
E83DD645
86FDEC54
7E46956C
403868D5
E543E604
A8B444B6
A80F2995
B01C1AF7
83F1B288
1E1C9BFE
E5F85DFE
29CA7F56
62CDE092
D8262867
0001DB40
00906EC4
CB890000
E335D746
B0DF7283
FBB3BF4C
934FA26F
E0054778
0E0BC8C0
2411606B
E1720814
15E12A59
20608419
0D80E722
11FA1221
5C483EBB
616F422E
947B1A7A
2BE02E2F
DE47F3FD
C597BA5B
C779E8C8
1F115168
EFE022DE
AC001BE2
6152F2CF
1FB050F1
31EC0000
CCDBB6DD
A52C8202
01083713
1C2BBA00
A2BB002E
D8D6EA7E
0BC81BFD
CA2037DB
804BF002
EA3A4CBC
83FD46CC
7491F447
F98FB07F
95BF6F71
7B877A27
8CD6419B
C57631B2
AC649AA2
F4ACEC1F
AE24D837
E03D1870
F5083F27
E2899BDF
A7025157
8FD40000
E6ECA8AF
CB876AA1
F4BF2E34
1E981F68
6796EB2B
CFBFBCCF
FE553FFF
B560F4B2
3965E566
E38C8D7C
D03DC7AF
13AA7A80
FDDF9305
CC60887D
E7834E84
3E1EE8CF
F3C52419
BDB857FF
0355C668
81F0DE06
5849D804
5F2B8079
D351B6FF
E6D5FF99
FE480000
BF7804C0
D5C312D2
5EB83EEA
87EFE4C1
7CFC7E0A
5639E472
7FFF1FAF
FDF1E89B
349D03FC
01F15A80
7DF360BB
ED16B4EE
E55DF7E7
12CFADF0
80FFD722
E4396471
0A011940
D801380A
9469AFC5
4F5EF280
77BDDA07
3DD2415D
EE6819A3
DF61EF21
DF440000
D089CF9A
E1D85D6C
A6A1858D
74506141
A91DC4B7
6AF56C6E
2E233C38
22F2A539
3B1D1E8E
7912FAE7
01DEC734
456FF9A3
97EBFCCE
AB932C9F
3E7A8C77
6E7C895F
C692FE38
E5C877B5
6A273E80
6F0CB6F7
D4F46C75
0E42A029
30001AF0
14109468
5B0E0000
134CB1D7
0CB799B2
76F9950E
01C46364
FDCD7E1F
18E981A0
CC5C39F6
F383205D
7C381EE9
A39CA66E
3CFC3BC3
E63DAE0A
F23FBB52
D27B6896
68FE9DC6
04007F5A
EE0D6064
C40B71D7
0E3E5A74
87AA8FAD
7EBCBFE6
905B104A
142E1441
69212359
4A8E0000
1227785F
FDDE7DB7
F3ADBEDF
A85D5127
0D60C004
B7AD9017
1EA20D1A
AED264C4
A74C1526
5047D97A
109F8938
10D527C7
E324DEF6
B4D2AF3F
5961FDCD
33FF21F7
66A297DE
F0B215FF
16453FD5
87F17CF2
6FAC3EC2
7202161E
200823D6
044188EF
F0F90000
248CCBA2
4322DB28
A577B320
6EFD46ED
DD349E22
6C8770DA
04DF0C41
04705B3A
7D2C02A7
F149230A
1087C040
97014809
47B20213
895A2238
DB8C1AB6
2D07CA91
E5F7CEB7
0FDFB7F0
BBA7FBED
CEFFD03E
3D7CC1CB
07340722
080233BB
B1180361
E30D0000
DD1FAC8C
0C6D6F23
6B158007
0D70F7DF
C980F335
81EF7D92
E1F6B56E
C05F53E6
4E0C2FA8
374BB3C0
30FEB805
13B200F0
AE235F7F
9A61FFE0
187F7AB7
9FC64024
DD25B2DF
40B03B8C
00666970
00EF0A5F
50EF4A24
704F80CD
110C0358
7F245941
67F20000
E5F7DE3D
5CACEF57
D7B5405F
AC1455FA
200A6EEF
75E3FFF1
0AEBFB49
53A2651F
8017A4F8
00986D00
012D6000
5B4914EF
59F1F1C2
7DFF844B
AAE585F6
7C69CFFD
0EE07165
BC036E70
6C61A9E1
12B9C3C1
8F12A1EB
BBBEEEF3
BFD25B0F
4BD5B2E3
FF510000
4D7FFBC5
B0BCBA77
F8A42C2B
FE012077
E8B0085F
01B82CBE
16005FF4
5164BD4B
2A27BE52
2B2FB73D
99C81137
0A0584C9
77A99F7B
FCE689EF
AD465831
F87C106D
859FC1A4
16C654AF
034B7213
0D3BD441
7F8F9429
BFF41A2D
3301C2CD
921D7D28
6B1C0000
54B15CC0
A15B57AD
F4BA3457
FF22E9FF
9A51E97D
A5BD6B58
31C177D8
5C07FF07
DF5278DF
E04F0E7D
1B393240
87F40C10
7D70C7C4
0018A591
C7960C0C
F84119C4
8435EDD5
3A57DDCC
0105E650
001B61D8
7F3D3074
0EB64815
FA9004E1
2E9E8638
BD490000
B84B1978
DEF9D87A
237358F0
AEFE3885
2B4381DC
A6E037CE
C00137EF
CE0690DF
01E024E8
3E001426
C20A4372
012B25FD
A1C07D98
1E046ED8
243BE20A
1326A2CC
13E062DA
3E433485
7061BC1C
3733AA62
E1DFF087
8FB571D7
8FFEE327
FEEE2B0B
7DF10000
C50E6701
6FF7F1E9
F12EDCA7
7D8DA0FC
E01F2DFC
1EE1FC81
CE1D8074
24780B82
0F10C4EC
F1A0D89F
1DD71910
FFDCFE09
759B78E2
859F256A
473802D3
8789D507
A1EB5FAE
9CF5EA69
6FC31DAD
7C9F91A2
C06D594E
DFF14B28
A990B71E
0B283214
01120000
3673CE80
E0BD8B57
6E2E812D
84F92F58
4E337950
7E67FDEA
EEDF406F
F27B0B3D
39F7CFFF
A0A3F29D
81515C80
C6E6000B
9FE00310
7C037FDD
241FEFB8
2DF7FEBD
BC18996F
BF377BE5
C48BAEA0
73FABD25
332F560F
24DE8991
1DF02161
FD881F35
FEC80000
8F1B476A
7515961B
817CC540
0679BC21
639C83F5
14059630
D90055D2
00E8ACBE
462D7661
E10B9C47
23FD4559
579CEF69
F561A653
C0075E0E
C03DC1BE
11FC13F0
30FB1821
5F1028C1
614DB69C
298207C1
D591E01D
205EE1BF
D7937186
DA7EC8B1
16F90000
584C9069
75734625
FE7F276E
FFD1E9A4
F3643349
F63E6818
6408C5CF
0DF87C5A
FD05A39F
F0FAA7F8
3D20BC07
A38CE17A
7DD4AF3D
3B43E126
B13F567B
EBAB87B9
0D00A7F1
EE0B7947
22F5F85B
027F95A0
15AD53C5
BE0E08C7
6EE81223
6260EB13
8ED60000
C1D0C383
CABAEE5F
B80703C4
F77C645B
51F9080C
3FC083E3
6599C5FD
73BEB293
FF6809EE
FE02DAD7
13665F60
6105550C
B5354A5B
B3CA06DC
BC087F62
7B8FE8E4
00DA636C
1E8C4EE3
50BC9A38
4F422FD2
0143EE10
0507DFC5
EC9DEAED
FD7F108B
EBFF0000
DFA6B35C
F2BFDD53
4FFF3968
761E4741
A6E81DD5
96C3FC35
75C60FDF
BFC396A6
32FAFF5F
1F8DA83C
250EA43D
DBA9FF0E
48341FEE
5DBA6F73
40DE3B97
5D81E94A
4F161F82
23F17881
9F781D6B
841A02DD
6346477A
EBB01F1C
FF855BAB
DBE7C4DB
9A9F0000
3BA95906
5CE7DFEF
F3FBFEFF
CBDD9F7F
4C7B02FF
F7E03FF7
A00F651E
62FB207C
3ACC03EF
A0212122
855A969A
109108FF
CACACED6
EE22CC9C
4D4E9CB4
10DBDB1A
00FCFF8C
13FCFE25
25D1FBED
E7AF52AE
4A5FD2BC
E2B7BB57
11CF5688
E8FBB0AF
74D70000
9CF4E4E8
F2BFCFA5
8CF9217B
B54B6FBC
B0F5A1FE
AD0ACC6F
FF6155AE
42EA1014
3E041773
40A0082F
F883A174
B0265BFE
CB80DFC3
C101747B
F6102FA7
800B7CDC
01CF5FA0
0E1E9421
77F23CBC
A66FFD71
E2F7DC3E
7FFA91FF
FFD2FF87
F3EA85BC
F9970000
31C368A1
37C7F913
399F174D
FD9D1FFA
B637769F
BE7DC02F
DF130117
F9E035C3
E79914BD
372D0357
EC89F3F1
53B37C5F
CDA7C15E
B27836FC
77411582
3C31BC9B
E489E328
8F4D60FD
4CE1839A
8401F3D4
F5843F0D
2DCFE430
BDEF567B
7FBCDF73
A6A60000
C4CC8F94
37E81653
FE2A9637
649E43FF
4904BEF0
915CC5C9
F3803C85
2A04F6B0
058BA638
38FD3C6F
BEB02A07
3939A83B
A11B96F0
AA68360A
CAF88009
7B920B0F
F0A7D05A
4A6ACE46
BE4F87BA
26B4A977
6D1FCAF2
354CB753
5EEBDE67
1FFBA71C
EBF20000
0DFBD814
51BFF7F7
2505C311
A0F7574B
34F00A26
39956EC6
E18B9EE2
77634273
0B832846
DF9225DB
DC10E9BB
A01FF11E
1B560140
6EC55C40
DB2B817C
51D00F40
D80FF087
41FFEBFD
56D1CEC3
FBCF4150
891DC02F
55842195
88492A9B
9CDBF403
9B750000
A87B0A27
3FF6F789
1FDED679
7941ECFD
A2C0711E
71269829
84F00015
BC0DD7E3
803DA2F8
035672A0
61669FE3
187CECC5
2F15E004
5D890358
300C443F
C3A82326
0701FDB7
F90217DF
8FA9BFFA
FC8C7FE0
0A4C4FDE
F636E596
004312F0
050AD159
549D0000
F2B3B5B6
E275DE47
634C3F93
E897F0F7
E05A505F
42D21BFA
128207B1
7640BF93
EC63766A
CC0F8387
42E13DF0
3FFF5617
BAC5FE7E
F7F912E6
EEE2EA70
5E60124E
DE00943C
75191EF4
A719742A
63D6E948
839A4A73
2976CC5C
DB4F472E
EFF728DF
FDA00000
E10C2B17
6E2368A4
08F79CC6
4DBF31A4
D826071B
C0FE81F8
31522F06
BB81C01D
F43E0159
23C0538A
5C25FDA5
84171393
1734EA55
067CDBBB
6D67FF8A
DD5DF137
460DA955
3E29C222
72D77A74
2F94FB64
531F9B00
ADDF5083
6B87825A
09317D36
DFAE0000
CF350A2A
1F03EA1B
9E1E3DE5
2BA8EDC2
6426C067
B8FC0380
5C41E9A5
FC1C0096
04E08DDA
47001A5C
80013514
4F1CA202
778DF2BB
197EDB25
43BBB6C6
5FBB4CF7
6BC167B7
F3EE6F51
FAEFD547
3D9C94B9
D38CB37A
790236D6
20CBD68E
3FA030BB
8CF60000
F00E5D10
306A9102
600CDEEF
C02F70FA
80D180FA
08183E40
0D86BC05
74C2F029
70FE009A
07D0894B
DAA54502
814DCF7F
8F718054
543EF923
72E6816B
000EFC35
B9F25975
0E7A8120
5F153137
BFF25A0A
075C198A
6C14AE11
7D008489
B0AE9717
80790000
0EF2BB97
E8775DDB
3EF6E34A
6FB4127F
FAEEFA8F
1E68C7B5
A600F7FB
5EB87957
8F83F61D
807B3BBA
2FA5D905
5835A5F9
025AAA45
12F7320F
08CF69C3
D0ED539F
1FF03FD8
9AC13E03
F4C9896B
DEFB8346
2399CB9B
FF7BD8F0
2FAF94EB
FDCB7CFF
D3DF0000
2214D3A2
E7FB4289
E9F38B53
73C3B865
D343E7E8
9E9D16CE
A5CE0AFA
F0002DB6
800EE856
032FE7D3
FB1F7BFE
0377FFC2
579FE80F
0EE4E092
FC0DE1EF
787E17FB
25E2C556
FC3A5BFA
86120F64
64509D65
3487C045
CACB244D
E028CE7E
CDDC3479
B7840000
319EF77A
DB336491
FF3F7DFE
A09C4DF0
7E1BFC04
898AB750
287B5FF1
3741C19E
630FE9EB
C13E8E7F
066BA761
15D77EA1
F875C91B
BE0CC16E
E5840505
D982DCE5
4D760B0B
807DE838
12B10701
2C35F276
E86F80ED
47BA1BBF
9F63761D
BCFF4982
BED60000
4637BBA0
71A6C9D2
C3391640
0BE02B01
63F482BE
4E459823
84F366C5
1590F0E5
6C131F43
D861AD6D
142017F9
97270FE1
BFC5FBAD
7D38FC78
B884E877
07FE00E6
0A4064EC
013BCE99
7102545C
70C11CB3
9B82EB9D
4C08FCCD
2B0AAA4F
F0004586
32080000
3961391E
84804BE8
13B47880
4B05B62A
8A223215
E0D7407C
EFFB0BBC
934497E8
C1A37B30
A160726A
140BAA60
501C7E01
824CFF8C
2EFFBA83
EB7F45F2
69E719A8
59437B60
0BFD3A94
3C468042
F1BF22AF
F79A6376
B1A7F760
64FDBA8B
FD008D87
D0960000
CF659A82
3B8EFD5E
DF6AC45F
3ECFABA3
BAF34DE3
77C32A14
3EEE0054
7B918837
E17C60DF
DFF47ADF
FF3744E0
3E274003
60C00C56
2A4929D4
8817EFC1
C8148FAD
35715BF8
D41536E4
0067B7B8
2DE1F6E8
8063B091
7C967705
1AB97CA9
FFBA1D7B
ABBF0000
8E36CBD1
FFB77E79
ADF94870
87E5E8B6
E5FBB67D
7FD225A8
E4937D9B
6AA74353
53107933
8D00F3DC
FACB267E
6836D5B9
E4ABB18B
5829953D
60056FBC
8819C670
03636BC8
BE70FD7F
F6B07EFF
E4C7FEA8
2ABBF286
FBFEC441
F0007E49
997F817D
6FE90000
2E005BBE
0284D707
00DF9D40
8A53E480
C6E04B1E
3A0FFB7A
83C7043F
6FEF17FF
E51AF767
E95C3637
AD82E0F8
F9E417FD
8F680FBB
C9A2DF71
8537D740
5859BEA6
6008AB20
3218B24A
8A348ECA
2884D841
28538567
99B24A85
F3A621F5
0888AA0B
4F980000
4A24CAA7
23A2D551
D7FDD6C6
A81043E0
F054942A
EDF18711
B2183239
0D612649
D333E047
A92F0BBB
15089FF1
33CA7017
4ED9A686
29306A0D
720F18D2
61764B74
1EEFFB91
F781183D
F28103D3
1E9F7C7D
18D0F9FF
A08FF758
206E0752
C402372D
FE1F0000
0B754D58
797523E9
FA30F9DD
91D11A7B
E3E1B5FD
D57D7FFD
BD8807EE
4C82E21F
C8D0FFDA
6A003658
02022011
CA34E5E3
6A783BED
FAC3A6C7
3015FEDF
400B8E1C
01787BA0
FD066D7F
E76BFFD4
B4B97C81
4BBFB4A9
BFD520D1
726185DB
5DEE3F48
B0DA0000
EA3658EF
76E29238
F789EE51
7F77B619
0A043E3E
08C642E2
2BFF3C61
47E5810B
AC703117
CF463165
51E0724D
0602219A
F00C59B6
B36D06E8
BF55B5B6
283E88E0
43FC23BC
7C293683
A04A187C
2BF48700
0C08FD04
2D1DDC52
41E8E954
BE90A4AE
F5530000
1E4EB716
30A8CDF8
288091CF
7A39D5F5
B42C90BA
268458EC
4E9E9751
F9C61179
23E6F0FF
5F2B9018
3937D34D
CAFA2E38
3ED2F07E
F4EB69EF
9D4161BB
1F0DA2A2
F0013E7C
22604DC5
0C875C60
49FF6840
7BBF4C01
A1F478E9
AB415154
0C867C3F
BCCE0000
05E33D5F
440020C3
55DC0229
CCFC317E
9DE9A247
2FAA5220
F6212824
846308D8
0C1D0B68
E1F4FC4E
4B51E6E0
0D4C0FA6
E721FBF6
F13F3F2E
13FFF6F1
7A1FFEFE
8FE7BC3C
5F3AD0E4
28A3A71C
65B87808
4D02040A
A4C93295
541DF943
1D9C1C4F
49240000
3F0500BA
1AA1F350
480A6DD1
705B5704
08928971
BB211606
C007C7EA
50385D4A
05119618
FA502E0B
A015F16A
ECBC075E
21257EA0
890B2365
93258010
3C7DC94B
9FE81A35
2C1863C2
B225C0FF
88DC15EB
6F012E55
5611AB09
6C02908B
E048B0B5
0BF60000
54BF0AC5
06110BFC
83BBCEE0
4856E933
4B5E6588
85CBE880
80DF1616
22E9517E
8E08BE2D
7807D8E7
85BF8FFD
CFD4CDE7
71E87F79
0E4DF672
043FD36A
00B06CE0
000D0740
12FDB5F0
06177CAD
A8BDEF69
81DD939F
33FE3F7B
46A7E14F
DB0A214D
692A0000
AC95AD94
7BDFEC7B
0BF7C83D
6BF9297A
C39E3148
228F4480
3FAD010E
2D3A0FC9
3FDFFE9B
BDFE5358
BFBE7978
7E1AFA29
68C7534F
CE749234
C78003CE
CE61F955
F6134E7F
8D45E27A
F8E40034
2DA00BE6
BDF36E1C
9F635D33
D8E67BB0
D7BDB6C6
7E630000
135073D7
04714E63
595FCB43
053B8E30
8EDBFEBB
D842EE95
D5F0D57C
4E4723D7
91C61928
3F4B3107
479118F8
85093DA9
C386517F
83F70BF1
43F7AF85
455760C1
FCD407E7
A4C1DD5E
2D6E3397
B32A0F5D
4B2FEE17
8810C566
0B3021D4
18006BA5
70AD0000
B02ECC2F
728DECB7
D5DFE007
4A0FB00F
987C5187
C1F07E2A
2E49F03B
38DF8B35
657E2080
FFB428B1
BE314D47
E12B74EC
4F104782
E2B24C0D
83DB007C
A3A09BCE
CA2FC859
835F45F8
6DFDFA83
DEDED6D4
9DC89CFA
29C29B21
861DDCCF
63FDDD8E
09A50000
6E03A0B3
A9CBFD8A
FD3268DD
121A9FB6
581087A5
E869564A
7AA3C3DE
15B0C60C
2C3B32D3
17019596
60113E6C
6B87C702
52197475
54D935A5
3CB3C8C9
AFF51946
5D42FD57
D123DD71
5EF55FDD
E9D4FFEA
9228C6F8
F0012FD0
45B9DDDF
9FF22C9E
9D830000
67503E8D
175FE0FD
A754F610
E79C410E
86B10ADA
00040685
7A02BAF1
2AD305C1
01F37708
8E101493
E020F0FE
A03E1386
022463F5
59241D71
0221E987
BBBA29AB
E3F20BF8
791DE107
B0EA547B
89F2858D
8C89EE03
EC630B2C
8534EBFD
35CF7CDD
71B20000
49FB89C5
55721112
012CE759
C0063E10
28535038
2F64F40A
BC6FB8EB
14296EF0
C8D7EFD2
3107759B
011ED402
0C260764
411BEE15
A88DE220
AC97B18B
800323F8
001C0500
0A80BF22
363DFFC5
8ABCF4DE
17FD5830
3E74248F
44658444
FC6C00D9
E0210000
043945C2
A1630206
0EF2790E
39AED93E
35C1021F
F7B87EB4
ED26388C
1454A9C5
69346652
88937534
FE730587
F33722BF
832902F8
DC200390
4B80E8ED
1C27C27F
EC5C01CF
9F40AB53
98F12A0F
83808363
9782B79B
E016AB6C
2FFF7AE2
DA074730
09320000
11CA7D2D
427270EB
A07EE513
73FE0785
0F07E0DB
42D41911
F5460E9B
0C468DDC
98677E0A
73BDC5A9
3FFFCF07
EFE1EDF8
58768C45
E0EAA1B6
4F82F986
2C0404BF
F3E0961E
B687E87E
40C9EBE8
0828BF20
2DC900F8
AE494BE7
FC2D67C9
EF38DA1D
A9580000
14D6E06B
815366E5
26FB7D16
38EBBE02
2F59086B
C900030E
9004DD26
D28A111A
10F281C0
CF321423
78612D4D
9719ABBD
F30D7780
7BBD584B
AD7B1288
BAC0822D
BE0D61C3
894ECBBC
7BF83749
EA52DA4F
1515193E
7989CB6F
BC2865EB
6BD27587
F7700000
08649510
00004142
40204676
35C66098
9D4B1D00
3E89BFFF
F024CEFB
1C167C75
046500D3
68107259
00488A01
C00CD87F
70AC3C68
01FE9F5B
7FE1B678
FF9646FB
A97F3441
2016100E
528E0045
5FE8180F
D381007C
43F20FCC
F7A6EA8F
FFFE75D3
E9F30000
AADA550C
45F73C37
CB377020
AB1D8908
508F926C
862CFD02
7D4C623F
C06EFFF2
CCBFE34A
424EC74F
44BBA0AE
0349F788
10E0DF60
061BAD30
B4FEF80E
80B621A0
1CB501C0
8E09CC07
6265FE0A
1774F9C1
13F6717A
7FE02443
FAE9FB27
FFFE9FB3
5CCE0000
72FB2789
C8090E4A
3BAFB34E
BDC09EB6
270D016E
ABCA43A0
31D43DB0
BE21E45B
D02A8730
03407B80
F914B0EC
C4C83DE0
5D35EB93
FEFA5BF3
FD8E7FEB
C93D7B7D
44DF9074
0F11055F
FA0F5234
44315076
2BDB91B2
AEE060C3
01A20D52
20131D47
CCA00000
CE975384
554E85D2
53884E99
244807E8
A12D9785
E64E407C
03D058DE
E9059702
0362103D
67881A5C
0990EF90
6FD16D87
5A4C6E03
FD5FCD2F
B53AC2C8
6AB58368
DD7ED562
1FF6B31F
7F63F3FD
7BB98502
EB25403F
CB8044CC
7503CFAF
1F84EA2F
DA510000
43B8049A
FCE4F84D
FE2E53FF
77C4C522
EFE22F1B
877FBF96
735FECFE
3DE778F0
B7AF7576
001C5C08
00014000
007E01E1
56A17EA0
B9FF24DF
779EBF1D
6A59F654
6D91F455
2FC5E5CE
E0932B93
7AC6A288
6DFB74F8
2139A4E4
9EF7B582
CEDBEB1C
BBC10000
2B193CC6
F47EEEFF
F8140927
44DA05E8
115AB722
3F076133
F625900E
5B1209D6
6C26EEAD
9BCF9AC8
313F94F8
E8DECBF1
D74FFDF7
78134F8E
BDF12B6C
BD3BFCC4
E0D7D4FE
3674A4A8
C332F9E0
560BF820
41A00311
80430459
00081328
00033AC1
50150000
9B3CE914
8D7FF1F7
869F3B9E
FC3A067B
CFE61BE3
B3EA7776
1F2A3440
634D6438
29891D47
1C5CD0CE
0A8B2560
F538430B
1E63FB0C
FE77F11D
237A0780
95F152BD
5837CB82
8BBCF804
1D49B25C
765927DE
D82AF4F6
336FF9C8
2FDDB56E
F6EBA48B
D9340000
D6AC4060
87F7B50B
D5176E95
B717E814
A03E83DC
050C1DC2
00C53C35
8F530358
CB84590D
9B4A1073
0082C4F0
7E15077F
C1C4247C
35CFAE05
66F98024
87159120
79E03A13
172AB602
4176CE93
9B50EEB8
2920A7DA
1F83FA6C
64948A1F
504864A7
5C160000
FB9525F2
53E92815
1448C458
002B0186
867C600C
40D54F66
F124FF70
500CECFE
987BC9E1
C5BF91E7
2FE66BC0
29E29781
D58DA01D
023620E0
6A00025E
D42C41A8
604C8E3D
317AC084
04685084
4D87C41F
E1D4C430
40F007AB
89267E45
55FF461A
FAEC0000
3EAE6515
1137D79A
509FC4AA
A0052DFE
82639BEE
9E3EC346
54D019DD
67A064FA
73FA5C1D
7EBC3694
090A4E40
28CEC3E1
CD01EF4E
28C3F8B6
7007F0BA
00056F7A
031657B0
8D2EBF75
2A199DF3
5D30FC65
A2DE683E
338AAB49
E9507CC0
40006700
A04F0000
B796D6CC
33748282
D4785E26
4D408944
DEE39384
0F166200
C0BAE8DD
BE6FEBE1
DC0E6C4F
E001B93F
02F6FEF8
9FE47FFF
DF097E74
3617FE08
B01EA25A
B4503E24
20D2BEC4
4299374D
269B7698
59CFF681
7509B7B8
35F4A81B
37FDCE77
0A4261C5
15070000
583C5599
DBC5F8F3
EDB7C1C9
C33A3BD7
E4631764
FE8EE833
F0C40625
BE703C57
7F445FF7
7063D6FF
0BFBBFFC
8D9A7E13
382FE901
D3D3345E
7CF11ACB
7118CDF0
3C172B27
10E0B72A
5D4C41EE
E49D8C66
2DD4AD06
F5B78404
A9AE1159
8823899C
EED80000
FF9C4441
0F7E9C5F
B52D09FF
F79673FB
17E05BFC
6DDF7EFE
9311FA07
E4AF052D
92BA1582
A088F2D8
02623A48
E8F7C402
61BC247F
AB041142
D8801405
14A7A638
00E67F10
516C119F
0BE79BFA
9FB0FFE1
7DBFDED6
33F763B3
B972F64F
87FC3874
55F50000
70ABE246
68A5B56B
A0A5E409
F0494227
7C0AA71D
2FB1F215
821F011E
A2FAF6DF
1F8539C4
785EF4B5
0013C1F0
20E14F15
DD27D00D
CAEEC52D
61131C8A
A4820DD4
4842C6C7
60FC6ED9
233E8DB2
A6D8E70A
8A8FBC9C
686BCE92
B3D81A80
103F6E46
EC5B0000
A32067F8
2B97A8BB
FFFB49A8
70E8172F
00147EE0
829E6860
F0E7246F
1AB02D0F
CC30F9C1
43E53642
6CA17082
16D20033
FB748FFB
F721F154
127FAEF3
01D5BE51
7AF1EA37
F9AFD5EF
DFFDE279
2A1CC101
7AEDE106
CDB900FC
35A84C69
6001B5F5
FFB40000
3E161AF5
1F05FEBF
DBBE8524
EB692B89
38D4BF96
0CADC50B
F65EADEE
0F8B669E
DC22056E
C19118FE
379F4FC1
47973E01
E4D5E37B
CDEEC406
42B9B560
2EBBFF9D
62A9CEAB
12A863B7
8DEE13F2
FD31CFEF
8184BDB0
84D9B042
D676D3A8
F819BFE3
976C0000
64427F66
14D3DB0B
7DED2660
BC3F6862
0F17DE51
E1D2241D
0051A398
52897987
F406E0BC
F07F8F76
0FDDFFF1
4693781A
0B334008
E6001F95
42850E0A
AC1B1F46
C0A7F667
4BFA69F8
FA98B657
E637F125
C43F2100
9F680296
D99CDB11
CFE5C746
7F1A0000
A77ACD10
BAF02210
04880412
02657000
CE422402
4179A00D
B734BF51
DC737DC0
A7FF6943
6FFA7A17
87066683
58625014
88FA0C56
6EFA57E3
8EEE3E45
FFC74300
920F3040
010C6000
68C9A492
6FD9202F
F979642F
5E201518
D77BFCAB
97FBED28
01910000
DF4E2FDA
36E3497D
9F77B685
DE67DA2F
4810A0FC
A2702D93
2B02D120
B43404F7
07A70502
F0A30986
4FBB00FA
6F8A1EAF
8EC471CA
C92B7CAC
D3605DF8
1C15295B
AE416771
8222662C
2664E5CE
9A653041
11A2D28E
03B518AC
735E8087
FEEE44E5
77540000
DC6E4ED6
5BC7F98D
AC7F27BD
73B86E66
0B27E9DC
23847309
1072E218
1C9E20AF
E1A0BA79
4E4A0FCB
7C6235FE
579FBF57
74FEF97C
4F1D3395
E531338F
3FCA9B0F
CF124153
E465CE9E
983ABE7A
0F433737
86E1CF07
1E19801E
3CB03691
EE435BB7
431D0000
9F4D7F3F
4E6082D6
8EE89A22
A436A580
225C6C61
07B34A70
6BF3F506
3FB3193F
4ABC0CCB
D39A7FB4
A177DD83
271D9035
D57A2E14
63D61FE1
33A3700E
087F4369
C3540B58
7E9B8907
A0C72172
8F280DF8
B2A0FB17
F4145C2E
91AF496E
EF4F0F12
BE900000
E88F8243
FBFBDFA7
EBF549B4
9FFEE2C7
EB3120BA
0593077F
CE1770EE
971FF57A
ADF05080
3E041791
40833552
80053518
82D9D5F6
98673630
8FF3B506
E43A99AB
42380FE4
B8D5940E
718EB072
9FB02FB2
C709D316
70815A1B
4DCBD291
FFBE60E7
6FD50000
CEAC5485
1C2BC0F4
BDE47F54
CEB528C0
51C1DCE9
E45FA11C
BFD64334
7D3A2FF3
C9F3DE63
0F0FDC30
7AFFC14C
4FFC1379
B654150F
93D79717
C97383F5
F7061A8E
E291DECF
0E1EABD1
5E2EF471
D5E33918
1D954125
62D903C0
060483E0
41828934
E80E0000
88755C92
9D2A288A
EFB68AF5
95A961E2
D6BC9866
7BE8214F
53321DBC
C006049E
30E92816
4C00C87C
8147A18C
EE925E5E
468EFEE5
533EFF12
8FBAC4EE
2E896513
BCB77830
7F531445
79CE2E02
12BC58B2
B3440600
A3C60C79
F6EB0457
19D8EE3E
E9D30000
3246B655
A6D5C82B
D7FFE8E9
E61AE8FB
13F3F8CA
BABBF6EE
A7FFFE1E
4EEFDC47
8FB02386
0020EC18
023A8200
05E00234
AEF3A4C6
D2BA806B
EF66D3BF
0802F6A0
812DED60
0EE33E00
BE88E278
049E1B3A
2E0FF0AE
4F260C1C
D387FBEF
E7FFB5B7
DF390000
80706553
05201904
08C05B40
0786102A
2B930CA6
83FEA550
EDEC88E3
9D3BA75F
6EEF8C3F
FF1E3C28
9555C820
1FEC8212
DB10485B
F4BAF39A
5BFE7F7C
6FF6B61E
70F890E0
2FF7FD03
BEA34038
48D88480
CC23E25F
A66F007D
90D25384
7EAADF5F
405C0000
1DBFF47E
73DFE29A
38B4E6EE
D0511F00
44C69D40
2D4F2078
69BC7FD7
1383FE2E
E1B6D43A
3FABF3A9
827F5C93
8CA68DD0
5024F41F
87E3A086
8E4A8240
363808C6
F6904C14
5E3463AC
C2112E31
0615A90A
70F28038
857ACDB3
90BDE2B0
D7FCA4DF
F7DF0000
9A1D2B63
C1CBA288
8C516E59
7010D9EF
6FE52932
BE6F07CF
C47078BD
7C059FE3
E82043D5
C73BF7B9
E734BBEF
7415BAC5
6F97F103
C6FD8239
ED13CD0F
A8BDEADA
17F80150
0E877F68
0F1F9D9B
2233E097
2C174603
339D00B1
1B44EF30
24020B7E
52960000
88B20238
C8006E60
4DB8A717
FC09E2BE
DA249A57
F453247C
06630DC0
7C98F803
190D8074
00E017C4
B80A3373
D0E56708
5BFFDB94
65F5AC5F
2FA22172
D4F262DB
8FB6F7F1
57EABC9D
6CF7D51D
F93C0794
FAFA5FEB
8A4514CC
00040566
0800697F
E6C10000
C0CF3A01
AFA23C54
810309C0
69C6500B
4DCF2978
1D770332
EB4A486F
37C204DE
7F17EFE7
70BFC77F
43E61FF2
7A27DF81
12ABF446
93B62120
9EC2727A
E488AB8E
91B08863
08038910
847042AD
F471FD67
B008EA6E
C5DE6EA5
E40B6188
4802F809
57C70000
621F2433
58440C8F
0E484781
3132AC6A
0DEA050D
0319F51B
95AFD514
2E7FC90B
30FAD650
CFC1D927
7B5DFC8D
C7F98886
1FDC8536
949A2FDC
E9A17263
74F3D038
DC6823DF
67C06D0C
5E14F80F
B97380B2
47815FBF
1D299F2C
CE0C26FF
63A0991D
104E0000
7C2F934A
30DFB645
3BE7671E
FC2D1FEF
850AEEF0
0D10A609
DA774049
B1E8AD46
A909D0C9
F17F0217
3FD9F5F3
B78CFF19
970D29DF
056F2F34
E7D1895E
550E6DD1
51EDD71C
1D8DEB65
E69CDC7E
2357C158
20701646
87E440F2
BD6FF3FB
FEA52AA9
3ABE0000
CB595671
A06BF2C7
C7769F8D
BF8773F7
C0639E70
AE8BCC41
14B3CE8D
4FB4F375
C08A3C0C
5EDC0E63
E0EFF5AB
4FD98C69
BE458AFD
01335D88
D07A685F
9F10318F
CC91745D
A93A1708
C5417A89
B1F71D95
229CF151
36678E5D
FF4F8D43
C8118401
7EB50000
FCA9563E
142423FC
8BEA3DE0
027DE0C0
A661C884
6F8A0AE9
412263F1
9ED26366
08C05B2E
ACF3EF63
A133F38B
A357BB09
F72DA7FE
5A85F219
DBAFCFA1
70F02070
5A9D3C85
6443C82A
084617E0
2DA17F03
BBEEF823
B72E0287
9BB01A15
7FC73F22
666E0000
6ED7383B
9BEB5187
0C70ED7E
EDD4FD02
6AC4C6C3
4DBC2126
24535D82
4848A7EB
40C4FE78
EFB1F785
7F5E3CC2
616426B5
803AAA87
BAC01328
EE052943
8019096B
003A7ADD
5A11F7EC
83853742
321E5716
0317C046
FCEE0D9C
FE43FCE3
7FEE5436
9C290000
8BA8B5EB
D5FFA5CE
27309C63
BFA87C25
382732EC
D1EE143D
9D92247A
C000A9BD
1407CCBA
02AF9B83
D1F4F9FA
06FFEEE3
33B6D143
16D02705
FE83B809
000D542C
84338EFE
B23D07FC
075F0E42
77D1F385
7700ACC7
58365A54
08F999B0
E4DBB4BF
EEA50000
E0960FAE
F9B01A17
215AFB2C
B81F582A
554FEA67
92AFFFA4
51BFFBE0
61FD963E
225992A0
40FA2148
0CE08010
9C105D17
155EDB6A
34C2C678
A1C6E104
CC6947EC
F311FC4E
22CC5EDF
041F1980
73DF7099
2F567EA9
BC3D049B
E28843C0
AF79E64B
F9A20000
68F187D7
3D7DFE07
EEF2EFB0
D9685F0D
78049A23
80C972E0
1AD1F066
5A248208
8A8650F5
DC1006D9
8973A0E8
C0F3510B
11317CEF
832BBFE9
CBF87F84
971FE11A
61FDAEC2
BF5EB903
8057086E
1DAA0500
2363723B
8C3D4E92
45FBC697
AFDDE6FC
5FD00000
B57C2F21
3BEFE176
1DB63C04
7025AA04
C8639940
05284685
48A36FE3
D0FAFFEF
48FFE8F3
6BFDEEBD
C0BB9574
2B78BD81
88E4F003
9A2404EC
1B4157EC
5602CEA0
40CBAA9C
8168CE68
27AE7761
03015190
F2B6AB18
76BDC7DF
F2F37F98
74F61B6C
8FEB0000
074D4448
05A044BE
D206D413
3476CD7A
8B521C3A
3BAA9B03
09D0FFFA
5DB863BA
6A0F180E
BA2F94C6
AAB87F90
1F0D7E70
EFBFA25A
2B199BF1
1B8CF953
71DCE813
19483A03
9C5F621B
6BFF1534
30A0C51A
6DC8B022
D70BDB28
7830E1CC
CFDB3933
E1590000
A90029D6
8ACDFCE2
FFD9E37B
FEC1E3FE
DD32F9E1
ADF95702
EAB3D305
64E29248
6BCDE675
A3FC60D2
7D0B0C7F
C11911D8
3C810E07
57194EAE
23C0E8EF
4C0F0BF3
503E4770
0BDCFDA4
11037DB9
F1EEAC8B
3F10C7F0
E972DF3C
F7B09241
A12D88EC
948D0000
C5F2AD3C
BB5B6BFD
DF8B3C7F
FF989637
444FC8DD
A30940F2
1FB805C3
F786BB21
61BC9DF5
3407B987
81BCC360
FB87AE9B
7DB44F7E
C90EF2F1
BE637179
3F8924E9
ED40975B
F470ECB7
F447B87D
02905BD8
237EC66A
E244D4C8
1F8808CE
AFBD8F87
EF670000
F274B4B2
A46CBF2B
FBF7AEB8
3E7E5425
CF188EEF
65BE8080
52F2D00E
26D00892
44002191
E922ACBF
9BF812B7
E7E60D43
58A579FF
ADF7F3DF
91AFFFE7
526FCCD3
EB92FE2A
937FD024
23A80B6C
C154F011
D69AD812
E08102C9
E18BFF55
4B42AEF4
F8C80000
4D2B2E5B
D51C85A0
B269432B
EB044435
6E31C0CF
D3F69496
19F972F5
93EBDD35
EE18F842
C363A015
83E438A2
87FA0002
73A008AB
13CDE1F7
71E40DF8
88C42E19
CE23DC7C
C48DAFAE
3022F9C9
0E53C3E9
479F7FF2
4127FC76
20FC06E0
4102916D
9F190000
A2A32C72
A0EC7537
8800F6C1
800F89D0
00428000
03EC1201
A86C98E8
A047FB93
43DE2B35
3FF9F63F
FF90A1DF
7B69018A
0D737C73
F1F67F5C
D7BAC414
C96D2F42
B183EC79
D19C5266
52F1A003
9C064A0D
EC36101B
8280E305
C133FADC
1EFE63D6
0A790000
71015E33
7FFE61C7
FC7A6D2F
E26397FF
9BBD49FC
2F695F82
A847F257
2218C400
3F4A9407
E7F8ADEC
6FCC5CD7
DF1ABE70
60587072
75B88E0D
563A9950
C184D7CA
78850FB6
9274941E
BD5692AF
EB39378A
B1AA697D
205DFDA9
885BD44B
65CD3BE0
9D3D0000
6431076B
747EE85F
3FD1AC1F
358680BF
C15C91F3
9F489120
DE02C9FB
80B7FFAF
06FF5E0A
4A159468
C01A53E7
D4A5C5BA
125BF700
E63CE40F
C3F8405C
F7D996C9
E455EA12
77F74EC4
AC781E63
FFE662E9
498A98FC
715520F2
77D73F88
5DED2F7D
FFBC0000
6F70A352
A5A111E5
C03DD6D4
2C256028
DBA9C06F
F2841B57
09433EF8
104CDF10
6C47FEF3
907C3EFF
27ED9F40
