4503DE5E
4490297B
450F74BC
449882CB
44D0B097
452CB446
45736AA8
44943EC3
4439C577
4519A7FC
4515618F
453D5F1C
4528B817
452BC444
452B6274
452B1FD4
45876576
44E93A7C
44DE3EEF
44EB9F11
44BB2C33
452F7C93
4502CED2
4526EF10
453A5F2E
4504A78E
45301DE7
449B130D
451FF0FE
4531373F
45174BCD
4506C706
447A572B
448F6D94
450B699B
4530C1A8
450FE186
44F46FAB
453F0E91
4503B28D
4540829D
4525DA80
4513A4F4
44F33CB0
45448B11
44C1E2F6
45124046
451139F5
4507F87D
44A3C2D3
4533B1D0
44EBCBE8
44A8BF32
44D4F383
44DC1B5E
44CED369
450D7410
450CD145
44CCB675
44D3B5D0
4528336F
45171141
4442102B
44977C74
450D76A4
44F83BBB
44F2D03F
45065EA2
44C734A7
452CCBBA
4509FD28
44441662
45751260
44D90A95
4546E4F9
44AE6DFC
448CD16B
4461D157
451C34D4
4524EE06
44B73B5E
452F1CD1
44F1C41C
454E0E6A
451D54A7
44A6C5E5
45360EBA
4510FA2F
4530F7EF
453B89B5
44E8192D
45580763
450AA3F2
455322BE
456AE211
45152DC1
45390032
4554D6F5
4558E43C
453EAE60
44B105EB
4490BFBC
4555003E
45096FEA
44FCC79B
4461A3F9
45453D71
44A6CD03
44BC1317
4523A710
4505A7A6
44A2CBCF
44CA35EB
449A9D65
44B48A73
45501471
45116583
45189E66
45503675
44EF181A
447A060F
447E925F
452BB1F9
45149E7C
44BD67C9
4542F40B
44FA84E5
45064B8B
451048DD
452D6053
4486E7CE
451F4BC7
44F792EC
4569B668
450973FF
455A1D02
450A6004
457BCBBE
45236D72
4448EFEC
44CEA83E
450AEBE6
4513179D
44D74117
4504110F
45422ECF
450E7D67
4538F951
4504DEFE
4520CCE2
44C1258A
4514C860
4545258E
45563169
44290AF7
45801CC1
4538464F
445004A5
44B075C8
4532999E
4578D699
454C9E25
454AEF22
4447065F
44EF986E
4520225A
4516EED4
451DA9D6
44F907AA
45647491
4507E137
4574E9FD
44F103F5
4501EB52
447A02B5
4536D0EB
44C7E031
450B3BBD
4506D2CC
4495E4D1
4515B598
44E7E583
4516C465
453DCF63
4499E3CA
44A62A11
457F26B9
451D460D
44D516CC
4442F5B2
44E9BE62
452DCC74
450B1521
44C618E7
44C1EC8D
44DE5C82
452E649F
44D633B6
44F69369
450A3E9F
44828BE1
451A8534
4523A795
44EE34D3
45326BAA
4508C76B
451F30FA
44F21384
44F93379
45068002
44C2A700
45438C52
44E8DF98
4554F1EF
44B6D60C
451C3DA8
452318E5
4516641B
45433D97
451C034B
4542E867
44BFEE55
44D63652
453DEE08
448DD060
455EE9E5
451EA25C
4540D052
4502AD90
45763D2F
4529B502
453CF053
4544B62A
44D51EE1
450188C7
44D0F254
4555D5A6
4505FF94
44A46E37
45347E92
451DDCE2
44B062CB
452BDF05
454C28C0
453812BD
450622F8
45282AAF
45001798
456F3AF0
44C16E27
4571CC87
4550901D
452CBD70
4513B814
44572D8C
455397BA
4500F5AE
45159036
4570C2C7
44FC1EE8
451F7C8C
443254B1
44D014B7
45298A7F
4467FE05
452BC296
452791D3
456E6767
44D0F541
451F9AB4
455654CE
4482352A
44DFB66B
4458DE48
454C1105
452849C3
456DC599
45675461
4524EA33
44C54203
4545EFCB
453890E5
453B87BC
453678D0
44B69930
44A8286B
451D816F
450002CD
45178FAD
45393C16
450705F5
45347A6E
43E56F74
454D1503
453C8F8C
43AA0E13
452C04B6
4522DA35
4559C990
452E7455
45448EE4
45024AC5
45230EE9
452F5121
452813B1
451DE1E0
45437D03
44F871B1
45302D95
452E32EA
452E085F
44B59F41
44A6D0A7
452B9DEE
455603B1
44F73757
44E1102F
452ADDEB
4512AAF0
44F827F6
44E38AE1
454614B1
449BFE12
44BCAD14
4517221A
451D70BA
44536C3F
45561968
4478971B
44A32B8B
4530AC2D
4504C26A
45476B3C
452D51E2
450D7438
451E3B4D
453DE239
452F16B5
45486767
446F6D0F
452A5245
450AE52B
45192B9A
4531E4C3
448289FF
4509DD0A
449F72D9
44F2CDB8
44F59A47
44BC91B9
45409216
45176817
450E0B6E
450881CC
4501EC61
452A5496
45015E8B
45163291
455D1802
44E46ED6
455523E0
44E8E90A
44D33853
44F36043
4484F6E2
44FBB067
451AD273
45069AE4
45038AA3
449052F4
4502B885
455E7F9C
4559E1BC
450CDFC9
44A0C7FD
454E42B8
454667D4
4522ECAB
4536A485
454A20C1
4510436A
44A12074
452AF2EF
452EA45C
455C9BAC
45692387
4395DAD8
45397F10
44DFA6EC
44DC2509
4460439B
45360746
453F563E
44CEE219
4509D49F
45238EEC
44CF7EAE
4501A093
4536B788
44E8951A
44BF7F69
44828EE0
44FFAACB
449F0DD9
451E2593
44F1C2F2
44DEC848
451BDD83
4539E349
44DDD3B9
45266779
44A56566
45122DA0
452C8E5D
45205ADC
4565A877
452B83DE
4526CD1D
4490066C
45325D42
453D7F85
4472B370
44E2FCB2
450A52E6
44DEF1ED
44A15A6D
44D6EF53
452FCEF9
44F29EA0
45200309
44FE2FD1
448C1887
4550B53E
4508898E
4481C67D
4500F0EE
4532CEBF
45358D35
44AFAAF6
45064A47
452E8377
44CE3779
457C8629
4552365F
4529F8F9
44D78610
44FCB7BB
451A4E59
45455C7F
45816D7E
45042E8B
44A47134
4492E1FD
450CA5E9
44FB1497
450CFF90
44A1F880
451F2844
44985ECD
4577CF3B
448AE95F
4508F1C1
44E02C8F
45233750
44F47496
449D631C
44D50266
44F949DB
44BD3D66
454E4C9D
44F1DE2F
452B22A2
44C654F2
44F11D5C
4524FAF1
4507D4D3
44FA3326
4564F6A2
4501CA33
44DD3DF3
44C11A33
45195EEA
4510EFC8
44726A81
458FC921
45468D60
44FA365F
45227707
451C3674
456CE72C
44342F90
44A0DADB
44E20C0A
44F9E527
451FE47C
44C63F0A
44D03782
457F2944
453953AB
44E935A5
44E4785D
4480603A
451AE149
454512E5
4505568B
453940BC
454C57A8
44BE2004
454CECA9
44B3D4C6
4554F25B
4508E2D5
44C6C212
45094751
4527BDDC
450E9974
44ABFCA2
4488842C
450B8210
45834B31
4540BBC4
45553DA5
4489B844
4543C989
44DABB58
45446733
44DB4038
456026BA
454ACF18
4503385A
4555FF11
4549D730
44C6BFC0
44EB18B5
452A0276
4521B615
455FE499
44C2B3EC
44EDB8C1
4515A782
44F8D590
453F2456
452DCCA7
449C4314
450FCCD9
44F93E1E
448082C8
45359FEC
452AE53A
44C3112B
4450B4FF
456AF529
453927F9
45304D2D
4502037F
4519265C
44594A14
44A3E037
4513DD43
453602CD
4519A821
448FDF0F
4513F302
453DA341
44C64DCB
44E673F6
454F8420
44EC77E3
4515CC7E
44778628
45447F1B
452A87C7
45031326
453F63A9
45114E1F
450252FD
4495CAB7
453193A7
44840E64
45322C15
4507239B
44F10F70
451E51BA
44FB8723
45057591
44BF79F3
45440AA1
454686AF
44AA42E8
4527F16C
44DAA11D
44C7C34C
44E46CF9
4508F22B
44B2D0BB
451687E2
44F55A43
4531D891
44C9AE18
451002B5
44F8A9FF
4520B208
453AC2FF
4525414B
452C47EB
447EFE16
450EE89A
4540F27F
455730F5
447D0B4E
4533B659
4577E5C6
453552A1
44E37470
451DBDAB
44FD63F2
454BACF0
45203F68
449E8CEA
44804BBA
44EA0045
45279D73
45240F40
44E19EFF
449435EC
453B2993
452B3BAC
44E0DB23
44556B8F
451A5CF2
44EB66BA
449D066E
454E9C71
440DA227
4529986B
45325B0B
44F731DA
4505A59E
450F5749
44FB10EE
455E4645
452A368B
442FB62D
451A4CC0
44FD8ABE
45066186
45086B58
45019740
454703C1
442A6F54
45344CD2
44A8BD85
453D2B37
44DBB5F0
451C277D
448C9890
44C6C33F
43CF4842
45331A1E
43BA797A
4543AEA3
450FC174
44D4DAB2
44D7A895
44C4A196
44E31ACC
4526567C
450530DE
44C7A0E2
44DEC578
4511C45A
452B6408
444D7C0E
449D0622
4532B495
4549B119
454872C7
457552A4
45116502
45237AD7
45758DD7
450E6BE6
4510CBD2
449513AF
44FA7029
4506C8C0
451B23FB
452A3D66
45626AE6
456000FD
453D051B
45260045
452EAB75
455FAA6F
45065F72
4515D1FC
4531A312
45326709
4506576D
453E212F
450CDA03
45237ACF
453856DE
44EEBD91
4568A2BD
4535D518
450B298C
451433FB
45412F64
450F9504
456DE857
45238723
44FDA002
450E87EB
45588B67
4517F673
4570398B
451A4D06
454FB956
44E15B69
44BD0558
454A6383
44BA6F2B
45169A2D
44E2D1F4
454D5FFE
451DDC20
4525B06E
450FA50E
45302AB0
452A183F
454B6B4B
44C25591
452BEC28
4541F5E5
4508BCB7
446EAE58
451AB253
44FB5493
451FDEA8
45224158
44F1E27B
450F22CF
45098FBB
4533ACDB
451A05DE
453394CA
4485E463
45486CE2
450D2AEB
44E35F19
4529410F
44FABEEE
4523642A
451D0F7C
45613A5B
44BFB6C1
452E1374
45793F47
4491C4EB
4506978D
451CD3D4
44BEB90A
451E30F3
45374D90
44359B73
451DC88E
44C9AD64
451781BD
451EB8B4
45093B6A
44359378
4518844D
450C6A87
443D06FC
454666D7
45050FF1
45233FDB
454E7463
4532D269
44A847F8
450F5B91
455F3F93
449DF065
44E2E7C0
44D349C4
44A6359D
44F22A35
451E16C4
4542D548
453BE7F5
453A1BE8
44703C43
450711C2
44CA22A4
4560F942
44F8BFCA
450E1A18
45210E2A
452667BB
454B5484
449DB335
450D9D4D
451E1434
4542CEE1
452070FA
44EC3947
450275A8
44D356A4
44AFAEB1
44934395
44DA5F21
453E0A86
45075D94
45457503
4540D730
455D9C41
452B6B1D
451CA4C1
44E87CD6
452A1E83
44599AE3
44ADF1E6
451F572A
45200766
45704548
44D08722
45546730
45019FB1
4502441E
44BEA3D0
44EABB95
44CF8AD9
45215685
44F328C8
452D5B0A
4516BF63
44F6D7EE
45311E11
45333B94
45232FAF
44E6B40E
4548A7BA
45111E40
44C6E5AC
445197E7
44F4D5AE
44EBD14D
4524134E
453CA4A0
451B19BD
451F7DE9
44DD0F4A
453915DA
450A5EA2
4571B6E8
4514B8BE
44C3B7FA
4523281A
4507589E
44BFC465
454F1E55
44FE3D0D
4541CB90
454F6946
4538D16E
45382A94
44D84513
44DBDE6D
45208814
452AAD83
4459FF89
448E0F82
44BA4947
44E95A26
45079EFD
454E7EFB
4504DCD7
45795B91
4509D677
45390248
45020581
45230843
452583EE
446402A9
4501F2BD
44D79D95
451117A3
4530178F
453EF2D6
44C36305
45182B1F
455AE855
45084A7E
455E373A
44959CC6
44F175C3
4552221E
4529C7D1
44F4C6BD
453F4D8E
44F7D34C
449C331D
451C6763
451A84D9
44AFD347
44F908CD
44F70BE4
43CFE0C2
44E0A5A8
450866A7
4583AFFC
449F104F
455ADC68
451390E4
45192CED
44E5A7EC
44416238
44F6EBA2
451E95F4
454AB4EC
44DB1562
44A038AB
45638932
450CA71C
44BFDB7F
44F24E46
44DE5D19
453771B6
45735848
44F7EBF1
44F1BFC8
450720EC
4532D05A
452FA54D
4580C827
45012223
4536566C
44EC4C02
45348FDA
4488DBCC
4401914C
456000DB
44746503
44BC03EC
454F027C
44EE2FC0
455E86A7
44DED129
45401DF6
4566E02F
43AD4D00
45229BBB
44F6F520
44E4EE87
446C66D6
454A5581
44826E87
445982A4
44E04149
44E2AEDA
44BA5808
45096054
451DDBB0
450BE38F
450747AC
447B0472
450777A5
451CD6EA
45260F61
44A0171D
4485CBC1
44B088F7
44EEB55A
45498DBD
4546C35E
453BC68E
4512AD37
4498D845
44FAA8BD
450D1754
45255EA6
457E5626
4503D0E2
44EBFC94
452B97B4
452A1ABF
45470C49
4544FD64
45090B7E
4505AB93
450D0097
44D84A4D
4535F46B
45198F8A
456A5A11
452ADCB3
4549A436
453D7D02
450B7524
4538F070
453D6FD6
44D2572F
44C54D15
44FB671B
4524E716
450D6C7B
450D8356
446FDA44
45315D66
44D73350
452CCA2A
44770D26
44C0FB93
451A467E
4520F43A
44C47E4C
4544024E
44B088DF
44A7F73B
453C3D2D
44951854
45092FB6
450FF84C
449A1629
452868DA
4523F639
44BC8B99
4516948E
453AFE2D
44DC19DC
44A580CD
453117E3
451A216E
45572109
45679E85
449F643E
449ED6E9
44BE3414
4521EA69
4504CA60
4544FE23
44E60338
45247DFA
44A94CFB
452385D2
44EB42F8
44DABCDE
4531137F
4529A4F3
44A20AA6
45473830
4498CCE2
450DBC72
450B0FE3
453B4382
4512D7B8
454753B1
4533F4FE
44E8518A
44880391
451FC1C7
44809F7F
44F1F0B8
450522D5
44A502F5
450187DA
44913794
449B603C
45562038
45207D36
452DE1A8
454092C3
45349AB4
455EB465
4514F7E4
4563D351
4515F1D5
4519F987
4531748E
45165EC8
4547C2B4
4534A7F3
453CD68A
44FDC0B5
448BF867
450244B1
44E45058
45140205
453623DF
4502DA69
44871EC4
44C51040
44D774D4
45057484
453C17A0
45025B81
44B9129C
451CDC9E
44851540
44C70452
45001ABB
450E8AE9
458191BE
454C2CE7
454B1306
45453E74
45277EBA
44EABD70
4466D7AE
44C51CB3
452CD287
4522DD2E
44E71BDE
44FA607C
45061C7D
454D4B98
451C2501
4518156A
455AFD2C
44F00751
455B6D05
453AEB9D
4504C57B
44BBB99C
452CCE92
445240FE
44B14CB4
44D48A14
4512D703
4513B887
44ABF2E6
45217BCA
44FE7686
4528448B
453CC95E
44E8F819
44C18BBA
453ADA54
44F87F08
455668DD
450E255B
44D57DF4
442998D6
451FB7D3
44D56AA4
451F18CE
44D99DF8
44622D15
4516D779
4567FB0B
442EB519
4502E074
4520B876
44EFA7D6
4503D4ED
44BB5122
4526DF48
453510C1
452EC3E2
4504C1CE
44F8E775
44D157D5
450E578A
4549C4BB
44597FC1
457F6628
4538EC09
448B4594
45103F31
4506D35F
44EEC4D8
44BAC764
45050656
4493AE46
45006724
45202727
452707BC
44F4F424
44EF2E97
45182DEE
452F4052
4537B6C9
45122F37
449D373A
4531D811
45215280
4559943C
4506C05A
44F7E98F
45128AF3
450DCDC5
44407343
45017AB9
4508E8C5
4520D3D7
453F44C7
448B5349
4498C578
455DA81F
4536BAC5
45679B12
450110EB
45257097
452B04E3
45758E08
44C6BC9E
44A27595
44E24560
45035AB0
4507CD1C
451867F0
4504345E
44E8C27C
45221C54
445DE318
454FBC97
4540D0DB
44AE01F5
45180E3F
4530F4B4
453B7EB9
45417A96
452C2591
452A247C
44B51FF5
451C1D72
450831EE
4470362D
45513A20
450016BB
450AADD9
4532F1B8
450415B1
4517B84A
450CF0F8
4502BE62
44EE827D
45208A3E
44E8CD30
452C9888
4533453F
44AB92DC
44E468CC
44F80967
45455A63
44EE2BE7
45000612
453A2BA5
45459D5B
45446F78
4569A6FC
44A012D6
455080A7
4513C082
45102409
4545FBCF
44DC81DC
458B749D
44D4792B
452EADBA
45379678
455D28C3
4478A748
44C42FF4
44C29161
4480F159
44C40919
44A7DA39
45333291
44BDB08A
44913F19
45195E95
45276A38
44FF0C4A
451AEC0B
4517AEB4
454EFC11
44FF5EF5
453A1010
